12 f7 e7 f4 05 d2 16 03 fa 03 d7 00 d8 eb 21 f4 eb ef da e7 d2 0d d8 fa 0b e3 e2 c4 d2 1f 26 fa 07 f7 16 19 30 f5 25 10 17 09 10 20 1f 25 31 28 ed eb fc 28 f2 d1 2c 20 de 09 e8 02 1a f1 d6 31 01 2b fc 2e e6 e1 01 08 1b ee 18 e2 f3 24 17 fe cf ec d5 fa 19 0a 36 cc db f7 ef 15 34 09 05 e4 e9 ee e6 ec ee 3b dd 29 08 ea 02 06 d7 df dc de f9 09 ee e7 11 05 e0 0c 0e f9 2c 21 e1 38 c8 08 f6 2a f7 2b ce 0a 28 20 ef 14 05 01 df ef f1 ef e3 ff 0f dd 18 26 fe 0f 0d ea 01 e2 19 01 f6 23 11 30 e1 0a f6 00 1b 0d 1a de 1b cb ec f9 e7 f0 06 e1 15 e0 16 e0 25 21 d1 fa 29 fb 1d e7 0b d1 e9 2b 1c ec e4 3c 0e d5 f8 eb e6 cb 2f fb 2c f5 1c 2e ec f8 f1 de e2 e8 1d f8 13 fd 13 e5 ed 13 dc 19 c5 e7 17 0f fe f5 22 09 ec 0a f8 f8 f8 d9 31 ed 25 d6 f0 18 16 20 ef 0d 16 f3 34 e4 0b 43 07 fb 04 d2 1a d8 ff 0d f9 da 31 0e 29 e8 04 f7 e2 1a fc f0 fc 28 1a e0 16 e5 fa 09 0d 15 f8 03 d8 fd 26 01 f0 01 f4 04 27 f8 eb 05 fe 24 e4 1e 0e 1f 10 dc 15 0c e2 fc d0 e9 18 36 fc eb c4 07 08 20 0e fe fb e5 f8 e2 18 12 ee 02 ee fe ee f6 10 eb 0b 0f fc c0 03 fc 05 d0 d4 e9 15 d7 00 f5 f0 fa 29 cc e7 e5 f8 35 d4 ca 21 27 08 37 fc dc d0 f3 0e e8 fc eb 22 dd 1a 13 38 12 d4 15 e8 16 db 20 16 1c 19 ee e6 b3 24 41 c5 f0 27 16 d9 ef e2 0d 1f e0 ec 1c eb dd 03 d6 fa fe f8 d9 f8 ee db eb fb 2b 0e f3 f5 f2 1b 1d 03 0a f2 0c ee 01 0a fc ca f3 03 22 fa 10 3b fe f3 d6 cc f9 fc 3e 2e 19 ed 03 f7 fe 02 da ff 06 e7 ef f6 1e e5 0b e2 0d df 0d f5 45 d7 3b 0c e8 e8 20 0c 04 00 0f 26 d8 f1 f9 02 d3 14 0a e4 1e f1 09 f1 d5 03 03 e4 33 df e8 fe 0a f7 d5 02 15 d6 ee f5 1d 0a ff f4 1d ec 11 0a 10 d7 25 ed f7 e9 0c e8 c9 0e 19 fe 02 01 10 ee d3 10 d6 0a c6 14 1d 13 f4 40 02 0c fc d2 12 e5 22 fb 2a fd e3 f8 fa 07 f0 f5 0d f4 39 0c 10 23 05 36 ec 10 fb e4 2a 02 0d f6 20 16 08 09 f9 0b d9 00 d4 3b f2 00 26 12 02 e7 e9 06 e2 17 11 cb 20 e8 d6 f0 1f 33 1c fc 22 1b 1c f2 f2 ce fe db 1f 0f 27 e2 20 ee 14 06 df 01 e2 2d 07 03 00 da bc d0 de f9 f7 f4 06 2e 17 18 13 12 ec e1 e2 02 07 fe db ed 13 cb f5 e9 cf 36 15 f8 22 39 ea cd 14 09 db e9 d1 f0 d1 ca 0f 2c 02 f3 f7 01 f7 02 f2 11 35 f5 3e e6 05 fd 29 f9 02 fa f9 15 27 eb e5 1b d6 fc d6 07 0a 2d 1c 02 19 07 00 00 05 e6 d0 02 f0 03 20 13 21 f9 03 f0 22 28 ec eb d6 0b 06 e8 f9 04 dd d5 2a ec 04 ed 01 2b 47 fe 1e 16 e2 f0 00 0c 2a f9 0f e5 0c db 21 28 cb 2f 07 19 e4 23 dc dd f5 10 e2 1b 1a db de e1 fa fb 38 21 f8 00 dc d9 fe f9 05 ff ef 0d 2d de fb e0 28 1a db 2e e4 e9 ff ca fc 2a d9 ff 0c fc ea f2 ed 22 ff db 15 10 0c 39 ee fd 17 22 09 bf ff e8 f4 dc 14 0f 05 21 19 2d 0d f3 24 0c ee 0f f6 d8 1d df 27 f3 d2 26 1d fb f3 fd 0d e4 25 b6 26 1b 12 eb 08 d6 21 e7 f2 ea c1 e9 db de 06 10 ef 18 1c fd fc d3 e5 13 31 06 f1 d7 12 d8 e6 f1 f0 f3 fb 10 24 c4 28 19 da 1f f4 40 f5 21 d8 1c 0d f4 20 f2 2d 3b d3 ed 21 21 f7 2a f7 04 06 e8 10 03 35 05 12 ed e2 24 06 07 d8 d1 07 ed ee e2 08 f4 e7 17 33 ce ea fd 00 21 27 f3 e0 10 e4 e4 03 00 11 14 16 e1 d6 05 30 e5 36 d4 f7 1a f7 18 f2 c7 fd fa 0e f7 16 19 dd ef 0e 01 fe f9 0d 0c f3 31 ee f7 24 d3 e8 0c e4 05 f0 0e 0e da fe 13 17 e1 33 e5 14 f9 0a 01 14 08 3a d5 e5 02 e6 e6 03 1c 0f 18 2d fd f1 08 19 0e 0c fc f1 03 f4 fd c3 ee d9 f6 11 21 12 14 1b 1b 20 03 d5 0a ee d6 eb ef e7 ee d1 0a 2e ed 00 07 02 1a 0f ec ef 0c cc 37 27 e2 12 03 05 e9 ff 06 ea df 11 0d 14 1b 0a 18 28 0c f2 18 13 31 f5 e2 d7 1e f4 ed cf 13 22 15 f2 fa 24 27 ca 04 1b 39 e5 02 dd e4 cc f0 fe e4 02 15 15 e6 fa 08 ef c3 f7 00 19 f6 21 eb 3a de eb 00 2a fb f2 1d c7 1b f9 1d da ed e0 ee d4 fb 27 eb 02 12 27 ed 30 ad 05 2a fc 12 03 db e3 16 f7 ca e4 ed fc 0a 04 de f8 05 05 1c 3c f7 14 12 21 f2 e4 33 29 e2 21 c0 f3 dd 20 f4 1d 22 25 df f4 05 ea fc 12 1b fa 11 e1 28 fa 19 3c fe fc 08 e9 13 fd cf d5 fe 03 07 0c 1f eb c3 f4 ea fd f7 e8 20 1c fa f8 0e d2 10 e2 15 e7 d3 05 eb eb f3 fd 1a f1 ef 0c 01 10 e2 10 1e ee f7 26 2c 2d 01 20 fd ef 25 ed 10 e9 cc 11 2e f1 02 19 05 f7 ed 0f 2f ec fd d6 fd 1b ef 21 ef fb 16 20 ce e7 0f 3b e8 18 12 ae 25 e9 f9 1b 0a 1b 0e e0 09 ca e9 0b 00 d8 ff 10 02 07 f8 c2 fd 1d 14 19 fb 0e cb 03 e9 02 cf e8 05 f3 0a 34 e8 07 e5 28 f0 26 26 11 e8 0f f3 e9 0d de ec 2b da df f7 20 dd 30 e3 03 02 12 00 32 01 f6 0d 0a 26 ff 12 2d fc f5 ef d0 f1 d3 fa f9 1c e1 0f ff fa e8 fe fd 0b 3e f7 04 0f 33 e0 f6 21 43 cd 21 bf dc 28 e9 1b dc ef f8 f5 d5 fb c3 f1 2b da 08 1c ef ea e6 3c ff db 25 e9 27 2a fc 1d 1e 09 cf 1e 14 0f 0e f7 26 13 ef 20 cd fb 31 fb 16 08 f2 e2 e5 ed 0e 27 08 06 e1 55 1c 2e ea bc e5 10 08 e1 f4 f8 ec 18 3e 0c 13 e8 fb ee da ff d5 f6 db cf c8 14 f3 05 d6 cc 34 13 0c ee f1 f4 c6 ff f4 df 1c e5 e8 d8 e7 ee d8 0b 0f 32 03 24 f2 21 fe 01 22 0f dc e1 be 02 1a f3 15 fb e3 0f 08 de d0 f7 18 16 26 16 25 1b f2 e6 15 f9 e7 f4 21 e4 30 fb e8 f8 fc 07 01 f7 e1 f2 2b e8 0d fe 1b d6 10 d4 16 ce 0f e6 14 f4 dd 08 ea 0c fb fa f6 0e 01 f5 fb 1b fa 28 d7 de f7 1d f9 db ed 26 ea 38 1e e1 f6 f1 11 0b 04 14 e5 1a e2 eb 17 0b 2d d5 03 e7 27 2f e3 18 14 f5 f9 1a 14 32 04 f0 32 ed fb 0a f9 33 e0 05 d0 db fb 11 e9 f6 22 15 02 e6 04 cc 1b 21 18 e6 10 fb 2d 17 0d 1e da fb fc fe c0 09 28 fd 31 06 fb 06 e0 1a 2c 31 f3 f5 1f ea 0d 24 01 f5 0e 18 1b 04 f4 db ea 11 e6 f0 da f1 f0 0a fa 05 f3 e1 e9 12 0c 22 f1 cc f9 12 ce 24 0d e6 1a f5 cc 05 d8 41 26 28 ff 16 f8 00 f0 d5 e4 08 19 13 dd f7 04 1a d9 f5 f7 e1 f5 2b 1e 1c dd 07 09 12 fa e4 24 d0 10 fe fb ed 11 f6 f3 ee 1d 44 d9 2c 11 e8 df 20 f8 ae fe 0e fb 1a e7 fb 07 05 04 01 0e 09 08 e3 cd 1b d4 08 24 03 f1 ca 01 1e cf ef f2 1a 14 18 d6 18 d8 21 1c 1d 24 23 e4 fb 31 ff dc f2 f3 f1 f9 09 28 09 fb 1c e3 03 e9 eb 1e 11 ee 12 0e 0a 10 f9 05 13 05 19 fc ee e9 1d ed eb 21 e6 13 db 04 f9 1f 00 cc 00 1f ed da c5 0f 19 04 e1 1d 2d 0e e1 0c ec 26 f8 fb 2a 01 ff 0b 03 0c e7 01 dd 00 1c 09 f0 31 0e ea fa 1f 22 05 f1 ed ed 2a 2f 00 e8 ff d3 d9 09 d4 e2 15 fb 0b ea 23 e3 f3 0b e1 f0 fe 0b 1f 18 0b 2f dc ed ea e6 36 c6 23 ce 1a f3 1d 0d f0 de dc 3a 13 f9 ed 1b f7 db fe 0c 01 0e 11 eb ee 0e f2 0f e5 0d f8 df 32 ed e4 d5 ff e4 e5 1c 00 f3 fa 3e f0 e5 2a 07 3f 09 10 0e f7 01 04 f2 24 17 f6 df 0c ff fc 15 f8 1a 29 eb f4 ee ee 23 fc 00 e1 26 3a e2 10 06 fd 03 15 21 15 ed ef e4 e9 ee 10 f7 f1 30 f8 f9 cf 13 f2 f6 af 06 ea eb c6 cf f6 e7 1e fc 15 c4 38 e8 b5 e9 dc ee 20 0e f0 07 e6 ea 03 f5 0f 2a 18 20 ee 2d 32 1b 05 2b e4 1f f1 ff d3 25 38 1d 17 e4 03 d9 1c d9 d2 e2 e5 0e de 07 09 f3 dc 27 22 16 fd 0e 18 fe db dc dc 2c 04 ec 0f 1a f2 15 1a 16 12 0b 0a 30 f2 de e0 fb f8 f0 e3 43 fa f5 47 17 24 23 ef e8 02 f4 fa fc 2b e8 f3 e5 eb e5 08 0b ef c3 f2 d9 fd e3 06 ee e7 1b 16 10 1a 19 ec f9 18 f7 e0 e3 dc 06 0b 0f ef de 03 1f 0f e7 f6 1f 27 09 fd fd 06 16 1d 0e f0 e6 0d c9 f8 22 f4 ea 1c 2e 17 d4 f4 fe ec ff d6 e8 0a 28 ef 02 e3 e6 f3 06 d4 e1 12 f2 37 04 c5 fb c9 fd e4 ee 08 1c ef e8 f2 e0 f8 1d f6 e4 e9 0d e2 e0 0e c9 01 f8 0d 07 14 f3 30 1a 13 1b ba 16 16 f7 09 fd ef e2 54 1b d9 1a e9 13 0c 02 0e 0a 1a f2 0c e8 06 26 fb 0a ef 2d dc fb 39 fc 13 03 0b 13 f8 d0 02 fc fe c4 06 12 22 f1 09 da 12 fa 0f f9 f0 f0 16 e1 1d e6 05 d4 e2 2a d9 c1 d1 0c 0b 1b 1e 14 08 08 f6 0d 07 04 fc f2 f6 08 02 3d 2c 0d 0b 13 1b 0e 2c cd f5 e3 02 13 25 12 f7 1d f5 0d c4 02 11 2a e2 0a 1a f5 16 19 15 16 ff e7 1c 17 36 28 1f 0a 1b 19 fa 02 05 0e 13 33 db f0 f4 0e eb 07 d8 f2 da 02 f5 eb ed de 01 19 e8 1c 1c fd ff fa f4 0a 11 ef ef f4 f9 f5 21 ec fe 03 13 f2 12 00 f1 d7 f1 11 21 00 19 f7 28 2a 17 f2 f1 0e eb 16 03 0b dd e9 0c fc 1b d9 1a 30 19 0b f3 f4 ef f3 fc ce 33 f6 05 27 29 f0 14 d8 e7 d9 fd 0b 26 18 06 05 1c 09 ed 03 fe f1 ed 1f 21 f2 fc 08 28 fd fb ec c2 f9 e3 02 f5 f0 bd f8 e7 ec f7 f7 d1 23 e1 1f 0a 04 05 07 0b 0c 00 f5 ed 0a 1e 1d 0b eb e2 c4 01 e7 21 0b e1 bb d7 e3 00 1b e9 0d f2 d7 13 b9 00 20 e4 e8 fe 08 08 31 00 15 1d d7 04 03 2d 0c e1 16 10 2d 0a e0 b9 10 02 1b 18 f0 04 f5 1e e1 0c 03 04 cf e0 ea 2c 31 00 e6 06 1b db dd 09 19 0f e8 dc 08 f5 f1 12 10 03 ef e1 16 ea da e1 e3 fb f1 e2 e2 02 e9 0e f9 06 f9 12 da 0e fc f7 0e 03 fe d5 d4 14 13 f3 f7 28 ef f2 00 fb 07 ea 15 17 f8 fa e8 19 08 0b 06 fb 0b f5 e6 e5 f0 05 03 15 02 f6 d3 04 08 0b fe 25 18 b0 01 13 01 32 fa 26 3c ef eb ec ea 08 f3 22 f3 20 04 e8 19 fe 00 1f 12 09 20 f8 fd 1a 16 15 20 fe f4 37 35 d3 0e 23 22 17 07 11 ff 21 d5 0e f1 02 f1 e8 22 ff 27 cc f0 0e 06 29 de 1a 08 fc 03 12 e8 cf df 27 fc 1d ee 0d f6 e7 ea 12 06 de d7 1d f7 18 f5 e3 f5 fd 1d f8 12 21 33 f3 ea d7 08 33 f6 1b 3c e2 cd fc 01 16 f6 1e d7 fb ed f2 eb cc e7 e8 ed fc db 0a ea e6 2f 1f e0 06 0d 10 f1 e4 21 29 0a f8 10 d0 d8 1b db 1e 01 0e 37 db e4 0b 0d dd f0 e1 01 fc 13 2e fb 13 09 16 01 15 06 04 0b e0 1c e2 15 09 ec eb da 22 09 1e cb 12 1a d0 04 30 0a 10 00 3f fe de ee 20 c6 24 09 eb ff e6 f9 f1 f7 de f5 ef 20 ed e2 0f f1 0c 0f 03 ec 07 2c e4 e8 11 06 fc f6 f0 2f ef 03 17 0f f8 e7 14 e1 df 17 fc f9 06 fa f9 d3 e5 2f fd 1f 17 cd c0 f2 fa 35 10 23 10 07 e8 04 fd f5 0a 26 f9 2b ed 00 04 0e 19 d7 11 26 06 0d 04 2b 13 da e4 ea ef f4 06 f4 da 08 29 2c ca da f9 e6 e3 35 19 d9 f1 f4 c8 17 28 c7 e0 08 e5 e0 1b 01 1d 08 e5 08 21 39 0c 27 e5 1c 21 c9 ef 32 fa 0c 01 f5 ea ed 07 f5 ff 05 d9 11 f9 d7 fd 12 f8 01 0d ed 0f 22 07 03 ef 05 34 20 17 00 05 ee 14 e5 0f 19 fd e4 e8 0e f2 d3 22 0b 07 df e5 f1 11 15 ff dc f3 f0 1a 0b 1a 1a ef f2 ef 0d 07 37 fa db 23 0a 39 fe d3 04 24 ff 10 16 00 f1 10 ed e5 ef f6 fc e1 28 e8 07 ef 27 da 01 f1 fa fa f3 e0 d7 00 c2 2a 30 f1 1a ef f1 0b e3 ed ea 1a 06 fc d1 17 f3 fe 04 fb 08 dd dd 1f 09 19 f4 d3 2b 00 0b ff df 1d 1a d7 08 fd 1f e6 fe 24 14 e4 05 eb fe fa 2c d4 d4 fc fe 25 02 ff d0 ce 04 1d 3c ee d2 d9 e7 c2 f7 0e d9 dc 21 1c 1b 1a 01 e1 dd 03 00 15 08 f4 1e 15 f8 41 f8 fa f4 11 2e 12 fa 0d 16 14 01 ee f6 f0 db 00 f0 ed 18 ee eb f1 0d 11 32 d2 ee bb f7 18 d9 01 12 df d1 de 23 39 1d 25 04 f4 28 db 0c fc 28 d6 cf d3 f2 d9 e3 25 d0 02 0e eb 18 03 16 d7 04 02 23 01 e5 07 22 4c 22 cc e8 16 d1 28 15 1c 15 1f 17 fe e3 21 08 fd 17 d7 16 1b 27 ee e9 dc 26 3f f5 f8 ee da fe ff e4 27 e7 18 e7 30 07 1e 1b f0 ef 36 ec da e3 12 2e e9 d5 1b f8 14 0b fe f5 0d 31 f5 de 00 0c f6 cf e0 f1 ec 14 f9 e3 08 20 12 0f f4 26 f1 1e 30 21 ff fb f9 f4 0d e8 00 f2 c6 1a e8 f5 12 c8 34 06 16 10 2d ee 2e e1 ed 07 03 fb f0 24 23 07 f8 f0 e1 14 0e 07 dd 0c 1c ea e9 16 29 11 f0 0e 0f ec e8 21 fb 24 cb 01 e9 27 0d d4 02 f5 1e f9 06 15 17 f7 f0 f2 e9 f4 09 07 d1 1d 41 d4 ea 12 e6 0b f5 fb 2c f4 eb 07 1a 0a 0d 01 e7 1c 24 01 f3 05 20 32 27 1b 0b d9 14 dc fc fb 12 13 de e9 fe ec 09 e4 df 12 16 e7 1a 06 2a db ef 14 0e 06 19 1f 0a 28 f8 3f 2a f8 f7 0b 06 f3 00 ed fd 0e f2 1f d7 17 df 25 21 f5 31 0a ef 22 19 2d 0b 16 1b 29 10 ed e7 22 f4 09 22 e4 02 0b 0a 0d f9 df fd 16 06 11 ce ed 14 e8 02 f6 25 e8 12 d5 20 f8 b9 09 1b 05 fb 00 20 f2 13 0d f3 17 02 f1 df 26 14 0f 21 e5 e7 e8 0a f8 04 fb eb dd 06 f9 ff f6 ec fc 31 f0 db f5 e4 18 15 1d f3 0d f6 f5 c8 f1 1f d7 e1 e5 e5 cb ff e1 39 fa e1 0b f2 14 04 ea da fd fd eb dd 22 fe 15 fc e8 f6 2a d9 e0 ee fa 06 02 1b ec fd 16 3b da e3 2d 1a ef e6 06 10 14 eb e8 10 e3 cb 1e 0a 0a 0a 0e 07 e6 f0 1a 00 f3 e8 d4 0c f6 09 34 f8 19 f9 20 db 20 ec f5 0a 04 c5 dd dd d4 16 fb 3d 17 bf 1d fb f5 e6 25 0a 17 fc f8 0f ee e3 f6 db fa 29 0a ad f0 25 f7 c7 db e6 fc d2 12 d1 06 1e 27 f2 05 03 01 ef fe f1 15 f9 db 31 41 ed 27 1d 11 f3 f8 15 ec f3 ed eb fe 06 d0 e3 07 2a ee ba dd f3 f3 24 18 27 28 16 f5 24 d3 01 19 0c 16 f8 0b f3 1d f2 17 f0 d6 01 1a f6 d9 d6 24 26 0d ff de 1f 1e 40 fb f2 f6 33 f5 bf c9 22 03 1a 27 d2 0a db 1a 12 e2 f9 18 0a 07 16 e1 17 f9 f4 ea 2b 12 29 fe 17 0a e4 ff 09 e3 e2 0a f8 08 08 0d f6 e8 f4 e4 11 39 05 18 fd 10 d7 cb ec 23 fb c4 18 df 1f 23 f8 e2 13 21 19 1e e0 f9 04 04 ec 3e e6 ee f1 02 1b 14 df ed f9 02 f8 f3 f2 c2 2b 1e f4 fa 14 ce 25 04 16 fe ff ca 26 ff ed fb 15 28 da de e2 21 d9 fe cb ed 11 f7 d7 fd 0a d1 ff f7 db da 1b ca cc 14 12 2b 15 1e 11 e1 1f 27 13 ff 26 fa da f8 d0 de 20 f5 1c f3 1a 1b f2 22 f1 e1 ef f0 26 dc 17 fa 12 fc ff fa 1e 28 23 19 e3 d9 dc ff 2a ed ee 12 df 3b 01 df 29 d1 f8 02 2a ee f9 14 ed 01 f6 fb 14 01 d4 d9 d5 2d dd 06 f4 07 12 0a fa fc 1a 1a 1e 14 ed ef fa 29 35 e2 de 13 d7 e1 f8 0c e2 e7 f0 12 d0 31 00 12 17 21 eb 31 04 1a cd 03 03 01 42 17 ed 25 f4 12 08 ef 1f 24 bc 02 05 e3 d7 13 e6 dd 28 f1 f7 1f 2b 09 f5 f6 08 2f 11 12 08 06 d5 17 fd 2d 1e 20 e1 07 ec 27 23 e2 c8 25 17 d9 06 fe f3 de 0c e5 1d f8 cc 1f 15 05 14 12 fe f2 02 dd 08 df f7 17 c8 f3 00 f4 18 d4 1e 18 ed cb fe e8 11 f8 0e 03 10 0b ed 15 e2 f7 08 1f d8 1c 22 0c df e9 da ff f4 20 0e 1d 01 32 d6 d6 07 17 f1 e2 d5 17 16 21 03 09 d1 24 f1 2d 23 e9 fb c7 f2 ff f7 f7 fb fe f7 e1 ee 0c 1a 0a f4 26 08 eb f2 42 db e7 f1 26 f4 1d 36 f3 d3 ea 15 ea df ec 0f 