04 c2 d0 ec e6 e4 25 b6 d8 39 fa 04 e7 0e fe 31 24 ec f9 2f 28 f0 cf de e6 01 d1 02 fc 0f 23 0a 11 05 da ef 16 f3 fa f1 ef ff 02 11 f3 08 e7 fc f3 fc 02 f6 fa 3b fd ee fb 05 f8 f7 25 e7 08 17 10 16 08 2d 03 f9 fd 25 06 ca 1a e8 f5 19 e6 14 27 f0 03 f6 1c 13 a2 07 0d ef 0b 05 f2 da 23 01 f9 0a d1 03 f2 11 24 fa da ff 10 02 21 f5 f9 27 0e fe 14 d3 13 0f 07 01 f4 22 10 1a e7 f0 02 ed eb 2d 0a 0a 16 0a f7 ec f4 f9 22 f0 d0 f0 28 e9 27 0e ff 0e e9 09 13 f9 ef f2 01 e6 04 08 f2 25 28 0a 29 fa 07 04 ff 03 0d 02 dc fb 03 e7 d9 26 ef 23 e3 f2 dc e6 1e 0e 34 02 0e e5 07 e0 c9 06 dc e7 d6 ed d9 f0 3d fd fc 18 ee 28 f4 e9 ef fd 1c fd fa 00 f2 09 f3 16 09 20 df f2 06 16 da 0d e4 ee f4 f4 1d 01 30 06 dc 2c 04 21 07 20 ff f8 1f 0a 2b 08 ed 30 25 0c dd ca ff d2 08 e2 24 e7 0c 23 e6 f8 1b 03 be 12 19 e9 1d 00 f0 db fa 21 f3 d0 03 24 0a fd bf fb 16 e3 dd e4 fa 05 17 f0 f5 c5 e7 f4 05 fd 1b 0f 06 12 15 ed 16 d3 ea e8 05 16 0e f2 07 dc 10 e5 ef 0d 94 f9 ff e6 08 d0 1b c8 f0 07 20 36 15 d9 f7 d7 20 0e d9 10 e0 01 12 04 f2 e9 dd ed 27 0f f8 f8 01 de 06 de d7 18 1c f4 24 23 1d 10 f5 d7 ee e7 ff f8 ea 15 04 e6 f3 d9 2c 1a 00 b8 ed 15 d6 0f fc ed f2 08 0e fb f7 06 f7 07 04 0d 02 f7 00 e0 ec 00 df 08 c2 e4 14 08 dd 1a 1e ef 06 e1 e6 05 1b 02 fc 30 fe e7 f5 1c 0a dc fc 29 d7 13 ff 19 e7 e1 fc f9 e2 23 14 c1 04 03 10 cf 0b f6 e0 21 0d 2b 05 0b ef f2 08 ea f4 15 f6 1d 29 eb e2 13 f0 06 e1 11 16 0c ef fd d5 14 0e 08 32 01 26 b4 22 ed 0a 1d 06 d5 d5 dc 3d 3a f2 0d 11 e7 0a 0f e4 1b f3 3a ef f5 e1 0e f1 ec e2 0b 07 05 2d 32 0b d1 13 fb f6 f0 0a ea 0c 17 18 06 ef 26 f2 04 d0 0c ff 0e 04 1c fc 06 f9 0f 2a d6 16 f8 e5 e6 28 2f 05 ed 00 f9 01 f1 0b f2 25 11 df 04 f7 0e 02 07 f8 17 0f f1 e8 01 31 d9 d5 02 d7 24 1c ea 07 0c 01 cb d8 23 fe 09 f4 1e 0f e0 ea ee e4 14 ae 0f ef f2 d6 20 00 d8 b0 ef c2 dd 11 fd fe cc e5 f7 d9 f0 d4 f9 dd 0f ee ef e9 f6 f5 d8 dd 1d 1a ff 16 27 ea e7 fb e9 07 f9 15 db e8 2f ff ec ef 2f 18 ce d9 d0 2f 02 06 f9 ec 1a 08 28 12 26 f2 de 2a f8 0c e3 f2 e0 0d e3 fc 1e d8 fe ff 0c 16 ec 1c f2 ee 2b f7 2c 0b 20 f7 c5 20 cf f2 00 2b f3 07 0a 28 05 dc 0b 02 db f2 cc d2 09 22 f6 14 1d 1d f8 16 e7 04 0c 03 fc 22 03 fc f2 03 19 2a 0e 0d 0b 07 25 fd 01 bf 2a ef e7 16 29 ff e1 06 1f 17 c3 28 e9 22 eb fc 16 14 32 d6 08 05 0a b4 03 ff d9 f3 db f4 14 e4 15 18 f0 f2 0c 01 12 f3 21 15 1a d7 05 e2 d6 fe f7 ff 17 f9 01 e1 f2 14 d2 12 1b fd 34 e3 ec 1e 00 d9 03 16 03 14 02 0b 0c d0 01 09 ec fb f3 26 dc 21 02 18 f2 30 01 28 02 cc e4 10 da e0 b4 09 10 27 f8 0d ff f0 16 e9 00 ea f2 f6 dd 19 da cf 27 2b f0 18 03 21 28 ef d2 f9 f5 03 ff 03 05 d9 14 e6 12 f9 f0 12 02 fa f3 1c e8 22 05 1d ff e6 10 21 ce 06 ed 36 f0 f6 e2 35 17 26 24 f1 ed 18 20 03 11 1d 08 f0 04 f3 eb fe 1e 02 1b f4 07 0d e9 ea fe e7 07 02 ef fc e4 fb fd 18 16 14 38 e9 ec 0f e1 26 f8 07 f7 c5 ef 06 f0 00 f6 cf ea ea 24 2c df 14 11 0f eb 1a 0e 1d 08 15 0b 12 eb 14 28 f0 09 19 fc d3 f9 02 e7 09 e3 e0 06 e6 0c 1a ee 03 c0 f1 e9 d7 0b bf e5 d5 04 1c 0b f9 1d 1f 1e 0b 02 cd e3 21 0a d4 e8 20 f8 f1 c4 f5 f9 e2 f5 e4 f0 08 e3 28 06 d6 ee 14 13 10 19 0b ee dc 13 02 fe f9 05 00 df f3 e3 e3 0d 01 2d f5 29 f2 1d f1 e6 00 d6 26 0e cb d6 ea 05 0a ff f8 db 1b f2 ba d4 08 f8 f5 03 01 ed e9 df 0d 11 22 27 12 09 f9 06 fe 1a f3 0d f7 20 fc fc 0d 15 fe f9 32 ee 28 27 ee 18 f7 0e 04 e6 e0 eb 16 1a 07 1f ec fe f1 f3 e1 e3 fe 00 f6 e1 0f 11 05 09 f8 1f ef fb f7 d1 e2 eb dc f3 f4 f6 0e 11 0b 2a 24 fc fd f6 1c 1b 02 13 0c 05 d1 f4 24 da 1a e7 de f6 37 e7 21 06 e9 1f f1 03 23 f2 1b cf e8 fa e6 16 26 fa 20 e4 eb f8 e1 d7 f4 10 c2 d2 ff 04 09 dc 11 2b 01 23 ee ff 07 fa de 18 0d 0c 06 f5 dd e7 00 ee 03 2d 21 fb 2b 26 01 17 f7 16 36 e4 0a 19 e0 c5 f6 e8 1f e7 17 17 fa 1d 0a fc fe 16 1f d7 01 ff 1c 07 24 25 f4 1a ef 1b 2e ec 03 02 15 df 35 ca f3 02 c8 1f ea 21 f8 09 01 21 fe db 17 1a 1a fc 05 01 c8 ea c8 23 fc 17 17 fa d6 ef d5 e1 f6 d8 0a 17 fc 12 fc 14 fa 26 dc f2 1f eb e3 08 0e 0e ef fd ec d1 24 10 3e e9 1e 1c ea 28 e7 f8 02 1d f2 fc 02 0a b9 11 2b f3 0a 10 ef f4 08 1a ff 25 de f5 09 fd f3 18 c2 dc 18 ba 16 00 0e 16 fd 3b ed 19 f3 0f 12 0b 02 eb 01 18 fd e6 1e d6 f6 fc 1d 37 f9 bd 28 05 fd 09 d3 10 0c 01 c5 06 e3 12 e8 0d e6 1d 16 09 21 2a f0 cb f0 d5 c7 e5 00 de 21 00 17 ee fb f3 d9 04 ff f8 08 f4 0a 1f f9 fb c6 15 02 35 24 02 10 0f f1 f7 f5 e8 f2 f7 1a 0c ea c3 d7 f0 f8 f9 f6 d1 14 db 0a 14 2e 20 2a 1a cf 21 f9 03 e3 db b6 14 e7 25 ee d6 1e 06 1a ce f5 10 34 18 19 19 00 0f f1 e9 e6 fe f4 0c eb f0 07 03 03 1e d7 f5 ba 15 01 d5 ef 1b 08 e6 1a f6 dc 0e dc ec 28 f9 05 f8 de e3 f4 f8 ff 1b 2c 01 d8 ce ba e1 29 02 ee 11 01 cc 20 eb 2b dc 0a 22 2c ea f4 eb 1d 02 e3 d5 d2 2d 2e 0b 07 12 e7 0f 00 f8 17 f4 f6 0c 0b 32 19 3d e6 ff d7 ff cd d9 05 16 ce 0d dd 13 0d 08 f9 13 f7 04 0f 06 ff 0b a0 da 0b 2f fe 37 28 03 1d f7 02 d4 0a d5 f2 fd f3 08 09 08 1b f2 f8 33 04 fc 11 2c 1b 01 f0 de e2 fd 08 de 09 f6 fa 26 e8 f9 e3 f5 10 f6 0e 2d 22 dd 04 13 f8 09 01 23 ea ec 13 f5 fe 07 b5 f7 e5 0c 05 1f 05 df 06 16 0a 07 d6 c6 e7 e4 db fd 14 11 19 05 31 ff 2f 08 f7 22 06 ed 23 f3 e4 22 ea fe 12 e5 08 16 d9 e2 ea f6 11 3b eb f5 29 00 12 f2 e9 17 07 f7 1e df 0c 0f f4 1c e9 23 21 25 34 ee ef fb 0c fb 1e 2c fc d6 0c df 31 2c f9 1f f3 ee 05 11 fd 17 f4 03 1d 0d 0c e9 18 e4 1c e8 2d 08 e6 23 1a 03 f2 13 12 12 0b f7 26 26 01 19 ec 0a 00 01 f4 f0 05 1c d6 11 02 ed 13 20 ef f5 09 0d fc 1e e4 14 f7 20 14 cc ec fe 11 f1 d4 d4 11 06 d5 2a eb 13 eb 2d f1 1a d9 13 e4 ec fa ff f2 15 c8 0b 0c 09 e3 0b cf 25 10 e1 27 df 12 03 20 de ca f3 fd 32 03 fc 02 00 10 3c ee f3 19 fe 0a 05 f6 de da fa c8 18 00 ed 03 14 fb 0e ff fa 10 07 03 1f ed f3 e9 d4 dc fd e0 0e f1 e6 f5 2a 06 15 03 0b 27 d3 0a f9 0a 29 06 e6 19 07 19 e0 f7 05 dc 0a 17 09 dc f1 de d6 d0 2e 15 ff d6 cd 0b 1a ef 27 fa f1 ca f3 12 10 fa 11 d8 ea ca f7 05 0f 01 e4 28 fc df 19 e1 0f 1d 01 14 2a e9 fd 0e ee 16 03 21 07 e8 e1 f4 24 1a f5 1e e4 fe 16 0e 0c f5 0c dc e4 4b 0e 18 26 e7 f4 06 18 18 d2 ea 2d fc e1 ee 20 c4 db 08 f0 e2 9c ef f2 d4 e4 cd 0b 1c 02 d4 df d8 35 10 07 06 00 17 0f 20 17 f2 f8 28 fb f8 0c 1f 0f 14 fe f7 f5 1a 22 10 de 0a f3 d8 fb f8 ef 1c 0d ec 0e fe f1 3d 2f 09 03 15 fa 02 d3 35 1a f3 20 0c 09 ee 0e 18 f1 f8 0f dd fe 12 0d 1c fe cf 0e d9 09 ef f6 c9 f9 04 07 e0 12 13 e7 ec 1e 2d fa 16 29 d9 e9 e1 f1 06 1b e4 37 f8 ef 15 fa 0b d6 db ee f3 eb e7 04 10 11 da 12 05 03 37 06 04 0b 1f 07 1c da f6 f9 1c fd 04 1d f1 07 1b 2a e5 22 fa 25 e8 f8 04 e4 ef 05 09 0d 04 25 02 3b 23 04 17 23 f5 e6 ff f9 01 35 f0 de 0b f6 d6 0d 15 27 ee e8 dd 02 d2 d1 d7 e8 20 ed f2 e0 f9 db 1d f4 ff 16 17 ea 11 43 12 10 21 15 2d 16 29 0f d5 00 2d 11 e8 c3 e0 db dd 10 0b 17 d7 11 13 05 bb ff 11 b9 21 e9 db f9 fb 23 25 18 2a 26 f3 f1 f5 ea 16 16 00 f4 22 f6 22 d1 16 f0 03 fb 23 f8 f3 ec 02 da da 32 f6 ce ef 17 08 10 22 30 00 0b f2 01 f1 f1 f9 18 2b f6 1b 1f 0e 09 fd 1b 03 e9 fa 1b 11 26 01 f2 bf 15 13 01 ce f1 18 04 12 cf 25 f0 f4 3d 11 0a 06 f0 17 df 17 10 20 f9 df 26 df 04 3d 12 02 ea f6 fd 11 e5 2a f0 04 10 0d 04 14 18 f8 15 f9 fd f5 1e ff 12 f1 ec e0 04 f3 ce e9 fd 01 ef 08 f5 ec eb c7 11 07 ec f7 1c 1b f1 fb 20 04 09 05 11 05 15 fb f3 ff df 1a 12 f3 08 d0 1a 2e 1a 25 f0 0f bd 29 34 ef 16 16 b5 bd 10 eb fd eb e6 28 db fc 10 f4 ec fe 14 bc 15 ff 04 12 fd 04 0a c8 f4 fe 14 0b 1e fa e8 e7 1e ed 2b df d1 ef 0a 0f 13 08 f4 e7 09 e4 c0 c5 ef 0f 1c 00 f8 05 f7 f6 03 2c 02 f0 fc 0a cc 06 25 f1 18 d0 f5 e5 06 f8 25 db cd fa d5 18 eb eb eb e9 28 1e 07 ce ee 2e c7 41 e6 d1 f2 e8 14 f0 f0 ff 0e ed 03 18 0c 10 dc d8 f6 00 e0 e3 dd 18 db db ce cf 0b f3 c3 07 fe c9 20 15 04 15 13 09 e6 fa fb fd 13 cb f8 fa e0 1b f2 13 f6 14 e0 da 22 f0 fe f9 07 d7 e6 1a 00 10 f0 0b 1c 19 d4 f7 be 11 0b f0 f6 07 1d ff fb d1 f9 27 ff 36 db 06 ed f3 e2 23 1d 09 d7 09 11 10 e4 fd 19 f9 eb 1f f5 e0 fc 18 05 0a 14 1c fd cd f3 d9 ed e5 02 26 43 1d de 8d 1e 05 f7 07 06 14 11 1d 21 0f 18 28 12 03 14 00 d0 38 de f1 03 f0 0a ea 03 19 ef 25 21 fc f9 fd fb db 1f 0d 0f 03 f0 01 c9 26 1a e0 06 ef 03 2c f2 11 03 23 10 ef ec 02 db b6 ed 15 c7 f2 f5 df 1f 06 f9 eb d6 fc af f3 b7 fb 30 0c 0b ff f9 e9 0d 19 00 25 da f0 12 09 fb 18 ce 22 e8 f4 23 eb da 1c f0 11 f7 00 00 1c e6 e1 05 fe 10 39 e1 0c 09 1d e1 1f ff f8 29 04 a3 cf 05 f1 ec 05 33 de f0 e0 f6 fe 00 1b 1c 04 f9 e0 e6 03 23 14 15 00 0a f1 fa cd fe e9 1e 24 0f f9 f6 f0 10 f0 d1 f1 0b 1b 04 e1 ec ff e0 f2 dc 12 09 d8 2d e3 bc 10 ed d9 dd 03 1c c7 ed ee fe ef 0b 0a 0f 0f e4 f3 d8 15 05 39 0a 06 e3 0f 1c e4 02 fd 0f 06 d6 fc f4 1e c6 00 ef f6 37 44 10 ed 3e e2 0d 0a 23 fb fd de 03 22 de d6 fb fc 11 e0 16 08 25 1e d4 f0 11 d0 fc 20 0c 06 18 04 eb 09 22 f9 1c 02 2a 2b d9 23 15 28 d5 f8 f1 e8 f4 d6 2d ee fc f0 20 02 df 0c ce 10 2f 0d 04 01 f2 da 0b e7 fa ff f0 de 0c 13 0f 1d b8 1c 15 c9 ed 13 22 09 11 34 ff f4 f0 06 e0 10 1b 2f f3 f5 e1 fe e9 e6 f0 d7 19 11 dd 2a fb 1f b9 de df eb e9 e7 3f 18 f7 05 14 22 2d 00 18 f1 12 eb 08 fd 14 d3 d6 f6 39 e5 05 0e 18 0f 0b 3e e6 19 0f ef 0c f6 dc 21 ed e7 f5 f0 f2 03 f6 09 16 d7 fd 13 d6 1d 09 00 f7 38 fe 19 ee 18 ea f7 d5 07 f4 2a 37 10 f9 f9 09 eb 0b 0a ef e7 de f3 18 e6 f4 e5 0d 04 b7 f0 f9 1a e1 1b f1 f7 cf e6 34 e0 23 d8 1e e5 f6 04 fd fe ef 2a f8 13 18 f0 25 0f 0d 1b 0f 0e 2a f9 df 10 ff fe 10 d4 08 fa 0b 2a 06 f1 11 2c fe 28 19 0e d9 eb fc f2 f1 ec ef ff ea e5 0c cd 27 fc fd fc 03 17 d6 d7 f9 e4 da 15 fa 14 28 ef fd fc 08 f4 fa 0c 2e 17 dd 0d e7 06 28 d7 f9 fc f0 c1 dd 0b 24 db e5 ee db e4 f3 ea 21 12 aa fe 08 1c ef f0 f6 dc f7 05 f4 f6 15 de 1b ff 2e 11 0d dc 00 12 fb c3 15 e4 d2 06 08 e3 a2 1a 0e fd 0a df 2c f6 01 07 e9 12 f7 12 e5 f5 30 fb e7 1d fb 06 ec 31 fb 15 fd 03 be 0e 1c 02 06 0c d3 08 0c 00 d5 fc 06 02 36 10 fc d7 d3 f5 f3 11 20 3c ef fe 34 b5 0d eb 0d fe 25 1f cf e2 e2 f4 0c f6 29 03 13 e9 0b 03 f4 1a e1 e6 f3 01 eb f4 17 37 f2 24 08 2b 04 0d 08 21 e6 12 07 06 0f 10 02 ed f2 f1 3b ed 05 1b 07 02 f3 16 d9 26 2c 23 e5 20 07 d9 f2 0c 10 09 1a ff 03 0a cf fc 07 e4 06 1c fe 18 ee 0d 01 f8 1a ee 06 00 d3 11 f6 d8 cc e5 ef f3 00 fe 02 03 c9 14 0d 02 c2 dc 09 26 14 01 fc ef f0 07 e9 0a f2 29 1d 1d 2b 11 fd eb 0d fa dd fe fd 0a d8 fc e5 1e 09 2a 0a 07 ff 21 fd ef ed de d6 e9 1b da e5 06 dd 07 ff fd 09 24 10 29 39 15 0d 1a f1 dc d2 3d 1d d2 35 ec fa 09 03 10 1e e9 bc 1d e6 f6 3b 1b 16 f7 f4 1c 05 20 e1 0b 2b f4 da c6 05 0c f3 f7 13 2d f9 f5 f9 16 08 13 ee 07 1d 00 0a 04 f3 01 cd 1b 15 d0 e6 fb de 02 ea f5 21 0c 25 c4 e1 f6 1d e8 00 e0 fe 04 f9 0b 05 1c 0f 33 0f 1b 10 02 2b 21 cf f4 26 20 cf 06 fb 08 0f ef 0b c0 15 2a 3c f9 04 eb eb 06 fb fc 05 27 fe f7 10 f8 27 ed 0d 03 1e f2 16 d0 eb f6 06 f6 07 e3 0e e7 b4 00 fe 0a ff 0e d3 fe 1a 21 07 e8 e9 e3 da 05 f3 29 13 0a f4 d5 f0 c7 08 09 e9 03 0b 23 fe d4 dc f8 f8 29 15 d8 ed cb 0f 49 20 e2 28 0e 15 24 1a f7 24 0d 0f 24 ed ec f4 ff f5 d3 df e3 e3 1f 01 02 06 0c 09 13 e4 2a 11 eb 2a f9 01 01 26 d3 d2 ed fd fa 2a e4 ed fc f5 ed 1d 05 28 ea f1 16 0a f7 04 cf ff e5 e6 c3 ea 04 11 d4 14 13 08 fe f8 dd 10 0a 20 01 18 05 fe 25 29 d1 10 03 08 0c ed 01 d8 0b 12 d5 ee 14 00 ab f1 e5 f2 18 17 27 ee fa 0b 1d f9 18 09 f8 0f 1c 1b dd 26 15 3a 1c 0d 0f 06 04 f3 f2 1d 17 d7 d9 dc f7 05 11 02 f7 0f 2e ea 1b 09 c4 05 d9 cd 09 00 03 1d fa 19 e1 e4 09 03 f8 fb 14 fb 10 da 08 f8 25 ec 29 0e 1e 05 1b 25 f9 0e d3 13 e8 0d 08 1d 10 fb ef fa 07 25 fb eb 02 1f 2a e3 ef 1a 25 0f 18 ef 08 f7 ef 08 06 0a d6 d8 f2 2e 21 10 18 33 1c 18 19 e3 04 ee fe e5 03 e1 e4 1e 01 3a 15 13 11 fc 15 00 29 d5 2d ef 3f e7 f6 06 ba f7 f4 fb 12 f4 eb fb f2 0f 02 ff c0 0d 3d c4 26 15 de f7 0d 2e 3a fd cd da 06 ed f7 f1 2f 02 fa 21 f0 17 d1 f6 fd 14 0c f2 11 06 ed ff 03 1b 1b e3 f8 20 da dd e6 0c 18 e4 cd e7 2f f0 39 e2 f6 17 d6 f7 e2 10 e0 d6 f9 df fa e7 f8 2b d9 19 f8 0f 09 2f 19 e1 fd 0b 1a f8 ce d1 f8 c9 c4 e1 1c e1 00 01 f6 f6 e8 02 29 03 16 ff d7 1c d4 07 fd 08 15 1d 1e ed 11 20 24 02 fc ee 33 f1 1f a8 08 23 00 23 fd 34 fe 05 07 df 04 18 07 b1 04 05 fe 0f 15 17 09 12 0a f9 1e f1 1e ed 12 05 18 d1 d2 0e d3 d1 2f fe f9 de e5 f0 02 0f 27 1f 15 e1 33 f0 ef 1a 18 e2 d9 e5 27 38 0c fb 20 e9 e6 e6 eb 16 16 e2 0d e8 00 f7 1b 0c 09 fb 00 fd df c5 1a 23 03 0e e4 01 11 cf e0 f4 ef 07 f4 c9 1a e9 d3 0e 1b 3b ef f7 f4 06 04 f6 1c dc 08 12 2b 1a f6 14 11 02 00 0c eb f1 f7 ed 16 cd ed e3 06 db df 2a f6 ff ff f9 17 db f2 04 e5 17 00 0e ff 24 06 fa fa c3 f9 2a f7 1a a2 1a 29 ee eb 2d 1b fa ff 19 be 21 de 06 e2 f8 da db 1e f7 10 2e df fb db 05 e3 ee 21 fe 0f 18 e6 23 ec 12 2b f9 ed 01 17 ce 2a 27 f6 e4 ec 0e e8 16 03 fa cf eb f3 16 21 05 e1 20 bc 14 dc 0b 29 f5 0a 14 09 ef 11 ea 0e 03 cf e1 f0 e9 0b 05 d0 29 13 2e 13 e2 