46 3f 27 fa 63 5b 2f 00 77 0a bc f5 b4 54 77 39 e3 d6 20 7f 7f dd cd d5 5c cf a4 42 56 62 49 29 da 48 7f ea be e9 07 3f 90 27 6a e5 2a 59 59 e1 81 cb e7 eb 3e af a7 f2 7f 44 e8 dd 0f ce b9 70 d1 9a a8 3b b1 2e 77 d6 3a 61 4d 24 1e 05 ec 28 82 fa 2e e5 cb 1f f8 4c 60 55 42 2e e2 38 cf 08 7f 28 22 f0 5b c3 86 d5 6a 00 b2 dc b7 47 73 fe 7c 21 0b f3 05 6d 58 f1 11 04 f7 7f 32 03 fd 73 