63 68 a6 61 95 97 77 98 87 a4 6f 79 5c 53 6c 8a 91 9e 64 6c 8c 81 82 85 86 79 88 88 80 55 89 87 8a 7d 93 ab 81 81 85 6c 9f 99 80 87 63 99 83 68 8f 57 79 8f 83 8e 91 88 a6 67 7d a4 6f 6d 8c 8f 7f 86 6f 8c 91 6b 67 5d 8e 86 9d 67 85 84 7b 6b 85 5c 98 a2 57 8b 57 92 66 99 66 7a 95 79 8b 83 88 a3 80 7b 98 8c 7b 7e 69 4f 8a 7b 7e 6e 61 75 82 6d 7b 99 74 7a a1 95 60 79 75 8c 62 67 71 6e a0 95 9e b2 62 a2 69 75 98 7e 7b a1 91 7f 74 86 81 99 87 62 78 8a 87 8b 86 7b 9e 91 8d ae 75 6a 7e 65 97 82 7d 69 81 86 87 96 8a 6d 91 9e 7c 72 8f 81 80 71 83 82 6c a2 a7 91 88 98 86 91 5f 82 5d 81 99 6d 7f 69 92 88 8e 9b 4b 80 6c 80 79 99 6e 8c 78 83 94 84 8b 98 7d 74 64 83 5e 91 80 8c 86 6c 6c 8c 65 76 7f a2 71 87 6d 5b 66 6a 89 27 69 7c 9e 67 aa 8f 69 61 a2 8a 81 7f 99 65 84 78 83 66 b1 b2 55 75 7a 76 9b 9d 89 99 86 a9 77 60 8d 8a 56 97 84 8b a7 9e 4b 77 96 a8 9a a0 70 78 66 52 95 9a b4 7e 66 8c 85 97 9f 7c 4e ac 72 61 a2 92 7f 9e 84 95 82 81 92 6b 6f 6c 90 71 62 50 7b 72 a3 7a 69 73 99 90 74 87 5d 86 77 4c 9c 8e 9c 61 6f 7f 68 8a 7e 88 7f 7a 83 9a 97 82 94 8a 95 8a 6d 7b 86 87 91 7e 70 88 8d 70 2d 99 99 96 77 76 8d 75 74 6b 79 65 94 6e 6c 99 5e 6e 8d 90 7f 79 90 87 59 8f 71 87 94 89 7b 76 85 6b b2 87 7f a4 7a 6f 72 47 71 7b 8b 78 7d 91 81 85 79 75 5b 5f 6a 8e 75 89 5f 96 93 85 a0 82 5b a5 68 ab 7e 93 8a 65 51 76 8d 92 ab 5a 82 92 61 74 8e 90 4a 63 9b 7b 62 56 a7 77 7a 9e 8a a4 91 50 82 8a 7f 84 7f 70 78 9d 7f 88 87 76 7e ae 5c 95 75 75 90 68 71 6d 83 9d 72 91 8a 67 97 6d 2a 8b 8f 7d 96 61 8c 89 6b 97 87 68 a1 63 84 94 77 94 8e 7e 96 6a 68 59 62 8d 64 a3 8c 4f 87 72 85 5b 70 84 5b 91 84 86 7e 71 67 5d a7 6c 8b 6f 62 79 9f 83 93 9a 78 5d 80 7d 7d 6b 80 94 5a 80 50 50 9d 77 4c 98 67 69 86 77 90 7f 59 a3 9f 83 6c 85 90 99 63 64 72 7b 7e 87 7a 7d 78 81 9f 75 a0 cc 8d 73 85 93 7a 84 5c 5f 64 7a 4d 7e 86 84 99 9f 5b 5c 7b 72 87 98 a8 78 4f 60 84 73 a4 8a 54 7f 66 9e 8c 91 5f 98 68 8d 7c 86 95 87 6d 82 7b 7d 79 4b a6 79 a6 86 46 7f 75 a3 9f 6b 63 76 66 50 99 80 c3 7d 72 66 67 65 7a 66 67 8a 7c a5 9f 93 82 48 7b 75 a3 7f 97 8e 75 83 85 a5 b0 70 5c b5 73 a5 77 b9 9c 9a 6a ae b2 56 b7 65 6f 84 9d 6d 67 94 a8 81 99 a2 86 6f 9c 78 a6 90 66 ce 5c 50 5d 93 96 ae 62 85 b9 7e ca c2 70 62 8e b0 84 b8 5c 53 5b 5e af ab 89 7e 74 ac ad 7f 98 64 55 92 6e 4f 9e 7f b9 91 c1 b1 78 9a a6 7d 94 b0 8d 7f 56 73 84 64 a2 85 61 95 69 61 8d 80 73 a8 77 71 8b 7f 91 a6 5d 9d bb 72 99 78 85 85 74 76 78 93 58 76 67 5b 9e 8e a7 4e 59 79 8b 91 70 63 ba 8d 7b 88 83 88 8c 89 6f 7c 38 90 69 60 5d 9f 8d 7e 81 70 6c 72 85 65 6d 78 a1 87 be b3 b8 65 d4 69 6e 4a b6 9f 62 ac 89 6b 55 7d 5f cf 78 8e 99 64 4a 72 6f 78 b8 b1 c0 7a 67 7b bd 76 86 68 58 a1 3f 5e a4 9e 67 8c 84 8f 54 95 7e 7e 5b 67 7d 94 7c 57 8f 67 83 6f 82 61 6f 78 8f 70 98 8a 9b a0 86 5e 6d 8a 78 85 84 a6 8b 90 92 99 72 97 8d 9c 7f 71 73 94 93 84 96 83 72 8d 6d 7e 80 5f 9b 84 5f 74 84 6e 85 74 86 8e 68 71 78 85 97 60 9c 91 6e 95 66 68 a8 91 69 88 91 73 70 a0 6c 99 93 8e 51 88 ad cd 68 84 91 74 83 7f 59 7b 6a a2 71 66 88 6e 72 62 71 77 a6 84 7a 82 94 98 b3 6d 30 93 75 93 9e 55 81 93 a2 a9 84 38 b3 73 63 9f a9 7c 7e 65 8a 8d 6c 6f 78 7d 91 69 78 7d 7f 77 88 91 85 92 70 78 8c 6b 7d 79 97 81 6d 8d 73 74 65 7f 7f 92 8c 6d 93 99 95 99 62 6e 75 87 65 98 93 85 65 84 8a 6d 90 73 82 79 95 87 85 94 96 65 7a 9a 69 70 90 84 92 8a a3 83 68 70 79 7c 7f 90 8d 83 71 79 8d 89 71 85 76 7c 8d 9f 86 95 8c 86 7c 58 61 6b 78 8e 9a 8d 76 88 7a 91 8a 80 8e 68 7f 97 8c 44 9a 7e 7a 6d a9 84 52 81 84 9d 75 8d 5d 63 7a 6d 90 62 7b 64 9c 8f 86 8e 74 83 6e 7c 92 71 71 7f 96 68 7b 92 69 6f 7f 6d 86 91 86 92 7b 78 7c 8c 75 7b 88 89 8f 89 96 93 88 86 9a 92 52 8c 5d 94 6a 64 7a 8b 73 8b 99 84 7f 8f 7f 96 78 7a 84 8d 85 6d b3 a8 84 a0 95 7f 7e 8a 82 9a 75 8b 70 a4 79 bd 61 73 69 a7 a4 a9 58 64 81 98 7a 86 83 68 57 82 88 8f 8c 64 80 c1 50 ad 90 81 72 a4 8b 7c a4 a7 a4 73 ba a5 89 81 88 73 6d 67 90 8a 7f 76 ba 88 63 9a 94 b5 81 50 82 71 9d 84 43 ad 76 85 80 88 76 8b 75 4f 8e 78 5d 5b 7d a5 6f af 55 5d 53 84 b8 a1 6a 57 75 7c 9c 94 8f 82 79 7b 6f 6d 82 9b 7e 86 b0 98 69 b8 82 70 86 75 62 85 5f 66 6f 61 72 76 76 5e 73 97 89 96 86 8d 75 5d 75 85 69 66 7f 76 67 83 86 7c 8e 9a 6d 93 91 8a 7a 78 94 85 61 66 74 78 75 91 85 67 7b 80 56 75 8c 73 91 8b 90 85 70 85 7b 66 8e 86 8e 7d 99 66 75 8d 53 7e 85 a0 84 97 57 93 9d 92 81 63 69 7d 8d 70 5c 99 96 74 8e 83 86 94 84 52 67 8d 9e 66 85 8f 86 7a 74 5b 80 81 7c 5c 59 5d 7b 8a 66 6b 8c 88 76 54 83 77 75 75 64 80 67 63 7d 65 9d 84 8c 9a 50 84 b1 b1 82 4c 7f 59 95 a3 85 84 61 b0 5d 97 5f 99 66 86 b6 8c 7f a0 78 7a 79 96 6d 9f 6c 52 54 71 4b 88 9d 9d 83 91 77 5a aa 8f 77 7a 55 93 78 a8 94 9a 63 93 83 5e 8e 74 77 8c 93 84 97 80 7f 75 71 5c 83 75 96 38 78 82 6f 75 84 98 9d 98 98 6e 8d 6d 65 dc 9d 6d 81 56 73 8a 6a 70 80 70 74 83 6f 8a 81 5a a8 a0 81 7e 99 45 91 73 79 74 7f 6d 93 7b a8 75 7a 8a 7f 97 87 89 7e 79 99 8e 63 88 93 91 70 9f 88 79 5b 77 6d aa 52 9f 84 ce 7f 99 74 39 54 ae d7 b0 82 5d 76 9b 51 74 87 7f 59 66 7a a3 79 85 86 a5 9a 35 89 5f 67 72 a1 5f 7f 93 b7 6b d5 60 da 84 ab 79 6c 94 61 89 79 7c 90 7b 71 7a 5a 67 9b 9c 6f 94 8b 6d 90 73 6f 89 90 61 90 84 83 6d 87 93 7a 8e 6f 72 8c 98 99 6c 9a 84 99 7a 7a 89 8c 64 88 5e 69 92 70 86 86 7e 8c 77 9b 94 81 89 8d 93 67 86 8d 6d 86 6e 75 95 6b 71 5d 94 75 7a 3d 66 92 8f 9d 63 9a 91 99 7b 73 8a 94 76 79 a0 86 95 70 80 82 67 8d 7b 7c 95 70 9b 89 6e 95 8b 86 55 6b 70 89 5f 84 80 67 7b 69 90 90 9c 79 82 82 9c 5c 7b 96 4c 94 64 98 85 b8 6f 94 6f 2d 93 8a 8a 95 7f 97 98 79 7d b7 7e 95 88 80 74 60 52 79 6d 6e 93 7d 8b 76 80 76 98 79 7e a8 84 7f 7b 6b 75 93 95 8b 79 78 6d 69 a6 77 74 82 78 76 59 96 a1 81 7c 63 92 64 6d 85 8a 7d 8b 73 98 8c 6c 7f 69 86 7d 89 76 a0 75 56 69 8a 87 91 7e 95 56 90 6a 8e 81 70 6a 95 7c 78 96 98 79 68 86 6d 73 83 70 6c 8a 87 a6 7d 8d 65 83 6b 96 70 87 8f 95 7f 5d 7b 89 89 7b 96 60 79 8f 7d 6e 74 68 7b 92 62 63 6d 6c 7f 6b 98 8f 96 77 7d 68 86 7e 79 8e 6e 79 97 7c 6c 6b 6a 82 97 88 8b 6a 8c 93 90 88 7d 6c 71 95 88 99 6c 85 91 69 67 73 81 76 75 8c 79 8a 8a 8d 83 7e 97 77 72 6e 96 8b 84 82 34 82 ac b0 87 a5 7c 92 51 42 4b 76 7e 98 89 80 7e 86 a9 80 74 79 66 7d 6f 74 8f 82 8c 6f 6d 74 82 6d 8a ab 86 9b 7d 9c 74 8a 43 9b 74 76 a4 60 73 76 a3 84 a8 83 82 9a 79 95 74 82 6a 70 90 5d 7c bb 93 59 aa a9 48 7c af e2 7c 4e 92 87 81 7a 6f 81 7a 96 41 40 78 94 81 66 39 67 6d 71 64 be c5 65 2e 7b 8e 82 8c 59 75 8e 59 6f a6 b7 69 79 80 a0 46 80 8a 63 5a a1 83 9a 96 3c 82 7b 75 6f 96 91 6e 62 78 4e 71 68 92 af 5e 93 a1 57 7a 73 79 91 7b 6a 99 7c 7b 80 71 74 8a 9d 97 9a af 88 89 6a 7f 57 8a 9b 88 93 86 8b 82 95 7c 60 75 67 84 5c 84 a0 63 81 68 89 5c 7a 92 75 76 8f 89 ab 6d 62 8e 6d 72 7b 7b 8c 8e ad 8d 77 6a 64 94 91 7d 5c 64 7d 6e 7a 7b 70 76 7f 63 83 89 8f 79 99 a0 9e 81 60 69 70 81 69 6d 84 7e 43 93 9b 72 78 91 92 7f 49 86 7f 64 6d 94 86 8b 62 92 97 6f 6a 6a 7f 79 a3 62 69 7c 7a 5f 9d 73 85 5e 68 a0 85 ab 7a 6a 62 a3 5c 74 52 73 5d 9a 83 77 81 75 77 5a a4 9f 84 58 83 77 93 5f 75 8a 86 68 81 62 64 8d 6e 66 72 75 7e 71 84 68 5f 8b 83 88 63 89 79 6d 95 7c 93 90 8f 98 8f 93 6f 6d 6c 74 7a 81 8d 6b 89 65 6b 90 7d 99 67 94 71 92 8b 99 87 77 86 68 83 94 8d 7e 7c 66 73 97 65 96 7b 7d 8f 65 70 7e 96 67 6e 6b 94 7c 7b 7c 65 70 74 83 67 7f 77 58 8a 57 71 95 9a 72 61 a4 76 92 71 8c 70 62 ad 77 c3 6f 89 8c a3 7c 92 a4 7a 68 62 85 69 82 a0 92 7e 82 61 88 92 95 45 9e 9f 8b 44 92 5c 6d 8c 82 6c 61 8e 73 60 7f 96 6e 83 85 81 65 63 7a 5b 52 81 8c b1 8f 63 94 7c 3b 4f 8e 7c 78 79 93 7e 59 86 7d a1 83 59 6f 8b a1 63 95 8c 93 73 a3 49 62 5c 71 89 60 65 85 7f 64 77 8c 96 5e 5f 6d 70 80 6d ab 9c 83 79 7a 56 73 88 70 a5 76 7e 87 6c 86 7a 91 9e 85 6d 72 75 65 76 6d 93 7b 72 73 8a 5b 50 7f 6c 87 67 6c 79 67 a8 9e 7f 9a 7d 7b 6e 89 9a 87 92 7e 96 68 98 3d 6f 5e a4 7a 7d 6f 6a 77 90 8f 64 96 96 7c 6e 7b 77 92 8a 76 68 8b 59 7c 6c 52 84 9e 9b 90 50 86 a3 8e 68 ad 6d 7e 7a 84 ac 72 a3 85 a7 78 8b 8f 87 6b 8c 70 83 71 9d 82 7f 78 5f 9b 88 60 72 7c 9c 64 90 82 68 7d 7f 6f 94 6f aa 52 79 71 64 77 6c 9b 59 9a 76 91 ca 4f a7 7a 6c 8f 8b 85 6f 6a a6 83 86 a1 85 4f 68 b1 a3 7e ab 51 88 85 97 65 95 44 67 6d 4b 7c 96 9e 87 62 52 8c 6f b8 81 97 b6 7e 89 90 d9 8c 93 b5 a8 78 8d 86 5a 6e 75 b0 7c 69 5f 96 65 6c 55 87 a0 6f 88 6e 72 5f 85 71 8c 5c 66 71 83 83 94 51 82 70 68 97 7e 82 5b 95 5d 87 9b 92 9e 95 85 88 7d 6f 73 86 81 74 87 72 7e 63 a7 8d 7b 63 71 73 71 99 92 6f 94 88 89 67 8a 8f 92 6f 6f 9a 9f 31 8a 6c 7e 6f 9c 73 86 6b 6e 99 8c 7e 58 6e 8e 92 8d 68 94 7f 8e 7b 70 9c 8c 9b 72 6f 95 6f 75 99 7e 7e 86 73 81 92 7c 80 6e 98 5d 73 75 93 6d 83 82 90 8c 9b 80 74 75 9a 8d 8f 7c 9f 65 a4 8b 76 9d a6 8b 99 99 80 88 86 85 98 73 9b 4b 71 98 b5 6b 6f 79 7e 95 7d a0 85 9f 89 86 81 5f a9 8a 85 7e 7b 97 94 59 80 5d 44 80 73 75 95 92 90 a2 6b 86 57 80 9d 70 60 88 7b 7f 6b 5f 9c 80 77 6f 92 78 97 64 97 6f 84 82 95 7b 63 83 8a 9b 7f 7b 8e 78 93 72 88 97 6d 78 7b 72 9c 87 6e 89 6f 7f 78 66 ad 77 97 6f 87 72 90 93 8a 71 85 7b 95 7c 8a 66 76 6c 89 94 6e 77 68 7b 9f 83 7a 77 7b 86 a1 76 83 aa 54 5d 71 5c 38 12 94 85 66 85 b1 68 a4 9c ac 7e c3 7c 8e 5e 70 78 ad b7 a4 82 7e 52 48 45 bf cb 60 86 47 91 b9 54 c3 33 6a 87 66 6b 8a 7b 3f 75 51 96 a3 66 5c 65 78 bd 8a 7b ae 88 7e a8 69 57 9b 90 7a 7d 9c 79 8a 82 a7 99 63 82 91 a7 8a 76 63 76 7b 99 6e 9a 69 69 7f 6c 89 96 9c 9d 7e 7c a0 9b 7b 90 9c 78 56 92 7d b1 b0 9a 9c 92 7a ad 6c 7f 7d ac 91 76 7d 74 5a 75 7a a8 99 9e c0 78 b6 a0 9b 48 b5 67 6a 2b c4 82 69 b8 62 5a 49 91 60 c1 91 8d a3 60 49 6b 87 8e ad 6c ca 50 5a 66 a9 73 3f 48 78 71 53 65 7b 73 2f a6 3d af 39 7b 70 46 4a 3a 8f 69 75 74 9d 94 91 9d 91 a2 80 99 6f 8d 70 5c 7f 5a 6b 66 88 98 94 92 70 a8 7f 75 89 88 6a 5e 7f 81 90 5e 70 87 63 55 79 8b 85 56 62 67 5e 5a 78 74 a9 5c 6f 96 77 7c 78 8d 91 7e 51 69 88 87 81 8e 7b 7d 7c 7f 5c 6d 9c 7b 64 81 85 72 6a 79 71 a8 7b a2 6f 5f 7d 82 8e 87 69 72 6a 70 65 78 8c 61 78 73 9f 84 73 79 71 9c 88 8e 89 7f 6d 8d 7d 6e 9d 5b 67 7b 86 86 ac 63 78 60 80 93 8f 80 6a 70 88 96 93 87 82 6a 75 a5 99 6d 91 96 8b 7e 52 28 84 8a 99 7b 6e 9a d3 9e 83 91 6f 80 95 91 75 55 87 63 84 73 98 78 9d 6a 79 63 7f b0 54 56 98 91 6a 4a 8b 63 87 8d 96 8f 5f 9d 66 9a 87 a0 5b 8c 7f 9e 8c 88 89 6d 67 7f 8a 65 99 a8 a7 70 8e 8b 63 4d a7 4f 8c aa 5e 74 8a 9c 61 92 82 88 ac 6d 79 7d 7b 86 af ab 8c 70 60 85 a2 73 76 74 51 8b 6d 6f a2 5e 93 89 6e 9d 6d b0 7d 89 66 5e 96 85 7b 7d cb 99 63 5e 3e 78 6b a1 58 65 8e 8a 10 84 99 ff 73 91 91 27 8f ce ef 80 7f 3a 7c 64 1c 70 b6 67 8f 7a 7f 76 47 7b b5 ff 66 a2 79 af 69 76 b0 0d 76 8e a2 61 ff 7d f8 83 60 78 93 7e 87 67 71 90 69 82 76 87 7a 92 65 7c 81 71 59 9f 80 8c 8b 9b 67 7e 9b 75 92 74 9d 8a 94 82 8d 7b 8a 8c 79 94 98 9b 50 96 94 8f 7f 95 79 92 7b 6d 6a 7e 9b 5e 8a 7f 77 8a 8d 6b 88 73 78 84 8b a6 71 73 65 73 b4 94 91 c3 93 8e 55 5f a4 9d c9 83 8f c5 84 7f a9 9f 57 71 91 9a 7c af 6b 91 77 9c 63 a8 6a 68 4e 4b 7c 9d 8e 64 3c 4f 94 8e b8 62 8d b9 6d 8f c0 8a 94 87 c9 ab 83 b0 87 6a 6f 7c a7 79 62 5a 47 99 59 85 67 7e 85 ae 7c 78 78 87 81 00 9b 60 5e 85 a7 66 7d 84 7b 7b 87 7f 8a 66 82 83 77 9c a6 91 7e 88 67 6f 6c 6a 67 3f 56 81 65 5b 9e 84 6a 73 5c 85 6e 57 73 63 5f 86 80 6a 6d 76 a7 6e 5e 69 92 9e 7e 78 78 74 63 6a 41 9b 8d 75 7f aa 70 91 7f 72 69 60 6d 71 7c 5c 77 7f 69 8d 71 98 74 9e 82 71 70 94 93 ab 78 5a 92 8c 75 73 88 68 7e 97 6d 81 70 86 93 4b 9f 94 8e 6e 94 93 9b 7e 8e 68 6d 98 52 5f 8c 92 66 88 ae 96 70 97 85 d1 92 5a 9a 61 9b af a6 8a ac 53 8a 83 3b 66 98 a4 83 85 5f 5e 79 59 b1 87 8a 82 7e 50 a0 67 9e 54 74 80 80 70 e6 78 c0 74 61 a4 8b 89 66 6a 8f 9c 7d 79 9a 4f 4b a5 6e 82 a3 8b 74 97 81 88 8d 8d 9e 71 99 91 81 55 6c 62 6f 88 68 94 87 65 88 96 82 65 95 8f 84 92 87 97 b2 9e 84 97 77 9d 8b 9b 75 5f 9a 84 66 74 90 81 97 66 87 83 5e 73 a8 6f 8f 6f 83 79 92 6a 4e 80 6d 8a 7b 9a 83 6f 9a 69 61 62 6c 8b b2 6c 83 80 7c 66 6a 64 95 88 7e a0 76 97 59 7d 8b 92 79 83 55 69 6b 7b 8c 81 8d 52 8e 6e 64 65 73 7c 84 63 5b 93 63 8c 72 67 9d 74 76 65 86 6e 8f a0 71 5c 66 85 6a 96 94 a3 76 97 94 8d 6b 75 6e 9c 75 92 90 7f 68 9c 82 64 7a 8b 81 91 6b 9b 73 93 70 87 81 63 7a 5f 8a 8a 85 82 91 6b 8e 7c a2 80 4d 8b 8d 99 79 a0 9f 7a 8c 7a 86 73 5f 8b 5b 8d 8d 97 67 64 8b 82 93 18 82 98 6e 86 96 5b 94 99 7d 67 ad 70 73 70 62 7d a8 a3 90 91 84 7b 7b 70 7c 5b 61 89 68 a5 64 64 aa d3 69 67 8a 83 7f 5b 99 90 43 95 81 8a 78 8f 7e a4 aa 8c 87 94 7b ae 8b 41 81 69 5f 7e 7d b1 73 6f ac 8c 70 69 b2 af 88 94 62 65 7c a3 58 7e 59 5b 68 7d 8a 99 9e 67 7f 7b 8a 86 96 58 96 80 71 98 7c 7a 8f 68 97 8a 5a a4 89 75 79 6a 95 76 84 6f 