1a ea fc e4 d0 15 1a eb f5 d5 fe 0c 1b 05 0e fd 09 ce f2 e3 1d dc 05 e3 2e fd cd f6 fe fd df 13 fa 14 10 0a 16 03 f4 0c d1 de fa ec 16 f4 db 03 00 1a 02 e1 04 04 f0 0e f0 e2 0f d8 fd fd ee 2e cb ef 1c ed 1a f2 12 db 0b 01 d0 01 20 02 24 18 e6 0d fe eb f1 e9 0d 01 e1 08 cd 1d 00 f0 ff e7 11 19 da 02 db f3 18 08 d2 2d 01 03 13 ff cb 02 d8 06 f5 f0 05 ea ee e8 dc c5 ef 0c 2e 04 f8 de cb da ff 0a fe 07 18 19 eb f1 03 fc 08 00 0a 07 08 fa e0 07 ff b7 e3 0f 0b e5 e0 2d ee 0d 33 de fb 34 36 dc 38 09 2e 1d 21 04 2a 0e 0d 1c f3 e8 08 e4 1a d2 27 2a cc f4 21 07 30 26 0d e9 ee 01 d6 fb 02 e7 de 13 ea eb f9 e4 01 f1 2e f2 18 ee e7 06 fd 08 14 ef f7 eb 01 29 29 f2 14 e8 f9 01 fe 17 09 02 0b ee f9 eb f3 21 09 e6 f3 ff ef 30 f3 11 fe f1 ed fd 24 2c ed f7 ff 09 09 19 fb d0 d8 22 11 e9 08 08 12 d6 f7 f8 ed 09 26 13 dc 09 ec 08 da 02 e4 1f f6 fc ff 23 1d ee 02 08 fc 00 e8 21 ee d6 c5 eb e2 0a eb fc f0 20 21 20 fa e6 08 e1 f4 cf 24 e8 2d f8 fa fd e1 e7 18 17 1c ea dc 00 08 e0 f3 d4 1f 06 11 15 e0 13 04 24 24 e9 15 37 dd f6 07 ea bf 19 fa fb 16 04 f5 ff e1 cf f5 30 05 15 09 f7 f8 1b ea ff 05 ff 25 f5 04 fc fb 34 df f0 d7 f9 0b e4 b0 ef e5 2e f8 27 f8 2d 0c d8 f8 13 09 db 20 0c c4 10 f9 e5 fa 36 08 e8 e9 12 e3 2c 10 0f 10 ff 0a 04 e2 e9 01 06 fe 1e 05 29 01 0e 0f 0c ef 25 1a ea eb 15 e3 12 d7 06 e3 07 ed 0c 29 0b 12 eb 27 10 2e d2 13 f8 fb 17 32 bb 18 17 23 e7 14 e2 f8 bf e7 23 27 f8 1c df da 1c 05 e2 d3 05 0a 2b ea 2b 18 0a 00 13 00 e0 d4 05 f4 c8 fc e6 fc 0e da e5 f3 b1 1c 0e 12 09 f3 27 22 da dd 02 f2 1b 14 36 fd 13 df 1d d2 0c ef 5a f3 e3 d2 f8 f8 08 da 1d 1f 1a 0d d6 3e 3c f0 20 e6 19 f6 06 f0 08 f6 ff d0 3e 0e 01 fe 4e 0b 12 fd e0 e1 db fd 34 d9 24 d3 ba f1 eb d9 14 12 f0 ea e5 23 ed 2a e0 18 f5 e9 ce e2 1d 1e c5 f6 d2 db 27 df 26 28 20 ed ca cb e5 f4 12 18 14 01 3e fe de 02 ff ea eb 18 fb f7 4e e7 01 20 18 fa ec e3 f1 42 ed 15 ef d6 0f 1e f2 26 05 fc f9 ee 0f 21 0f e4 f3 fc 25 21 ef fb 22 22 01 eb f7 e2 f1 fe e3 0b f5 18 f6 fe f0 0a 26 08 df 0a fb fc 1a f8 10 fb ed 02 d4 f8 ea fd fa fa 07 20 0f c4 e4 15 f3 17 f2 f6 fc 26 fe f7 ea 15 ea 2d 0c e9 03 0d e0 13 0d 04 df f4 04 1e e9 de f7 14 12 16 3a f1 30 0d dd 13 1b 0b ec fc b9 22 26 b9 fe 1a 39 28 12 f3 2e 2d d6 2e 10 2f 0d e9 fc 04 bf f1 d4 dc fa ec e6 e4 29 15 2a f6 20 0c e4 13 23 f5 13 f0 e3 17 ea 41 ff 21 e1 fa 00 0c 2a 06 06 0a 0d 00 f7 1e e9 dc 17 ed e9 ff 14 01 05 df f9 f9 2e ec e5 01 05 f5 d9 26 ea ed 0a de e3 13 0f 0f e2 fb ef e4 ec e8 01 e3 e1 f2 08 27 fc 03 f0 0d 01 f2 ff f9 0e 0e d8 05 07 fa 1f ee 1a f5 ea 10 29 e8 e1 d8 ec 13 e9 0f d8 fd ed ef ff 1b 0e ff 24 28 14 39 fe eb f0 f4 fe dd ee 11 12 1c f3 f6 0a ff e9 2c e7 f8 0a 0c 32 0a 0d d1 d9 0c 17 06 20 03 e5 f0 19 06 0a 08 0e e7 f1 08 dd 07 03 1e 0a ed ff 24 0b 15 29 04 2f 06 cc 02 fd e2 10 f7 fa 17 12 eb ff 0c 18 3b ba ff 08 d7 dc df 08 04 14 da ee f7 28 17 f9 fa e4 d6 21 2d 25 1a e5 f5 d6 d5 0b 0c eb 01 f5 03 11 1d c6 0b dd db f2 e9 0d fd ef 1b 1d f2 db 1d 2a 05 ff e2 2a c2 1e 09 d4 f1 fb 36 f5 d0 19 1a 1c 0c f3 2e 04 af 01 10 d6 42 c7 02 de f0 d9 ea d8 f7 e7 f3 f2 36 24 0f d2 e7 02 25 f9 39 e2 ff da 3a f5 f3 0d f5 06 f0 1a e6 28 f9 0b fd e1 db 33 0d 0a 00 ec 20 fa e2 00 21 1e e9 fd f4 fe 0e 16 f0 03 f6 e5 03 26 f2 dc f0 08 fe 30 e5 33 e7 e7 16 0a 1c 14 eb 07 16 15 03 d9 0b 11 00 e4 26 fd ed 04 0a 0b 23 df 24 06 08 1f d1 ff e9 02 fd ff e0 2a 2b 09 f7 13 1e 0d ef e3 03 00 f1 f5 08 03 04 01 e0 e5 f6 13 ff d7 1b f2 2c 00 f5 22 1c fb ee ef f2 ff 18 08 18 0f 10 f0 0b 00 d6 f1 e3 ff fd ed 02 01 28 fb 02 d6 11 05 0e 1c f5 27 ff 15 f8 e0 01 3d e4 f9 13 1d ed fe 12 2f 05 06 22 ff 04 17 28 f4 17 25 fb 01 ef 0e 0d cf 14 08 24 f3 f6 1d e4 08 dd db 17 28 f2 06 fe 13 f4 15 00 f0 ff f1 09 ea 00 14 b9 f0 f4 ee 13 e5 dc 17 d9 fe 1a 04 10 eb dc 18 26 12 1d e9 22 48 3b e3 ff 02 05 ea 1b d8 e3 1a 15 e5 d6 09 1a f7 1b 1b d3 0b de 02 fc 19 0a 0d 12 e6 f7 17 16 e4 fe f7 eb 2e 31 1c da 0b 18 f4 0b ea 1f f6 23 e7 f2 0a e3 30 c1 ff 04 e3 dc 14 d4 2e f7 04 f9 fb 1b 04 ff 4e 44 f4 20 d2 2f c6 12 21 ed f4 1c ea 24 18 04 f9 18 e3 f0 e1 19 0a dd df 15 e7 cd 33 d8 02 ea 18 0f e1 bf ce 02 d7 20 1a 15 05 18 d6 fc 08 da dc 1b fd 1c f4 03 f5 19 df ff 12 03 03 d8 16 fe ec 0e d7 26 1e f1 06 f5 18 0f 09 e9 d2 00 f0 28 eb f3 fd fe da 03 0e ea 01 fd e8 29 f6 26 d2 d5 ff ed 0e d6 29 ee 17 02 28 e2 f0 11 35 03 22 ea 15 12 0c 35 e3 ee 05 06 3a cf 01 fb e8 15 38 eb ed e8 fd f2 19 f2 f6 12 ef cb e5 01 f0 19 f3 06 ec e1 e8 21 fd 05 04 f9 13 28 01 d8 ec da e9 09 08 06 f6 12 1a 2d 11 0c 24 3c 0f f2 fa 29 13 d6 ed 1d f4 20 40 1a 48 f1 3a d2 1f ff f8 ce bf ce 48 e6 fb f1 08 f6 16 37 26 03 30 02 02 0e e9 26 18 dc e4 fc fe dc ee eb 0d d8 17 01 06 d7 d0 1a f5 21 fb 19 f3 e0 27 11 da d9 27 05 18 fe 1b fe f8 d7 0a 22 ff 02 e3 fd d3 f0 0a f3 da 12 cd 1a 18 31 f7 ef 05 f3 36 f5 fa 16 00 d3 0f e2 0c f2 1a f1 16 d4 f8 10 d5 14 fa ed fe e9 fd 17 e2 1a 07 c2 f0 11 d0 ff d3 1c 26 fa f3 27 ff f0 45 e8 09 04 d3 d9 29 f7 01 2b 09 de 14 ff d7 f9 24 0f 1c 07 ed 16 06 fe 1d e9 33 f7 ee ff f3 ec e1 1e 08 2c f2 23 f6 e3 e3 26 05 f2 f3 e7 0f f2 fc 10 03 f9 d9 2b d7 1d cd 10 09 10 ff ea d5 ff ef 0d 21 ff 08 02 37 dc e9 17 10 f1 ee 1b bd 0b fa 23 0b e7 02 18 07 0b 2d 09 da f3 db f0 25 15 f9 f7 eb 10 0a 07 e2 10 b7 41 1a f1 fb f6 e4 f1 e2 1e f2 fc ef f4 f8 f2 f9 2e 03 08 13 0e 3b 48 1b 3b 04 dd 05 05 08 16 3d 2b e0 f9 cd f8 f4 0d ff 18 02 ee 25 22 1a 36 1c 16 fe dc c5 f1 df 1f f6 0f 0c d0 d2 05 bf 06 13 08 c9 1e 02 00 1e eb ee 17 03 f1 d2 dd df 15 f7 e4 01 30 d1 31 13 20 0d 1c 29 2c 14 2c ef e9 c6 f0 da 3d fa d7 05 05 1a fb 22 f6 ff fc 2c f3 0c 09 19 09 f4 22 fb 1b 20 35 06 30 04 d7 11 f2 28 f1 ec fc 0c f2 fb dc ea f8 ef da 1d ee f3 e2 e7 e2 f1 1b e6 08 de 0e 00 ef 24 2c 15 0c f2 03 17 33 1b 12 e0 12 f7 e9 f9 ef 1d e5 07 f6 00 08 fa fe 03 f5 fb ee e4 fb 15 ee 03 1a f7 34 27 23 09 f0 07 01 e8 06 e7 eb ec 1f 13 ea 11 f3 ec f5 ed e6 08 e0 01 25 e7 d1 27 1b d5 0a 1e ee f2 0e f0 06 07 0a ff e2 0f 05 ee df f9 0f ea 08 07 e1 ec 10 ea fc df 00 df dd 08 e7 e3 ee fb e1 1f 2b 13 1a 07 f0 f6 0c ef f8 f8 01 06 0d 16 d3 0d ee 1d f6 28 ba d3 f5 d6 0f fd bd e8 f8 01 f7 f3 0c 0c ed 01 e7 4d 10 dd fc fc 04 14 00 21 ec fb e3 19 34 2a 06 f6 fd 00 0c 41 12 e9 03 f8 e8 11 e1 24 e9 15 ea ff 2f 2e f3 d6 fe f7 1b 12 10 15 04 28 0c 19 f2 f7 0a f9 e8 11 e6 04 0d 04 ea 28 0d d7 19 13 f6 2a 01 f1 fe 18 d8 06 fa 19 f9 13 0f 26 3b c1 d6 34 de fa d4 30 22 04 e9 fb ef 2d 0c 1c 26 c4 25 16 12 27 f7 fb 0c dd fc 41 21 15 04 04 dc 07 11 f5 fb 0f 04 f1 d2 f9 15 ee fb 0a 22 f1 0d e9 f9 f7 1f d7 2a cf 0e ff 00 f0 2e 16 ef fe 09 eb f6 d4 10 0b fc f9 19 04 03 f2 1b d0 ef 28 fb dd dd 14 10 e7 0f e8 ee 14 21 d2 ec 07 16 d9 07 e8 f3 05 17 0a ff 0a d2 27 e6 fd dd 07 fb f3 11 05 0d fd 07 14 1d fc d0 12 d0 20 d1 f4 0f 26 28 ef fc ea 00 e6 e3 15 e0 12 0e 05 dd f9 df d1 f1 fc 12 fc 02 06 15 15 09 f4 03 1e 0e 19 fc dc ef 01 d7 00 fb 29 23 36 fd fc 2e db 0f ef 10 e6 f4 f6 ec 09 4f 10 04 18 f8 e3 e9 38 20 06 e2 02 f4 ca f2 18 0c d7 22 29 c1 f6 f6 13 0c ce fe 12 ef f8 e9 07 f9 f6 f9 0d 09 27 f8 20 12 29 db 0d d0 ff 17 0c ff e1 2a db d4 fe 14 0c da 18 27 d8 fe eb fe eb 01 01 17 fb 18 20 01 ff df 08 c5 16 04 fa ef e6 ec 1c 2f 07 01 01 fa 18 43 f1 29 24 28 e2 2c 02 f7 00 b9 b1 0e 2c 0b f2 be 23 21 02 18 f9 2f 03 15 17 09 08 f1 cf 18 fa 48 d2 f3 15 f1 0b d0 ce fd ed 19 e0 fa ed 3c 17 19 ea dd 05 f9 e5 df de ff 4c e3 f3 f3 ca fc de f1 eb ed 09 fd c9 f3 06 31 2b c4 d7 26 de 10 12 03 de e8 25 21 ee fd f1 df 06 1f ef f7 26 1f 0d 21 10 1e 00 e1 e0 14 12 f4 fb 05 ea f7 13 10 dc 0a 24 dd e0 ff e8 d5 14 eb d0 fe 00 d6 ff 03 f9 ef e7 1d 08 eb e7 f6 13 35 e7 1a 15 e7 37 09 e5 00 d2 27 f9 05 2c eb f5 1f cb 1d 0e 32 dd f5 f8 11 ee 05 f0 05 d9 16 13 f6 e4 fd 24 12 07 dd f3 ec 06 e3 13 f5 0e 20 e8 09 f9 09 cf 2f cd 06 09 2e ff ec e9 ed 18 ef 0b fb 14 dd fb fa 06 ee eb fe 42 15 d6 0c 07 e8 01 05 21 0e df 2b f3 ea eb ec e6 e7 2e e7 e1 1e f4 47 1e e5 ee f8 f9 fe d0 f5 ba 3d 08 e8 2e f7 d7 cc 0e 0e 40 2f ed f2 da 20 07 0e 09 1c fd 0f 03 c5 19 31 19 db 1b 12 ff 21 f3 06 d7 31 01 07 09 15 e0 d4 ec fb 32 f1 c5 eb 12 e9 fb 0b eb 1b 0a 0e f3 01 02 ce 20 22 eb 17 2e e8 e1 2c df f8 f2 d7 10 fc 1c de 10 f4 19 f8 f3 34 e9 08 ff db 10 fa 0b f2 e4 fe 09 14 eb eb 22 f4 0b e4 01 1c f3 07 12 ff 1a f5 dc 0b 02 04 34 f8 22 fd 0f 0d 19 f7 2a 14 db 2b 04 fd e0 f7 ea ff 28 15 ea df 0a f3 0b 19 0a 09 ee 01 e1 1a ea ef 02 fb 22 15 e1 f2 2a 17 ff 03 fa 0a 17 e2 1e ed e9 12 fb 24 28 0f 13 f6 bc e2 1b c3 20 ff 12 e0 34 26 25 f1 30 42 34 f5 1a 00 1f df f5 19 e8 2e 24 df 3a 13 bc de 4d f1 be f4 fa dc e5 03 bd 2b 12 f7 e5 ed 4c 17 36 e2 0d ff f7 05 13 02 ee fe 13 2f 2c 2a d0 23 f4 16 ee 10 f5 da cd f7 07 34 ca 1c c8 2d 2c d0 f1 c3 08 f0 25 f0 2a fe 1b 0d 0f bf 05 32 f8 e3 15 04 df c9 20 ed dc 19 2e dc 27 c4 ee 22 cf 12 0d de 11 0f 0e f1 df ec f5 00 1b 0d f2 23 38 ff fa 06 13 fe f4 ff 00 f9 f5 2f e7 04 0a 12 09 0a 00 fb e1 e4 db 2f f1 dd 34 fa ef 24 f6 e2 0f fb f6 15 ee 02 f0 fd dd c6 f6 07 1d ea 17 e2 fd 0a 08 f1 e8 ea 13 e3 07 f1 10 e2 24 fe 05 0a d6 0a e6 e1 e7 f0 20 04 fe 09 e4 fa e5 1b 0a da 09 fc e5 e5 e7 21 01 e5 14 fa e7 18 01 15 e4 f1 0c 12 de 0f f7 f6 fc ea 06 14 ee 10 d3 02 0d 12 13 04 e2 ea e3 06 15 0b 10 07 f1 d8 12 e2 e6 00 00 f6 1c 02 f1 e7 1e f3 21 fc ef 0c e4 09 22 dd 06 1a f7 e0 13 f0 e8 1d e3 e3 1a 02 cf 10 02 05 ed 21 db f2 12 0f 19 14 18 0b 1a 06 fb fe ec 18 ff 00 f1 e4 fc 21 06 fe 0b f8 e9 da f2 e9 02 f1 13 23 e3 ca ff 0a e4 f6 18 f5 0f fb 32 06 de d9 f8 ef f8 e9 13 1a 06 14 13 c8 07 d8 0c 07 07 1f 0e 07 f7 f8 c2 09 13 f9 fc f9 3e ea f8 2b 10 0a 1b 13 f6 fa 27 d7 50 cb d8 c1 e8 1d 01 f7 1b f4 03 04 19 ea 15 11 f5 1e d5 05 e0 39 19 e4 13 00 f6 cf ef 0b ea 10 e7 17 e7 be e1 1c 23 da dd f8 21 34 42 01 d2 e2 bb f3 ec 03 d8 00 e9 2f 14 e2 18 0f 0e 1a e0 d1 03 12 e9 ec 32 f3 f2 26 22 fd 11 12 fd fc 2c 32 0e 02 e9 1b f9 ff f0 fb f9 fb fa ff f0 1c f0 0f 01 07 fd 18 1c e0 16 e2 13 e9 e6 f9 ec cd 0f e2 f0 07 17 e6 1e ee 03 0c cf e6 0f 19 e9 25 e7 22 06 f8 21 03 00 da fc 02 00 2c 11 f4 f8 07 0c 14 ee fb f8 12 11 13 da 21 e9 f8 ed 0a fd 02 15 e1 ed e4 ff f4 eb ff f9 de da 18 03 fd ed f3 17 1a 2c 04 f3 19 fb e3 eb f9 24 1c f3 fe 13 f6 d8 18 ed f1 21 0b e7 21 05 f6 ff 31 d0 fd f1 32 ea 23 e2 08 e8 d8 d9 02 11 d3 d8 e4 f5 fb 16 f2 f2 39 f7 e2 ca f4 f1 e5 fc 04 05 4e 2d 38 ce d6 06 2a f6 17 2f 18 f2 d0 24 0f df cc d2 10 0c c8 1f 36 db 26 e7 e8 43 25 2a f6 1b 05 14 fb f3 1d ea d2 09 28 15 0f 1f 27 09 fd 02 15 13 32 19 f0 ec 16 d7 ab 01 b4 09 0d 0a 27 df 0b 05 04 11 16 0d fd ee e2 f2 0d 1c fb f8 ed 19 d4 e0 41 2c 10 f7 e7 ed f0 fa fc e5 14 21 f6 11 00 fc fd 01 10 22 fe 19 1b 24 06 f2 03 02 fa f7 f8 db f3 0e f9 00 0c de f4 01 e0 1e fd db fc 3c f8 09 0f 1b f6 12 06 f1 29 dc 25 e3 ef e1 eb f5 18 f1 0e f5 e0 f6 eb 01 24 00 15 45 dd cb 13 30 f3 eb 02 1c 00 06 f7 25 35 17 0e fe 13 fe d9 17 1a 32 de 43 19 f4 d1 1d d2 14 17 00 06 ce ee 06 eb df f1 18 e4 ff 00 d2 10 43 16 f7 11 3c b9 e1 0e d4 fa 13 dd 0b 14 ef 20 29 19 e3 d0 e4 19 24 ca c9 de e5 24 13 03 2d d5 ed eb be 1a 14 06 1e 09 fa 00 19 12 04 00 27 01 29 dd 14 0a 09 0c fd fb df 01 2c 2f 03 18 f4 d0 39 03 11 0d f3 32 31 ec 1b cd 42 fc 22 02 1f f4 ed f5 dc 14 0d e0 00 ce 27 09 22 f9 ff 09 11 f4 03 fd d0 e4 fe f0 07 1c ff 24 28 33 f4 f1 ec f5 2a 17 fe f5 e6 f5 eb 20 f1 2d 1d f8 ff fa 1f 3e 18 d6 1a 19 ef e5 01 d9 35 f0 11 c0 f3 1b fa 36 cf 17 fd d6 c5 1c de f5 e7 04 18 d8 e6 02 0a 0e c9 01 d9 ec e9 1e e9 e8 e4 0d f7 c3 1b dd fe e0 cd f8 ba bd d4 e7 24 e9 12 17 07 10 dd 0f 25 25 11 02 df 2b fc 04 d3 20 fd f2 ec df 07 ec c4 0e e9 c5 ed 1c 19 34 e8 ff 0e 08 fe ff 0e 02 0f 20 f3 d5 f0 fa 10 17 e8 e9 e7 2b d1 05 e8 f9 3d 09 0b f9 fa 12 00 16 e6 01 da fe 09 f3 f5 f4 ed d5 11 d8 fa 0b f7 ff 00 1b d6 00 0b 01 f6 13 0b 27 24 e2 0f f0 04 f9 fc ee 09 e0 f9 e3 e8 fd 10 f3 df 1e 0f 00 f6 0e 25 fe cb 0e 36 1b 16 1d d3 fd e2 ec d3 02 10 15 f4 fe 0f f5 f1 ce f6 d8 e1 bb 0a 26 f6 c2 1f e7 e9 00 28 24 07 f6 f2 ef 27 26 0e e7 f1 19 05 ec e2 06 3f f4 06 f0 04 21 33 ca 27 f1 d1 e5 19 11 df 12 09 e5 02 2c e5 1c e8 eb 33 0b 1e 0e e8 20 ee e5 e8 05 fe 1b 28 fa 35 fc 15 fa 19 ea e4 f6 e5 f9 f3 0b 04 02 26 1a f1 e8 fd cb dd e6 d8 f5 02 f8 fa 0f d2 2a dc 0c ea 0a ed dc 28 06 c5 f3 20 1e 23 02 1e ec 14 16 f5 1e c5 27 e4 e1 14 0e ff fe 1a fc 20 23 05 e5 17 1a 11 fd d4 1b 18 0f d1 f7 ee 2d 41 0b e8 e7 25 f7 de d9 fa dc 19 f8 fa ee 12 e3 05 1e 01 fe 23 07 21 14 07 1b f3 1e de 06 ed 12 24 e3 10 08 df 05 06 f5 e3 2f 1b 0d 03 fd f7 02 f6 09 e2 26 0c 33 01 eb fb cb f0 d8 02 06 0c 1b 06 f1 eb de 03 f1 2c 12 0b 08 e3 