fc e4 29 28 21 25 00 d9 11 0f 09 c6 f6 d0 2d e8 2c 09 21 07 e5 22 dc ec 12 2b 12 dd 34 0a 00 f3 2c fe ec 19 06 2a 7f df 1d 21 11 21 17 09 19 bf 04 de 29 9f f9 0f 46 f2 f9 cc 0c 26 b7 11 fb f9 04 e0 24 d2 26 f7 03 36 f5 02 b5 2d f8 ca f8 e9 fa fb 26 07 21 22 f5 23 e3 15 13 32 31 f8 e9 fd 2b 08 cb f1 f5 d1 41 10 d0 d0 15 f6 f0 17 f7 c8 c5 9f 29 27 f7 00 fa 1b 02 ae fa 10 fc 88 e3 18 e7 ef ca ed f1 f9 b4 ca 22 36 de 18 1e 01 27 f9 4c e6 c4 e9 0a 08 0a 21 c6 05 08 e2 2e 81 ea f7 2c f7 1d 1a 1f 19 ee 21 f5 04 ff e4 f4 0c fd 1a 23 0d dd f8 20 1a 17 f6 f4 f2 f8 1c f0 c6 20 13 f3 16 09 f7 04 02 ea 09 c5 12 8c a9 21 f6 f2 f8 bc 16 1d 20 e2 f1 d1 0c e4 1f 03 16 fe 36 2a 03 dc e1 18 05 14 c1 d9 0d 0b f4 e2 14 0d 09 09 05 0f fe f4 19 05 02 08 17 b5 15 28 f1 df 00 21 17 fb 81 1a 1e 1e ff ec f1 26 f6 49 a2 19 07 db e6 3c 31 fa 03 bd 12 ab d6 41 e2 fb db db 81 2d d0 0a 16 01 02 00 d8 fe ee eb 1f 03 fe c7 0e 1b 19 1f e4 19 17 1d 16 f4 da 2c b7 16 01 1e f2 15 1d d1 db fa 06 2b d5 f8 28 eb 24 98 1c d5 ad f5 18 eb f5 23 da f5 2c 10 e8 dc 3f 1e f8 ff 1e ec e4 dc 18 12 fd 13 0b f0 1c a8 f8 f3 0c ee d8 04 f7 c1 ed 17 be 0b 1f f9 fe f1 d8 dd e3 fa f5 00 e9 11 13 c6 01 dc d1 27 18 cf 01 e7 d1 23 9c 09 14 bb 17 09 34 2a fc e4 b1 04 cf 2c f2 0d fa 02 1c f7 ae e6 db 15 09 f1 e1 de 27 02 2c ee f0 ef 2b d8 1a 31 10 03 03 1f f5 05 11 17 1d 01 06 e9 0a 14 03 ef 0a 0b 06 09 25 03 f5 d7 1a 01 db c4 27 1a fe d9 ed 08 0d 09 01 fa 0d 08 02 0a 10 28 ee ef 08 da f5 0f 02 25 02 dd f4 00 09 0c 0a d1 0b 0b 04 d7 24 12 08 19 d8 08 00 fe 11 f9 ef 25 24 2d f9 f6 d6 fd d3 13 0e 29 cf ae db f8 0f fe fa 21 2d db 39 cc ec f3 31 1e fe e4 00 e7 f6 2c 1e 0a eb 34 12 16 01 f4 15 fd 0b db 0d 21 2b e1 28 ee fb 15 fb fa 0a de 01 15 fd fc d8 06 ee 04 18 1d a8 f6 20 19 e0 2d 3c 04 27 18 ec 12 14 e6 26 21 34 1c de 19 11 bb 1d 05 d2 fb d8 13 f3 f4 e9 0c 0f 01 07 f8 d1 c0 f2 00 1c fa 10 26 f3 d7 28 eb eb d5 12 f5 03 12 ed f4 ce 0d 2d fd 11 30 1e 95 23 fe d0 df 04 b2 bf 23 e7 d6 18 fb 1d a2 d2 0e c9 fb 07 ff 04 fd 07 dd fc db f8 fa 12 da 24 bc 16 ed fd 19 2b 23 cb d9 ef ec c2 28 b6 1e 0c 08 09 d3 eb e0 00 0a fb 23 fc f0 e3 14 2a f7 f3 ea dc dc 32 2d f3 16 d5 4e 32 21 e1 03 10 f6 37 f0 93 4c 16 c6 04 03 1a 23 28 fb df 1d d5 e7 ee 19 e2 f1 b5 2b 14 1b 24 f1 18 f6 f0 f8 df 3b 04 f4 b5 f4 f6 10 28 e0 16 fc 0d a0 f4 df fe d9 d7 dc 0c 02 cf 07 c4 06 06 10 fd f7 d8 c3 09 d9 ee 1e ec 0c f1 32 1f e8 e6 d1 04 f4 18 11 08 14 19 42 d4 f5 15 0b f6 01 2b 05 0f 0b eb 06 b8 15 bc 25 cc 0b 0d e5 02 f8 e1 13 ec c5 25 db 3f e8 e3 09 e6 fd 1a c8 1c 01 44 e7 d1 20 d4 0c 17 25 20 fd 0a 1a 1e 0b d2 17 ff f7 c5 40 1e ec eb 2e 48 16 ec e0 ea 11 07 e3 f8 2e 0b d7 ca fe 0e 2b 68 31 1a 31 09 ee d5 e3 e1 f5 05 f9 f4 16 d7 19 e6 16 12 1d 00 2a f4 eb 03 dc 22 dc 09 de 10 10 f2 15 df 05 02 de 0a fb 08 ee e2 e3 e1 c5 0e 02 19 ea ec 36 28 22 cc 16 ef f0 19 13 13 16 e7 18 1d 0a e1 fb 01 df 17 de fc 17 0c c7 ca 27 f4 29 f8 f1 f3 d9 1b 1d e8 ec d5 24 f4 ef 2a e2 e3 16 22 2b 0c 23 d6 f4 27 08 e1 db 1f 19 01 db e3 1e e2 ed 57 dc d6 12 01 1c d4 19 28 20 00 02 b3 d6 1c 18 18 cc e3 23 fc 0e f0 eb c7 e1 de a0 4a fd e1 fd 81 f8 3a 1f 13 0f cb d1 11 d0 fe ff f3 f9 09 e2 e7 1e 03 04 23 96 0f bf f0 dd d9 07 cd e6 e1 30 81 86 0b 20 e5 00 32 0a 3c 43 19 0b b3 00 ff f3 2d e0 a3 0d 3b f7 f1 09 dd 25 1c 31 20 e8 ba e4 ec e1 03 05 fa 0f d5 27 18 fd c7 d0 2b fe 24 1a 33 0f 1b fc f1 1e 1b ff 17 fd fa f7 f0 22 09 06 21 de e9 06 fd f2 12 1f 06 18 dc fe fb 23 f0 12 0e fc 21 d1 25 ed e7 0e f3 d0 0a 03 ca 12 23 02 24 1b 24 d9 bf f9 e6 de d3 e7 10 c0 f4 fe 31 ec e9 f5 34 be c6 f0 07 45 c2 39 f0 eb 0c 3b 1e 18 27 ed c1 20 d0 16 fc 02 e7 f3 0f c4 f8 ba 18 eb f4 04 ea 2f 19 02 24 d6 bd f5 0a 00 03 30 eb 02 fd f4 cc 2a 81 f6 1d 04 27 e0 12 1c 2d dd ed 1e e8 17 b1 1c 2b c5 f4 bd d9 ea 25 3a d2 04 d5 1e fc fa ce 0a dc 11 14 38 2b 0f 29 c8 00 f7 ee 1f 15 d3 03 f6 09 e3 ea fa e5 fa c8 e2 b2 08 fe e9 08 f8 2d e7 bb d7 42 cc e2 ef e6 cb e6 14 f2 e7 fa d5 0b d9 ed 32 c5 4d 31 11 bd f7 f3 3b 10 07 09 0e cb f5 25 fb 00 eb 14 40 12 dc 1d 09 0b e4 de e0 0f e3 05 12 ff 0f db 11 db e1 f9 11 25 c0 c9 21 9d 01 2d 0b d2 d4 fe 08 18 fb cc 19 ea dc d2 0e be 18 17 df fa e7 ff f3 03 26 d0 de d6 09 d7 d7 f1 f6 f5 f3 ef f8 13 dc ef ff 25 fe 0e dd ec df 0f fd 07 0c ee 14 0e d5 06 20 f3 1b 27 44 41 08 81 3a 19 22 f8 b8 41 23 1b 7d b5 ed f5 08 0e 20 e2 33 35 16 ea 92 fc b7 08 97 06 c4 d9 e0 15 00 0f 35 e4 81 4e bd 0c 08 37 31 f2 41 d8 ce d1 0e b8 0a 43 da 14 b3 e6 41 d0 e1 08 bc b4 14 11 c4 22 03 23 07 db dc 0c 30 e4 26 1d 24 1b fd 20 13 f5 f2 ea c8 e8 e6 d0 06 a6 00 09 f5 f3 e0 07 c5 15 06 dd 18 fb c3 20 dd 22 17 18 2d d8 de c3 16 d6 31 25 03 c4 e9 ef 08 16 fc e6 de 01 0f e3 21 06 1f ee 06 eb f1 37 04 22 d4 eb 15 00 15 02 c3 d8 1d 19 a4 0c d6 d8 e6 3f 13 f1 02 fd c5 19 1d d3 2b df cd 1f 36 36 c5 48 1a f9 2a e2 38 f9 fb de fe 3b c1 ff 32 15 19 13 e7 ee c0 c8 1e 07 04 aa 14 ef 98 13 b6 e1 c1 1a 9b e2 e7 df a4 e1 e0 e1 fa fa 9a 1e b8 f6 08 cd dd ab 43 f5 0f 0c e8 04 f0 44 fd 33 f0 cd 24 f4 0a cd 25 0c 0e e7 da 21 bd 14 3c 2a 1e 15 f1 cb 26 13 f5 07 25 d0 0b 0c 03 01 e6 f4 c7 fc f3 da de ec d3 03 10 ee f9 fe ea 11 28 f8 0d e7 fe 21 ee 29 02 0a fc db 10 01 1d 08 0d 39 21 22 32 de 20 18 15 17 ef 14 c3 12 10 1e be e0 0c 19 e3 15 08 04 f2 d7 23 0d e1 f1 da b5 ed c4 fe d3 c9 17 45 ef f9 da ed e5 9f 4c ae cd 2c 20 fc 28 11 22 22 02 08 20 e9 36 dc db 24 93 df ba ce 0a d3 d0 ee c9 be f0 06 2e 36 cc 24 0e f3 24 f9 34 ef 05 18 22 f1 c2 fc ef 1a f6 dd d7 e1 d9 ec e0 fa d7 05 02 01 fb 15 f1 0f 05 f1 dd 1f f6 f2 e2 df dc fd d4 2f 2f fc 0b e8 15 fb fa c2 ef fd e1 0c e0 f5 dc 00 07 ee fd da 13 fd 0a 10 ee d2 1a e0 e3 f4 ea 20 26 4a f0 13 0c c6 fe e7 18 fd d7 34 15 3f f6 bb ca bb f2 da 22 f3 d1 fc 1a 2e fa fa 0a ff e6 04 30 07 14 41 f3 e6 ef f4 13 ed c3 29 ff 2c 33 04 bc c8 44 16 2c ba e0 18 ca fd 0f d4 07 19 f5 fb 15 2e 05 e1 0b fd d4 1f 1b 23 29 46 27 40 db d7 ef c6 14 f2 fd b2 16 f2 0e a5 20 d8 57 3a 2f 43 e3 ed 12 bf c9 f0 14 16 02 ec 11 ee eb 17 08 e6 16 e8 d8 0d 08 14 0a 07 e8 e3 be 23 0a ca ea f3 1a 2d 16 14 f0 e2 01 27 c9 16 97 f1 05 e3 f8 ee e6 a6 d1 ff 25 ff e5 15 22 e3 d3 be b7 13 f8 01 fd d3 d8 f1 bc ee de 44 e1 15 17 4c e3 15 2a 2c a1 c0 ef 3b f3 f3 fd 37 0d e7 16 11 94 18 18 ae 05 