07 1b cd 18 de 04 0d ee e3 c4 e4 dc 0f ce eb 0c 26 1b f7 fc f8 de c1 fe 15 12 f9 21 ea 1c ea 0d cf 00 cd 4c 25 2b 28 24 10 32 e3 07 12 02 23 28 04 18 fd f3 22 c0 1d f7 28 bd dd 9d 12 09 08 27 fb 0e 13 f0 00 11 b7 15 0c 15 08 1b 0c 24 df 06 0c 0a ff 1b 1f e5 23 0a e9 26 09 df e9 16 eb ed 22 f6 fd f3 d8 17 d5 14 2f 2f f8 f9 13 0f 17 d4 0a f8 12 d5 e9 e4 d1 2c d3 10 2f 1d 28 04 04 fa 26 11 f3 11 d8 e5 f3 f5 ef 2e f8 1c 0f 14 ff f9 0d 08 10 dd f6 c4 e0 eb 25 16 ff 36 05 14 1a f2 fc 1e 00 f7 19 0e 19 f9 1a 09 02 c7 c1 ee 20 12 0c e6 f9 db ee 0b d3 39 11 10 1e f9 0c 1b 01 1f 09 08 12 e9 30 fe 0b 02 2a 25 0c f4 03 a4 e9 38 fe 17 ff 3f e8 04 30 da 0e 02 34 e4 12 a9 c5 e2 1f 09 ed d8 36 f3 81 24 e3 ea e7 27 fa da cb 0a 0c bd f9 d2 de c6 cd 1d 2a 20 17 f6 e8 21 9c c3 f0 26 f9 fa b9 f1 e3 ee 21 f9 e6 f8 05 ed e0 12 07 f4 0c 15 f8 d4 d3 2c ff 02 de 05 f8 d0 0a 15 18 0e 0c 1e 0a f4 de 09 f0 e4 09 00 10 c9 0f 28 11 0a f5 ea e4 28 19 25 17 e7 22 e9 21 00 b2 06 f0 d7 ff f3 0f 21 20 ee 12 f4 f5 c7 19 30 0c f4 0c 10 ee b3 0d fa 1b fa fd 1f 24 f5 04 b3 da f5 fd 1e 1a 36 c7 17 e2 11 36 29 f2 ed 2d f1 02 e8 f2 16 26 1d 1a b8 ea b7 c2 cc d9 fe 35 0a 47 21 df 19 03 04 fa 27 32 00 02 03 e3 90 06 f3 1a b3 18 1c ec 2a 14 1d eb e2 a4 eb f0 e0 cd f4 14 1b ff 04 f5 23 1a ed db e7 b2 f2 06 1e f4 17 d9 f7 e2 0f 02 de ef c3 1a 1f e0 14 0b ec e3 11 34 1c e9 2a 2c 16 0d 1e 0a 3c f6 22 18 20 f2 34 18 e2 06 f6 f6 19 1e f6 ff 0c e4 f5 03 07 f4 29 0b 24 f7 2b c5 1c fc 10 ce fe 04 f1 ea 2b ea f6 31 13 0b 04 1b 12 f3 09 06 29 f8 f9 e8 12 eb ca d2 06 10 20 c3 1c ae 1e 2d 11 1e 19 f0 14 e6 06 eb c6 e5 e3 28 14 04 10 d1 0a d5 e8 f2 08 25 23 18 07 01 18 31 1a b6 2e 08 ee ef 13 e5 ed 13 07 02 0d f6 07 0e d7 39 01 13 f3 ea d6 fe bb df 35 ed 15 1a f0 09 ef ed e8 d7 d9 e0 fa eb 01 42 30 03 17 17 11 13 46 2d d4 4e 18 12 f4 01 33 b5 a7 e5 0b 1a 29 11 ee 26 0b d5 e0 1c fc 0b ce 0f f3 1b c9 fd d9 2b 2d ef f3 20 21 d6 18 f7 15 eb ee dd ea f8 e3 08 e8 25 de 13 09 1d ba 01 1e 11 33 59 e6 e9 31 02 d5 10 d6 b5 e6 d7 0a 1c f1 22 05 f3 15 1e 04 f1 db 15 fb 45 bb d3 c8 0b 15 1c 32 15 ed 13 df f1 21 1a 10 01 c2 01 29 02 36 f4 24 24 f1 ed d2 f1 11 f3 32 3b e2 08 3f 13 f6 03 07 54 52 06 2a e3 00 1f c8 fe e8 ff af ca 3c 0e f8 b3 3d 05 0d c8 e4 f4 07 ee f8 0a d5 06 dd 08 d1 f8 eb 0f 11 e9 e5 0f f8 12 e9 d4 0e 30 c1 34 dc c4 1b cf 02 12 1a f0 3d 03 10 fc f2 10 09 19 05 f7 e9 fa 0d e8 00 1f 14 fa d7 f0 ca d5 e7 0a ce 42 12 17 41 06 12 0c da 0f d6 0b 2b 0e f7 20 07 eb dc fc f9 23 f3 de e4 da 1d 37 2f 0b 01 0c 43 01 f2 cf d4 eb 1a 26 25 f9 f2 36 c6 f4 33 4b e9 3a dd 1e 1b f4 51 03 81 2a 02 12 b1 c2 b6 c4 fd fd 55 f0 e9 f5 2b fb 26 0d da 11 ee 03 fb 0d df 20 2a 27 1f 09 0b 15 0c 02 14 08 f0 d7 ea 01 0c 1a ec 0e f9 f1 1d 22 1e 20 f0 07 11 f4 0f e7 2f 09 e4 19 09 07 12 f3 fe 09 ef de fd fa 05 f5 e5 00 1e 1b 20 0b ed 12 d1 30 db ef 0b 02 13 ff df f1 24 01 f5 18 2c e4 0c d9 3c e1 36 1a e1 25 ec cc e5 0a f5 ea 08 14 f3 13 c0 17 dd 0f 31 f1 c1 28 ea 04 11 14 27 1b f7 25 2e f0 04 08 ec 18 0e 19 f7 17 09 10 fe 81 e3 81 ca e3 0c f1 17 9c 1c 26 cc 13 03 fe ad 9f f9 f9 28 ec 16 f6 f1 d0 42 27 f0 21 10 f0 fb d3 d6 dd 33 de bb fb 1b 42 1d ad e6 03 f6 0c f6 de f1 c7 16 e7 2a 21 18 dd e4 f8 f9 09 01 24 da b3 fe 40 f1 df a6 f9 cf 13 04 ca 2e fe fb f2 ec d0 b7 43 0b 01 1c 25 af 01 b0 20 d8 da 27 48 0f f0 17 11 19 35 13 f0 cb 26 d5 c1 ca f0 22 0c ec 0c b3 b2 28 06 e7 f8 25 09 d3 35 24 f7 ef 35 12 cd 1f d1 16 d8 e9 ec e9 26 3a 08 16 ef 0a 10 da f9 17 f8 f0 fb fd fb e3 29 c3 f4 21 1a da f9 08 de fb dd 1d 25 f9 f7 15 e1 07 1f 09 1c 26 0a ff 1e 0c 14 ec 12 22 ff 34 e7 f3 19 23 17 14 c1 14 e6 ef ef df 1a e1 f4 d4 f3 f6 f0 cd fa 09 1a d2 05 fa 0f e3 1a 11 fe e8 10 10 f4 0d 0e f9 17 f5 f0 1f 1c da de 00 e9 25 2e e4 ef de ee 1a 05 c8 0b ca ea 24 0c f8 16 04 c4 0e 19 24 34 f1 d7 08 d7 e7 28 e6 14 b3 e8 05 ec 02 0c 07 08 02 0c 0d f3 de ff e1 d5 02 30 1f 05 1e f7 00 06 f2 05 fe f9 ec ff d1 df 1b f2 e0 f8 21 2f 22 17 16 0f 1d 07 00 1c 0a c3 2d e4 f6 ba fc f2 01 1c 04 ff 07 f2 1b f6 2c ef 20 f0 f6 e8 ee ee f1 15 27 0b fb 0c 01 23 0f 1e 10 03 e6 f8 0a 23 f0 20 43 ea de ba c8 d7 0f 15 f6 e8 06 c8 f6 cd da 17 b5 08 c0 aa 24 1f 5b ef 2e dc ab c9 c8 29 cc 02 29 e8 0d dc 14 11 0c 16 f8 f2 fb f7 ee cb a9 f6 07 1d e9 1e 17 0b e0 2c ef 03 09 e9 e9 e6 fd 0a 2b 1c 37 1b 1f 2c 14 17 e6 eb 19 c7 de d8 01 13 e2 27 e4 1b bd f0 14 1c 03 d1 ee f8 d5 e9 0c 1d 0f 9a e4 18 dc e1 b7 ef f0 06 00 06 03 f9 c5 13 f0 fb e3 bf c1 2b 12 da 1c f8 01 f8 13 f5 12 12 04 22 f5 19 0c 0c 27 0d c9 e6 01 12 1d 08 e7 ff fa 17 05 08 f8 e4 16 12 02 f0 fa 17 13 ee 0a d1 f2 01 12 16 2e 0a 08 e5 1e e8 ca 13 0a 24 21 f0 01 f1 c6 23 e8 f4 1f 2c d7 f5 d8 05 a8 02 32 24 ef 0e c2 10 cc f9 b5 0e ba 00 12 f9 19 bf ed 0a df f9 0a d8 14 02 f5 0a 44 01 07 c8 19 02 e3 02 1f 1f fa 1c 05 1e 14 f4 fb 0d 20 3e db 13 2a fb 30 e5 04 14 ef 11 b4 f1 e7 27 fd cd 02 1d 10 ed e1 d4 18 21 17 ed 0f ef d0 e2 f3 33 0f 33 1a f8 02 ee 0d 20 28 e4 d1 12 f3 19 05 00 09 c7 0f c3 fb ee 29 da 24 07 4d fb e9 10 f0 0e e4 29 0d 07 28 dc e3 35 3a 8c eb e2 be e7 e1 de 0d b3 2f 07 0b ff 04 34 01 c4 b0 17 09 03 0d cd 0e ef 13 18 13 ff 1b ee 21 d4 ff ef 16 e5 35 19 28 17 d7 28 ec ec 03 f3 f4 f3 dc ea 1d e7 13 3a 0b 03 08 18 fa 0a 08 11 29 07 1d 08 2e ef fa cc c7 1c dd 16 31 02 0e 28 cd 19 03 ce d2 0b 0a cb 0f d1 43 10 e1 04 e6 e0 e2 0d 2c f1 33 0c f5 2b de 09 e4 09 f8 d4 dd f9 f6 0b 34 f2 f5 f0 04 f9 e1 ee f1 f1 18 0c 07 20 38 ed 01 d9 29 0d 0d ff 09 11 16 f4 39 fd 29 24 0f dc 08 f1 f1 dd d4 24 e5 f3 f5 e6 df 15 ef df 26 e6 ef 04 2c fa ef 0c 17 d9 ed 1f 0d e9 0e d8 08 08 09 e8 2c e5 ed dd 15 fb 2b 10 0f 01 07 17 dc 0e f5 20 11 21 d8 15 e2 b9 ea 20 ed 1e e8 db cf 27 ff f6 4b 03 e1 e3 9d c8 ca f9 08 02 2e b0 de b4 05 35 27 0b 3a 21 da f8 cb 07 e4 f7 31 15 1e 37 39 1e d1 e7 0a 2c bc 18 0f 07 03 15 ea 1e dc da f2 2b c7 d8 8c fd fd e6 30 29 1e f1 12 2c 0b 06 19 1f 09 0e 29 ec f0 0b ef 19 f7 19 cb f0 0d 00 07 e2 15 fd eb e6 fe 0e 0d 20 18 d1 c1 e6 dd 0e f3 d3 d2 fb e9 14 bc 18 3d f5 e3 e9 18 02 e9 d6 de ff 27 3d e2 3e 37 9f dc e7 28 c8 18 39 37 19 10 1b fd 10 e2 de d6 db 20 f6 ee 07 14 21 00 f7 fc b5 d9 e6 02 cb da 0c 35 df cf dc 13 2a 3d 58 e8 ee f1 e9 1d 4f 09 40 37 0a 23 f0 ff 21 20 18 e1 27 b4 f0 0c c7 14 ea 3b 