1d d3 36 1e 08 ff 01 01 e3 e8 e9 fd d6 08 05 2b ce 1e 04 19 02 ee 2e ed 00 fb f0 f1 d0 ff e5 24 fd f5 eb 1e 19 f7 07 fd 0e 22 d5 14 29 ef 0d e0 23 05 0a dd 11 ef 0e 07 bc f8 f3 dd 08 0b ff d6 01 18 28 e5 0d ed ef 07 d9 10 19 10 17 e3 23 1e 19 fa f1 fb fd f1 38 fd dd da d8 f2 0c 17 19 f1 1f 0c 0b f9 10 f3 b7 0c fe 25 f3 e8 d8 28 13 ec 03 f5 e8 08 07 11 10 e3 b4 17 0d 14 f2 f6 e7 fc 20 81 14 e8 e1 2d 1b 01 17 10 01 0d 0e e8 05 07 2c 1b 1a 0c dd f5 fa 1a 1c f5 fa fc 12 06 0e 01 2b e7 32 09 1d 4e 11 15 1c f7 e9 da f8 e4 f0 df 1c 16 05 23 fd 12 07 06 f5 05 02 ec 1e f3 ee 14 f4 f5 db 11 be 0d 26 33 dd 12 fa f7 2f 29 08 05 08 0f dd 01 00 0b 20 fc 25 f6 f8 0a 07 28 fe 0e f3 ec d5 d0 0a 13 07 1e ee 06 08 fc ea 07 eb 1b 19 fa e0 09 fc 1a 1c 08 21 f2 d6 f8 29 fc f6 db 26 f3 0f 12 f6 1b 08 eb ec 12 f5 fd 0d 0a f5 e2 3b ff ec 06 25 eb e9 fd 14 33 19 dc f5 fe fe 0c 02 12 22 06 11 e9 f2 1a 1d df 00 22 ec 13 05 0c 02 2a df fb 15 d7 c6 0a 0b 03 e1 c2 02 05 fe f0 fe e1 19 d1 e3 e5 1a 1b 14 f1 dd f3 9b 1f 10 0d 03 e8 ea 11 0d 17 00 e8 08 f9 fb e6 ea 24 fa f5 19 c4 f0 10 f7 1d d9 19 0f 20 01 08 eb 02 df 00 04 28 c9 ed d2 fd f5 e8 01 f2 00 af f3 e5 de fe 10 01 d8 24 02 df 07 18 0e 00 eb 3d ea f8 11 1d 29 fc dd d7 02 2d ee 01 14 02 b1 18 0c 1b fb 25 05 f7 0e fa 06 13 1b e6 2a ca 1b df f9 0e eb 05 fd 22 0a 00 e8 0e 1c e9 ed 25 f9 a4 bd 19 0f 30 f9 f5 d8 15 ff e4 e7 ee 1d 02 3c 0a f3 0a ea 16 eb f1 f5 01 0a 2a e5 1e fe 0a f2 fa 3b f3 12 e1 0a d1 01 fa f8 f5 04 01 f2 0b fd 0c d2 08 be 09 28 c9 df 0c 25 ea fd 08 1b 1e f1 0c f3 1a e8 0d 31 15 fe ed fc 16 f9 f5 08 2c fd e3 19 04 09 d7 f7 07 e9 d0 cf e6 e7 2f e4 da fa fc 1f 05 eb 1b e2 13 f1 3a fd e2 00 1d fe 15 da f5 e0 11 1e c7 18 0d 03 d0 0d 1e 16 20 f3 00 0f 14 ec d5 0e cf d0 14 f0 11 0f fd 32 24 1f fd 15 ec e4 2b 0a 13 19 0c 22 32 ba 00 d9 2d 0f f4 09 f1 0e ef 18 08 f0 fd f9 16 de ee 0e 0b ef 10 20 10 d5 00 df e5 d3 f6 2b ff 02 02 e4 08 0e 30 eb 1b 17 19 06 35 d2 0a 2b fc e3 2d 2a 0e 10 1b 21 03 e2 03 cf fc f8 09 f9 f5 28 f4 e3 01 00 09 1e 04 33 c9 e5 f1 2e d5 e1 1f fc 03 f1 da d3 14 16 e5 f6 09 f8 11 32 e6 01 0f ea dc f1 f5 15 0f ff 06 f2 cd fe cc 27 1b 19 e1 02 0b 02 1e da 08 0c 11 1c ec ce ef 0d fc dc f0 f2 32 1b 15 2d f5 07 0a fb f8 00 fb 2f df 1f 03 e7 f4 da db de 07 d9 fd 14 25 10 f6 d4 b2 03 d6 0d 02 00 02 2c ef 12 f9 1d 2f d5 ec f5 0f f6 0f 00 1f 02 03 02 f9 0c 11 f4 ca 03 0b 01 e6 e7 f6 fc 07 08 d9 22 f7 0c fe 0d 18 f1 e2 c8 16 20 13 fa e3 1f 13 23 df e3 ec 30 20 e5 10 05 e6 f3 fe 1e fd 19 be f0 18 a5 03 df 0e 0d 00 e1 1f fa 1d fb ec d2 15 dc eb f7 16 1a ee da fc ea 13 1d 24 1f 1c 26 2b f3 25 3e d5 17 1a 31 1f 07 ac ec f9 db 0c 10 cd ed f4 e9 f9 fa f7 0a 05 08 bb 25 ed e3 0c 04 dc ee 30 ff 2c f3 f1 21 03 f1 0f 07 f2 21 47 ea 00 f2 fd eb e4 e2 ec 02 f8 eb e8 1b dc e1 ea fb f2 f2 13 20 0b 16 16 ec e3 d9 09 0d 2a ea ec 29 0e e9 df fa ed f3 f4 11 f9 f2 30 e6 27 20 05 c4 cf d8 21 ba e8 05 15 0c f1 cd 16 ef c2 ff db f9 c7 ab 20 1d ff 0a cd 15 05 c2 03 10 f8 fe 24 f8 da 0e 31 e1 09 05 fd 12 09 cf 12 00 0f ea 2e 10 e6 f0 ff 14 28 eb fa 12 07 02 0b 19 f3 df e0 f5 1b ee 13 03 14 1c 00 dc bc f3 f1 14 0a 04 06 0a 19 f0 f8 d3 08 d4 03 00 fa 01 1c 33 0c 00 eb fd f2 ec fe 20 04 02 e4 0a 30 fa f3 0c 1c dd f3 d3 fe f1 f7 09 0f 03 e7 14 0a f2 e5 bf 28 00 ec 23 f1 10 f7 14 03 07 11 21 ee 06 f5 fd 13 0c 12 3a 2e c7 20 12 2a 17 f1 ff 00 fc 0b f5 10 15 12 30 eb 09 16 f7 c1 e6 29 d1 1e 07 06 0e f8 10 05 1b 0c a9 27 ff 1c f1 26 00 dd 18 ec 00 cb df 08 04 c5 f7 fb 25 e4 fe e1 aa fb e8 0f 8c f2 2e e9 d3 0a 03 f8 2d 08 1e 1c 09 02 e8 f3 20 fd 15 ec 1a f6 ca 09 05 f1 06 0e 1e e2 ea f0 ff f3 21 e7 03 11 21 fa fc fe ca a2 13 de 08 f3 c6 0d f6 fc 1c ff dc 19 f9 f4 f4 0a ff 1a 30 04 fd fd 0b f9 e2 1b ef 25 f4 43 33 f0 fa e6 03 30 fc 0b f7 19 f9 e5 1e 2f fd 13 17 fb 1a 22 d9 0f f4 e0 23 f9 de 05 ea f1 03 e9 f7 d0 f7 1b 3a f6 04 03 d8 04 24 f7 07 e1 ff 26 29 c0 0d fe 0a 1e db bc 1b e6 e5 24 e4 e9 16 e7 13 f2 0f f8 22 f6 1c 1d ea 1a 06 c3 09 16 ec cf df 0e 22 db e7 0d 1e 0f 17 f8 23 25 11 e9 b9 d8 f0 fc 09 00 07 0a 22 f3 12 ea ae fe 00 0e f8 f6 e6 f1 38 16 07 b2 f3 11 10 ec d6 ea 10 ed 32 ec dd 2c f7 f1 f2 fc 01 f4 0e 18 cd 0f 08 df f1 d5 00 ea f5 d4 0a ea 1f e1 d5 06 23 c9 f3 1c 19 f0 3a ee 23 dd f1 12 ce fe 1e dc ef 13 0d f1 f3 22 19 17 25 fd e4 ff bf 04 de ec df 01 11 03 f8 09 27 1a 0d 0c f0 2b 01 09 ee 10 2b e0 e4 0c 1d 20 0b f5 0f fa 13 ff 0a dd ee e2 ed f1 d5 06 11 0b df e1 1f 1b dd 23 e6 ee 16 35 e3 07 11 1b 19 ff 10 e5 ea 2a ed fc fc 04 ef 21 21 f2 18 14 f0 fe 18 f5 0e e4 09 09 1d db 0a ea 22 fc 2f f8 13 0b 0a 05 1b 03 ff 02 1d de 04 17 fe 0c 13 0c 0d b6 e4 35 df e1 2d 0a 2b 0d fa df 07 ec f6 e8 ec 32 04 fd fc f0 fc bf 04 f0 db f5 f4 cc 03 27 f7 21 0a 0a e7 04 0f f0 ef 07 f7 e1 1f ea 01 19 18 f7 f8 21 11 0f 20 30 1b 13 26 ff 2f 10 fe ed f3 f7 20 ba 27 09 00 f0 ff 34 18 0a 07 08 0d df d0 21 06 06 e2 ec 16 ec ee fb fa 0c 2f fe f9 30 20 09 28 00 f4 1e 15 15 d6 01 11 15 d3 27 fd 05 21 fc 12 29 fc de ff 33 e8 16 ec 30 38 31 b1 04 f1 06 1f 01 07 fe 15 0c fd 10 10 e7 b4 16 19 00 f3 f7 c6 c6 fe 1d eb 03 ff 2c ef f8 0c 07 2a 04 ec dc 04 12 25 13 d7 18 0f 13 df e6 0b 02 0f f7 fc ed 04 18 f2 16 f0 07 01 f6 e5 1a dd 26 07 18 10 ec 0d d2 2d cd 0e f5 14 1a fa b3 f9 b3 0f 0f d9 0c 22 1e f0 ce 2a eb f0 18 95 09 e5 1a 03 cd df 11 fb e6 0a 0a 17 0c 13 0a 16 01 fa 0a ec fa 1d eb 00 27 18 05 31 ee e4 ec 2b f8 ef 29 02 09 ec f6 15 d5 ee 01 f1 bf fc e4 0b 1c d5 2b 00 0a 99 2c f8 13 1a 05 03 04 02 06 28 f0 28 16 c7 f4 e4 10 15 f1 00 14 ef 07 04 01 19 0b 21 d1 2c b6 1b ec 06 23 ff f3 16 09 09 01 10 07 f2 e0 ea c5 fe 27 12 fd 1d 27 0f f3 10 e6 07 16 e5 f5 f6 2f 0b 22 01 2b 1d f3 db 10 f4 fa 27 d2 cf 09 1e 01 e9 f4 10 d0 de 0a ea 17 f1 eb d9 10 ed 01 e6 f9 21 e5 fb 0f f1 df 1b fc 1c 00 dc 15 e4 26 12 04 28 fd e7 02 e2 10 0c 02 da 04 04 06 35 f5 12 3a e1 d1 b3 ec 07 d9 08 01 04 b9 00 13 01 fc de 0a 0d 04 1e e5 33 03 e1 0d 13 f0 fd 25 22 00 b3 fd db 1a ec 34 f8 da f8 f3 f4 11 e7 de f2 e3 f0 e7 ff 0d d9 d0 ec f2 0b 13 08 d4 23 14 fa 03 de 0a 0e e0 b9 19 d0 31 da e3 11 d2 df 2e d0 f1 eb 1d 25 dd f2 f9 27 25 eb 18 30 e1 01 cd 04 fc ff ee f7 d3 e5 ef 18 1f 04 f1 21 10 f1 24 e8 f8 e4 0b d5 1c 20 e4 ea fb de ca 18 dd ed d3 07 09 09 07 1b fd 2e 16 1e d4 0a 2b ea 0d fa 2b 21 d2 01 e7 f2 e1 dd 04 0a fc 29 0b 15 02 fa 01 02 0b ef ff 03 20 e8 09 fb fb f8 03 09 f7 3f 26 1b ea d8 0c f0 ea c6 36 02 ed fe 17 e9 c9 fe 1d 14 2f 35 d4 b8 cd 01 f1 e6 d9 17 ef cc d9 10 24 fe 16 e5 0a 10 ee ea 19 36 ee 18 ff cf 1e 06 f0 08 c2 e1 eb 01 f1 12 34 fd d5 aa ea df ff 10 1d e8 f3 05 f7 da 20 ee 10 d1 23 1b bb 21 fa fc 29 18 fd fc 0e 0f f4 20 08 01 11 ed eb 1e f9 ce f4 21 06 10 f4 10 e7 18 28 f5 1f ee 18 de f1 01 ec 08 e3 21 01 f3 f8 0c 06 23 0b ee ce 0e f5 0e 02 0b 1d 0e f9 d4 35 1e 19 fd 20 db 0f f4 cd 02 00 e8 e8 37 15 ef ea 27 1b dc f8 0c fa 02 09 0b 15 f0 e1 3e 0b e1 21 3b 30 f7 37 fd f9 f6 f1 2c 2c 03 f3 fa 09 f9 d8 d8 1c e4 e6 06 ff 1b dc d9 e1 f0 00 e4 fe e5 1a 05 12 e7 db fd fb e5 14 24 05 c8 de 0c 26 f6 12 fc 0d 0b 0d e3 04 21 0d ef 16 fb f8 f8 11 f7 de df f5 27 fb ed f7 01 03 e6 06 cb 15 09 f4 2f 09 0d 2f f0 c5 d8 ce f2 e7 d3 ea 1d 32 22 fe 1f 26 de 1b c4 17 0a 03 25 04 ee f1 12 0b 0a fc f0 f8 05 e7 25 ff 14 0d fc e6 0e dd 0a 0a dc 0e c5 02 d9 21 e4 f6 f5 d0 e2 2a fd 07 0d 11 02 c4 19 f6 09 fd 25 19 f3 ef f9 02 09 06 c5 cf 07 f8 fd fd d7 f0 fb f2 14 d7 f0 da 0b 21 09 11 d5 16 28 f0 c2 0d d4 de 17 e6 0a 11 c4 ec ed 07 02 f3 ce f4 15 02 0e 1b e8 cc 33 ed 17 18 ef f9 fd 29 00 0c f1 f8 cc c7 d4 09 e7 fb fe 03 28 f4 09 22 07 02 f1 22 d3 e7 f1 da 06 eb 27 ec f1 0e 03 19 fa e3 db fd e6 fc 32 15 34 e6 de 0a c6 f0 c6 f0 12 06 ce f9 18 11 15 fd db 04 e7 22 16 0d 14 0f 2f 02 0e f7 27 0a 12 20 ea 20 dd f8 0f dd 18 ed fa fc f6 ff 07 f6 c8 e5 c7 26 22 11 eb e0 fd 0f f7 02 f6 e5 0b f2 11 f0 1e 0d f1 f9 ea e8 e5 0e 1b fe e0 00 ee 0b e6 e7 e9 f1 38 23 06 f1 04 f1 f8 11 06 d8 d4 f2 de 23 18 33 c2 fb e3 03 15 14 1f 24 d7 ef 24 ea d3 f0 f3 dc 0b 1e 09 0d 09 f5 ca df ec 2d f4 e0 f6 fe 05 01 1a 0e eb fb e3 1b f7 cb 06 ef e4 0e 14 fd 02 f4 38 f2 c7 17 01 fc d4 1d e5 ee 09 05 fb 09 10 e3 0e 1f ee b9 e7 ec d8 10 ed d3 05 e3 f6 0c ef f4 2a e4 05 f4 e9 16 04 0d e7 fb d0 14 f1 e4 e9 f8 02 1d 10 ea 2e ec d4 d4 df 21 fd ff f7 f2 0f 0d dc ed 00 f1 1d 36 ff 31 05 d9 18 0b 18 fa 0b 1f 06 2e f6 17 1a 0a f1 c9 23 05 0b 04 e7 2b 09 13 da f7 e3 d8 26 ee 1e ed e0 1c d4 00 cf cc 1e e8 d6 23 f2 f3 f6 0a e1 22 02 e0 13 fa 23 07 00 37 e4 04 c4 03 17 ec c9 d8 02 e8 01 ee dc a0 18 f9 ea fa 03 f6 22 ff fe 0b fa ef 1e 0e 0e 0b e3 b7 1e df eb 1f fc ea fb e4 f4 f5 ea f4 db 25 f4 27 02 eb 32 ed 29 fd dc 03 ee 29 14 fb c8 f6 e9 16 1b ee 14 fc ea c7 d0 17 fd e8 ff 1e 10 fd 27 e8 e5 f7 1b 07 0f 12 31 1d 0e e4 30 0e d2 20 14 11 2e f6 04 e4 e4 09 fd 07 ad 27 1f d9 06 1c eb f5 0c 11 12 19 01 23 24 19 40 e0 09 18 cc 03 fb 02 24 f6 f2 ed 05 f7 be b5 22 0b 02 f0 d1 10 f9 05 26 11 0a 0f 1c 08 fb e0 02 bf 06 17 31 f1 fb f0 e0 f8 eb 0d 30 e6 ff f7 f9 f2 d2 18 20 d3 fc f7 ea 3d 0e 09 dc 03 05 19 d5 01 32 01 06 0a fa f9 d8 10 f5 e1 07 f3 13 f3 ec f9 ff 2c ee 08 1c 1d ed 0a f1 36 e7 18 38 37 f1 c2 d0 08 11 fc ca 2d 1b 13 0c e9 e4 e0 20 10 00 0d 14 0b f8 dd d7 fc 0c 10 04 ed f0 cf 09 26 f2 f9 21 ec e5 08 de 20 82 f1 de 0c 12 08 07 24 03 f5 1b 20 0a e9 f5 25 13 e8 05 df f8 06 f0 04 d5 ef 17 f3 1b fe b6 f3 f6 12 ff 2d fb ee 2c d2 12 f0 0a f6 0f f6 1e ef 10 08 c8 15 20 0f fd ea ec 0d 2f 0c fd d8 27 01 30 26 fd f7 e0 ff ff 35 f0 e1 0e fb e8 c9 ed fb dc e9 d8 e5 06 e7 0f e8 fb 0f e3 fd 02 c9 eb 04 34 11 0d e2 fe f5 0f d9 cf f9 02 e6 0b 18 1b d4 ff ef e9 fe 0d 2d 16 08 0e d5 fe fb d6 20 05 15 19 d1 f1 d9 27 f5 f7 ee 0e e4 fb ee ea a1 fd f5 f8 0f e2 18 8f f9 10 06 fa de 0b 0e 02 f4 bf f3 0c 17 09 da 02 c8 25 03 e1 e1 f4 f4 f5 ef 12 0a f0 29 15 06 05 d6 eb dd fb 01 e8 1c fd 02 ef ff f2 d7 23 02 e9 e7 e6 12 f0 da e3 0d dc 12 f8 df 08 ef 05 eb ef ed 1c 0b dc da 01 20 e4 e9 0f 0e 23 0a e1 23 0a f2 f3 d4 e5 1e ea fb fd ee fb eb c3 05 2b 13 f1 d3 1d 20 e9 e4 13 03 ec 0b e8 e5 07 04 0c 26 05 da 03 f1 23 fe d9 ec ea 11 ec 2e d8 c9 06 10 fc f4 f7 07 0e 03 0c 07 e6 34 16 20 0e 2c da d0 dc ff e9 02 12 d2 db e7 25 ec 1d 20 f4 ee 01 0c 26 04 1f 1f d1 2d 01 fd 0a e0 24 26 e1 f4 fb 0e f6 d9 fc f3 ed 0c fd 0a e9 25 f2 f7 1b 1f 05 fd f8 2b fd 36 f2 f9 0a de 03 da 2a d2 e2 ef 08 04 05 05 0f 04 05 20 be 03 05 2e d5 ee da fe 0e f5 00 e3 e2 fc ff ec df 1b 38 10 02 00 10 ef f8 19 03 0b e5 f6 13 07 df c8 a6 f0 d6 02 e3 06 03 ff 19 25 0c fd 0c 13 f2 01 e0 fd 17 ed 18 1e f9 28 e3 02 0d 04 00 fb 0a 27 0a 3f ea 07 2b 0a 1c 2d 0c 06 ed da e5 1d f1 21 15 08 ca 27 bc 29 e5 2a 07 e1 f6 06 09 e5 1e de fe 17 06 11 de 18 c0 0a de 03 f7 0a f0 0f bf 14 c2 ee c0 fe f3 16 29 31 04 f5 0f 21 fc 25 f8 db f8 e1 22 ed e6 d8 08 2f e2 f9 0d f9 04 02 ed 18 e3 35 d4 18 1a f5 1c 25 0a 20 d6 fd 06 fb dc 15 0a 0c 11 04 d4 20 f9 01 1d 07 02 16 22 05 06 fd f8 1f 1d 0d 19 17 f0 df 17 ee 18 1a c5 fc eb df ff 12 f0 f5 c0 e9 1c 12 fc e1 1f 03 0c eb cc d7 f2 10 d6 e8 ed ce c3 fb 0d 09 02 ec 23 f7 15 0c 25 0a fa 03 09 e7 04 30 bd 17 f7 04 c9 16 08 0a f5 d4 0a 24 f9 d4 fb df df fb 0a 11 f7 f9 f1 28 e2 ef d1 de 1d 22 fc f6 0f 08 e0 cd 1f 0e 19 04 fa ff 2b e9 09 c0 14 f3 1f 15 14 18 f8 1d 17 11 0a 07 de f7 15 13 e1 fa fe f2 fb f3 fe ca e1 15 f9 fd 06 e6 e7 d7 00 1d fb ea d4 17 aa 0f 0f 46 21 16 f2 03 d8 21 ec 00 fa 15 ec dd 01 06 e8 0f f3 d7 f2 1b 05 f8 09 1a 19 07 cd 13 fb 0c 33 00 f1 1a 1c e0 fc 16 e0 f1 f7 1a d1 1d 22 ed eb 0c dd 18 eb 18 fd f5 0b d1 18 0b d3 0a d8 15 16 c3 e0 0c f0 35 29 f2 ed 1e 1d 11 ff f0 e2 03 1a 03 f8 ca f5 d6 e9 13 dc be 08 dd 07 26 da f2 05 1d 14 d5 e7 04 02 39 1a fe be 10 12 1c ec fa 18 47 fd d3 ee e9 df ff 21 f9 e2 f0 12 15 c6 19 04 1b 25 d9 f2 df 05 cc dd 22 16 08 f9 1c f9 0e 00 04 0f e2 ff 0f 0c fc e7 08 ea d4 e9 c5 2c 1b 13 e6 01 de 2a 1c 1c e6 f4 ea 04 28 0a e5 37 0b e5 e9 ce 27 06 04 1b ea eb e2 02 ed 08 eb 07 0b 24 2b 18 04 dd aa 23 03 e2 f0 e9 fa 27 2b 06 2f e2 dd 11 39 22 27 09 06 e4 d1 1a 30 fb fb 02 f8 fe 03 12 27 18 e6 20 e4 e6 f3 f9 f7 08 1f ea f8 03 e7 f2 11 ba 0c f4 ef 14 e0 f4 1c 09 ec 19 1f 20 3d ed ed 25 22 16 fd 2a 0e 0b 03 13 09 03 fb d8 db 04 16 04 f2 d0 16 e4 02 f0 e1 06 f2 29 f6 04 10 1e f2 14 e9 df ff de f0 d5 20 45 10 0d f1 23 0b 18 ee 17 1e 11 1f 0c dc 13 fd f1 f4 04 00 25 9f e4 ff 00 15 da 06 b9 11 29 da c6 08 01 1a 20 0a 06 1a f3 da e6 03 f6 33 31 fa da e0 03 0c f0 fb 0a c8 01 0c f7 0a ef 25 d3 fa c9 01 10 0d e7 d3 d8 ec 09 0b 12 01 ca e1 0f f4 16 eb 0e 18 fa f5 