ff 29 f0 4b 2f fd d9 43 28 79 6f e7 ff f2 de 68 e9 52 61 f9 de d0 d3 56 9d 0f 3a ed a0 e9 0b 3f ef d2 bb 27 81 f4 44 23 22 20 f5 ea 09 5a 6c dd a4 df fd 4f 7f 13 d5 16 ac f9 17 37 bf 3e 5d f6 12 e6 1e 6a de 06 02 5b 2d db 1c 79 c6 99 93 e4 c7 df e9 17 b1 a1 c0 f4 93 39 71 07 4d 01 d1 41 2c 6c 70 d9 26 38 19 69 05 0c 2d 7a f2 78 76 e6 ba 5d 7f f8 f7 59 6e f6 7f cc b0 df ca c4 dd 37 