8a 6e 6c 91 80 5f 56 66 65 7e 98 ac 9c b1 83 6c a3 a2 6f 6a 71 a1 8f 80 7d ba bf a5 7c 59 5c 94 a1 47 84 a1 a1 5e 51 4b 5c 6a 7b 70 5b b2 85 5d 97 b2 a9 8a aa 9e 7c 5d 4e 86 b4 a4 48 50 6a 66 70 7e b2 a2 91 89 95 9b 87 90 78 57 52 60 a5 99 81 83 68 52 a1 9a a1 52 91 a0 70 a5 bb 72 50 51 ae 9a 9b 6a 67 6d 4c 5a 6c b4 70 70 86 47 4a 39 67 6d c0 78 57 74 72 68 4f 70 77 9a 62 58 88 8a 7e b9 7d 5c 86 88 7d 9b 9a 90 3c 68 87 9e 6a 8a 70 9b 9b c0 9b 8a 89 96 a3 4e 95 ab 50 8f af ab 99 6f a0 64 5c 94 95 91 a3 98 78 66 92 98 a9 9f 94 46 62 80 5a 5f 73 8a 48 4b b9 8f 85 45 5f 85 