98 80 82 7a 8c 5f 81 15 93 52 78 91 6d 5f 8d 90 2e 8f 78 bf b4 6d 8c 89 95 7f 5c 8f 64 a4 a3 5e ac 79 91 8f 81 83 95 87 88 85 89 9c 67 77 95 a1 9b 80 72 6c b1 79 75 6e 7e 97 68 7c 8e 76 7e 63 a9 8b 68 a3 9d 5c 8a 7c 6d 73 64 94 7f 63 80 72 98 69 6a 7c 86 8a 7d 95 47 70 8f 7b 8f 88 63 a2 88 8b 89 72 60 56 6a 9d 99 a8 86 7d 66 67 91 9a 4a 75 9c 85 6d 9e 84 6f 79 92 90 87 7c 9b 8d 7e 94 70 66 6e 6b 67 8b 78 7a 7b 8b 99 6f 92 88 71 6a 79 8b 64 92 7c 85 83 69 74 69 7c 60 6b 81 91 6b 69 73 79 60 7f 9a 64 75 7a 95 8c 6b 81 70 85 8f 6e 8c 99 71 71 63 71 7e a0 7a a0 7b 6c 77 6d 8d 7c 93 8e 7a 60 94 62 77 83 69 96 60 7f 7d a0 43 73 a2 b0 94 76 a1 89 81 68 56 68 5c a4 9b 68 98 80 94 90 87 6c 92 74 6f 80 9e 7c 78 77 a8 a7 86 73 60 95 8a 84 7f 60 6a 9c 83 9d 82 93 67 60 86 a0 75 a3 af 9d 69 87 2a ac 90 94 91 88 5d 7e a6 9a 38 -1 55 b4 87 92 83 a8 a8 7a ad 8d 7d ae 20 61 94 47 a1 6e a2 3b 99 7a 58 6f 95 4f 92 8c 87 98 9f b0 0a 99 85 91 95 6f 8e 78 72 8d b7 b0 80 95 7e 86 8f 86 9c a0 8e 9b 98 63 6c 75 8f 6d 86 79 6b 8a 70 9f 6f 7f 90 68 7d 64 69 72 7e 92 8b 83 78 91 8c 89 6e 66 8d 79 66 97 91 73 70 61 75 71 82 98 6a 77 95 84 88 65 6a 88 83 6c 94 7e 8e 90 67 60 8f 73 6d a5 79 93 79 60 9a 7c 8a 93 9d 8b 6a 49 82 7a 8c 85 60 67 96 92 9c 93 90 6c 69 85 7d 74 92 71 85 9b 86 97 93 8d 76 78 98 93 7b 68 8f 7d 76 74 7b 90 95 97 9f 83 83 8e 76 97 a0 8f 83 94 85 80 5d -1 86 7d 7d 80 4c 6b 92 56 9d a8 7f b0 b0 68 79 9a a8 79 51 6a 4b a7 91 54 9f 75 b2 64 88 9c 76 4d ab b8 62 7a 67 41 82 9f 77 77 6d 8e 8f 9d 70 69 5d c2 a3 8d 95 ae 93 6b 89 5e 78 ac 79 59 95 59 85 88 68 5a 7d 69 80 67 b0 7c 7a 8b 9a 52 95 a1 85 84 54 6b 85 98 76 94 90 90 85 6f 5c 8f b7 7c b8 a9 8a 68 68 7a b8 8b 5e 6b 50 6f 76 89 60 60 85 85 88 8e 90 9e 64 5b 6d aa 84 39 80 7c aa b3 85 95 89 6e a0 57 7a a7 86 73 62 41 4f 80 70 74 4b 98 b2 64 ab 57 52 b4 5a 7a 43 7d 7c a3 66 a9 47 4b 85 97 86 96 69 4a 73 8b 71 71 51 35 76 a2 7d 59 58 63 5b 82 79 85 b1 5b 75 c3 9a 4d 64 5f 65 80 80 96 6d 61 a7 70 b5 91 5b 75 9c 81 79 9b 62 63 8b 81 62 b4 72 65 7e 87 b0 8f 7a 66 b0 4c b6 a7 a0 8c 89 61 b4 9d 73 65 99 86 54 aa 72 61 77 af 8d 9b 8a 9e 8d 5a 7a 85 91 93 85 90 6a 2e 74 78 67 72 59 66 90 51 65 ae 6c 67 87 70 8b 9b 71 7e 68 81 84 a7 7e 64 4d 81 96 6a 95 51 a6 57 b7 a7 7c 6b 85 52 a1 bc 74 92 9a 80 7f aa 5f 57 69 b4 a9 9b 91 8f 95 6b c6 76 92 85 90 67 7a 67 6a 55 8e 6e 75 8e 83 5d 4f aa 4d 49 8e 7a 89 a9 5b 70 6d 84 52 a6 7f 70 63 63 be 7e 92 a0 98 55 99 c9 5f 79 69 77 a0 ae 66 97 88 7c 5b b1 67 54 7b b5 b7 a0 9f 7a 71 70 40 7c 80 66 87 83 93 ae 63 7d 71 70 a5 8e 68 96 65 80 81 92 8c 76 6e 6c 79 6f 60 6c 74 6c a3 96 8a 72 51 95 80 5a 6c 9e 40 6d 8d 89 71 a7 4f 61 6d 73 6b 6f 89 51 92 92 79 3d 5e 5f 5f 56 65 7a 6c a8 64 94 9c be 6a 57 7a 97 99 6f 6c a3 81 51 94 91 7b 82 ae 83 7d be 8f 80 8b 9a 93 8a 71 7a 7f 68 ab 5e 8b 9a a8 56 b0 c7 7b 82 86 57 9a ba 7c 9e 8b 6d 8e b3 7a a8 9b b3 a1 b7 9a c0 a0 ae 5d 8f 95 44 61 91 9d 74 9e 9a 94 6b 81 88 71 94 5d 4d af 9d 81 8e 69 6d 67 7e 88 8f 81 7d 93 92 9c 66 52 95 76 82 87 ae 38 4c 67 98 5f b4 30 75 6f 5b a0 81 b6 63 94 92 62 4b 82 76 78 6f 7f 7e 7c 50 7c 87 63 37 c2 58 25 57 67 6e 8d 4b 82 b1 76 7f bc e9 ac 58 74 4b 67 56 4f 6d 4b 78 bf 3b c6 76 6e a5 89 89 6f a4 7a 8f 91 a7 71 a4 99 83 56 75 6e 7c 9a 78 8a 5d 86 99 51 54 88 60 53 57 b0 6f 85 77 7e 3d 82 76 3a 5b 69 63 7a 42 95 8a 63 84 80 c0 99 4b ae 87 69 6c 89 90 86 93 7a 6f 68 5f ab a4 70 bb a1 7d 92 9a 87 6c 78 72 82 ac 74 8a 3b 80 7c 95 6c 65 a2 a2 a5 95 a6 a9 72 47 66 68 6e 80 95 8f 86 7c 79 8f 6c 83 9a 74 83 8c 63 79 61 83 87 91 81 84 93 80 8c 5e 82 6d 85 8d 88 5d 68 79 73 87 6f 9a 7a 92 7b 92 87 7b 94 79 7c 72 88 7d 78 7c 6e 87 6c 7d 7a 87 9a 85 8b 91 98 99 80 9c 83 69 80 72 90 75 6c 83 63 78 7f 79 79 87 88 74 7d 76 81 8e 8c 96 91 74 6c 7d 7f 8d 6d 67 68 82 6c 6a 6c 96 69 97 69 96 6b 76 71 73 83 71 7a 93 80 8a 6d 74 9a 9d 8a 77 64 76 7a 6b 88 76 88 b7 91 7f 5a 42 4a 93 6a 6d 6a 92 66 57 9f b5 61 79 8a 5e 95 8e 7a a4 72 8b 90 b5 5f 94 4b 7e a2 68 84 82 77 42 a2 83 48 54 6d 37 a5 99 8a 7e 93 71 4d a2 7b 73 68 c6 c6 9d 87 b6 6f 94 89 a7 63 6e c9 ab 76 01 7e 9d 61 58 8b 86 57 6b 5d 95 97 85 82 8d 69 af 64 a7 85 66 84 8f 8e 88 74 6b 83 45 58 84 8e 60 9b 85 51 88 94 9c 89 80 85 82 7e 55 82 6e 64 bb 8b 77 6c 87 7b 6f 95 94 49 75 82 4f 76 8c 70 6f 97 8d 72 79 7d 96 7e 6a 97 84 7d 88 7b 77 84 80 8c 83 95 8e 96 80 6e 80 94 89 78 83 6f 74 97 96 78 72 7f 9c 8f 98 53 7e 75 87 6c ab 96 6d 5c 90 a4 5c 92 82 79 74 94 a1 6a 6e 66 52 83 87 82 9f 86 8d 74 6d 7a 92 82 6d 70 70 63 8c 8e 8f 93 8f 8a 81 8e 6f 95 90 99 86 8a 72 8e 8b 68 ad 94 84 55 52 7a 9f 71 a3 5f 6e 93 97 6a 73 9e 7b 8f 70 7c 7a 84 8a 7e 67 95 86 a2 a8 67 a9 96 ae 6b 5a 6b 89 88 8b 87 a3 7a 3b 88 c2 75 01 66 b5 7a 85 66 92 89 7c a7 90 86 7e 0c 8f a9 49 a6 59 c8 10 86 89 66 55 bd 39 86 8b 75 6d 99 9a 03 a7 5e bb a3 9d a5 94 7b 9e b5 b3 b8 30 66 a5 6e 26 80 37 a8 39 75 77 64 65 a8 94 6c ad 8c b1 bd 3a 84 72 9c 47 15 65 38 9a 99 43 8b 6d 9b ba 66 59 4c 98 8f 98 8f 7f 98 6d ac a5 87 92 3a a0 81 98 73 53 69 9a b1 aa a7 90 31 3b 72 7e 78 5b 6e 90 a3 70 72 a1 91 6b 91 ad 7a 83 71 90 9c 7e 82 a7 5a 64 83 79 8c 82 6a 7b 92 89 a4 88 51 4f 7e 60 49 9d 69 87 66 81 8d 80 64 6e 5f 86 69 5c 54 52 80 7f 66 7c 69 7a 90 60 96 a4 8d 90 64 74 83 85 77 78 77 92 6f 83 6d 66 67 4e 86 95 97 7e 96 6e 80 9c 8e 72 7f 64 87 8e 71 78 8d 6a 99 69 71 75 70 70 8e 76 74 84 7e 61 65 8b 7d 7f 3b 73 9e 82 79 9a a4 6e 76 96 95 a5 74 93 89 63 73 ac 72 74 80 6e 9e 83 64 66 79 43 9f 9b 9c 8a 91 a9 7e 85 94 8e 80 56 56 6d 82 81 68 78 98 90 9a 9b 6d 68 59 78 ab 8c 9b 75 6e 8a 8f 6c 7f 64 5b 89 8a 84 73 6e 76 90 88 9d 85 8b 6c 6b 75 9d 92 74 b7 95 57 7b 6a 9c 8e 84 94 96 73 5c 8c 94 6f 7d 6b 96 53 8f 3b c5 b7 78 a5 69 6d 9a 5a 7e 71 6d 7e 8b 9a 4e 6f 73 5d 6a 9e 64 97 87 65 8f 6a 9e 32 6d 7b be aa 8c 7c 7c 64 85 c7 b3 6d 74 65 6d 6c 7d 9c 95 87 8c 73 64 9a 80 8c 9d 8d 85 64 57 74 94 92 81 64 7f 8d 5b 72 78 6a 83 69 66 73 9d 69 9d 6b 9a 72 79 89 68 7c 9c 77 72 7b 7e 85 7b 93 98 6a 5d 74 66 95 76 67 7e 88 7f 88 b6 79 74 d8 db 5f -1 5c 98 92 7d 5e b0 6b 09 9c 91 7c 5d 90 cc 58 b8 87 ad a1 6a 86 a1 74 62 5c 8c a2 44 93 c1 e3 -1 6d 7c 39 45 88 38 74 c8 51 78 8f 5b 7b 65 79 9e 83 c0 9b ad 9d 9c d1 c4 76 63 73 6f 86 71 6e 91 88 7b 87 7f 81 42 8f 7b 8a 92 5e 7b 85 7c 89 91 7b 86 93 5d 6a 74 70 98 84 84 97 94 8e 74 65 85 7e 7c 98 91 91 70 84 68 8d 7e 65 75 89 95 90 5d 7a 71 75 79 6f 87 75 65 63 95 69 96 8e 80 98 ae 8e 86 74 84 82 6d 8e a6 7c 89 71 5a 79 68 88 8f 7b 88 98 71 9e 7b 90 78 5a 7c 79 86 91 4e 7c a6 73 9a a7 7b 99 85 7b 70 7f 90 80 6d 67 74 72 74 6b 6a 90 91 8e 7c 81 85 93 60 76 ad 74 61 4b 89 6d 65 70 8d 6f 8c 96 5f 6f 85 57 49 81 62 a7 93 86 82 88 98 89 ad 6e 6b 72 84 b6 8a 96 7b b1 51 a2 a9 6c 53 7a 5b ba b3 8c 71 9a 6c 66 95 93 71 84 b6 8c 89 74 97 54 67 95 69 63 9d 8b 74 6a 7f 8b 77 76 69 82 95 9e 6e 51 8e 97 99 77 6d 8e 7e 8b 85 99 8f 83 99 7a 82 9c 5e 8f 8b 55 75 87 8a 7f 76 90 8f 83 9b 69 74 7f 95 63 7c 8b 7f 66 79 53 74 7c 99 75 98 9c 88 75 66 97 9b bd 6f 65 32 7e 65 8d 60 71 53 8b 34 71 9d 5d 6d 88 7f 99 8d 70 a3 80 78 90 87 4f 7d 80 84 a8 73 64 80 8c 38 a2 b4 88 81 91 60 9e 97 6a 5f 7d 69 7a a8 63 9c 97 88 82 aa 92 ac ac 95 5f 7f 68 75 66 7d 88 a0 80 8b 62 6f 89 9b 98 88 61 67 92 74 73 72 83 85 74 72 75 85 77 69 67 92 72 6b 6a 96 83 76 77 96 7e 6b 76 9b 8a 86 72 84 8a 82 70 6c 75 6d 8b 8f 80 8d 7e 8a 76 79 64 82 75 8e 63 5b 87 a4 9e 95 96 a7 71 8f b4 99 5a 97 94 7b 8a 25 4c a4 54 5b 95 8e b8 93 b6 44 9d 99 66 85 43 87 8a 96 7a 98 6f 85 6b 71 89 96 7d 57 3d 78 99 8c 30 5e 73 ac 7a 5a 56 47 54 88 78 8e 60 8a 6b 6d 9b 84 88 68 6a 79 62 96 7c 8c 5d 37 af 7a 67 7b 78 ab 89 a0 7b 98 91 86 81 70 75 a0 67 90 7e 49 78 73 85 66 6d 6f 60 5e 9e 7a 79 88 9e 83 51 7e 7e 83 91 91 96 5e 66 96 5f 95 bf b3 70 9b 9a 88 95 93 9d 78 8a 76 84 5b 92 a4 9d 7d 7c 72 93 7c 84 81 88 8e 95 8d 8c 77 88 6f 79 8b 84 68 88 9a 5e 8f 89 7e 7a 8a 7b 8d 85 84 7a 68 68 80 7f 4c 63 7a 6b 94 7d 95 78 6b 7b 65 9c 96 67 62 8f 86 63 96 7e 76 80 95 88 68 77 6c 84 70 7e 82 80 83 94 6d 7b 8b 92 66 6b 8c 71 89 91 95 82 85 72 86 6f 75 76 65 96 68 8e 8c 70 6a 88 69 68 90 66 76 84 7e 8d 91 7f 79 76 78 96 83 7f 66 7e 7b 63 7e 6d 77 93 79 6e 64 7d 67 8d 7f 99 a5 6c 84 a1 93 75 6f 9e 6e 53 66 7e 92 59 88 7f 6a 9f 8c 8a 9b 73 82 6c 90 7d 73 9d 85 7f 7b 68 7a 8d 90 a0 6f a1 86 69 61 6e 74 88 9c 9d 6b 68 69 92 8b 7a ad 93 76 5d 39 62 74 94 79 5b 6c 83 66 87 9a 71 84 b3 94 99 8c 93 6e 69 6d 5f b1 63 63 5c 5c a6 8a 82 5c 96 46 c8 ab 95 71 71 3b a5 b6 54 6a 7c 7c 5e b8 88 57 89 c6 89 b0 a5 b1 76 5e 99 68 83 65 87 6d 85 83 65 67 95 7a 78 64 82 6e 77 91 7c 69 6f 8c 84 95 8c 71 7f 65 7e 6d 93 99 65 97 7d 98 63 8b 93 90 78 81 86 73 64 70 6f 93 91 84 96 6c 6c 79 84 87 64 81 81 65 83 83 97 79 9a b9 8f 99 9c d4 60 87 3a a6 85 74 54 bc 67 28 97 94 72 -1 86 af 7b 86 6d 8d aa 8e a7 97 68 7f 33 74 7f 30 89 a5 ca -1 92 7a 58 46 b1 44 a2 96 86 a1 a4 82 06 ab 62 b8 83 8d 89 96 77 96 c0 a2 a0 52 97 b5 64 4a 61 8d 57 89 65 76 5f 65 80 6f 6e 8a 43 3b 6d 7a 72 9d 74 8e 68 75 83 8f 57 6a 53 7f 88 7d 94 92 9c 73 76 a6 88 4a 93 67 87 b3 97 8a 85 60 48 b4 75 5e 75 8f 91 88 87 a3 8a 59 8f 76 74 aa 73 66 91 70 a3 64 73 8d 79 44 a0 91 97 7f 73 b8 7b 5e 78 80 92 83 7b 7e 72 7a 84 5f a6 8e 91 aa 79 5f 88 96 90 83 86 79 80 8d 92 9b 89 75 70 7e 9f 8a 7e 55 88 75 7c 9f 9b 7d 65 52 60 8b 69 85 6c 83 96 99 91 86 5f 62 94 79 83 76 71 7c 6c 64 71 92 79 88 5b 7d 78 8e 9a 6c 7f 94 76 6a 70 a0 9b 99 9b 72 80 66 70 94 6e 8f 68 7d 78 7e 5e 96 60 86 8c 89 71 7a 96 71 73 8c 86 86 a0 68 95 bb 88 93 40 78 91 77 89 6b 66 51 96 52 78 a6 32 62 81 7f 87 98 86 6d 64 71 6a a8 42 94 4c 6a ab 93 87 7f 72 43 b2 9a 7a 71 96 5d b4 a0 93 8c 92 55 50 a0 7e 61 92 a7 ad 95 87 b7 7d 67 68 98 8d 48 83 ab 81 c1 9c 8b 72 6f b8 c2 6c ab 7a 72 88 28 74 81 73 65 86 8d b2 8a b5 32 ab ba 7a 7e 2f 5c 81 75 4d b0 3a 46 83 63 ae 9d 47 36 81 60 81 76 47 4d 91 80 9a 34 5d 74 69 5f 7f 88 b6 27 80 c1 26 11 ab e7 6d 12 84 6a 83 5c d6 ab 41 64 6c 41 d8 31 9c 60 8e 2b 37 72 5c 9a 74 5a 51 70 97 d5 96 26 4b c4 aa 96 e1 a7 56 ab 91 7b 96 7d 5e 58 6b 8c 73 1e 4b a9 89 64 d7 43 12 39 78 8b 97 6a 9c 58 6c 77 7f 68 6b 72 76 7b 93 99 38 69 a6 8a 9a 7f 83 81 73 88 75 70 69 82 9a 61 87 70 92 84 68 8b 66 7b 6d 8c 90 94 7a 8a 73 83 92 77 5f 77 6d 9f 97 70 77 66 83 6d 92 83 65 59 7d 94 6b 9c a9 a5 6b 5a 78 82 80 86 81 a9 83 50 4b 94 77 79 99 99 88 9d 71 9a 89 81 98 8c 7c 91 55 80 95 64 7e 66 88 46 8b 87 6b 72 7f 8f 86 a3 93 82 7b 55 81 7c 69 87 6f 94 a2 96 6d ad 8f a0 85 7f 6b 6b 7f b8 5f 89 7a 70 6f 71 88 73 61 5a a1 81 6c 4e a1 93 8f 92 50 9e 8b 78 84 77 56 70 63 89 77 93 90 a7 88 5d 6e 7a 88 8b 90 6d 59 9e 57 8d 95 6d 37 85 5d 99 91 81 6e 93 96 9c 69 99 71 72 79 80 7a a2 7d 7f 5f 77 6e 90 95 93 80 77 5c 72 86 8d 75 95 8a 71 8d 68 9b 88 79 6f 9c 73 89 75 6a 94 56 75 7b 87 59 67 72 85 69 7e 61 5c a1 97 76 63 8a 8c 72 7d 70 42 76 56 6b 65 77 a1 7b 8c 7b 9a 8d 82 72 47 66 59 6e 80 61 6b 81 69 63 8c 69 71 88 6d 92 82 5c 94 64 7d 80 7b 94 99 86 83 9f 7d 93 6c 8f 49 a5 8f 8c 74 6b 8f 97 9c 98 7b 8c 85 6e 92 75 8d 85 a6 99 9e 80 7d 7a 7d 90 9f 75 9e 85 77 92 78 72 8b 61 77 94 99 79 8f 75 85 91 61 90 72 87 85 50 9a 76 5d 9e 81 8a 8f 6b 66 79 7b 89 6f 71 62 8e 95 7b 8e 78 8a 90 78 68 8d 75 79 84 7b 8c 9b 75 9c 6b 77 97 9e 9a 7c 77 76 6f 86 7f 70 7f 93 85 83 77 8d 82 63 7b 86 72 97 5f 4d 6c 9f 9b 92 3f 98 8a 8b 7b 95 6b 86 62 7c 77 72 62 8f 97 8e 6f 6d 75 82 76 9b 9b 7c 8c 63 5f 92 3a 82 8b 96 a0 7b 97 8b 6c 9f 8f 7c 90 5c 87 9a 6d 69 7d 5d 87 8f 6c 64 80 71 77 88 46 79 9b 9a 83 66 77 8e 70 6f 5a 93 5e 86 77 74 76 7f 94 ab 5e 5d 5a 8d 78 8e 94 78 8f 78 7e 87 64 6d 95 47 7a 91 71 6e 69 9c 97 7a 75 77 74 7e 77 9c 72 77 a2 b7 78 5a 7c a6 78 81 8e b6 54 4f 8e 8c 9e 2c 77 b3 74 9f 4c ba b0 63 b4 70 8c 9c 6b 76 78 45 64 87 9a 7d 71 7c 45 8e 81 7c 6d 74 61 7c 90 3d 66 5c 81 ac 90 6d 73 78 56 99 c1 c7 9e 6b 82 7a 6e 6d 9f 5f 40 8c 7e 98 84 5b 8a 91 60 66 a2 df a3 7e 68 6c 52 62 73 6a 66 66 b7 45 bd 8a 88 b6 5c 73 67 ae 84 81 97 b0 8c 8e 78 61 79 69 a4 6c d3 4f 83 6f 78 7b 51 50 81 4c 56 74 77 7c 66 9e 84 6f 86 75 87 65 74 81 84 99 6b 87 4a 7d 9b 8e 77 7b 81 84 6a 8c 69 5e 6e 95 7c 6a 81 8e 91 75 6d 4c 96 8b 89 86 70 8f 8f 7c 6a 84 7b 79 74 8f 90 81 6c 63 8d 61 84 7e 88 7a 75 78 5d 74 7a 6b 72 68 7b 8c 99 69 6d 62 70 98 80 7a 77 7e 9e 7a 85 5a 9d 70 9a 65 64 65 7a 8b 8a 6e 77 71 87 9c 68 78 9d 89 78 6f 9b 9e 74 8e 85 81 7e 91 75 96 80 6a 7d 95 5f 80 71 77 8f 64 81 5f 