92 5b 83 65 69 77 7d 70 88 6d 9e 8d 5c 6a 55 75 70 a2 26 7f 77 48 62 7e 91 74 4c 6d 66 93 67 4a 85 9c 9a af 8c 9d 98 7f 95 43 8f a1 4c 80 6c 8f 53 68 8f 49 57 87 68 66 5d 6e 93 8d 93 75 57 6c 84 79 80 ba 67 6c 81 60 8c 79 90 75 49 6b 52 3f ae 3d a6 a8 9a 85 30 94 96 88 8d 9d a8 a4 b4 4d 7f 6b 79 97 70 a6 81 7c 5b 50 78 54 79 78 71 5d 99 9a 8a 04 72 5f ad 66 4e 53 96 7e 31 60 9d be 9e 78 60 5e 56 84 5b 95 9d 6a 89 82 74 93 96 a1 70 66 78 a1 6a 8a 86 93 91 87 9c 83 69 75 87 5d a6 7b 87 7b 6e 79 6e 5d 7e 63 80 95 8f 68 9d 87 6b 91 60 6e 8a 9b 90 6c 81 80 70 81 6e 58 a3 79 84 9b a0 62 4f a1 70 6c a1 74 75 78 8a 96 6c 7c a6 a8 54 86 9e 83 84 9c 83 8a 99 95 67 9b 93 66 5e 7f 70 93 57 81 62 77 a2 89 63 9c 74 77 9c 9c 23 74 23 73 72 83 9d 60 64 65 93 9f 7b 8c 6e 69 73 8d 92 97 9c 37 a5 50 95 60 73 7d 80 bb c3 8a 87 91 66 78 53 9d 75 8a 83 86 7b 70 83 7b 90 6d 9d 72 5e b5 85 86 9e 79 4f 8f 7a 51 af b5 a8 83 9d 47 cb 5b a5 7b 85 a0 86 65 6b 73 7a 95 a1 85 85 b5 9b 48 5a a6 65 b3 6e 8d 99 49 b5 82 6f 79 48 41 bc ac 74 6b b9 4b b1 a9 8c b1 5e 49 87 a9 7f 91 a2 6c 75 47 72 78 83 4a 7a 76 a9 46 36 88 62 93 6a aa 35 63 9c 86 ba 0b 76 c0 89 6d 9f bb 6f 4f 59 9b 76 79 54 8c 75 5f 96 6e b2 5b 33 46 8a 3e 93 b1 9d 7a 4f 87 82 67 76 85 96 94 9e 4c 7a 71 56 79 8f 59 80 8b 40 72 6c 9b 86 a7 86 5e 7f 9a 8c 7a 77 93 9e 68 94 97 99 66 80 8c a7 71 8a 64 66 a4 95 6c 71 7e 7a 4a 95 93 62 aa 76 98 97 7d 90 99 64 83 7d d1 98 7a 29 7b 4f b2 6c 59 8f 71 6c 62 9e b2 57 78 57 7c bb 7d 82 65 5b 46 90 85 77 95 9a a3 90 a1 6b 2b 8d 51 43 75 62 8b 7f 73 64 8a 6e 74 c0 84 7a 78 67 aa 66 8a 64 49 80 6f 7e 50 8c 81 6e 8e 6f 95 8c 80 76 3e ae 42 8d 58 46 8d 77 8a 40 8d 5d 65 8e 61 6c 78 56 93 af b8 70 5c 86 7a 93 8d 6b 4a a2 4a 76 a2 7b 60 90 82 90 67 78 61 8c 83 9b 4f 77 a3 6a 8f 6e 5b 83 92 86 6f 9e 83 84 5a 84 a5 a1 a4 80 76 98 75 82 62 88 84 aa 72 79 83 86 7d 81 61 93 85 4c 8b 70 78 65 94 8b 8c 70 66 94 83 92 85 a2 a7 95 92 59 62 6d 71 38 83 9a 8c 5c 8f 7e 7c 86 6c 6d 88 89 88 47 74 8a 81 73 6a 90 8b 59 61 77 98 8a 91 89 a4 68 85 7f 82 5f 9d 8f 8a 95 b7 81 a2 60 99 84 85 98 83 5a 72 3b 8a 69 62 91 7f 8a 6c 85 62 7d 6e 91 c3 61 5e 64 79 8f 59 85 a6 6f 95 aa 65 93 8e 7b 85 97 55 85 78 50 86 4e ae 73 5a af 79 91 4a 72 5c 94 70 6b ab 62 95 8a 88 86 5e 98 7c 9d 7c 4b 76 70 ac 71 86 54 63 64 73 82 6e 82 5f 75 88 58 2f 19 8a 94 76 5e 81 8d 4b 9a a5 3c 84 60 7a 55 a2 b3 50 81 85 4e 86 a0 78 80 a9 8a 7d 56 95 8b 4a 73 87 7d 9d 7e 52 94 a4 43 87 62 9f 82 67 49 5f 75 5c 7d 7e 93 b3 6b 83 6e 6b 8d 90 4e 76 60 a1 9f 67 87 68 89 9f 81 75 38 77 7d 74 73 85 9a 83 51 9e 74 81 7a 71 7f 52 90 94 70 64 72 ae 86 69 95 81 72 95 a0 71 90 a6 89 93 79 7c 87 58 71 77 90 6c 9f 99 8f 75 9e 92 51 9f 71 a1 8b 97 7a 9f 66 94 6a 9a 54 4e 6c 66 a0 a9 4b 6f 4b 78 84 9c a4 67 92 b2 76 6b 7b ab 97 9d 87 86 87 8f 84 65 9b 6c 4e 93 6a 5a b3 51 49 86 44 7c 91 8b ae 8e 93 76 83 69 88 67 6c 4a 96 86 89 3d a5 70 98 64 64 9c 95 98 91 89 8c 69 7e 75 5c a0 87 7f 89 7e 55 a1 a5 66 91 82 5a 77 a5 66 54 77 54 95 a0 97 84 99 74 89 9b aa 5f 8d 5f 87 5f 89 95 2c 89 7b 92 8b 7a 6e a8 62 67 8b 87 59 7d 69 87 46 58 6b 81 35 ac 4b 4d 4e 93 95 2b 84 42 62 49 8b b1 79 6f 93 7e 54 71 9d c3 69 7b 89 9b 68 99 78 5f 87 6e 53 9a ab 46 a0 6c 77 7e a0 56 6f c1 85 8f 92 72 86 a4 60 62 80 86 3f 6b b3 9b 89 aa 91 81 68 87 93 7f 9a 7e 78 76 63 89 83 32 82 70 36 77 76 a7 6d 90 89 82 71 5f 66 a3 91 9a 8a 43 a5 7e a0 5c 61 9d 7f 8c 65 80 a7 7c 9b 7b 79 85 5d 4a 8d 66 71 70 6b 8f 88 7c 89 95 82 ac 68 9c 86 93 86 a3 8f a1 96 a2 6d 8f 61 75 72 93 6c 73 8c 99 94 77 74 7c 9c 9b 97 73 9e 77 77 51 7d 91 83 6e 87 7b 76 72 80 80 94 6e 8e 92 5a 60 93 87 83 9e 3f 86 62 5a 6c 90 66 8a 76 7b 84 61 64 57 a3 87 87 80 7a 86 89 53 8e 8f 87 85 75 3f 66 75 7a 9a 85 5c 74 82 8d 46 69 8c 8f 91 82 77 9f 75 8d 6a 4a 62 96 94 86 9c 81 77 8e a6 75 7a 61 81 7a 66 86 91 84 90 4d 91 77 7b 61 79 93 99 41 59 83 5c 7a 88 75 8c 93 a6 7e 5e 73 5c 9d 62 89 72 6a 93 48 57 64 75 94 7f 89 8b 7c 85 58 69 90 75 87 99 89 a8 7d 77 73 97 a3 53 6e 8b 72 95 56 88 a4 8e 9f 85 90 83 8f 84 68 9c 9c 76 6f 62 76 af 8e 62 72 72 8d a8 7e 4c 6d a5 77 78 7c 88 8a b5 4d 81 83 53 90 6b 9a 7c 73 bb 9e 62 72 7c 5d 7b 7d 95 5d 9a 74 8c 88 72 b3 8d 5e 8a 89 76 83 93 6d 62 78 6f 81 78 58 8f 6e a6 75 72 82 54 96 57 8d 73 71 9e 93 85 99 6a 8b 85 76 91 7f 8c 76 7a 84 54 7c 8c a3 93 66 8c a1 53 b1 a6 62 6b 8d a1 78 98 98 a8 92 88 61 84 66 58 76 64 85 a6 77 94 57 9c 89 85 52 7c 70 7e 4e 61 89 81 9a 7e 8e 81 5a 7f 89 9a 8c 75 7e 87 9f 8a 69 92 92 66 a1 5f 96 7d 8e 9b 4a 86 91 41 8b 82 77 c1 a8 55 32 90 9e b1 86 87 a2 96 81 91 77 47 7b 87 6a 90 76 a2 b5 78 5f 7d 76 4b 8f 4e 6f a9 8c 81 66 97 60 a9 8d 69 6d 4f 62 6c 87 92 a8 78 9f 6d 77 92 5c 9e 7b 7c 6e 9f 84 7c 74 87 78 9d 52 87 7f 79 6c 7b 67 87 7f 71 68 7f 61 99 90 87 82 87 90 82 6e 6e 7b 58 71 71 8a 5d 93 6d 96 48 5d 95 70 84 a4 95 90 b8 6c 58 84 7d 8c 61 4a 8a 8d 7e 6e 45 a8 7c 90 42 7c 4b a9 ad 9b 7c 85 8b 7f 91 75 a7 96 5d a2 91 94 6b 67 b7 6f 9a 94 8d 5f 74 89 72 7b a1 79 5c 94 4d 7c 79 37 a8 77 a8 a9 80 90 af 7c 83 70 7a 82 74 7b 63 68 63 71 74 92 74 7c 72 77 8d 92 87 6d 5c 80 96 75 a1 86 92 56 7e 9b 60 a4 8d 8b 65 5e 90 71 93 54 72 85 83 89 a4 56 91 9c 6f 96 82 84 76 9b 8a 77 8f 7b 52 98 8e 50 9b 8b 59 9b 8a 66 45 7a a5 8e 7b 68 9b aa 55 8b a2 62 92 75 7a 6f a9 64 94 86 8e 90 8c 71 5f 4c 91 94 74 74 8d 80 6e 91 b6 a2 92 6f 9b 6f 6d b0 aa 41 90 51 ba 46 89 82 6e 80 6e 83 96 75 80 4c ab 62 9a 7d 88 92 77 97 84 89 98 99 84 c8 ab 4d 46 90 7c a1 78 55 68 95 7b 5d 7d 91 4b 8a 75 85 9e 7c 6a 88 a3 63 91 5e 8e 57 87 63 8d 9b 5e 3c 53 8f 64 6b 9c 9c 90 82 90 5d 7f 91 62 85 80 92 95 9a 8c 81 98 74 93 90 3b 7a 5e 72 89 8a 61 62 72 85 76 76 a2 57 87 77 5d 8a 58 6b 8e 7e 69 7c 6a 70 ab 88 99 72 76 88 8f 66 9c 84 55 8e 85 71 8e 8d 87 5b 8d a2 9a 76 7d 7d 6c 55 ab 87 6d 6f 57 a1 6a 8a 5e 95 7c 96 8f 84 b1 8b 87 62 c5 81 90 87 85 64 64 98 a7 87 94 6d 6d be 93 9b 25 9a a0 77 7c 8d 9b 51 8b 95 ab b1 86 7e 7b 79 5e 63 a9 7a 36 68 81 bf a2 6a 9a a0 a9 86 4d 6f 7b 84 98 73 8d 7a 4e 94 59 58 6a 8a 84 90 58 81 70 78 71 81 8e 81 6e 4f 8f 81 93 5d 82 65 58 4a 63 71 8d 48 3b 86 52 3e 3b 8c 67 b8 7d 71 89 60 5c 85 17 8b 87 8f 83 4b 91 75 8a a1 8c ac b0 74 62 98 98 69 72 7d 94 58 74 85 6a 73 9c 8d 77 8f 8c 68 5d 6b a2 78 87 7f 6d 9e 82 56 77 67 6e 68 a4 8e a6 92 6e 77 67 72 5b 8a 55 6a 5b 6b 95 80 75 8b 6d 63 8e 74 74 7c 8c 79 a4 8d 9b 71 96 93 71 8f 74 a1 99 aa 87 75 63 75 7f 89 7e 7f 82 52 7d 80 bb a0 73 62 81 b3 a3 7f 86 8b 93 6c 9c 96 9d 78 63 95 7c 84 9a 59 a9 89 8c 33 7e 71 88 a5 80 4a 51 a8 70 7c 9d 72 7f 3b 5d 44 76 81 6a 89 6e 84 9a 7d 8d 77 60 7e 8d 8d 67 9e a8 9e 87 4c 83 93 86 79 78 9d 75 76 89 88 a4 97 96 a0 83 5e 74 7b 76 7e 83 80 91 41 72 6c 43 9f 64 a4 5a 66 96 85 59 97 7a 6e 88 99 93 63 7a 5b 75 46 74 68 84 8d 8c 62 8b 99 96 8b 7f 92 5f 95 99 a7 9f ac 89 81 7e b2 7a 8d 44 94 a0 53 81 8c 6f 67 7a 73 6e 68 a2 a1 77 a2 a5 80 96 8e 7f 9c 6f 40 4a 81 73 78 98 7a 6f 77 4e a5 8d 84 74 93 88 71 78 7d 9f 90 8e 92 72 86 59 72 77 90 7b 84 9b 7e 5f 90 84 5c 6e 38 79 81 9b 7b 77 7a 8d 48 87 5d 99 84 60 71 88 83 8a a1 82 75 79 a7 68 96 91 9c 68 79 6c 5a 8b 5e 94 7c 70 7f 8b 93 9c 6c 60 94 65 84 73 83 97 9b 77 7d 94 8b 68 82 66 84 66 73 99 49 8d 93 83 49 73 82 5b 72 89 74 6e 89 a0 84 a5 75 5e 7c 7b 97 9d 57 a6 5e 56 61 60 93 ab 87 71 5e 96 8a 5d 99 2f 88 9b 79 49 99 6c 8d 86 6c 60 94 bc 3f 7a 5d a2 98 65 6a 7d 81 7e 80 54 56 73 90 85 94 54 78 8c 67 8c 78 a0 68 70 86 5d 50 80 b5 9b 4d 50 86 7e 59 5d 83 a8 3d 87 52 6c 82 5f 88 aa 68 a7 83 8e 60 af 7f 81 a5 a9 80 53 6b 80 61 6b 59 90 61 9d 6b 58 66 41 84 6b 7e 5b 64 5f 7f 47 8a 8c 55 51 b8 7e 77 7a 84 9b 8f 7e 52 84 68 78 82 69 94 89 82 a2 7b 89 79 8a 56 82 86 9e 87 92 ae 7d 71 68 57 3f 71 7d 94 84 96 6c 56 a8 86 5f 57 84 76 57 48 69 52 a1 36 ba 60 62 71 79 9c 92 49 90 57 93 50 7f 7d 98 c1 40 6f 90 90 87 85 8f 4f 99 40 7e 88 38 8c 76 7a 49 a2 59 84 95 69 a7 60 2c 75 81 91 6f 9c ab 90 94 7e 70 5d 87 6f 58 9d 76 6e 55 87 93 7f 6d 97 7f 8b 51 7f 70 6a 73 97 53 8f 6e 70 83 97 5a 77 93 70 96 77 60 81 77 9c 7b 7b 56 65 83 68 8f 63 4d 55 8c 5c 87 68 7f 72 8a 70 54 9c 77 66 91 90 79 5c 9d b7 7d 94 87 93 76 7d 30 af 85 6b 9d 96 5a 7e 8c 45 9c 87 60 7e 53 89 6d 86 95 81 a6 7b 93 9c 8b 75 7c 74 89 8b 77 86 65 5d a9 64 73 43 a2 52 8b 74 41 8c 9c 38 7b 84 65 45 8a 7a 9b 95 8c 63 77 9b 93 85 88 81 67 8d a0 82 9c 8b 98 88 9f a7 86 80 60 61 99 6a a0 8c 9a 6c 90 88 77 97 9b 80 91 71 75 97 90 b3 7f 86 47 7c 82 9d 7d 8a 9d 89 6c 6d 69 55 4c 56 9e ac 8e ac 65 76 7f 7a 93 89 90 8e 6e 7e 8b 71 84 7b 85 8f 98 86 7a 7e 68 79 58 8a 85 89 ac 9d 82 94 6d 3a 87 54 7c 6a 88 97 9e 9a 68 83 66 8b 6e 96 60 8b ac 70 9c b2 6c 71 71 43 5c 54 ac 91 8e 72 69 ac 8b 6b 69 5d c3 8e 88 68 6c 85 88 7f 6f 82 60 6e 30 7d 92 64 83 95 77 82 65 76 61 70 36 3a a3 78 60 75 7e 74 77 76 6e 90 5b 9c 95 80 88 6e 84 5c 81 88 80 72 68 75 57 a7 60 6d 58 a0 7f a6 9a 4b 83 84 7a 88 64 67 64 6a 87 55 7d 9c 81 71 a6 5d 6b 8d 53 86 68 70 65 71 91 9d b7 69 75 6d 79 84 89 57 88 7c 93 6f 60 8c 9a 85 6d 71 a0 6f 74 87 5e 8a 76 96 94 ab 93 79 86 72 64 9f a0 7e 89 86 96 aa 80 71 67 aa a5 56 50 64 4b 7b 9f a1 59 8e 8d 80 96 94 98 7d 91 73 88 5e 55 8c 90 84 7b 5e 6e 9a a0 7f 76 8a 86 8b 94 66 96 85 62 a9 6d 93 91 9a 59 72 5e 6c a0 74 87 9f 70 94 74 7d 89 51 7f 54 95 86 52 7a 98 8e 8e 86 6f 9f 82 8c 61 91 5b 99 60 74 6b 6d 4f 96 97 6c a7 86 7d 8c 6e 9e 89 a9 7a 73 75 aa 74 73 95 9b 7c 71 85 9f 6d 84 73 75 79 74 c3 a2 51 69 a4 6c 5f 96 93 8c 84 6d 80 8f 81 7c 89 97 76 67 67 9d 99 87 5a 75 5d 99 81 aa 81 8e 67 97 84 c7 4a 6b 9f 7b 94 a6 6d 93 67 2e 7d 8d 58 a4 91 63 98 3e 75 5d 7e b0 52 80 6a 68 58 6b 7a 7d 8d 77 88 86 94 7a 7e 75 7f 9e 7e 6d 4a 8b 88 b5 96 3e 8d ae 36 a5 59 85 8c 8f 80 9f 80 6f 63 88 76 a1 84 83 8f 9e 7d 59 95 64 5a 91 8a 66 75 92 5f 64 47 9d 7d 64 8b 88 89 a2 98 71 8c 6d 82 85 70 5c 73 67 58 86 95 94 87 8d 7f a2 64 32 58 9b 96 9e 87 8c a7 5b 97 66 5d 66 9a 6c 7b aa 70 a0 73 9b 57 9a 60 a3 64 75 82 52 79 66 88 6e 7e 73 79 7e 77 87 61 47 9b 81 77 64 7a 9c 8c 90 5f 8d a0 66 b4 6c 51 74 78 80 81 7a 55 74 67 87 8a 94 85 71 60 98 ac 8b 8f a4 5e 6b 5e 7d 91 65 8d 8a 72 59 8f 8c 8b 15 a6 7e 7b 65 -1 77 81 9b 5e 6e 93 94 a5 9b 7a 53 76 7e 90 26 52 6f 4d 63 64 45 41 88 5d 51 81 81 5c 53 5b ae 4c aa 9a 5a 9c bf 62 68 59 83 2e 80 bb be 76 65 91 70 93 8d 62 87 7a 7c 3e 94 9b 36 5b a9 64 95 81 33 42 7e 8a 5e 95 73 80 78 a3 8b 4e 61 7b 89 56 97 93 71 6f 91 84 9c 99 6b 86 7b 8c 7d 79 a0 7d 8d 89 85 56 8d 7f 95 86 76 61 79 68 91 4c 84 85 67 8d 5e 63 a3 6f 7f 7f 32 67 85 8b 7e 6a 32 4b 9c 58 76 82 9a 92 5e 62 53 8a 6f 62 75 59 7c 9a 6a 87 96 88 a2 a3 51 82 91 27 86 9d 6e 71 4a a5 98 71 98 8f 64 7b a0 9b 99 7b 41 2a 71 84 8b 87 a3 95 9b 9b 9e 5b 7e 92 8f 87 6f 7f a0 66 8f 60 96 57 80 91 50 71 7f 78 73 66 90 75 9d 8e 76 8b ab 6d 5f 8f 86 62 5e 9c 73 4b 91 81 95 8c 80 91 2b 63 7c 66 a1 81 99 61 70 82 68 6a 97 77 5d 9e 66 92 6c 9a 59 74 82 96 71 82 8e a6 75 8d a2 82 4b 60 9a 5e 9c 89 a6 87 3b 7b 71 82 69 8f 4f 6f 8c 72 97 57 6f 54 8a 5f 76 7f 67 79 7a 92 83 72 61 7f 77 a7 6c 73 8b 73 56 77 91 53 a8 af 9f 7b 68 72 82 48 88 7b 9f 9f 80 95 60 6f 68 7e 6d 8a 43 94 92 99 6e 9e a0 8b 61 5d 74 a5 80 88 85 64 80 92 89 85 8d 81 5e 85 9d 8b 80 44 6b 89 84 6a 4d 90 83 90 8d 72 88 84 96 59 6f 7d 98 65 7d 84 7e 60 88 b2 53 5c c6 a8 a2 9a 68 6c 71 8c a1 ac 89 a6 7c 4f 7c 67 5e 8c 8b 7e 9e 4d a1 72 8a a0 95 87 6a 86 5c 56 b7 7d 75 86 7c 9d 59 98 41 69 97 56 6d 6f 5f 7e 72 54 66 72 49 56 35 5b 7a 81 88 9b 7b 7f 7d 9e 6b 85 76 34 8d 68 6a a9 4f 76 73 82 76 83 6a 72 83 73 83 70 7c 3e 5a 80 75 79 93 b1 8a 9c 69 77 a4 64 57 87 91 80 7c 71 6e 5e 7d 77 59 63 91 72 8c 83 92 9b 45 68 8e 89 b9 8f 74 83 98 51 6c 44 63 8e 82 3f 95 65 a5 98 78 57 77 56 6c 93 78 5d 69 6d 72 66 72 76 95 7f 9b 8a 5c 9a 5a 5d a2 84 7e 9c 7f 7d a9 96 78 8d 47 93 98 89 87 97 9e 72 46 82 89 a1 74 7f 86 6f 68 84 65 5f 78 85 98 9c 69 99 7e 96 92 86 90 73 4f 69 a0 6e 6b 85 77 a3 6c 5e 72 49 b0 7a 6e 34 9f 99 65 8c 8c 95 6f a1 8f 7b 7d 8b ba 92 a0 79 95 84 90 84 81 77 4e 86 76 79 6b 66 92 60 52 9c 88 97 83 a3 84 6f 84 8c 8f 77 90 96 61 8e 8b 94 47 4f 7e 77 93 8b 95 81 8f 9b 79 42 86 78 7c 48 8e 80 74 74 ac 9d 5a 7f 92 af 8e 6d 8c 7a 8b 63 61 85 6b 91 35 67 48 7b aa a3 7a 80 91 a5 8f 80 61 76 bb 6a 57 90 73 87 9c 2f c1 72 6c 94 4e 87 33 93 8c 7e 9a 52 4d 89 51 68 54 ac 85 78 4d 82 87 79 9c 89 80 62 8c 94 8d 70 6e 9e 76 b3 88 81 6c 97 7e 97 62 73 4c 26 90 60 76 78 81 70 60 