8c 74 71 73 93 62 86 7b 6e 8e 71 72 89 6d 62 96 6b 8c 97 8c 6d a7 97 5c 92 69 6d 54 5a 63 7c 79 91 69 99 8c 9c 74 63 7a 8c 7c 8e 8e 76 61 97 69 6e 84 89 9a 5f 66 72 7d 66 6f 79 68 96 8a 89 87 7a 7b 7c 94 8e 87 63 96 94 84 88 8c 7f 7a 77 94 83 64 8b 94 65 88 78 5d 6a 92 55 6b 83 9b 77 8b 7c 7b 92 7a 75 7f 5c 9d 59 91 75 96 6b 93 73 57 80 8b 6d 92 90 72 7a a8 68 6a 5e 7e 82 61 81 7d 6f 9e 58 92 84 86 9a 8c 6d 5d 68 8e 74 7e 72 75 72 67 87 7a a1 80 74 57 71 88 93 79 67 8a 80 85 85 6b 7b 7b 8c 73 5d 67 64 7b 90 90 6f 8e 73 8b 70 9e 8d 7d 9a 63 6c 5b 81 97 85 86 8f 8a 7c a2 a1 71 8f 63 91 87 84 a6 74 8a 7f 8a 69 77 83 73 6e 94 58 93 9d a0 91 6e 98 72 7d 8a 60 76 6b 92 75 73 64 54 85 56 97 83 49 8c 7e 72 8d 66 90 a8 6a 50 78 87 7b 7a 73 5c 74 7c 82 76 6a 5d 6e 6f 72 7f 79 81 8b 97 8a 5a 6f 7f 72 93 9c 75 6f 76 5b 66 6d 72 67 93 90 92 85 76 72 75 a0 85 79 64 5f 8a a5 61 70 89 60 6b 73 99 68 93 53 9d 5c 94 5c 83 66 8a 8c 74 81 91 7b 6f 88 9b 84 6c 63 7a 9d 68 7b 7b 68 8e 81 73 a4 62 98 90 7f a1 76 8f 88 71 4a 71 64 68 a4 4c 8e 83 9b 67 63 8e 63 6c 9c 8c 9e 92 53 72 80 91 74 6d 8e 9e 74 63 8b 6b 8e 8b 63 a2 8a 84 69 88 73 82 91 6e 78 72 7b 9b a3 94 82 6a 92 a6 59 88 8f 7c 7d 75 70 75 5d 71 69 90 54 91 76 9f 87 8b 91 84 6c 8e 98 8a 79 87 5e 77 67 77 75 71 82 85 96 75 7e 77 6a 7c 63 66 70 5e 9e 77 90 92 6a 99 5a 75 56 a3 60 8a 66 73 64 72 58 72 66 82 98 83 78 93 60 70 58 7c 58 6a a0 80 77 92 59 73 70 73 6c 61 82 87 9d 62 96 8b 7f 87 83 9f 87 85 78 83 8f 69 48 91 96 66 74 4b 71 81 7f 62 5c 8d 53 82 7a 72 6c 96 66 78 67 89 7b 73 78 8e 5a 7f 80 4b 8e 67 7e 7c 7f 85 83 8e 6e 7f 81 94 6a 9a 8e 77 6a 6f 71 6c 8a 73 88 74 71 78 7d 82 7e 56 5d 6a aa 74 9b 60 7b 82 9b 60 52 68 55 73 93 5b 7e 70 a0 9e 4e 93 7c 67 5e 7a 7f 8f 91 58 88 6d 8e 53 7b 92 83 72 5b 89 65 7b 5b 69 5a 74 a3 6f 68 88 62 98 8d 82 86 5e 69 9b 87 81 65 6d 74 73 75 72 7f 73 8c 4d 92 90 8a 69 76 7c 95 93 5c 59 7b 67 75 84 87 79 94 7d 73 54 8b 9b 72 9c 74 80 7e 52 7c 87 6c 9d 6f 59 86 76 80 a4 78 9b 96 66 8a 6b 5e 66 84 6a 7c 7e 86 89 5f 6b 84 6b 76 7c 8a 6f 77 94 9e 87 85 99 91 3b a2 8e 9b 97 94 88 86 83 75 66 7c 6d 95 8a a3 af 71 6c 6b 89 60 8f 80 7d 5a 8b ad 96 6b 70 94 7e 67 78 61 68 87 84 6a 77 72 67 77 79 6d 8a 5b 9b 68 6a 8f 6b 6d 8b 98 8d 62 87 99 70 80 62 5b 9f 80 83 79 87 56 76 90 5f 8a 98 9a 88 82 7b 45 53 8b 6c 76 8f 89 84 93 7e 8d a2 76 84 71 93 52 6e 65 80 9d 84 6d 84 91 67 91 67 78 68 97 83 89 5d 80 6a 72 97 7a 68 8a 70 92 78 9e 5c 8b 8d 37 6e 96 62 53 80 85 71 7a 7f 7f 4b 9c 88 67 93 9d 52 83 74 6a 6e 7c 98 a0 6a 93 75 6b 67 7e 68 89 79 7a 5d 83 89 8d 6f 66 72 91 79 58 93 97 94 7e 89 71 7e 5e 98 85 7b 39 69 9a 73 7a 70 4a 95 75 9b 84 65 92 97 74 4a 54 a5 84 98 7c 83 57 71 96 78 9a 8d 72 9a 46 69 91 7f 62 66 6f 7e 8a 71 a0 8e 89 8a 79 73 8c 99 6e 58 80 91 9a 79 68 75 85 62 7d 86 6c 4d 8a 61 8e 81 58 80 4c 97 81 6f 90 7d 65 62 85 83 9e 70 91 86 73 7e a4 88 62 66 4f 67 8d 95 69 60 6a 7b 61 89 81 92 75 70 9b 59 66 6f 6b 7e 70 9d 7c 82 76 94 90 8e 81 6c 6b 5f 81 94 a0 9f 74 8c 7a 64 85 9e 66 9d 7a 7e 9c 8e 9e 70 6c 7a 39 77 6d 76 8a 87 83 79 89 91 88 91 73 76 7b 8e 72 9f 72 87 93 8c 55 77 75 7e 94 83 4e 75 5d 86 72 69 7d 7a 9e 63 7f 90 89 6d 71 98 75 8e 7b 7a 7c 83 69 63 84 9f 8f 82 96 88 87 7d 9f 58 99 83 7c 7b 5f 7e 98 9d 74 8f 8d 92 7e 53 63 7b 81 92 69 8d 71 62 65 6c 95 88 75 7f 6f 91 61 92 88 80 9e 80 67 7d 78 9d 7b 68 79 9f 8d 7b 6d a8 72 6d 81 93 6c 6f 73 89 7e 98 66 8b 66 5e 78 9a 79 5c 6b 78 74 58 86 70 92 a6 9a 8c 95 7b 85 94 75 84 9b 69 74 94 91 95 6d 86 81 8d 52 96 7a 65 8b 54 5f 80 76 77 7e 7a 73 8c 88 80 9b 87 70 68 82 73 7d 49 47 96 84 80 9e 8b a1 76 63 8f 78 8b 65 8d 86 51 80 88 96 6a 6c 87 83 84 94 72 64 97 6b 59 55 8c 76 86 a6 7d 80 83 60 5f 89 78 99 90 9a 63 81 75 7e 9b 79 86 8e 7a 6e 7e 94 83 8a 8c 78 7f 5b 81 70 57 7b 78 71 9f 8b a6 93 68 71 66 80 70 8d 7b 67 74 58 77 8c 88 8d 76 81 57 5b 5a 7a 8e 7e 83 9a 86 72 92 59 86 76 94 88 63 7e 88 85 8f 70 94 7a 8c 78 9d a3 7f b5 63 66 84 97 8a 65 8f 66 6d 88 68 73 88 61 64 5a 89 62 96 71 a7 97 7d 79 8b 71 84 98 6f 87 7f 79 6f a0 6b 95 8c a0 84 89 72 75 92 6c 7c 82 90 85 65 97 74 9b 81 62 87 8d 7c 6a 7a 56 7b 6a a3 92 77 85 96 64 82 74 85 81 70 7f 74 35 7f 9b 74 5b 8a 6a 81 56 7d 97 66 a5 86 64 59 71 73 9a 87 89 6d 96 6d 6c 6f 70 9a 92 5e 59 94 97 6b 6b 94 70 53 9d 87 93 85 7c 98 95 9a 8e 93 86 69 76 6b 89 80 77 7f 66 92 68 86 72 7a 91 a2 8f 92 9f 8f 6e 66 99 9a 62 7c 96 61 76 72 9c 6d 5f 8c 97 83 6d 6f 5d 9a 83 75 8d 9f 94 9e 69 8c 72 67 5d 6f 89 5e 87 7d 6f 70 4e 95 56 87 82 66 92 79 89 60 56 7a 9d 5c 60 87 6a 90 8b 7c 5a 7f 74 7d 57 8d 8a 93 6a 5f 69 69 4c 8f 8f 71 6a 61 8b 5f 85 9b 80 98 a9 95 83 8d 6f 95 7d 78 71 82 75 92 9c 97 97 a8 94 7d 6b 67 6e 69 81 99 a1 7b 76 84 77 80 7f 8f 91 90 84 97 9e 9e 7e 6a 97 63 8f 54 72 63 68 63 7f b2 68 93 74 75 3c 58 71 8d 6a 85 60 6d 6c 7a 7f 6e 6a 92 62 7d 87 70 7f 7a 6d a0 6c 8f 91 56 64 77 80 85 92 6d 84 98 84 89 86 98 95 74 92 5b 68 7f 87 83 94 91 6c 77 60 72 4f 95 8b 81 5f 99 67 70 a0 42 6e 83 6e 9c 86 6a 9b 63 80 77 74 79 98 8e 6f 92 91 8f 93 86 9b 74 9d 71 70 57 a1 81 8c 86 76 6c 83 8c 87 8a 5c 6d 67 75 8c 83 89 69 87 95 a2 89 70 68 7d 82 8f 90 8c 93 89 87 92 61 94 7d 81 a1 9a 79 81 6c 81 7e 8b 8c 6f 8e 85 9f 85 a4 8e 97 78 74 a4 6f 86 6e 83 66 7c 82 6d 6a 7c 94 96 90 93 95 6d 98 6e 9e 98 6f 8c 68 7f 8e 9e 79 9b 71 a2 87 83 96 8a 6b 83 69 90 74 97 66 4e 74 75 69 6b 7d 76 7b 8d 8b 7b 6b 4b 9a 5f 8a 7d 92 7c 7a 3f 63 71 9d 61 90 72 4a 8f 98 8f 9b 93 8e 6d 6c 65 89 9c 6a 6c 93 a3 6e 81 7a 88 75 71 67 7d 95 70 8a 90 8f 62 93 61 79 7e 6d 64 65 91 76 99 80 75 97 88 6f 96 99 65 73 6f 70 93 6e 81 78 5f 8c 73 6f 8f 74 5d 94 7f 5e 6c 66 93 90 6c 6e 70 93 6f 71 69 8d 69 8b 56 8d 71 74 81 84 9c 64 71 88 a1 6d 99 95 78 97 97 85 64 9b 6e 92 a7 99 77 8a 72 72 72 78 58 a9 99 8f 65 6e a2 85 52 7e 92 9e 98 94 9f 78 80 90 88 6e 78 8b a4 6f 86 7c 77 6f a0 88 9c 6d 95 89 62 8e 9a 8e 74 87 88 83 9b 75 64 91 78 57 6d 99 9e 83 83 8b 78 7f 79 7d 83 8b 68 8b 70 92 87 9c 77 5c 62 8b 77 8a 8d 34 66 71 7b 89 7b 50 a6 74 a0 6b a7 78 7f 7d 71 6e 71 57 9e 8f 96 87 88 7b 77 65 81 3f 92 74 7c 73 6c 76 77 91 79 a0 83 6e 73 71 6b 83 7c 64 6b 96 95 7d 8a 7e 71 71 a3 61 7a 94 64 99 75 71 66 77 69 63 69 74 58 78 62 78 5f 7a 68 6d 6c 88 72 6e 88 93 79 90 86 85 ab 9e 87 82 91 90 96 4c 87 74 91 91 97 70 7a 6d 5b 97 8b 9c 85 9f 92 68 7c 92 7c 6a 72 a9 7a 9b 84 4e 6f 81 6f 9a 7d 71 80 8c 61 77 81 5f 7d 55 6d 67 87 50 5b 9d 71 7e 6d 84 69 4e 69 a1 84 6b 73 61 70 97 92 8a 83 75 85 8b 78 82 8b 7b 5c 7d 77 6b 88 76 65 94 63 6b 6b 90 7f 87 99 7e 7f 7b 9a 7f 9a 96 77 65 82 97 81 76 55 86 9b 6c 7e 79 6d 76 8f 92 63 75 6d 82 96 67 86 65 92 6e 78 83 8d 7d 76 58 66 74 82 74 90 8f 95 7e 8f 62 5d 93 8f 79 92 62 8c 98 62 9e 6a 9d 5d 90 96 9a 8d 8b 9b 7b 5e 78 78 68 98 99 80 82 98 88 90 7b 6b 7c 81 76 84 80 7f 51 6e 97 6a 88 89 80 9c 82 71 94 8c 6b 7e 8f 94 83 6e 79 80 7c 47 6e 6e 7a 6e 7e a1 88 57 79 70 51 8b 71 88 82 52 82 97 83 71 65 84 a3 59 69 89 80 8f 88 6a 76 6b 96 5b 5f 97 5d 92 66 6b 65 7f 6f 7b 9b 91 7c 90 71 7c 76 94 85 88 48 8e 69 6f 92 7d 73 6c 64 7d 6f 6b 7f 55 53 62 6c 56 81 6d 8d 69 59 62 7a 62 8d a2 7c 70 87 68 7a 84 59 75 84 72 93 73 68 7d 69 70 78 9a 83 86 8e 79 85 9c a4 65 8e 54 9b 87 89 71 73 54 81 6d 75 8d 64 78 a0 92 8f 7e 5d 68 6c 6f 96 6b 86 93 79 75 6b 7e 99 85 86 8e 81 52 a7 74 5b 5f 8d 72 4f 9e 69 69 92 5f 6e 9c 85 6b 6e 65 6a 84 64 94 6d 97 8d 6f 5b 99 66 8d 65 83 5d 98 71 5d 81 6d 6e 47 79 73 8a 88 5c 9e 80 98 79 83 71 64 97 9b 7e 8a 86 72 7b 6d 70 7d 95 6f 72 5a 56 8a 59 63 9c 6a 7f 99 8c 7f 94 86 95 4f 70 9a 84 8c a3 86 7d 93 56 97 75 7e 75 5e 75 76 69 56 84 8b 76 8a 76 82 83 ac 7a 93 ad 8e 6b 65 9a 97 70 71 78 8a 7c 77 94 6c 70 8d 6d 77 75 66 7e 71 8f 66 85 7a 7f 8c 7e 6b 8f 5a 8b 64 90 88 81 8a 92 6f 79 7a 84 7e 81 5b 8b 64 67 6b 77 89 6d 7f 68 7e 85 6d 8b 6c 99 99 77 9d 6e 87 70 96 89 9a a2 8f 81 53 7e 91 73 5e 70 8e 64 9d 76 74 8c 79 9c 87 43 67 92 8f 9e 86 7a 79 88 91 72 a5 66 62 87 9b 49 63 9e 92 82 83 77 8d 79 79 60 8c 68 6a 94 87 83 80 69 60 7a 71 6f 72 79 84 77 9e 78 8e 72 81 98 66 78 83 9b 68 75 93 90 70 4e 5b 88 97 92 8a a1 7e 87 8b 7e 87 80 69 8d 6b 7f 66 68 7e 56 4f 6b 6b 7f 9a 86 84 69 95 85 5f a2 74 a5 6e 5b 78 7c 77 99 7f 90 86 7c 81 6b 7d 96 6f 83 98 8d 66 99 82 8f 7f 89 92 85 86 5d 9f 5d 57 53 6c 89 84 6f 97 7d 53 5a 6d 8d 9b 94 6b 5a 85 62 74 87 79 94 9c 93 90 9f 88 6a 70 8b 85 94 7b 81 7a 93 86 8f 89 6e 88 74 7b 87 a0 89 88 76 97 92 97 a1 8c 71 8d 62 81 a3 9d 7f 87 a3 71 a2 61 98 7a 92 97 90 93 7d 70 80 6b 73 93 5a 71 54 78 69 9c 96 6e 80 a0 71 6d 91 83 76 6e 66 48 70 85 90 96 71 9f 99 84 6f 92 6f 81 72 66 73 91 82 7b 68 7c 8d 95 6c 9a 56 4f 8b 8f 96 a9 78 68 8d 7e 67 8c 48 55 72 5d 5a 88 80 9a 7e 8e 8a 9e 98 7c 63 51 98 7c 64 63 89 8e 5b 4a 7c 56 95 6b ae 90 74 9c 8d 8e 71 93 6c 7e 89 59 6a a4 8c 74 78 a1 79 81 87 74 7d 82 8a 86 86 6d 7c 90 98 8d 92 6a 8b 8e 92 7c 4a 8f 99 90 7d 8c 9a 86 92 93 78 8c 72 67 77 a2 80 73 83 9e 88 71 91 6c 8a 97 7c 68 77 ab 84 4d 88 75 5c 79 65 72 88 72 34 73 7c a2 67 78 88 7f 67 79 a0 87 95 87 79 78 79 5a 64 6b 8e 78 7e 7f 88 af 69 73 97 8b 74 7e 67 57 7f a7 82 79 91 7c 59 8d 7e 78 72 94 97 6f 89 63 5e 66 6f 7a 71 8e 6c 87 91 7c af 76 93 77 68 8b 8f 93 7e 7f 57 8a 85 7f 68 85 89 5f 86 6d 9a 46 8c 94 88 74 77 98 97 73 82 98 8f 4e 9e 6b 5d 69 97 8a 7f 7a 82 86 66 75 75 82 72 63 79 59 84 79 a8 6e 86 66 9e 9b 96 7e 7a 95 a3 67 79 67 99 93 99 9a 75 84 71 60 63 75 82 8e 71 6c 78 64 72 81 68 98 84 a4 85 50 82 90 72 7b 68 93 6a 3c 93 95 7d 75 72 90 6a 8e 95 71 89 7d 74 82 b1 a0 57 73 87 89 8b 83 94 87 5d 8a 85 83 89 53 83 88 84 71 97 75 8c 69 82 91 80 82 70 7b 9c 76 86 69 6f 95 6a 90 7c 9f 82 74 72 9e 49 7e 6b 61 61 5c 92 80 87 9b 7c 74 6d 69 7c 56 65 7b 8d 8c 7b 7c 88 6b 90 46 91 79 85 60 6a 65 5d 83 44 b0 7b 69 97 98 91 6e 77 91 69 8e 4e 4e 85 85 70 61 7d 5f 84 8b 7d 60 63 9b 7c 6d 67 83 97 8c 5d 54 89 92 8d 95 60 76 86 ad 7b a2 5d 86 96 60 9d 5a 81 8f 6e 8b 5c 99 7d a9 9b 89 74 5b 7f 9d 50 8f 77 6e 90 6c 77 62 77 78 5e 60 5a 62 7e 6d 7b 6c 82 6d 85 83 66 70 77 81 8c 4a 72 70 8e 62 92 63 82 99 57 5a 85 75 7d 5f 93 78 65 8a 6b 62 88 8d 94 8f 9d 89 5a 62 65 83 8a 62 75 6b 80 85 8f 6d 7c 66 94 7d 77 67 63 95 5f 83 72 90 91 70 61 97 8f 90 a0 6e 6d 89 65 89 7c 9d 6a 7a 99 aa 79 81 88 58 8f 7f 98 a0 8d 60 84 71 5b 67 8a 73 75 93 57 54 8c 7f a4 66 8e 82 6d 67 6c 88 55 a4 6c 8b 9d 76 7e 68 85 96 82 63 7f 6d 79 69 96 6d 97 9b 93 7b 59 61 5b 68 79 8b 98 74 4c 62 69 66 59 8d 9b 56 8a 75 7d 8b 7a 7e 9c 4f 85 66 78 7f 72 6c 7b 9b 5d a5 9f 6e 83 76 88 64 94 7a 73 74 95 79 72 69 98 69 86 55 74 88 67 73 77 8a 9e 6a 79 6f 7f 8e 94 27 99 6f 58 9f 9a 5e 90 93 7c 63 7e 82 a6 67 76 6f 90 a0 73 84 51 63 78 86 8c a5 8f 83 96 8d 68 67 5d 91 99 64 7d 6c 66 9d 69 77 74 81 6b 7a 8d 76 86 54 6b 7f 8c 7a 71 8f 50 8e 90 88 96 93 6e 67 6f 7a 82 7f 82 82 64 68 7f 70 93 71 73 8e 70 7a 68 92 70 8d 70 88 97 5a 8c 65 6b 61 7b 93 9e 89 69 91 68 56 6a 74 94 67 72 a5 66 6d a4 67 90 63 59 83 9f 69 a6 91 88 7d 86 79 75 6b 91 6d 93 5c 92 7a 95 7e 89 77 61 77 76 85 60 89 97 46 8a 74 70 8b 64 5b 88 7f 88 9e 93 81 8f 85 72 a6 6e 91 76 9d 7f 4e 76 77 70 76 79 92 90 96 9c 95 76 6b 89 90 63 86 67 a1 98 85 8f 81 5a 8c 7d 56 6f 75 5d 66 9c 6d 6e 8a 67 a2 88 75 99 7b 7f 7a 52 62 95 7c 63 7e 65 56 77 8c 77 7f 51 93 6d 6c 76 8e 8f 87 8d 6a 8e a1 84 8a 5a 65 72 62 92 47 62 68 9d 7f 96 78 82 5b 86 7c 84 9a 85 70 75 8e 71 71 79 79 6c 95 5b 5c 71 71 7f ac 81 91 6e 8a 7f 92 6e 4b 71 7c 4d 78 62 79 88 8f 70 64 7a 87 63 8d 7b 6c 9e 8a 67 8e 95 6c 85 75 9c 61 9d 84 7b 68 77 52 75 9c 8a 8b 82 64 7b 88 9c 95 8b 77 7a a2 9c 7a 9f 86 7c 86 6b 9e 80 81 82 60 75 64 69 77 62 74 92 76 8d 64 7f 93 81 86 3f 77 70 81 96 83 69 a1 8c 96 6d 91 76 6b 7a 93 6d 69 96 99 91 6e 49 9b 8e 7d 7d 9c 75 74 79 9d 74 8c 7b 70 8b 6c 8f 7a 4e 88 8f 98 71 6c 8a 8c a1 7b 8c 97 89 78 68 78 87 87 7f a2 5e 84 7e 72 55 86 4c a3 9a 94 62 93 a8 8d 83 85 63 73 87 76 86 5a 83 88 99 95 63 70 5f 6d 70 86 8d 72 7d 7c 7b 85 8c 85 6c 6c 94 81 6c 6a 83 5c 74 7e 5a 89 7f 89 7b 7e 84 8b 91 96 7c 83 60 7b 9c 72 8a 6e 65 6c 8a a0 75 8a 72 88 7b 7e 57 61 83 ab 63 78 7b 5f a7 59 7e 63 83 65 a4 86 82 8c 99 89 7c 92 7f 87 81 5a 75 66 87 8b 7a 84 7c 8c 90 77 7e 89 82 9b 61 6d 8a 81 9f 84 91 6a 95 78 95 97 a0 7f 6c 92 66 6c 81 68 63 91 99 9f a7 7f 87 9e 88 6e 77 85 63 87 78 61 a0 7d 77 8f 91 ab 9b 7b 8e 7b 80 88 96 9f 64 98 95 a0 82 96 64 a1 50 59 5e 78 67 9a 79 86 6a 82 93 6e 9e 