79 5e 9a a3 91 b0 6d 8d 88 7e 92 89 50 60 62 7f 97 6d 88 6f 96 79 7c 8d 8f 6c a2 94 8b 64 78 a9 54 95 6b 77 80 77 62 79 8b 8a 64 6a 6e 83 7b af 8e 8b 9d 9c 4f 5f 6b 6b 75 76 9c 68 7f 6f 77 6e 79 64 84 8f 69 82 8d 63 9b 91 8c 6c 86 70 62 90 78 99 96 7f a5 49 94 9f 9f 95 78 85 79 a9 81 80 7f 49 79 a0 6b 8a 67 af 94 9c 67 84 9b 9f 83 8c 8c 5c 71 67 8d 93 96 86 67 68 7c 80 7e 74 73 6c 75 9b 60 6a 78 95 96 81 54 80 65 72 69 6c 6a 77 67 97 96 74 76 84 8b 7d 78 8e 59 6f 9f 93 75 72 61 ac 7b 9f 93 8a 8a a2 76 8c 50 90 7c 83 6e 76 84 95 78 9a 5f 5e 79 65 a5 53 70 6b 80 71 91 70 94 87 58 94 66 88 7a 65 60 83 9e 80 6c 99 8d 6d 78 84 50 77 9e 81 65 91 78 81 81 7a 90 85 67 6e a0 99 86 6c a6 8b 64 52 67 97 86 8b 94 75 78 9a 77 55 74 97 95 6a 96 8a 70 88 6f 80 88 59 83 94 8d ad 6a 81 87 7a 97 83 83 98 96 81 af 72 7b 6a 85 73 5f 6d 7b 98 74 71 8f 63 9a 7c 8d 3b 86 88 79 74 9d 6d 7c 81 61 8c 9a 9d a0 8d 7d 90 91 75 6b 84 64 61 66 83 8f 96 8d 84 76 87 81 74 8c 8e 6b 93 97 9b 6e 90 93 7e 6e 91 5f 95 7d 8e 88 88 83 a1 8d 5e 8a 86 64 93 7b 83 94 73 5d 87 7b 8a 82 70 7c 6f 88 80 65 64 95 82 84 6c 82 8e 97 7c 72 97 9a 9d 5e 9e 5f 85 70 6e 83 4f 68 88 8d 96 89 50 43 6a 71 80 80 77 7b 83 89 94 72 66 82 99 8a 80 65 90 85 67 79 8b 3f 8b 71 78 a2 99 7e 6a 9c 8d 74 82 7e 74 8e a4 7f 86 92 98 5f 99 7b 92 77 99 6b 82 7d 77 8b a1 8a 97 59 93 82 ae 83 85 91 66 62 84 8b 85 68 7f 82 74 86 9a 85 93 57 ac 8a 7e a3 75 5c 91 7e 8f 6a 71 75 84 76 a3 74 88 71 90 81 7f 77 9e 93 68 5f 94 84 88 8e 65 a3 65 5a 7f a2 5e 9d 80 86 85 73 87 6b 8b 74 91 82 a0 79 89 9d 83 7d 82 9a a4 7d 78 70 69 65 8b 81 6b 90 8b 8f 80 7e 83 79 8e 91 88 a6 6a 6f 95 87 6e 8d 7e 76 81 4c 6f 7a 85 6f 87 68 85 74 66 72 7f 4c 79 77 67 50 86 63 6d 91 a5 6c 65 79 84 7d 76 7c 97 79 83 77 6f 61 6f 81 89 8c 6d 8b 6c 9d a4 7d 6d 75 5c 85 9b 71 75 7e 7f 98 9e 6f 95 88 78 7e 89 80 6a 84 8e 83 72 8f 96 a8 9c 77 61 81 95 66 77 a8 82 79 75 80 7d 74 94 75 80 83 68 94 7c 75 79 6f 86 76 5c a4 86 6a 76 8b 8d 5c 78 89 95 84 80 72 8d 77 4d a2 97 5c 8b 70 75 7c 7c 99 a6 a0 57 84 6c 6c 90 7b 7c 6e 97 4b 61 98 8d 99 89 8e 62 78 8f 58 92 76 88 93 5c 73 64 74 a0 89 85 9e 8e a0 76 63 98 8b a6 78 8b 96 91 8e 7b 57 8e 86 72 78 8f 97 74 8a 86 63 7c 78 91 98 85 7b 75 86 43 5f 78 70 88 63 63 8c a0 8e 79 64 7a 6c 7c 6e 7c 74 6e 88 7d 75 7d 79 8e 93 6b 89 6f 88 a4 90 87 60 88 8f 93 86 8f 87 86 5a 74 88 90 80 8d 81 8c 8d 70 70 a1 5f 89 96 99 79 56 6a 77 78 9c 94 7e 8b 70 86 84 95 5e 79 8e 8f 76 6f 67 ab 9c 9a 5c 7d 92 65 92 88 88 8f 8c 74 8d 7c 63 77 8c 81 73 82 ae 82 73 98 6b 8e 7f 5b 80 a6 65 89 73 60 64 70 5d 9e 88 6a 63 79 5e 81 70 94 7b 98 95 44 84 90 75 64 6b 9d 33 84 8d 77 93 6a 96 9e 56 88 5f 85 88 90 60 96 8b 75 92 91 9c 6f 81 6d 69 86 90 71 72 9e 78 8e 90 95 8a 57 80 80 8e 9f 4b 7a 7f 70 a6 8f 87 97 6f 95 8b 6b 91 82 87 6b 79 8a 78 89 89 80 91 9e 64 9a ad 6e 75 4c 89 7f 80 3e 7b 7c 7d 61 75 82 8f 8c 70 92 96 92 8e 85 96 8f 77 87 7a 5f 96 6e 6d 6e 64 5d 83 85 7c 72 66 8a a3 7c 6d 59 a3 86 58 62 97 97 8c 5e 86 70 7d 36 71 82 7a 7a 7d 73 62 94 92 6e 9b 77 69 87 98 6b 54 65 76 89 7d 59 71 6b 76 6e 8e 7f 7f 6e 94 71 87 59 77 73 81 77 81 4e 74 91 72 91 92 90 7d 93 83 73 77 64 81 86 8f 5a a2 8b 60 79 7c 7d 8e 73 80 81 76 7f 89 80 57 9e 7c 7c 58 a7 9e 81 9a 72 5b 7d 8b 70 94 85 87 61 85 6e 96 73 95 78 7b 82 7d 6e 6e 77 7a 62 71 6f 9b 72 9f 9d 7e 7c 6d 8c 88 7a 88 87 73 6e 4e 9c 7e 79 87 a3 7d 85 88 8f 78 98 67 6e 80 91 5b 50 5d 8d 64 92 8e 61 88 6d 83 8e 7f 79 88 8f 9e 64 7b 6e 70 76 96 62 7f 94 9a 90 98 83 7b 78 6a 97 80 a2 6a 96 8b 7c 77 69 6c 6c 9d 88 96 61 88 8d 8c 6c 81 90 62 74 8d 5f 93 96 8b 56 6e 9f 8c 8e 8d 9e 88 86 57 a7 71 7e a7 74 6d 92 81 7a 85 78 76 9d 91 93 80 92 56 87 8e 84 84 69 71 6b a1 79 7f 86 5b 82 8e 63 59 58 6d 80 55 84 6e 7b 8b 6d 85 7e 9e 67 82 9e 81 4c 8c 75 6b 59 90 6a 79 81 a1 6f 84 71 7a 48 5d 6e 5b a9 98 78 8b 81 8d 87 94 8f 74 78 66 7b 53 88 90 6e 6f 87 92 71 7f 9d 94 91 7f 6c 7d 90 75 91 8a 4e a6 8e 74 8b 7e 81 68 87 5b 74 5b 76 78 80 88 6b 7b 8d 78 57 8c 6c 8d 59 7a 71 8b 8e 8e 84 66 9c 70 84 ae 91 87 7d 8c 55 8c 88 6e 89 9e 97 86 82 87 76 8f 91 5a 84 77 5e 55 70 a0 6d 6f 98 7f 7d 97 65 8c 91 96 a0 94 91 58 73 80 68 94 3e 43 6a 5c 7d 6e 7e 82 6c 6b 5f 80 8f 81 8d 6f 4d 89 87 6f 63 9d 84 6b 70 71 9b 89 93 55 88 7c 55 78 63 87 6f a6 54 8a 84 7d 92 6e 7e 7a 68 46 93 78 64 93 3e 87 86 9e 79 92 54 94 98 69 6e 83 50 62 9f a6 96 8d 83 a2 8f 84 79 86 9b 84 6f 97 a0 8e 8c 7b 76 65 72 67 7b 8e 6d 6e 74 87 8d 6b 97 77 89 76 85 77 74 6c 41 7f 5e 8f 82 89 a1 74 99 87 82 87 4e 7e 83 77 8f 7b 82 98 7d a3 89 7f 59 6d 7f 6c 79 84 75 9f 72 78 8d 86 5f 8d 5f 78 80 9b 73 8c 92 8e 93 67 9a 54 7f 90 82 7c 95 77 a1 74 50 93 6c 91 79 99 ab 8d 55 84 7c 64 77 72 6c 68 a0 6d 92 6b 61 94 8d 83 81 85 86 8a 91 8c 95 8c 7d 66 63 6f 77 5f 6a 75 84 5e 4c aa 65 5b 79 6e 8f 92 59 5f 52 91 69 98 9a 84 89 86 68 6a 7a a7 88 98 96 6d 82 74 9d 9f 9b 6e 96 94 4e 8a 97 77 70 85 75 76 8c 80 67 92 71 7f 88 42 81 7e 3e 52 62 89 84 70 7e 98 96 7d 4f 8b 82 6a 8b 5b 95 6d a0 8e 6f 70 75 65 80 91 94 8f 75 39 79 92 71 6b 7e 73 61 74 7d 61 5c 7a 67 8e 8a 80 4d 70 9b 7a 80 7e 71 7a 78 85 7e 9a 9a 59 8e 94 96 74 9f 51 65 7f 6c 71 7d 66 71 6b 7f 8e 57 74 74 74 9b 7c 66 6e 5d 4f 6c 9c 71 99 96 97 6c 9c 73 79 98 7c 7b 9a 95 6e 7f 94 95 5f 7a 7a 44 6c 62 75 7e 97 8a 7d 60 98 8f 66 8b 8f 77 6c 9d 8b 75 88 2a 70 74 68 94 83 6e 63 6c 75 76 72 67 86 6f 83 a7 a1 8b 80 7c 68 66 8c 98 8e 89 7c 8a 5d 73 64 69 7d 90 83 66 73 70 3b 5c 75 6b 67 7e 94 4c 7e 7a 6e 3f 77 79 44 76 71 81 94 92 58 9a 79 66 57 7e 78 58 81 63 8e 6d 5c ad 6f 6a 80 7e 6b 76 87 93 7c 7f 7f 70 8e 70 81 5a 95 80 87 86 89 88 8c 73 85 5e 80 9c 86 73 62 6f 6f 7a 92 83 86 62 72 85 77 84 8e 6e 6f 84 73 82 8b 62 5c 65 76 74 60 66 80 83 8f 91 95 9c 5f 83 7b 7f 5d 92 70 9d 52 82 78 88 62 86 92 7d 8b 9d 89 81 96 72 6b 67 71 83 65 72 84 66 85 a7 73 66 8b 8e 9f 7e 7e a5 7e 90 78 8d 55 92 81 83 5a 89 64 8e 70 90 8d 89 66 8a 75 89 a4 85 8e 9a 91 9c 81 8b 97 3f 63 92 7f 8d 8d 86 5c 83 87 5b 88 81 6c 6c 6e 69 84 9a 82 63 6c 8c 6a 72 6b 75 9c 8e 74 a4 a3 85 78 86 83 89 7f 4b a5 8f 72 7a 75 92 5c 8f 8a 67 57 85 80 86 83 82 99 85 7d 91 6f 78 a2 73 96 7c 8d 9b 66 6d 7d 73 79 7a 9c 86 85 97 aa 4f 88 71 7b 68 7a 94 74 9a 5e 7d 79 8c 68 8f 89 50 a1 8b 81 71 67 a0 80 84 88 65 74 8c 64 7f 69 90 74 66 81 8f 8b 6a a9 69 99 8c 79 a5 7b 96 93 7d 77 7b 94 69 71 64 7a 73 8d 45 88 6b 6c 8f 89 91 75 7b 64 7e 97 7b 7c 91 88 6a 9f 78 57 98 6a 4f 88 74 72 68 6f 79 7f 98 7b 86 8c 67 5e 7a 7e 70 69 94 66 6f 81 77 6d 95 96 34 73 8f 55 65 5c 65 77 6a 68 78 99 8a 69 96 8f a4 86 65 95 7e 9a 66 8d 7e 6c 7c 5a 8b 75 7d 8f 7b 71 8e 7e 74 77 7f 81 6b 92 86 81 7c 70 7b 7c 37 91 7f 73 95 8f 94 78 84 64 71 80 75 8d 9d 88 65 83 65 b4 65 6e 7a 93 6f 9d 97 4e 67 7f 8d 70 85 9f 72 71 92 7d 6f 6f 84 7b 69 75 80 79 85 86 82 72 6c 79 5d 8f 9b 66 8a 7a 8b 80 6e 86 75 96 8a 9b 99 91 56 7a 6b 4e 49 95 8d 92 54 8b 85 83 83 74 7b 8f 7d 70 7b 89 6a 87 69 7e 77 86 78 7f 96 96 86 76 8b 7e 9b 76 7f 62 75 5c 76 60 98 95 90 66 95 87 8f 79 79 95 90 71 9e 60 8d 78 76 63 64 86 6c 72 78 79 91 76 78 95 85 78 91 8d 82 77 66 89 6d 8f 5c 5d 63 8c 7a 87 70 73 4e 6c 94 52 74 8d 75 66 82 7a 90 64 6e 8b 69 66 7b 75 a0 73 75 68 92 6b 7a 79 98 78 7e 91 80 86 8d 95 93 6c 8d 91 60 79 86 80 a8 81 77 ae 8b 7d 77 6d 7e 7f 6f 80 8c 77 74 6c 67 67 65 7c 5a 83 82 93 7f 81 86 7f 69 5a 94 78 98 83 7c 9f 98 98 a5 90 92 6d 8e 86 80 6d 78 96 6b 7d 83 61 71 80 87 7d 76 92 6f 8f 8e 95 85 5f 69 95 8d 73 9d 9d 89 95 8d 89 8e 6d ad 94 5e 7e 91 95 61 92 62 94 94 8c 83 74 83 5b 65 56 8e 79 7c 59 7e 8a 88 81 93 60 8c 68 93 92 99 7b 84 7c 7c 5c 6e 6e 84 69 78 87 78 85 7c 68 6a 66 86 65 9c 90 65 5a 8a 5d 9c 85 7e 81 9b 86 69 86 ab a4 5f 87 a2 8d 54 52 85 86 96 5a 65 6c 79 8b 7b 6e 75 89 85 53 9b 69 73 48 50 7a 81 87 61 6d 5a 8c 98 81 81 83 a1 9f 62 84 92 7a 60 7f 6b 8d 8a 80 78 69 83 80 7e 87 6c 5b 9e 56 80 81 82 90 8d 94 65 8c 91 8b 5a 5d 5c a1 9b 8a 65 8a 8f 89 73 7c 86 7a 7e 90 90 94 87 5b 69 75 9a 8c 95 7e 57 77 68 a0 61 8f 78 8c 7c 56 8e 87 5f 93 a3 70 49 72 a3 8b 72 75 7f 8f 7e 92 71 7a 6f 9d 7b 8d 6f 9e 75 9c a8 72 5b 6d 5b 71 71 78 7f 88 6e 89 71 7a 65 8b 6e 96 65 7e 64 9b 5a 6b 84 8a 74 9c 7c 60 6d 81 93 98 89 73 74 98 95 a8 85 90 80 6f 7c 7e 5e 7d 6a 67 7c 9b 84 90 82 9f 6d 66 8e 90 55 a1 ab 7a 70 97 7e 6c 75 8e 6a 7d 94 73 87 83 8a 7e 8b 5c 82 7c 8e 55 95 85 7d 62 92 8c 7e 70 74 99 7e 6d 72 83 96 9f 67 72 63 79 6a 71 95 71 92 8e 87 71 61 84 81 81 87 5e 71 7c 71 97 7d 8f 70 85 83 75 66 80 41 7e 77 81 97 68 52 64 8d 77 86 a0 85 99 80 78 7e 45 9d 88 61 48 8c 7b 76 92 75 68 65 86 83 78 7e 7e 66 95 98 9a 66 7c 87 66 73 82 60 8e 8d 83 6d 87 83 7e 86 88 84 95 93 9a 5f 96 98 82 92 7b 63 2b 8a 93 95 90 74 54 63 6f 7c 95 84 6a 92 8d 82 77 76 8f 76 85 75 84 96 70 85 99 92 89 5b 75 b4 72 92 98 6c 6d 7f 94 76 6e 65 80 84 7e 87 65 82 69 85 70 7f 8f 88 6a 95 7a 92 70 48 6d 6b 73 68 6f 6f 4d 8e 92 89 68 62 8d a0 7a 93 55 86 6f a8 54 9d 72 83 81 8e 85 8d 83 72 9a 87 88 a0 65 7f 89 76 8b 49 7d 6a 5d 70 86 4e 68 60 a4 8e 64 7e 9d 71 77 90 85 91 83 56 90 92 71 48 84 73 94 95 7a 52 92 7c 73 50 66 7b 70 8d 89 89 64 84 9b 7a 7e 9b 63 77 95 78 8f 72 72 8a a6 5c 93 7b 7a 77 81 93 78 78 72 9e 69 69 9d 64 99 78 79 7c 54 8d 8b 83 92 78 5f 8a 63 81 7e 89 76 5f 8f 7a 75 6b 7a 9f 6c 7c 6a 8b 79 4f 91 80 66 71 86 80 5d 95 8d 64 89 81 7c 90 7d 78 3f 85 7f 71 8e 71 78 97 70 99 64 69 9d 93 77 54 50 66 53 93 6a 94 83 7e 8a 4e 80 55 76 61 87 a6 7b 8e 7f 70 70 7c 87 83 8d 64 7e 5f 4c a1 74 87 9b 7a 71 98 76 77 9a 86 7e 8a 91 ab a2 58 62 88 86 72 9b 67 86 98 91 79 73 75 73 6a 94 60 5c 83 a4 6b 7d 4f 6b 91 82 70 80 85 83 61 9f 78 6e 88 90 77 7a 7e a2 4e 9b 80 53 65 78 75 57 73 92 9f 78 6b 82 87 9b 89 90 71 8b 92 99 5a 9a 78 6d 92 79 71 62 82 8b 62 80 84 71 69 74 a1 8b 7a a8 9e 97 88 9d 78 82 97 88 82 6c 6a 52 88 96 72 87 8f 69 7d 97 58 79 65 79 6d 57 5f 78 6f 9e 8c 6b 52 86 79 72 8f 87 81 81 76 6e 79 77 98 78 a0 5d 69 8b 3f 88 9d 80 99 7c 7b 8f 85 75 8f 6d 91 9f 92 9e 6b 8f 8b 69 65 6f 87 75 a0 58 73 9f 84 8a 68 78 7c 5f 87 6e 85 98 96 95 69 76 6c 89 6a 82 63 75 95 77 93 7e 77 64 7c 5c 69 72 6f 7a 80 6f 5b 6f 3b 63 6b 50 81 63 75 91 85 91 67 8a 38 9a 76 98 5e 82 88 7a 75 8a 83 83 6d 73 5f 8e 95 8c 70 7b 7a 6b a3 89 5b 57 76 78 6e 7a 78 88 81 95 6a 58 63 77 99 60 7b 66 93 8c 76 77 76 7d a0 6c 70 8a 79 96 7a 8f 63 65 83 85 81 8d 51 83 84 85 5b 6a 7c 62 7a 69 75 4c 7c 7f 72 5d 79 83 97 8d 9a 5e 97 82 60 90 6a 66 63 5f 81 7d 8c 83 7c 5b a4 96 9b 8f 5c 9c 7c 89 96 93 94 73 7b 80 74 82 65 60 85 8e 79 a6 9f 92 98 87 67 b6 8d 8f 57 7f 44 82 54 77 7f a7 89 75 7d 91 93 59 91 63 90 7d 7a 5e 9a 7b 92 8a 81 83 91 8a ae 90 86 58 8d a3 8d a0 82 68 a0 92 71 76 74 89 78 91 92 75 6a 75 86 75 67 91 74 78 66 78 7f 72 7f 6e 91 55 5b 74 9f 76 88 83 82 90 8d 7f 86 79 81 b8 82 87 7d 90 57 92 6f 83 85 7f 5f 67 7b 79 75 97 87 7e 96 75 ad 6f 79 77 73 92 7e 8f 8e 7a 77 81 5d 73 8e 79 9f 46 8a 72 6a 71 a9 78 75 8a 75 8b 66 66 6c 7e 99 96 5d 78 6b 60 91 85 6f 86 75 68 9d 60 94 7c 72 5a 86 73 6e 7e 67 39 7f 7e 9d 7b 7e 90 70 6b 9d 79 72 91 86 62 95 6a 86 73 6e 90 8f a4 9d 60 9e aa 6f 95 85 80 73 73 96 7e af 73 95 62 6b 8d 7e 8a 64 91 70 89 7e b4 71 71 7a 62 7c 80 48 79 9d 84 6e 5f a2 65 99 65 73 86 78 5d 97 56 8b 7a 82 7d 77 7b 9a 72 79 80 81 93 7e a5 69 90 59 70 7b 8f 84 6d 92 7e 7b 6a 58 7f 83 79 73 86 8f 85 a8 85 6e 91 75 83 87 6e 98 94 8b 56 9d 7a 90 94 8a 89 9a 97 8b 59 6f 73 76 85 62 87 8a 5f 78 6c 86 74 64 8b 57 73 73 95 87 84 70 52 98 71 6a 88 94 6e 8c a5 70 6c 7e 6f 5e 7c 6f 92 a2 94 86 97 6d 91 92 6c 74 89 61 6e 9a 87 76 6d 87 99 8e 78 69 93 98 7d 69 8d 9e 7d 71 50 33 79 93 75 7b 96 89 93 84 7f 76 94 6b 81 68 67 a4 6f 88 81 82 70 65 7b 6d a4 82 6b 7e 84 61 81 49 7e 8d 8c 7a 55 7a 84 89 a4 6c 7f 59 6a 8c 9f 9d 77 a0 74 7b 8b 62 8a 88 85 71 69 72 88 89 88 73 99 9a 6c 6d 9e 8f 7e 94 67 92 78 93 84 94 71 8a 91 54 6a 98 86 79 6e 91 a4 93 89 9a 95 7a 6b 70 90 4f 8e 7b 71 5b 55 6e 89 60 5d 80 9d 82 85 89 5c 81 75 7d 88 83 4a 90 7a 7e 89 87 72 7c 7b 83 64 75 84 74 7f 70 91 8d 7b 6a 62 77 9f 98 89 a0 7f 67 8f 8b 71 80 80 7c 63 68 6c 8e 81 74 83 7e a9 5e 73 5f 87 80 8a 93 a5 71 a3 97 73 a0 86 9c a6 88 a1 62 79 89 6a 6e 6c 74 98 8a 75 85 72 a9 4c 6d 88 90 84 59 56 8f 81 80 78 6a 7f 92 95 92 7b 7f 81 a7 93 7a 87 97 76 90 6d 75 6e 96 78 90 97 86 87 81 4a 87 75 73 7f 91 a3 68 76 7e a5 6b 7c 7d 9b 75 75 99 8d 86 79 5e 77 98 85 7b 85 69 8b 5a 83 83 77 71 85 93 74 65 6e 74 86 9b 6e 