6b 99 80 6a 6d 86 89 7c 7e 96 89 6b 70 93 68 66 81 7b 6b 6b 76 93 73 81 8d 94 7d 72 78 69 67 6d 9a 6a 81 89 8b 67 87 88 82 8b 74 91 82 76 98 90 92 7d 81 6a 8a 8d 7a 82 8c 6b 74 98 8c 88 82 7a 6d 84 7c 93 94 8f 6f 6a 67 97 8c 93 6c 67 8d 94 8a 66 8d 8b 7c 99 87 79 85 69 99 7b 7a 72 80 8a 7f 98 89 63 92 75 9a 8c 72 8f 81 94 87 8d 6b 69 72 6c 6d 7b 73 6a 7f 73 8f 63 92 99 67 67 63 67 68 81 95 98 98 83 70 6d 6b 99 8f 88 95 7d 74 70 74 99 75 7a 6c 69 8a 9a 89 97 9a 93 7a 86 66 8b 87 80 8a 7a 7d 6a 6c 76 63 88 8f 63 90 99 74 6a 9a 64 7a 76 91 99 9a 92 8e 81 84 74 8b 65 63 6b 90 6a 95 94 66 88 8b 68 96 9a 78 85 92 86 75 81 7f 6c 69 77 85 89 65 95 69 96 8a 86 91 82 77 63 84 98 5d 74 82 8c 91 83 80 92 65 67 78 7b 82 7a 71 90 a4 6a 75 76 7a 94 92 90 84 67 93 96 8a 77 90 6f 6d 99 80 79 80 95 97 72 74 9a 80 88 66 79 8c 86 67 65 a0 6e 7a 83 6d a1 7a 6a 7e 87 65 88 8c 9a 65 8e 70 81 7e 7c 67 6a 66 68 90 7d 9a 8b 83 7f 69 78 9b 93 80 8d 6e 7d 8a 66 72 91 97 86 7b 8b 67 97 98 65 66 94 89 8c 8b 65 87 92 79 69 92 8b 78 8e 65 7b 8d 8c 98 96 7f 90 75 93 71 92 95 8c 7c 91 65 6f 94 90 99 94 8a 74 7b 76 82 7c 71 84 86 98 87 97 7e 94 9a 70 69 98 96 89 68 68 71 78 95 6d 64 79 77 89 68 6b 83 97 8d 94 82 9b 67 6c 88 7e 7e 6b 81 78 77 79 8d 92 9e 93 6f 85 9f 83 88 96 96 6a 7a 82 6e 84 62 89 7d 7c 90 6a 71 6e 7f 7d 99 8a 99 68 9a 69 90 7e 93 86 81 9d 90 80 80 64 6e 91 8e 71 8c 7a 93 84 77 78 8e 75 73 71 83 91 94 78 8e 74 99 72 6a 85 78 9a 74 88 8e 6e 6c 65 6f 73 82 71 69 6d 91 73 85 69 82 81 69 79 80 7e 8a 6c 75 77 71 91 63 89 7c 8d 64 78 95 68 a2 99 91 6e 82 70 87 90 9a 91 7e 70 93 75 6d 69 83 8c 71 86 8b 75 75 85 63 80 95 7d 83 99 8c 88 72 6f 89 94 86 96 8a 93 91 68 8d 86 95 6f 8b 7f 6a 8b 75 6e 94 81 75 61 82 6c 66 88 6f 98 76 6b 90 78 90 90 72 64 95 81 71 8b 95 8b 85 84 67 79 5e 60 73 68 6d 6f 84 79 8d 80 84 7c 74 66 8b 6e 74 98 8f 91 70 71 6c 97 91 90 94 70 7a 76 90 5e aa 83 9e 86 87 69 8e 8a 8c 65 80 87 80 72 79 80 6e 73 6e 72 8d 78 71 69 84 73 69 65 7c 9f 86 8a 93 95 7e 7e 65 8d 91 76 79 7c 6b 92 8e 80 9f 73 71 7b 74 7e 5f 6f 8e 71 6a 5f 75 80 96 6a 66 94 6f 9a 71 6d 85 77 8f 88 8a 81 6e 97 6d 8d 4b 76 98 54 57 b3 89 a2 a3 52 41 b7 73 68 91 a6 7e 6d 91 82 c1 41 8c 5e 97 88 8e 7b 93 6c 89 a3 79 4c 88 71 82 a2 7e 94 76 51 a4 79 7b 94 95 88 69 84 77 a7 6a 7d 8e 96 8c 69 78 81 76 82 86 a1 8e 5c 42 a1 94 66 79 6a 50 88 a6 55 70 8c 8e 5b 81 a3 8a 58 81 8c 55 90 65 9b 8b 60 85 8e 72 96 79 92 92 6e 85 6d 89 8a 8a 7f 87 9a 9c 55 70 59 a7 97 5b 8a 9a 7f 54 66 73 63 8a 74 ae 9c 56 6a 84 87 80 9c 77 7e 92 8e 8c 9e 80 4e 99 7a 67 4f 83 ae 88 75 73 97 80 b1 6f 46 75 72 72 77 7d 84 66 79 81 8f 80 79 8c 52 88 95 a8 93 8f 86 55 70 ac 74 79 8f 84 8a 55 3d 60 63 a8 8f a8 52 56 9d a4 88 85 63 5d 6d c0 69 70 64 87 9c 52 72 b1 89 cd 94 a6 97 67 70 bc 80 9e 63 65 c9 22 a2 9f a9 41 a4 8e 70 8d 89 a7 61 36 88 92 6f 7a 8f 7b b7 89 7d 4d 60 56 b1 9a d0 53 81 a0 6a 99 4e 95 61 a9 22 6e 9c a5 75 61 58 78 82 7e 5f 48 74 7c 70 97 7e 76 9d b1 a2 70 54 95 a5 62 76 a6 74 3c 5c 8a 82 90 88 90 80 5e 76 5b a2 77 58 86 88 a2 71 66 49 5a 80 84 9a 73 86 8a 8d 84 86 3b 9f 90 60 b3 83 6e 8f 96 ab c8 5a 99 b0 c7 a3 6b 1f 61 57 97 89 37 a2 57 9b a8 af 7c a3 9b 5d 5f a8 96 35 7a 44 7f 93 34 84 6c 3a 59 54 7c 9d b8 94 6b 9f a7 55 82 17 77 a6 7d 92 6f 8d 79 d1 96 4d 87 96 8f d2 3b 79 69 98 c3 a6 b6 56 71 b6 9f 81 7f 5a bc 92 90 a2 24 7d a4 60 73 91 7f 8e 7b 62 a0 73 73 79 7f c4 9b 91 7b 5f 94 59 95 ac 50 ad 54 77 33 5c 89 90 96 73 7f 87 3e 71 ad 71 44 33 82 18 85 8c 63 65 75 16 72 81 63 63 57 98 53 bf 45 8c 7e 84 b9 a6 9c 83 c8 77 8e 3d 88 cc 67 a4 4c c4 4c 28 8c 74 3a 53 aa a6 6c 2a 48 a0 97 33 87 97 6f a7 4a 9d 57 8d aa aa 73 70 8f 55 58 5d 76 9f 69 73 8e 99 83 7b 67 87 61 85 8e 5d 7e 9d 68 8c 79 95 62 73 93 8c 92 74 75 4b 72 78 84 61 81 72 6f 99 6d 91 8f 67 92 76 75 69 52 86 87 58 69 70 8a 88 9f 76 84 81 65 7e 71 72 6f 74 66 65 5a a6 50 7d 99 57 9d 43 93 8e 54 9b 7b 6c 9e b2 4e a2 95 87 92 51 62 7d 89 61 5d 77 b9 6c 55 8a 43 9c 64 3e 85 76 44 9b ae 7a 57 71 3c 89 b1 bf 61 af 9e b0 63 a5 91 79 a3 7a a6 96 72 d1 84 75 8c 6a 7e bc 73 6a 8d 94 99 6e 89 6d 8c 89 87 93 7c 81 7f 70 64 a9 6e 5e 92 78 74 6f 7f 80 78 6c 9b 80 7c 7f 87 75 78 a5 65 97 89 96 93 92 94 86 8d 68 9c 7d 76 99 8f 87 86 71 93 62 75 74 6a 83 67 9a 43 82 9d 6b 7d 4b a9 89 6e 96 71 7e 57 aa 6a 99 66 61 91 86 70 7f 78 67 be 9b 2a 92 67 6d 6a 96 5d 62 81 65 72 96 ab 76 8b 6b ac 5f 75 83 60 40 8f a8 6f 91 7c b8 67 99 6a 89 60 aa 72 86 81 4a 86 83 7c 68 7f 77 87 93 82 a2 8a 6f 85 7b 9d 88 8a 65 7e 7d 87 86 8a 7a 80 6c 94 7e 86 7c 62 78 70 8c 6f 8d 95 83 68 84 8e 72 a0 82 6d 83 89 6d 79 77 76 77 73 6a 6a 69 65 81 8b 75 57 89 7e 8a 6a 8b 01 67 97 69 64 83 6d 92 77 6e 5d 81 5f 80 5f 93 8a 96 8d a4 99 70 a9 89 55 a6 89 91 6f 99 89 64 69 67 68 81 80 9a 72 a8 a0 72 70 85 77 59 82 9a 78 65 8a 39 93 95 97 92 6f aa 7a 50 92 58 71 83 88 79 6e 9a 6f 6d 84 7d 75 95 8b 6e 63 8f 7c 83 75 83 84 69 88 88 66 7c 68 7e 79 89 4e 76 64 8c 79 69 7e 77 78 8d 8c 8b 88 8f 8a 8a 73 97 7c 8d 84 72 88 7a 78 7f 72 89 86 5c 88 88 82 7f 54 7d 60 78 91 75 68 7e 74 43 7f 7f 86 66 a2 7b 90 97 86 79 8b a0 a3 7d 31 7c 6f 8d 8f 7d 5f 73 90 76 94 91 7b 61 75 a2 9c 90 96 7f 7c 7f 6d 70 80 8b 7b 8e 81 54 99 9c 56 85 77 66 7c 73 7d 55 6a 8e 97 99 93 7f 8e 6b 87 92 93 78 84 71 94 8a 74 85 82 8a 6f 74 8b 7f 85 6e 80 87 a1 84 96 70 91 8f 6f 7d 8b 7e 73 8e 73 7c 5c 8d 85 6b 91 90 6c 73 84 8c 76 6e 6f 90 96 97 75 82 8e 6e 6b 82 96 95 80 81 7b 8c 8c 8f 8e 6f 84 6b 91 8f 7c 80 6b 8f 66 86 98 72 8d 7d 70 88 76 97 6f 6b 7c 8c 67 75 6c 70 7e 84 7c 81 71 7f 8f 74 85 99 74 95 96 76 99 8c 8d 76 75 81 7a 99 7f 8b 92 88 65 8d 94 8e 6b a1 7f 94 76 79 61 73 8a 76 63 9d 89 68 8c 6e 84 67 96 87 89 64 a2 8c 83 7c 7a 80 77 6c 90 7e 64 9f 6b 7d 9b 88 94 93 71 84 8e 77 71 8d 7d 7f 94 5c 91 91 6f 95 7d 73 73 80 78 a1 86 60 98 82 88 71 77 8e 90 7e 7e 86 66 86 84 68 89 6a 67 87 75 69 7b 66 78 8e 74 86 85 7c 99 8d 95 83 7c 80 67 97 69 91 79 83 87 85 68 85 85 8a 6a 6a 94 6d 8e 88 71 81 66 7c 71 95 75 6a 96 71 82 90 80 93 86 6d 8f 72 8a 9f 8e 92 64 8e 85 74 92 91 7f 85 6b 6d 64 72 5d 83 97 7d 7c 90 88 6e 78 9f 91 8b 84 8a 79 72 8c 96 87 5a 9a 78 77 8a 60 85 7c 80 7a 92 92 60 8d 70 81 94 7e 91 95 8e 85 b7 72 6d 88 90 97 91 97 78 8b 63 66 6a 63 90 98 71 8b 69 83 71 71 71 90 68 6a 6e 76 67 80 6a 87 73 66 65 99 8e 7e 8c 83 7d 7f 9a 6a 71 77 8d 75 92 6f 94 89 67 75 68 6e 99 65 67 98 90 8e 79 79 77 88 73 83 82 7f 75 7d 75 6e 92 73 86 73 70 73 72 83 7c 76 81 8b 79 88 7d 85 90 80 84 97 88 89 68 78 86 6b 92 71 61 92 8c 6f 7d 70 6a 74 6c 86 83 9d 93 95 89 8f 69 75 79 6c 6f 73 95 87 70 69 83 94 99 8c 68 74 88 79 63 82 97 85 91 6b 85 85 88 6a 68 92 8e 7d 70 6b 8b 86 80 77 63 8f 85 99 72 96 91 7b 98 81 7f 65 7f 6e 85 7a 66 6d 8f 84 9a 84 75 97 7e 64 75 92 89 95 89 97 96 69 97 65 97 85 89 78 7a 6b 88 6e 91 93 77 94 68 7d 8c 6e 74 8f 7c 5b 85 91 79 7a 96 82 6f 71 60 76 76 6f 96 8d 99 6c 7e 98 84 70 86 7f 63 7c 86 83 61 8f 80 79 6d 75 63 65 7d 73 75 92 7f 7d 96 70 93 a3 6b 89 7c 71 9a 98 92 8a 75 94 7e 6a 63 83 8c 6b 6b 7e 7d 7a 80 99 95 79 6f 73 83 8b 7c 84 76 83 6d 7b 6f 7d 83 87 68 89 6e 97 97 7e 78 68 77 96 86 80 76 8e 79 8f 83 93 88 83 6a 87 89 76 6a 7b 78 71 8c 7a 7b 71 6e 8b 83 8e 6e 87 71 80 72 79 95 89 64 7f 69 8a 8e 7b 8f 60 6f 71 7a 9a 6a 70 6c 71 73 6a 62 79 67 93 85 93 8e 78 64 70 72 a1 9e 8b 7f 79 99 62 8c 7f 72 73 7a 74 90 7b 96 73 7d 91 65 7b 63 8e 72 97 7f 8a 7c 85 72 87 75 6c 74 77 92 7c 93 67 64 74 6e 6d 88 95 81 94 93 6e 87 6d 80 89 9a 7f 72 67 6a 69 89 6c 7b 99 71 64 64 96 95 79 65 66 64 86 78 66 68 99 82 90 84 83 77 71 8c 9a 8c 88 73 7c 71 73 76 7f 83 7f 7c 6f 95 7d 80 83 7a 86 83 6c 90 7b 75 8b 67 92 82 8a 8c 63 8b 6f 94 7a 93 70 8e 7b 75 70 71 76 8b 8d 79 85 77 a4 7f 87 75 83 8e 87 89 7d 6c 91 66 62 8d 6c 94 88 9a 70 6c 88 74 63 75 71 88 6b 69 97 77 72 97 88 95 85 69 66 86 68 79 8e 6c 8a 7b 95 92 89 88 8e 66 64 88 88 6b 70 95 93 98 79 73 64 8b 92 87 78 6d 85 95 84 78 94 6c 72 9a 69 92 77 86 8b 80 7f 79 8d 84 79 87 65 71 84 88 70 8c 87 78 75 8b 86 76 73 87 96 78 77 80 66 59 6d 5c 63 86 84 76 90 89 95 96 6f 9f 79 8b 90 66 88 7b 77 6b 82 60 9c 8c 93 84 8e 92 91 63 76 8c 6c 75 95 6a 80 86 68 63 7b 8f 7a 6d 82 69 80 6f 79 8b 64 93 7e 8b 77 7e 76 6e 6f 87 6f 7e 88 7b 96 6e 69 80 72 78 67 83 82 73 83 81 6c 64 82 66 83 76 98 70 96 70 7b 94 7e 79 6c 94 8c 6a 98 85 84 67 7a 98 8a 6a 74 9a 94 84 76 98 89 8a 93 80 68 78 69 71 6a 7f 6f 8d 6c 7d 94 79 5e 72 4f 81 70 71 74 8a 73 6b 7a 6a 8d 8e 64 89 6d 83 8d 91 7d 77 97 7a 6b 7d 77 6d 7d 8f 7f 8b 7d 79 88 84 6a 7f 99 56 80 6f 91 69 84 7e 74 8e 9a 69 69 76 66 84 75 88 77 64 8f 99 76 86 6c 76 8a 94 66 71 72 78 7a 74 9a 71 6c 66 87 6e 84 65 64 80 73 91 8d 65 91 70 95 85 92 8d 81 92 97 6b 6f 6e 66 6f 6d 8d 72 82 6e 6a 6c 80 83 7d 69 74 79 82 7b 6a 7c 91 9b 7d 82 93 7b 6f 99 90 8a 8f 67 74 74 8f 73 8f 90 8c 8e 75 94 86 8c 74 a4 62 a0 7b 79 8a 63 6d 7a 83 6e 7f 67 6a 64 89 86 6d 7c 85 82 8d 86 6b 8f 6e 86 72 67 88 6b 91 67 84 96 92 65 64 72 93 77 7f 77 92 87 76 8a 80 9a 7b 84 6f 8e 93 94 8f 6a 95 68 7f 75 96 92 90 77 87 6e 99 65 7f 81 68 6d 6a 83 79 80 7e 91 95 6d 7e 74 6f 8c 72 93 86 63 83 94 89 8a 70 5d 82 82 72 68 87 6c 81 9c 7c 66 77 8b 90 88 64 6a 85 8d 91 72 66 78 82 88 68 8e 68 8b 7c 92 89 63 98 82 97 8f 88 77 87 67 8f 85 6e 7a 9d 7c 7c 87 7b 69 88 71 76 83 99 9e 8b 93 88 8d 8d 98 65 67 7b 79 95 8f 64 79 83 6a 75 74 79 83 7a 6a 65 82 8e 76 80 7c 82 8c 73 88 96 70 8d 72 64 75 8d 76 8f 77 73 7c 97 65 7c 86 8a 74 6a 89 73 82 87 94 74 77 69 78 8c 91 8c 8d 64 85 96 90 71 68 9c 8e 73 72 71 83 9b 79 65 7f 99 81 6d 88 83 6f 79 6a 9e 99 8e 8a 7e 66 74 7f 7b 87 7b 69 64 8c 86 65 87 7c 68 7e 63 85 58 84 79 7c 92 65 7d 7a 6f 94 70 71 7f 7e 67 7d 81 8b 7c 7d 74 72 89 7e 70 69 78 88 97 81 6e 95 6a 8d 8d 93 74 95 76 6d 7b 71 97 72 73 76 98 81 91 98 88 6e 91 68 81 8f 6c 69 66 8b 8f 68 98 96 6e 98 79 92 91 7a 94 77 93 77 98 73 66 98 8b 66 80 84 6f 76 65 94 77 9d 91 7b 94 77 90 93 7f 71 7d 8f 6b 77 8b 78 70 7e 7f 62 7d 7b 74 6d 60 63 98 6d 8e 78 8c 9b 88 64 72 85 6b 6f 92 98 6f 71 77 66 8a 80 7b a5 79 7a 8c 71 69 70 60 a3 7b 84 86 91 84 8e 91 79 7a 7b 71 73 91 77 88 79 71 74 65 86 85 6a 70 66 6b 76 94 72 8c 99 7f 74 63 68 85 63 6b 6b 8c 86 6a 72 82 67 72 65 94 99 83 93 70 8a 78 65 88 95 7f 6c 65 98 78 80 70 6a 84 70 95 6e 77 70 65 77 8d 82 90 84 89 96 7b 80 7b 80 7e 75 71 73 72 86 85 8a 84 91 9a 77 76 84 5b 82 84 75 71 95 7e 5d 75 8a 65 81 6d 97 8b 83 78 95 79 78 90 75 8e 7a 89 9a 72 9a 87 87 6d 73 64 6b 67 64 93 89 8c 87 71 7e 80 88 98 63 71 99 67 84 7a 7b 8d 91 75 95 89 7f 7a 82 89 85 97 8e 63 96 8b 6c 9a 9a 97 90 67 96 7a 6d 6a 81 81 7f 84 79 9a 8f 7a 87 77 71 63 6d 85 68 6c 6e 67 79 77 90 64 69 71 92 8e 6a 85 6c 75 6a 94 64 78 6e 94 77 75 67 98 a7 98 78 86 5d 7c 98 87 9d 96 7c 91 8c 7b 97 8a 5d 8d 80 8d 89 9d 78 a1 6a 78 78 9a 61 88 78 80 80 71 74 81 72 84 8c 98 67 97 79 88 6d 73 82 96 8e 6f 80 8c 70 83 68 6f 90 68 92 85 70 8a 86 85 8a 6a 83 69 6e 6e 72 7e 82 93 70 93 89 76 8c 8b 8f 89 83 74 73 67 75 7c 68 83 89 77 78 8c 92 75 94 89 71 77 72 7f 98 72 9a 78 8d 88 7a 82 7c 72 89 7a 84 6d 7e 8e 9e a7 80 79 73 6a 82 6e 8d 89 a0 6b 6d 98 88 8c 98 71 80 64 9f 6d 74 97 94 6c 95 75 87 9c 86 77 62 75 82 7d 76 95 6b 97 7a 61 9a 83 5d 6a 7a 67 90 8b a3 80 9c 68 80 88 85 7c 8f 72 67 6e 75 6e 65 85 6f 75 7a 81 7a 90 6b 84 89 7e 69 95 8b 99 6d 8e 93 77 71 63 97 74 6b 91 75 6d 72 7f 7f 70 7b 65 6d 84 71 8b 98 8f 86 6e 82 8f 98 78 96 6e 8b 63 66 84 86 89 66 67 73 87 97 7e 67 a4 7e 65 56 69 a1 9f 9e 97 77 7c 96 6e 82 73 8e 73 8a 78 94 72 7f 5f 97 79 9f 83 70 8c 79 9d 96 84 6e 90 7a 95 79 73 85 63 80 94 66 a4 67 85 98 6e 87 74 60 87 82 6e 9a 6d 65 55 7f 6d 97 83 81 6a 6c 70 78 8d 95 7d 78 85 8d 94 7d 8e 8e 90 7f 92 80 77 74 83 88 91 77 6e 63 82 72 99 86 6b 81 76 7e 71 71 89 87 75 8a 80 70 6e 86 6d 6d 92 88 99 72 96 69 72 92 95 91 81 81 82 6e 7c 64 6f 97 70 93 7c 61 7c 6a 97 79 94 7e 75 7c 87 65 92 79 92 68 72 71 81 74 8f 82 72 7b 7a 97 97 8c 6a 80 83 68 60 80 71 7f 93 6c 95 8d 92 73 8a 7f 84 60 83 7b 78 7d 7b 8c 75 8a 76 83 76 6b 7c 88 83 66 8a 93 7c 8e 95 98 86 75 99 8f 78 7e 96 6a 91 7b 82 93 8e 7e 6c 92 98 89 6d 96 96 86 75 78 7b 91 72 6a 81 94 6f 64 7d 80 74 8e 91 77 94 67 79 6e 83 90 70 82 6f 79 7c 8f 83 6e 98 77 85 99 7b 78 7d 8b 90 92 90 76 85 87 96 7a 7b 8b 7b 8b 79 98 70 86 9e 7b a2 85 94 82 5c 74 6f 79 70 7c 9e 6b 8d 78 91 71 73 85 7d 82 7b 70 7b 8e 81 76 70 83 8e 80 75 60 7a 7c 73 7f 89 71 70 81 8e 8a 7b 