85 7c 8c 6b 61 70 96 8b 98 67 8c 91 82 81 7c 6b 7b 7b 81 72 6f 91 72 6b 8e 93 81 70 8e 78 7d 83 86 a2 66 72 45 8f 6e 7a 7f b0 72 6c a9 80 92 98 9c 8d 82 8e 7e 9c 67 9f 9d 7a 8d 76 79 71 7d 68 6d 5e 6d 6a 73 6c 79 87 98 84 6d 88 7f 88 8a 80 90 b7 69 61 9b 61 84 6e 70 9e 61 63 97 96 7f 92 4b 87 7c 65 6e 7e 7c 91 8a 97 85 70 7e 7f 94 9b 83 95 5f 6b 62 67 7a 80 93 75 a7 8b 97 95 77 7d 86 88 8d 98 8f 85 7d 8b 76 77 80 78 57 7e 7c 75 9c 8b 70 90 78 95 85 61 6d 59 6f 92 5d 7e 9b 84 7a 8e 72 57 69 93 73 83 7c 8a 75 82 6b 64 83 69 70 70 7d 55 6d 74 7d 66 7f 7c 9c 87 88 8e 7d 7a 90 9d 87 71 8a 7b 98 84 82 95 73 75 70 98 74 7b 87 a6 59 4c 83 6b 61 83 75 8b 5c 8e 89 7a 9d 77 88 85 8c 96 a6 8f 8f 91 7a 67 85 93 95 91 68 6e 86 90 66 76 77 6b 92 7b 7e 91 74 9b 80 9c 6e 62 7e 6a 86 86 70 84 72 80 92 79 97 92 9c 9b 65 88 82 86 7b 95 73 64 81 87 6b 96 6b 9a 9a 72 5d 7c 88 9b 79 a4 74 aa 7e 7f 90 97 58 9f 8a 5e 70 65 6d 71 7e 8a 6d 6e 84 81 71 69 79 ab 60 98 a1 9a 80 6a 66 95 63 7c 89 64 5a b2 8c a2 83 92 85 67 65 80 9e a8 5b 77 70 6e 8a 8c 84 84 7e 95 9a 89 74 6a 91 79 7d c2 8f 9c 6b 80 a3 a0 8d 6b 5a 57 7f 51 a1 93 7c 84 61 80 a0 4c 70 87 5c 49 73 96 82 93 8a 73 91 7c 67 83 53 88 4d 7e 9e 71 62 93 6d 64 7d 8c 9d 6c 64 6b 5a 91 83 55 60 75 7a ab aa 8c 77 7f 6b 5c 92 9f 65 95 82 9d a4 71 80 76 5a 82 55 5f 98 87 79 84 76 69 82 85 79 8e 7f 99 9c 60 5c 8a 8b 9b 87 79 98 5e 79 99 72 6e 8b 74 84 9a 65 5d 96 68 5c 61 97 96 8e a5 86 59 95 5b 80 7d 98 84 8a 61 a0 8d a3 5e 6b 83 6b 9c 8c 6b 92 8b 9a a5 7f 6e 51 67 84 8b 5b 8b 9c 70 a2 7b 82 99 8c 72 86 7c 80 65 88 7f 74 97 6c 79 61 78 65 8b 97 6a 60 55 96 61 8a 92 8a 76 44 9e 68 6b ac a2 7e 87 75 9c 68 83 79 65 74 7b 76 75 9b 93 74 89 8c 65 8f 55 74 9a 83 72 a1 8a 94 76 5d 93 9b 83 6a 86 5c 8c 80 a7 7c 76 5d 8c 9a 7b 79 74 66 9c 69 6c 6d 7e 6e 83 86 69 5a 6c 93 44 74 8c 89 8f 81 8e 88 5a 72 98 6e 92 98 85 51 61 78 6d 6a 8d 70 85 89 8c a6 74 7c 93 9e 88 85 7f 71 90 7d 74 87 6d 60 6d a0 92 83 60 7a a1 a1 6f 68 55 71 89 7c 96 96 8d 5f 5d 81 68 89 83 5f 7f 79 99 93 60 a1 8c 73 92 68 64 7a 91 9a 97 9b 61 75 9d 8b 83 79 9d 7b 7f 95 73 91 91 7b 6f 71 75 6c 72 91 5d 77 81 5f 52 76 75 78 86 61 68 ab 72 5e 89 60 6d 7b 91 5e 58 72 80 8d 72 88 69 90 9e 66 6e 76 78 6e 7f 58 86 8a 96 79 6a 92 66 64 62 67 7f 58 92 78 5a 7b 85 81 83 9d 9a b4 75 80 90 81 84 75 83 87 74 94 75 82 8e 8c 88 87 67 79 89 93 7f 8a 83 86 87 76 7c 95 8d 75 6b 68 69 8f 77 8b 81 89 6b 67 80 6f 91 7b 80 78 78 7d 66 73 71 8e 91 69 98 93 83 9b 8b 76 7c 94 79 73 6e 73 93 86 8d 71 91 60 8f 88 9b 5b 83 5d 96 90 8e 87 84 8f 82 97 8d 9f 77 6a 68 95 81 6a 75 6f 60 84 98 7c 65 88 9d 88 8e 88 52 5b 87 90 a0 80 7c 90 7c 90 9e 79 7a 92 8b 6e 77 7d 99 57 93 6b 8c 80 95 7d 94 83 5c 8b 92 68 84 81 54 5b 90 8d 60 74 7e 75 6c 90 64 9a 6c 7d 67 85 80 9b 88 54 99 80 64 70 6f 81 74 74 65 7f 84 96 72 93 9a 87 80 73 69 63 93 9e 70 67 73 6b 97 70 93 7c 77 6f 92 77 73 67 8c 6e 92 a0 83 67 a3 7d 92 6a 6a 68 77 8a ab 71 76 84 82 93 86 6f 6b 56 6d 93 8b 95 64 6b 55 6e 76 7b 7d 82 4f 91 8e 5a a0 5d 7b 60 b9 89 77 6c 76 5f 78 9b 85 78 85 83 ac 82 73 78 8a 70 86 98 86 9b 72 8b 66 85 9b 75 94 7d 9c 64 68 65 7a 70 86 73 6b 84 8c 69 95 4f 7f 6d 7f 7e 77 93 8e 96 9c 83 6c 5b 9a 7a 90 8a 93 57 94 6d 66 92 94 88 8f 95 69 92 79 7c 8c 6c 76 96 73 70 70 9b 86 6e 98 73 63 92 65 8f 8b 74 60 6b 5d 93 6f 78 7d 7f 76 96 97 93 83 68 67 73 64 68 6b 77 8b 7f 5c a2 8c 76 7c 8e 88 8c 6d 63 8b 5b 93 79 83 70 84 67 8d 83 6b 6b 83 9e 67 8e 6f 75 64 97 8c 82 6e 8f 76 8e 8a 8f 76 7d 83 6b 60 9a 6b 6e 6a 99 66 7c 6e 6f 76 7b 76 78 71 8d 86 89 72 82 7a 86 72 7d a8 61 88 87 85 59 62 99 61 79 79 6e a1 8b 9d 5a 72 70 9e 8a 92 7e 80 7a 63 7a 92 6a 85 5c 98 91 a5 96 85 80 84 85 8a 84 a1 6d 78 8a 65 7a 8b 5e 73 69 78 8b 5f 5c 87 88 5f 86 55 89 90 8c 87 a4 71 96 94 71 94 84 6d 4d 68 4c 7e 87 99 77 83 83 8b 6b 80 45 94 5c 87 8a 8a 4c 7f 8e 9d 5b a6 9c 83 a7 97 ab 76 88 92 8e 90 82 58 64 a0 70 67 7a 95 8b 82 9e 77 ab 5b 70 ab 99 82 9f 6f 95 94 87 7a 8c 7b 82 8a 69 53 a1 6a 83 77 95 7a 73 7e 5c 80 5c 96 8e 94 a4 7a 4a 98 5b 6d 7e a1 9b 8e 5a 8e 73 9d 7e a1 98 ad 73 64 88 78 94 74 73 82 a6 8b 80 9b 93 64 83 87 65 89 63 7a 73 78 68 61 75 72 79 8e 93 8f 8d 90 8a 65 91 a3 89 70 69 7c 81 7b 73 82 6c 63 8a 95 7c 5f 80 95 76 73 78 a8 78 85 76 71 ac 9c ac 56 8d 76 99 99 9e 69 7a 88 60 66 75 72 85 8c 92 9a 8a 5d 91 8e 75 71 6f 7c 95 81 70 7a 59 67 9e 6a 91 7c 72 6c 7c 9b 83 8b 59 6a 62 93 97 89 66 56 9e 6b 79 8e 99 9d 97 78 99 8f 65 91 9e 5c 78 65 47 8b 62 97 70 6f 83 73 80 ab 9c 97 88 5e 8e 85 84 4f 87 74 6f 75 89 7f 65 72 82 83 86 5b 83 76 93 96 60 87 96 80 85 8e 92 9a 6b 64 7c 66 9e 7e 9d 95 6e 8b 82 87 69 5c 7a b1 97 82 71 8a 66 91 90 7b 55 72 91 93 76 66 79 8d 70 8c 8b 70 7c 81 8f 6b 59 8c 88 86 62 6f 60 9c 86 87 5f 77 77 96 8c 97 9b 78 8e 6e 68 95 73 70 8d 7d 69 ac 91 61 b7 82 8f 82 79 7c 6c 70 96 82 8e 75 6b 53 84 76 62 76 81 5c 7a 91 a0 84 94 9c 67 8f 6d 93 6d 8c 97 87 7b 87 81 68 5e 8d 64 63 90 72 7c 82 66 67 7a 87 66 6e 8a 7b 94 7a 7e 60 7e 75 8f 6e 7f 7a 8b ac 7d 5d 58 66 87 96 7e a1 83 74 78 70 80 8a 9d 57 61 7c 95 5e 7e aa 93 7f 91 76 78 6f 92 86 9d 75 6c 69 a1 8e 75 8a 77 61 83 60 64 8e 79 93 70 9a 75 ab 7a 90 a9 63 69 7b 57 b8 68 67 76 67 87 a3 83 9c 92 65 79 79 68 85 67 62 7b a4 7e 6b 7d 6c 97 7e 87 54 88 7f a3 94 67 9c 6f 8f 71 7d 9f 75 72 8c 8f a0 62 95 6c 90 6f 6d 7b 61 7f 85 89 7f 95 84 6c 80 9f 6a 7e 81 6c 9e 7d 90 84 9a 89 82 57 76 97 86 a6 a2 8a 79 9a 98 63 68 a9 60 89 6f 6f 9b 7e 73 7b 9a 82 92 87 56 6f 72 7c 68 8f 65 63 58 a0 79 9c 94 64 78 5b 89 75 79 82 68 72 8b 7c 6d 96 61 60 95 6b 81 95 92 5d 86 87 74 67 89 9e 88 87 6d 86 78 6d 75 9e 7d 74 81 73 86 92 85 70 76 8a 7e 9d 8a 63 7e 60 8c 6f 64 79 95 97 7f 7a 77 9f 90 69 7f 91 7c a5 88 94 9c 82 6e 92 82 9a 8e 78 72 85 8e 81 67 75 67 67 88 8c 65 82 69 95 95 61 7c 98 a2 58 85 91 67 84 7b 70 97 93 7a 7c 5e 66 8b 85 5b 7e 82 92 69 7e 95 8f 9c 8b 8e 70 5e 6a 98 85 9b 88 97 5a 7d 74 6c 6d 88 75 6c 84 75 6b a5 83 69 79 6d 84 8c 8b 87 56 60 93 80 75 77 91 69 7e 86 85 8f 94 8e 75 51 92 72 82 8f 96 5a 95 9f 62 61 7a 71 69 6b 97 97 7f 81 65 87 87 89 68 6c 69 5a 97 91 81 65 76 77 55 7a 8d 92 80 95 94 76 56 75 88 81 8f b0 90 90 65 69 91 83 7f 61 9b 8c 80 8c 90 84 7f 8e 63 63 71 9f 80 7c 56 8c 84 79 74 98 72 61 7f 76 85 92 8b 77 5f 67 87 8d 7e 68 af 77 a6 84 6c 68 a0 8c 79 8e 76 9d 9f 7d 9a 6a 87 76 4d 7d 74 6d 58 83 8e 7d 7b 8a 97 79 75 7b 84 70 79 5f 83 6f 5b 81 9a 88 6b 5f 78 9c 78 84 73 81 6d 5c 87 6a 98 6d 8c 89 81 91 a1 71 97 8e 70 9a 88 8a 7e 85 77 84 8a 56 59 87 6f 91 9d 97 92 93 9e 6a 6a 79 9a 83 62 89 7f 98 71 91 85 89 84 81 70 78 a2 80 6a 8f 87 90 76 89 83 76 5b 88 94 92 8b 7b 8d 6a 80 71 63 7c 5f 70 8c 6f 8e 87 a3 8a 91 6a 8a 63 5f 72 80 87 65 71 7d 93 6b 82 73 92 71 8f 6d 91 82 68 70 81 6d 65 84 6e 5f 8c 8f 8e 6f 9c 5e 86 6e 7f 58 65 90 68 95 8b 9b 69 61 a4 7c a6 9d 82 90 77 69 60 69 96 97 98 99 74 77 78 97 98 57 b0 7c 6f 61 6e 5d 7d 76 7c 81 94 9d 6d a1 70 68 8c 88 88 7d 7a 6e 7b 8b 6d 74 6a 8c 62 8e 5d 89 63 5f 95 80 7c 73 82 64 77 6a 99 70 89 85 80 77 9d 98 6f 83 8b 92 74 93 9d 80 a2 8d 70 60 9a 83 85 90 6f 60 65 6c 56 93 70 55 89 4a 83 63 75 8e 6e 82 78 66 95 a7 74 78 78 a6 a4 84 93 84 83 80 8a 82 7b 71 5f 5c 8c 8a 76 7c 8f 97 73 72 7c 79 86 9f 83 9e 5e 8d 60 77 7f a1 83 65 a6 73 7f 92 85 9b 8e 7e 83 77 5e 77 99 5e 7a 7b 52 b3 69 72 94 65 77 70 80 9b 5b 94 8e 61 70 6c 7f a1 5f 62 98 92 69 71 74 5d 6a 76 96 90 7d a7 7e 7f 76 83 95 76 95 7d 9c 5c 68 79 94 86 78 5e 72 89 8d 9a 85 82 7e 65 8a 8a 8a 87 6b 65 77 70 90 7f 73 71 7e 6a 7c a3 4f 6b 6c 9f 5e 81 68 99 9c 5f 75 9a 79 9f 61 58 94 66 6e a3 7c 67 82 5b 83 7f a4 7d 5f 7d 6a 8d 8f 88 94 5c 64 5a 90 9d 71 8b 6f 7d 94 91 6c 65 9a 69 69 72 60 8d 72 99 82 6b 68 74 6b 93 4e 81 62 96 8c 72 77 68 86 9a 95 95 5b 49 73 99 8e 80 75 95 9d 5c 84 5f 67 9d 83 56 6a 6c 54 71 80 87 7a 71 8f 5a a3 71 94 7f af 83 9d 67 68 7c 89 83 69 8f 5e 98 72 74 63 88 8c 6e 6a a9 6a 88 64 93 47 80 77 76 ab 77 9b 50 88 6f 83 9d 9b 80 80 6c 93 7a 75 60 83 65 84 8f 80 6a 99 7e 73 72 69 79 7a a0 a2 75 a2 93 82 9f 66 6b 76 8f 89 79 6f 7e 6f 8f 7e 65 92 6b 7d 5c 98 65 9a 8f 69 89 89 86 67 8d 8a 83 9b 80 7c 94 73 aa 8d 76 93 7c 9c 67 74 6d 60 7d 7e 8f 90 75 a1 92 66 6b 84 80 90 8f 74 8e 62 90 99 6a 81 67 70 68 78 87 87 66 66 8e 65 ab 76 6d 8d 74 8d 79 94 81 7b 70 94 7a 8b 5e 61 60 85 65 89 68 6f 68 a0 8f 64 a0 76 a1 53 88 69 65 8c 5d 7a 87 5b 91 99 a3 7c 77 63 96 a5 8a 64 8c 74 96 5f 77 5a 5c 94 7f 63 54 8c 6a 7e 50 8a 76 64 8a 64 92 87 78 78 8d a5 6f 52 9d 5e 73 8f 64 72 67 7d 7d 52 71 8f 6f 8e 8d 7e a0 65 74 98 6c 64 79 a2 98 62 7c 6c 66 9b 4d 71 76 a9 6b 6c 92 59 9d 71 90 96 8a 68 76 94 a5 65 5e 83 85 7b 95 79 a1 7f 82 8d 86 47 56 85 76 68 9b 4f 7d 75 9d 4c 59 6e 84 89 7a 95 4a 66 88 7a 6f 93 74 85 72 6f 84 76 5e 6f 63 71 8e 60 88 88 a2 6e 79 86 78 84 90 6a 99 74 99 66 9c 6b 7f 8d 89 67 80 5f 9c 87 6d 91 a9 65 8f 7e 6a 85 97 81 a0 90 89 8e 5c 92 a0 92 62 7d 9f 82 68 8c 7c 77 79 95 67 8a 8b 6a 78 79 69 6a 93 60 9c 7d 9a 7a 97 90 71 79 81 87 99 87 7a 80 6c 75 85 80 65 64 77 84 85 6f 93 a0 9a 96 71 74 72 68 7d 71 83 6c 8c 80 83 5f 8e 60 89 61 88 8d 7f 8e 9a 8a 8d 69 92 a0 72 a0 94 92 76 94 7b 9c 7d 71 5a 88 87 5e 84 6d 82 97 a1 7c 83 69 76 89 58 82 8b 82 74 77 8e a0 93 7a 6d 9d 76 8e 92 70 8b 69 6e 5a 6d 6b 8f 8b 8d 97 7a 83 9c 6c 86 63 90 71 60 75 7a 97 72 60 83 87 63 9a 84 90 4c 7b a7 70 78 8e 68 62 a2 55 6f 61 99 71 85 68 75 62 7d 7e 95 57 7c 7f 64 8c 6a 72 ac 89 88 95 83 92 8d 9c 81 5c 91 95 78 74 89 85 77 72 88 51 94 92 84 93 61 6d 73 98 87 8f 87 6e 92 63 72 84 84 58 88 5d 95 65 6b 9e 7f 8c 8c ac 92 64 7b 81 73 79 62 63 76 69 9a 6e 95 7a 9b 8c 6c 93 71 66 8e 8b 7c 6b af 64 7a 63 6e 95 61 71 73 91 89 5d 6f 9c 8e 59 6d 97 73 77 6c 72 7b 6c 6c 85 80 61 64 5d 81 5e 90 8b 99 98 61 5e 63 7d 60 84 99 78 68 74 66 87 96 76 7a 91 72 88 85 9e 59 59 9e 73 61 97 6e 70 5f 7a 8e 7d 67 7c 90 63 89 74 82 6f 6e 7e 68 99 86 a0 90 76 8c 93 6c 8f 97 61 73 6a 69 7b 67 96 7e 65 7c 80 99 96 8f 6c 85 83 83 80 82 97 6c 7f 72 8a 8c 83 74 64 96 89 69 69 79 73 8c 86 97 7b 92 81 70 96 7b 9c 99 6b 7c 6e 82 72 7c 60 71 6c 88 64 98 58 98 85 75 60 6c 83 65 56 6b 75 7a 8d 7e a0 9c 6f 9c 58 97 94 8e 67 63 5d 6a aa 68 70 83 8d 77 9c 95 bf 68 85 8d 79 6f 7b 85 5e 9a 57 79 87 64 6e 5c 92 70 6c 73 62 81 8c 6f 83 8e 7f 9f 55 76 69 76 63 6e 8d 83 62 89 70 5a 68 8b 7a 87 8b 95 5d 5e 86 5b 5c 77 65 9e 99 9c 96 8e 8b 92 71 9b 85 78 83 84 82 63 6e 8f 94 94 7d 95 87 67 79 7c 94 5e 6e 72 6d 5f 60 7a 95 62 80 79 6c 6a 66 8d 7d 74 92 74 8b 94 63 9c 78 a5 67 83 61 95 60 70 94 a2 74 87 91 71 65 89 70 91 94 79 59 97 97 88 4d 9c 7a 87 79 76 83 8f 78 98 5f 83 9a 8a a9 84 97 9f 9e 7d 72 6a 68 4e 72 7c 9a 7a 79 97 77 94 7b 9f 8e 7f 93 66 4d 74 7a 9d 66 8b 8e 5e 6b 88 68 7e 61 93 99 5c 9a 53 71 7c 71 73 72 6a 74 69 8e 86 85 7a 9b 6c 81 8d 91 97 90 77 66 70 64 76 6e a5 83 83 9d 65 75 72 b0 77 7f 9c 7c 80 7e 9f 74 99 80 64 76 5f a7 7f a1 75 88 88 4e a1 7f 9f 7f 66 7d 83 76 88 62 a4 85 74 87 78 60 60 88 9d 75 66 7f 7a 8c 85 70 5c 86 7b 76 80 9c 63 78 67 63 88 98 5f 78 80 96 6f 54 84 a2 80 5d 82 5f 6e 80 76 69 77 9c 93 6b 65 6f 94 74 89 96 79 79 94 90 81 a5 96 6d 68 82 a8 53 84 7a 89 7d a0 87 8a 69 7c 8d 87 84 90 85 75 62 95 9d 98 9c 70 7a 57 70 6b 8e 67 8a 75 64 64 84 86 a9 72 8e 79 5d 86 7c 67 5a 86 6b 83 70 68 5f 58 8d 66 89 93 83 6d 8e 75 93 88 69 5e 6a 86 96 7c 98 59 8b 94 55 76 6e 7b 62 6a 6f 57 aa 9a 92 8c 6b 62 78 67 6b 6c 74 64 5e 61 5e 79 93 68 7b 68 6c 7f 71 86 6d 92 91 95 a6 a5 93 60 83 98 7f 6c 61 91 8c 8c 7e 9f 93 71 8f 84 80 90 74 83 68 88 77 8b 92 7c 8a 80 74 72 73 6f 78 82 7e 86 60 5f 72 8b 81 9a 73 89 73 75 71 93 59 8d 86 7e 6a 93 8b 74 7f 76 56 79 9b 8e 83 57 50 6f 70 6d 8e 70 6b 81 8b a6 88 62 95 94 85 9b 84 a1 91 92 82 6e 65 7e 6a 85 48 7c 68 7e 64 72 7a 93 84 66 8a 5d 70 80 94 86 71 7b 80 72 8d 6b 86 89 99 8a 6a 7c 81 79 8b 85 79 7a 6d 6a 89 70 84 56 9e 61 69 80 a0 91 7c 89 61 91 87 87 87 79 71 8d 79 8f 7c 88 6d 71 6c 70 7f 78 94 49 86 6f 6b 78 70 72 8b 5f 8d 74 83 72 77 7b 86 7a 61 81 80 7a 97 74 9a 83 72 69 72 66 8b 88 77 82 6f 8c 66 59 79 56 5f 6a 7a 8d 9f 6e 84 5f 90 a3 55 63 6d 99 72 99 82 77 93 6f 87 52 79 74 96 57 71 8b 6e 87 77 69 7f 7b 8d 69 a3 58 66 9d 97 9e 97 9a 8f 8a 5a 57 98 5f 5e 97 61 88 96 6f 86 62 77 93 6f a5 7c 70 8a 72 a4 96 92 56 92 73 8e 78 96 6a 9e 8c a0 95 7b 91 8b 69 6b 88 a6 94 86 57 62 5d 7f 86 72 95 96 80 91 81 84 a0 74 7a 83 6d 93 9b 8e 6d a3 7a 7a 8d 93 7f 97 8a 8e 