7f 7f 74 67 6b 57 98 74 92 62 96 77 82 7c 96 68 5f 9b 58 93 85 80 9a 7f 71 5c 88 6c 60 7f 46 8f 65 6d 97 96 8f 70 80 7a 68 7c 83 4d 71 6b 63 76 79 70 92 71 9d 72 66 6a 86 91 8c 55 74 78 5e 83 84 84 84 85 5f 30 75 4f 6c 90 be 5e a1 85 58 77 65 5c 14 46 82 90 ae 66 72 6e 82 a0 69 74 5a a7 62 6c 75 9b 85 94 b4 a0 7e a5 5a 4b 4b 9a 74 96 42 82 57 7c 8e 21 8b 87 70 93 a7 a2 96 41 4d 56 95 90 91 73 7b 71 77 81 81 6c 71 71 86 84 9b 74 87 6c 7a 92 68 73 85 81 75 94 89 76 83 9b 98 63 72 6f 6b 68 96 78 91 7e 7b 65 84 80 92 85 77 8b 9c 7e 89 92 7f 84 94 71 66 8d 8d 90 65 78 75 7e 8b 83 93 8e 61 85 9d 5c 94 68 6c a4 b0 8b 7b 82 88 8c 83 7c 23 80 a3 8e 92 86 6e 93 9e 7a 34 62 87 7e 7e 8c a1 a4 a6 64 33 91 7b a8 6b 8c 8e 9a 98 83 91 98 8f a3 9c 64 92 62 84 a3 73 a0 79 86 60 a2 a1 cc 60 ad 5a ac 93 73 8f 72 43 8a 69 a2 71 b6 97 c2 c2 86 55 6c 9b 48 c7 81 d4 87 5a 58 aa 9c 5c 77 63 9b 47 6b 69 0b a2 7b 94 53 95 21 a2 5a b3 a3 57 b8 a0 8b 73 69 5e 88 5b 62 9f af 90 60 a0 84 9b 70 6d 98 75 6e 85 7a 69 8c 8e 85 77 71 83 90 7d 7a 8b 99 7a 8f a0 7b 8c 9f 85 67 82 85 86 78 92 88 6b 69 84 7c a7 7c 87 7c 71 7d 68 73 8a 8b 8f a1 5b 64 7a 7d 8a 8a 87 92 85 73 ae 9f 5e 5d 58 97 76 74 31 67 b4 8b 59 63 8d 78 79 64 66 8a 9f 9b 94 50 6b 87 7c 4f 66 6f 9b b0 69 6e ad 7c 49 4b 1d aa ad 76 70 53 63 13 78 9a 83 b8 68 8d b8 67 48 60 90 8c 9a 4c b1 7b 75 af b9 81 47 48 b9 6c 8a 4c 69 a2 3f 80 8c 6e 6d 93 75 49 65 73 17 7e 6e 2f 48 a8 85 61 6c 67 af 9f 5f 4a a1 8e 1c 5f a0 9b 84 94 67 73 5f 86 49 94 6f 89 84 57 a4 65 66 5b 88 96 85 8c 8a 77 57 b5 80 95 94 79 90 85 65 69 72 67 8e 6d 95 70 65 7f 75 74 7f 86 6e 92 91 96 7f 95 93 64 6d 9b 79 80 82 6e 87 77 8b 7f 99 82 92 72 82 99 7c 8f 6d 8e 89 68 76 67 8a 6a 7b 8b 86 94 97 76 7e 8b 85 77 74 6a 87 79 92 81 6c 7d 7c 83 92 9a 68 86 83 84 98 8d 6d 94 69 94 7b 82 71 93 73 8e 72 83 6c 8e 85 9b 6c 73 8a 83 8a 92 76 6b 7b 7a 69 99 84 69 73 73 7f 99 96 89 6a 94 77 66 7e 88 7b 7c 81 9a 89 80 6e 76 63 96 73 86 9a 74 87 8e 9c 66 81 84 61 8b 9b 6e 6a 91 92 96 9d 7d 79 5e 99 5f 57 75 5d 9b 6a 63 6f 80 8c 95 91 83 75 61 78 81 83 72 a4 a4 65 6d 79 a8 52 83 95 79 96 92 8b 92 8a 76 89 82 65 7d 69 65 72 76 73 74 84 85 73 86 93 66 68 72 6d 72 7b 77 6f 70 8e 70 73 97 67 87 6a 7a 73 65 73 7b 7f 77 7d 91 86 73 88 90 8d 78 98 8b 72 7b 89 82 94 75 99 81 65 64 8e 6d 6e 86 71 79 7f 8f 6b 6b 70 88 70 87 8d 6f 87 92 76 74 92 63 71 78 8c 65 84 75 73 8b 8c 75 69 64 85 72 6f 72 7b 91 6c 9a 92 87 6e 83 63 6a 72 86 97 9a 6a 80 80 93 7e 95 7e 75 64 79 89 77 66 9a 7f 64 82 8b 8e 79 73 93 86 85 86 6e 8e 78 78 8a 7b 6b 86 88 73 9e 6c 7b 8d 8a 94 80 89 8d 66 60 8b 8e 5e 9d 70 98 77 88 6f 87 70 99 6a 66 6c 63 77 73 77 88 7e 70 87 94 9b 77 68 77 7d 8f 96 90 76 70 85 64 58 64 75 86 5f a0 7d 89 71 90 6d 7e 6d 91 61 71 86 99 89 94 97 54 74 90 a2 75 7d 7e 89 96 16 5c a8 a9 69 8a 8c 66 5e 84 6b 83 7a 74 91 6d 89 9e 81 75 83 7b 62 86 a5 76 6c 7d 8b b9 54 88 70 7b 69 9a 65 4a 96 77 92 66 9c 82 76 6f 83 7e 7c 69 7f 7a 8d 82 87 73 5b 60 6b 9e 9d 70 85 79 8d 96 6a 8b 81 96 9a 8a 79 76 80 82 50 a3 80 6f 64 73 61 67 8a 6b 86 85 81 76 84 8f 9d 6f 71 7f 57 7c 88 a1 9f 97 8d 60 df eb 7d 69 d4 1f 27 af 77 8a 94 73 bc f2 dc 85 8b a3 7f 97 85 26 66 91 4b 62 81 a0 7f 71 8b 63 2a 76 b9 00 67 9b 83 95 94 d9 d5 e6 b0 c4 83 52 07 6c 69 72 43 85 90 5f 9a 38 86 7b 6b 79 7f 74 7d 9c 80 5a 64 8d 4d 8e 76 7f 90 80 9c 7b 77 83 54 62 8a 7f 7a 62 7b 96 8c 84 95 ad 6a 8a 94 7f 64 94 ad 55 7c 6e 81 71 8c 83 8e 3e 74 8b 9d 90 77 56 82 6f 69 68 73 77 69 5d 7a 8d 96 88 6b 91 82 88 98 8c 90 6d 98 92 8d 70 8c 8c 7e 89 73 89 68 8c 70 8f 6e 7a 83 6f 6a 94 77 86 8a 98 8e 8b 90 8c 6b 73 81 6f 8e 6c 6a 76 73 7e 99 70 91 98 98 67 70 7c 69 6b 7c 85 71 97 8b 6a c0 b8 9a 83 97 99 64 5e a2 7b 35 7e a4 81 63 47 bd d8 9a 64 67 99 9d 9d 95 88 b8 a2 c6 5b 75 83 9c 7b ac 89 7b 81 c7 b2 82 a3 88 7a 90 a5 9a 3b 9b 6a 5b 87 70 6c 5c 4c 87 8e 77 75 9a 9c 5e 7d 83 a3 7c 64 b1 a0 b9 6b ad 7a 8a a0 62 79 8e 7b 8a e7 be 6f aa 92 75 79 81 4a 87 9a 9c 84 9f a9 6a 35 94 62 84 56 65 52 93 b2 88 ce 89 77 9c ae 86 9d 69 7d 39 95 99 4d 66 54 8d aa 74 70 79 97 74 ae 60 39 a2 92 8c 92 8e 78 99 64 9b 68 66 81 7e 4f a7 58 59 8b 88 8a 8d 56 78 a3 93 90 31 98 66 71 67 3c 61 86 7d 9f 86 73 8a 5f 5b 52 6f 62 69 29 7e 82 59 a7 67 87 95 a9 83 6e 74 7e 77 50 8d 74 7b a7 65 84 7a 8c 7a 6a 71 4d 87 9a 84 86 9f 8a 15 77 69 80 5e 7d ba b6 a9 ae 66 7f 91 b0 69 af 8c be 82 68 34 b3 65 a6 a4 8f 9d 3e a7 62 8a 93 74 a5 a4 83 5e 6f 63 9e 5d 6e 98 9a 5a 70 9d 9b 94 43 56 84 9b 70 61 8c 30 b2 a6 90 7d 9d 96 9c b1 5d 5d c8 a0 6e aa a6 90 84 5c 59 a2 a3 88 87 ae 55 9e 76 96 52 95 6a aa 9a aa a7 70 5c a1 6f 5d ad 91 81 4b 5b 76 9e 87 57 8d 1b a5 6d 89 82 91 9b a1 80 92 98 8b 6e 9e 68 71 76 78 7c 97 80 9c 87 8e 6e 78 86 61 8d 76 8e 4e a5 8a 60 70 70 89 69 42 8d 81 7c 76 85 81 54 83 73 5f 82 6b 8b 9b 92 88 7e a1 95 69 7a 9d 8c 75 52 83 79 6a 67 95 8e 6e 7c 86 88 71 7a 69 62 6f 71 7e 6c 6a 6c 96 66 77 66 68 7d 88 9b 6f 89 90 67 76 6f 66 65 6c 9a 91 86 6b 78 81 67 7d 87 75 71 88 75 77 6a 70 69 67 7c 77 8a 6e 89 99 9c 79 97 78 79 92 71 92 6b 94 95 7b 76 86 71 91 75 9c 7b 87 74 6b 9a 74 71 71 6f 83 88 83 81 69 7f 7a 6d 90 66 66 91 68 92 92 96 93 8c 6f 8a 94 6e 79 70 90 70 79 8a 7d 96 97 68 96 8c 82 86 64 8d 6e 8a 9b ba a2 94 7f 60 94 7c 76 61 cb 80 97 81 9c 89 6f 6c 85 8f 7d 64 83 87 7a 8b 6e 4d 8c 6b 8f 80 66 6f 88 76 8a 7b 2a 8b 8e 6d 9e a5 72 6f 6d 7d 9d a0 9a 61 77 b1 24 7f 7b 97 9c 57 7a a3 9b b8 7c 3a 8c 96 9a 8f 7e 81 5e 7e 74 89 a8 68 a0 70 7e 5b 9b b4 64 6b 76 81 8d 6c bb 84 ae 83 97 85 97 81 76 67 7b 81 68 7a 70 5d a0 a5 91 78 98 81 7f 8c 7b 50 81 a6 50 a3 8a 6f 8c 4e 60 94 7b a2 5a 6e 9d 59 7f c7 7c b3 70 84 8e 7d 4f 85 74 5d 5e b4 6e 8e 9a 6b 8b 5d 61 64 97 90 a6 79 92 76 a5 82 6d 7e 7f 6b 80 57 91 85 7d ab 9b 9a 9f 64 9d 79 a4 ca 89 94 d1 9a 53 72 71 76 70 b7 99 b5 8f 93 50 39 6a 79 76 93 45 6a 78 7f 83 82 2d 7d 61 32 9c 70 52 a0 b6 80 41 87 77 9b 40 5a 99 ac a0 cb 79 88 5f 72 c3 80 ae 74 69 71 63 a6 80 af bc 74 6d 5f 7d 4f a1 31 a0 a8 8e 63 9c 92 89 85 80 75 88 81 56 86 65 95 5c 94 a1 9c 4b 71 6a 61 87 6e 9f 94 9b 7a 77 72 6f 96 84 7d 75 70 7c 8a 8a 98 86 77 72 60 8a 72 86 51 71 94 6d 7a 84 7c 82 65 70 96 98 7f 93 67 70 8d 75 81 66 8a 60 73 63 8c 90 ab 99 88 9b 82 77 81 81 a1 6e b3 a0 60 8d 67 a1 ba 44 60 94 87 b8 a5 9d 7e 87 98 9e 7a 97 84 73 41 94 87 86 62 85 46 a5 ac 91 b4 81 91 99 ac 87 78 6d 7e 6e 83 80 7e 8a 9f 93 a7 52 6b 6c 54 a1 72 97 99 57 56 ae 8a 7c 9a 9b a2 80 7b 89 8d 87 70 b8 84 77 97 9b 40 90 a0 8b 7c 90 73 98 47 8d 7b 81 7c 94 8f 54 98 a6 67 67 a2 89 94 57 a7 59 8c 84 6f 9e 84 7b 8d 89 7a 86 61 9b 50 90 78 a2 9d 7e 9a 6a 92 75 8f 8a 7b 99 6b 98 87 79 64 74 4f 63 7a a0 b1 8e 6e 4b 67 6e 80 70 75 61 72 69 66 97 5f 24 a1 4f 81 8a 74 71 35 72 66 9d a7 7b 96 73 90 58 5a 82 6c 5d 8d 8a 6d 98 4c 6b 5a a1 ad a6 b8 6b 98 a2 86 77 83 af 89 a7 7b 6d ba a0 61 ab 51 63 94 9c 0c 8c 9c ae a7 a2 59 a1 5c 87 76 8a 93 89 8d 6a ba 7c af a0 80 ba 79 a5 70 b0 5a 53 9e 8a b7 7a 51 64 c3 5b 74 a4 87 78 4b 9f 84 53 66 5a 86 9f 8c 96 70 5a 92 70 65 7f 8d 9a b3 6e 83 83 61 8e 70 89 b8 7d 6e 7e 58 90 84 61 86 a3 8f b2 92 9e bf 54 b0 a6 b7 b0 83 78 71 b2 8e 73 8a b4 9b 75 81 66 bb 5f 8c 85 89 69 95 6a 8d 71 71 8a 68 81 8e 91 8e 85 6a 69 63 65 9c 62 69 7e 93 90 85 65 8b 8d 70 7b 85 9c 93 71 6c 85 6b 7d 75 61 6f 6b 66 73 79 91 8c 90 5a 83 9b 7b a3 7a 68 99 9c a3 83 9c 82 94 74 93 64 97 84 92 7d 25 6a 92 9a 83 7c ab 70 78 74 b0 66 65 6e 80 87 89 87 58 74 8c 90 8d 8f 87 6c 63 a4 4b 7b 93 86 8d 9d 81 88 90 8e 73 86 7e 5c 60 86 83 92 85 4b a6 84 44 76 94 79 9c 93 7c 65 6c 86 9b 88 6b 61 a1 8e 76 7a 91 72 53 60 64 73 86 77 8a 52 59 52 6b 7c 7b 63 73 7b a2 70 86 81 96 70 a6 8a 82 6d 7b 75 96 60 83 a3 55 78 88 87 76 4f 79 ab 86 70 8d 78 8d 94 68 75 7d a3 74 b2 86 c8 93 8c 8a 69 8d 8e 86 71 69 66 59 7d 71 98 7b 77 79 63 71 75 61 86 84 8f 7a a1 72 8b 6e 84 79 7f 7a a2 6a 95 5d 6e 6c 6f 7b 83 5f 8d 7a 87 77 99 6c 77 66 82 86 8b 7a 91 97 96 7f 8d 93 77 6d 73 70 7d 88 aa 67 77 90 ab 9e 75 7c 4d 67 66 a8 6e 68 a6 77 91 65 7c 79 91 a4 68 6b 5f 79 a1 02 8e 82 7c 80 7c 68 92 55 63 93 66 9b 6b 8c 89 8f 38 b2 86 a9 be 69 8f 6d 68 a1 91 41 7e 67 67 60 92 7c 46 7b a1 70 10 8b 59 6e 68 8e 9b 77 7f 9c 91 74 a8 92 29 9d 95 44 8d ac a0 a2 64 80 6d 92 72 87 7a 77 bb 89 83 92 84 7b 19 96 9f 8d 6a 3e 14 b4 35 7c 40 9c bf 52 71 58 8f 9f dd 85 6e 7c 9d 7c 72 b3 84 70 9e 7d 8a 79 70 c0 5b 6b 7d 8a 6c 7a a4 90 92 86 7f 5c c5 90 69 4e 83 96 57 82 73 84 b8 74 79 7d 9d a8 62 87 72 86 6b 9f aa 97 e0 73 75 82 a8 5a 66 70 6c 81 7e a8 44 5c 67 7d 62 5d 4e af a9 6a a4 6e a3 be 72 67 bc 7d 8d 8f 85 80 99 b6 89 47 66 74 a8 9c 78 a1 ae 92 97 25 65 b3 80 5b 95 8c 7b 6e 5a 6a ad ac a7 aa 98 a5 6f 7a 48 a5 70 51 af a4 7a 6e 6b 73 bd 3f 94 6c 8b 90 92 6d 6c 7d 51 90 73 89 89 83 7f 75 9e 7b 91 6e 7b 6e 9e a3 6d 81 96 69 84 7c 7a 7d 8f 5d a4 7d 5e 8c 75 86 6f 88 89 63 63 82 72 8e 8d 68 93 68 7a 61 71 7c 67 72 86 68 83 9d 89 95 75 71 77 85 87 78 75 93 70 98 71 7e 92 7e 6b 72 8e 72 8e 97 78 8a 85 67 86 68 6e 8c 7d 96 6c 73 66 66 74 96 8a 76 77 94 93 79 90 97 88 77 84 68 93 76 88 76 9b 7d 77 84 77 7c 7d 8f 85 7b 6c 7a 69 79 89 8c ae 93 6f 9f 74 98 7d 66 5e 5f a2 6a 72 9b 70 66 82 93 68 76 8b 7b 84 92 8e 6b 7d 72 76 8b 8e 7e 78 94 89 9f 7c 81 a2 73 4e 64 69 9e 95 80 6a 97 83 7d 80 89 79 7b 6c 8e 8a 7a 44 89 6e 5d 59 51 55 8b ac 7a 81 5c ac a1 6d 76 62 81 60 66 73 60 99 8e bf 10 7b bb ab 73 80 94 aa 93 74 5c 7f 93 81 61 72 8b 6b 75 6d 7d a9 90 8f 9b 84 99 8e 79 8b ae bc 69 a7 a8 85 61 83 2e ad 4f 9d 87 75 85 79 9c 75 a3 7b 7f 81 5a 84 a7 52 77 84 a6 61 93 99 93 80 5e 63 a0 84 8f 81 7c 8f 7a 3f 80 a3 8d 96 7d 7a 91 98 70 72 6a 99 8f 8a 83 6c 9b 5f 8a aa a7 97 75 a0 95 7c 9f 78 6f 75 77 a1 78 7a 79 54 6e 71 5d 92 5e 99 77 6b 85 6d 4f 68 6d 5f 80 8b 6b 69 79 64 8b 64 79 69 7a 91 6a 8b 98 72 99 6f 7b a5 63 68 7c 8b 94 95 68 8e 8a 53 89 5b 7d 81 85 9c 81 64 9a 6c a3 a5 80 73 8f 9e 8a 87 bc c9 50 7a 4f 57 a1 65 62 6c ba 6e bd 4a 7f 8c 60 27 83 69 62 88 4a 74 48 85 5a 35 7e 83 30 b7 34 88 98 90 3d 86 72 9c 69 6a 9c 76 43 65 28 94 66 62 7b 5d 9b 9b 53 2c 97 99 a5 7c a5 69 31 7a 83 79 b8 96 78 94 9d ac 7d 76 6e 5e 6a bc 8f 76 82 88 9e cb 8d 55 a7 91 b5 81 7b 90 86 3d 72 7a 9a a0 6a 6f 87 92 b6 65 68 66 8d 95 a3 b3 8f 9e b2 65 8f 82 5a 9f 66 89 6e 62 8a 3d 78 80 68 55 7b 67 7c 66 79 7a 74 74 63 71 62 88 50 9f 88 81 78 78 86 81 a0 7b 86 6a 60 6e 9f 97 84 90 8a 7b 79 7b 80 76 6d 69 94 65 92 6f 51 77 92 8d 8d 91 6b 78 61 68 9b 57 8f 7f 66 7f 91 6f 93 69 7f 8a 98 84 94 8c 84 62 86 8b 93 83 50 94 59 81 a4 78 8d 7e 8c cc 50 7d 63 83 96 c9 a1 6f 6b 95 a4 96 71 53 76 6f 73 66 8e 64 97 84 6f 90 7d 84 84 7d 8d 64 96 6b 96 a8 6f 8b 55 77 99 a7 74 9d 5d ae af a7 32 56 b4 59 9d 67 75 7d 12 6b c8 3e 4d 88 7f 4c 8c 4c 87 a4 93 52 48 8c 45 4a 54 65 81 b7 5d 5f a7 9e 2a 85 6c c3 68 99 a4 72 47 55 55 50 6b ab 6d a3 9d 74 6d 57 aa a1 85 88 86 64 3b a9 7d 64 76 99 a5 71 86 50 6e 75 65 63 7c 9c 92 61 65 8c 75 59 81 8b 96 9a 9c 7f 62 86 a2 78 86 78 7c 54 94 88 75 61 6d 7e 88 83 95 75 7d 54 8b 83 58 9c 65 94 8f 6c 8b 8f a3 91 7f 6b 98 78 a6 61 60 6e 89 a6 b6 6f 67 6d a3 67 67 78 1f 75 b0 72 69 89 73 64 77 5b 90 9a 8b 53 a7 a5 b3 93 91 6e bf 82 75 81 83 74 8e 64 8c 7b 86 6f a6 a4 a6 71 9e a8 ae 67 53 ae 94 9f 46 6b 69 8f 4c 93 b9 ad 81 ad 83 af ef 44 a5 42 83 5e 2c 7b 61 52 7b 85 76 61 99 61 c9 89 75 4e 73 8d 8b 5c 7d 66 6a 8d 4c 8e 8e 7d 83 a0 58 8d da 9f 78 9c 73 46 50 87 6f c0 80 c6 96 9d 62 61 8b a3 57 78 aa 7f 8e ca 6f 78 93 a4 64 73 79 89 97 6e 9a 90 61 7b 8e 7c 5f 94 a1 a3 44 6b 8e bc 92 7f 8c 8d a2 7d 21 7e 8b a7 90 77 99 77 a5 82 96 8d 7f 58 67 91 76 c3 7a 6b 7c 9d 76 82 7a a4 78 83 9d 8b 81 4b ae 6e 7e 69 95 96 a5 99 88 a0 9f 65 86 59 a4 bc 6c 88 7e 7e b6 4e 7e 61 93 c1 b6 75 86 9d 70 af a1 5b 9f 91 98 76 90 5f b9 4f 76 1c 9c a1 a7 91 8a 26 90 99 7d cd 5b 6d ae 7b a9 6d 6c 49 60 97 96 77 7c 80 82 79 79 75 a4 77 a0 8f 99 9b 83 a0 7a 8e 6a 7d 9e 81 68 66 79 a7 89 4d 7e 6f 6c 90 3f 7b 7f 9d 7b 67 9c 80 a7 7d 89 74 7e 87 8d 9a 62 6f bb 87 86 74 7a 86 92 92 87 6c 72 8e 62 ab 69 5e 94 8d 7f 76 7b 72 8f 65 8d 89 90 96 67 6d 69 87 6c 8e 77 9e 7f 83 74 67 7d 80 72 70 95 7d 7d 81 6b 8d 8e 81 67 67 6e 80 83 77 79 68 6c 7a 75 91 9b 7d 96 8f 7f 7c 70 68 86 79 80 79 84 85 70 94 59 91 87 83 77 9c 39 95 68 88 aa 7c 83 81 9a 73 76 84 a6 a1 79 6f 3e 95 7d 4f 99 48 96 7d 51 74 86 76 66 90 8f 7e 7b 99 6f 5a 82 a9 a2 7d 88 66 6a 2d 8c 70 7c 97 74 83 7b 63 65 7b 89 83 a2 81 