84 69 69 66 5f 8f 91 7d 70 8a 67 83 83 7e 8a 78 87 9b 8d 69 63 85 6d 87 76 71 88 7b 68 76 82 8f 94 81 82 6d 61 73 78 80 91 6c 85 71 8d 5d 6d 7a 8c 66 85 62 7e 81 89 71 83 84 8a 98 64 5f 69 68 7f 82 90 69 8c 7c 77 70 6b 84 8f 86 77 51 7a 73 79 69 84 63 74 88 a7 8e 8c 75 4e 8a 89 9a 6e 95 63 8a 84 68 8b 7e 72 8e 9d 64 6e 99 6c 8e 97 7a 91 91 8b a8 8c a1 9b 4b 78 74 96 70 8b 76 65 6b 77 73 7b 8e 4b 73 85 5e 85 82 92 6b 91 90 b1 71 9c 85 7d 92 6e 89 93 8d 4b 7e 8b 7b 9c 9a 7b 51 7c 5f 41 79 a4 7d 91 7a 88 75 93 74 80 61 71 8e 6e af 73 b7 9c 6a a9 8a 7a 87 7e 76 83 99 8b 6a 6c 8e 8c 81 7d 90 82 8d 82 60 86 6b b0 81 80 87 a2 8e 67 80 8f 84 81 7b 8e 65 7e 7b 94 6b 77 81 8c 7b 5e 89 89 8e 8b 71 6d 64 a2 8c 89 a2 92 75 67 85 50 a1 7b 87 6f 75 70 74 6f 9c 7a 8f 8d 7d 5c 8c 79 7e 66 87 7f 8e 9b 4c 98 86 70 83 a1 a1 ab 85 66 80 62 a2 7a 64 6d 6e 8e 5d 79 82 95 6d 91 94 87 91 6c 6d 69 5e 7a 94 99 68 7e 92 5e 77 79 97 69 3c 62 7a 57 9e 9a 87 5f a0 83 8c 80 8d 84 7e 79 6f 9d 7b 7b 7c 6f 7a a3 72 99 98 98 b1 98 82 72 7b 96 6c 89 7a 3c 97 8f 86 82 77 83 78 72 6c 97 6c a5 77 7c 91 57 71 81 93 8b 67 86 95 64 8d 82 60 8d 6e 8a 82 6a 7a 5e b6 58 81 88 74 5b 82 6d 7f 8c 92 6a a6 73 43 84 7c 87 a4 6e 96 7f 67 79 6c 7b 8a 72 70 90 8a 79 70 9e 56 8a 7d 5e 8a 8f 98 74 88 6c 9d 9b 8f 87 90 62 9e 5c 9a 76 67 61 31 80 6b 72 a6 69 72 61 84 91 9f 82 8f 68 79 68 68 92 8c 64 68 7b 5e 7b 79 5f ae 55 92 74 7e 6e 7e 92 6f 70 87 a8 5f 97 72 7e 96 66 5c 5c 60 83 7a 7f 92 8b 8b 98 6c a7 8d 7e 8b 89 62 8c 6d 48 5f 77 6e 5a 8c 89 76 62 7a 8e 80 9f 95 83 6d 6d 7b 7d 7f 6c 88 9a 64 5c 5c 85 9e 83 ae ad aa 85 8e a4 a1 90 86 7d 5d 96 5d 58 2c 87 -1 8f 5d 50 a7 60 a0 9a 88 6a 62 a6 5c 91 ad 71 97 70 6d 5b 5f 9a 63 67 9c 5d 7e 41 85 98 c6 63 a1 7b 9c 90 9b 48 7d 79 93 91 87 a7 88 85 73 80 72 62 8b 7f 74 93 a3 7d 81 63 9c 7a 73 af 62 83 9f 94 9d 53 78 65 66 68 87 68 68 83 7f 65 8c 88 9a 67 8d 99 89 85 71 85 7a 7f 91 88 93 92 51 6d 7f 61 8b 74 86 8e 60 72 68 8d 6e 71 89 78 97 71 8d 83 72 6f 82 97 7b 5c 62 71 7b a6 94 a2 7c 86 39 9c 93 85 7e 8e 8f 94 72 59 7a a3 83 91 a9 9f 9c 6d 74 59 b5 9d 4d 92 73 6b 74 80 9c b1 71 9e 91 97 6d 8f 73 67 76 67 90 6b 82 8a 94 70 82 65 7a 62 99 9e 8c 56 bc 93 82 7c 97 57 7d 8d 8e 61 71 7f 84 75 91 95 80 91 63 74 6a a5 90 6b 7b 57 7b 98 94 71 69 8b aa 67 7c 8d 6f 78 8f 5a 70 8b 8b 96 62 56 92 7a 62 87 76 6e 6a 70 8c 59 6b 77 94 89 67 85 71 67 7b 92 8d 97 55 6d 6a 77 7d 8f 4b 79 65 7f 96 95 77 80 84 7a 64 75 86 6e 75 6e 6e 88 93 9d 72 7b 71 7a 85 8e 84 8c 6b 82 a0 84 91 71 8a 81 8f 79 78 91 91 9d 79 aa 9d 90 65 98 6a 72 82 80 8a 6c 92 6d 5e 85 80 64 a2 9a 84 7b 51 a2 6c 59 59 96 84 4e 69 7a 8e 8f 8d 69 5a 84 88 7d 7b 99 a5 8b 76 a3 5e 96 84 a6 8a 78 8a 6e 91 95 90 5d 95 5b 69 7e 65 6f 73 75 74 88 96 54 75 7f b5 8d 63 80 a0 7e 64 5d 92 94 62 82 85 77 6f 8f 6f 80 95 7b 9e 70 84 7a 65 9f 77 82 77 88 77 8b 7b 61 67 71 6d 79 93 7a 6d 8f 8b 94 7b 94 66 6e 6e 79 61 7d 6a 8a 96 61 a6 9f 6f 89 76 6a 87 7c 65 7f 68 54 5b 7a 95 85 79 6e 8a 76 6c 93 7c 6f 90 87 66 7d 99 6f 8f 7b 60 5c 69 83 78 91 7c 97 85 7e 75 7b 6a 98 7a 8c 6d 91 74 61 62 81 81 64 75 6c 7b 79 96 83 66 54 7f 5c 71 64 77 86 70 8f 60 8c 65 62 98 9b 77 a8 9c 93 6e 6e 64 67 85 61 9f 83 48 91 73 58 98 9c 83 78 89 7a 7f 9e 57 98 91 92 77 9a a3 86 7e 8d ae 9a 8b 73 72 82 6c 74 8b 88 8e a3 8b 8e 6c 78 90 a2 8d 74 70 64 87 78 86 84 61 8f 57 6f 82 8b 51 61 75 8b ad 82 57 83 8f 7a a3 84 90 73 71 6b 8e 99 8a 64 7a 6f 95 82 70 6c 77 5d 97 78 6b 99 86 70 6f 75 88 8a 6f 74 75 99 8b 7f 80 96 92 7d 72 82 96 a4 98 94 60 a6 91 7e 94 7f af 93 87 6f 60 7d 92 7f 71 57 90 6f 75 44 84 90 7f 9c 6c 85 8f 7a 88 84 6b 74 88 77 80 64 93 87 79 a7 9a 7c 94 97 80 82 ab 84 63 9c 69 96 8e 67 62 85 86 77 6b 8c 85 9f 97 86 96 a9 a3 87 90 61 a3 97 8e 6d 9f 91 88 65 5c 93 7b 93 5d 57 82 50 8e 5b 6b 76 86 97 6a 66 88 6c 86 85 62 9b 73 81 9a 79 7d 7f 89 73 91 94 6e 91 92 78 6d 69 6f 88 69 97 93 73 80 67 8c 87 59 81 7d 86 87 88 6c 5b 6d 81 96 7e 75 8f 8c 8c 9e 8d 9a 9a 6a 78 86 80 81 6e 7b 8b 6d 5d 75 72 7e 77 73 69 6d 94 99 78 8e 7e 97 89 84 74 6f 61 6b 81 93 7c 66 8d 72 8d 78 7e 98 89 93 7d 76 a4 8b a9 97 75 a0 99 91 8d 89 65 73 7d 7e 97 8e 73 b9 88 c0 7b 8f 94 67 7f 8a 63 8c a2 67 7e a3 7f 7f 78 77 90 71 98 36 65 7f 98 7f 77 94 95 71 92 74 59 6e 8b 8e 65 87 95 86 7d 78 a0 57 9c 92 67 69 5a 54 94 9e 80 89 a4 69 72 6e bb 88 93 94 96 ae 58 61 74 7e 6c 86 a9 51 6e a9 82 8e 8f 9d 6c 71 79 89 59 af 75 60 86 a0 50 65 95 bb 9c 7a 7f 91 91 6d 7c 89 62 7d 98 6b 7d 92 94 8a 88 6b 7d 8a 97 79 80 66 8e 91 8c 86 78 92 7a 97 83 93 97 99 86 8d 75 78 95 86 8c 6a 67 8a 92 6b 86 80 6d 94 83 65 7c 7c 7d 91 6d 7f 75 6f 6a 6b 6e 7e 85 79 68 91 7c 95 85 82 6c 8b 94 77 8f 77 8e 90 6d 4e 49 79 6e 95 84 8b 59 70 51 7a b7 95 5c 6c 8a 94 77 27 a3 9b 53 77 ab 69 6a 6a 6c 8c 7c b7 70 7e 86 8b 63 8f 9b 8c 7c b0 64 64 85 8d 96 9c 89 94 96 6b 79 84 8d 6a 6b 7f 8c 80 8e 95 7a 7b 6b 65 6c 64 98 94 7f 6d 59 9a 76 7c 75 77 83 8f 76 6c 80 89 88 85 7d 7e 75 6b 83 ab 8b 84 75 88 62 62 90 83 76 95 96 96 90 8a 85 6d 62 87 9c 77 65 98 8d 72 64 75 69 4e 88 83 85 41 8f c4 67 6a 7c 8c 8b 65 4f 4b a7 7d 86 6c 9f b8 92 28 21 74 57 95 a5 86 76 94 89 5a 78 98 9d 81 98 8c 6d 84 6c 74 58 6a 89 75 84 a2 73 5b 80 95 65 81 70 50 7e 7a 48 5e 9e 9d 8b 96 72 71 59 5f 78 6a 6b 92 4d 84 58 66 7f 6f 76 71 9a 9f 8c 73 93 9e 8c 92 6f 72 86 95 8a 6a 44 85 8b 6d 63 87 a2 6d 67 74 7f 87 9d 61 8f 9b 88 74 7f 99 88 93 90 88 95 6f 8c 68 6f 63 90 ab 5c 79 8a 7c 78 4a 80 5f a1 98 99 64 76 98 6f 7b 6c 76 75 70 64 50 ac 8d 8f 55 70 64 8f 6e 92 a3 43 7f 85 7f 6b 76 72 78 91 8b 6a 94 a9 8c 80 91 78 6c 97 90 52 8b 8b 89 73 70 8d 75 9a a1 78 8f 8d 8f 5c 78 64 91 98 65 73 88 8f 8a 7a 75 7a 77 9c 82 a2 86 71 63 6c 72 97 7e 8c 7e 7b 6e 5d 71 79 89 61 87 58 a0 a6 90 67 72 7a 71 76 68 77 79 87 9d 91 98 81 70 99 8d 8c 76 9f 84 84 7b 8a 71 90 7c a4 75 a0 7e 8d 99 84 62 9a 7c 76 88 60 9a 8f 60 77 7c af 88 a1 66 80 94 86 8f a4 53 6c 94 6e 9b 68 77 79 a1 75 6e 90 63 76 98 73 6b 8e 5a 8d 7b 8d 67 91 86 71 7b 8a 55 65 a2 79 74 b6 c7 8e a5 3c 85 42 e6 a6 18 e6 bf 57 a2 b8 61 92 7b 34 7f b7 82 30 1e 24 9a e1 bb c1 2e 29 80 a3 28 80 85 bd 47 2c 76 25 76 ca e1 77 62 73 b2 2e b5 2f b0 b4 9f 78 a8 ca 7b 21 c3 74 9b bd 9e 92 6e 95 7a 79 8e 61 81 6c 8f 6b 7c 4b 7e 80 76 6d 66 83 70 65 85 7a 8a 61 8e 62 6f 5e 6e 92 83 96 74 66 92 54 8f 6d 67 8d 6f 61 70 94 52 87 9a 8d 77 95 4b 86 7c 6c 8f 6b 62 8a 84 70 4a 98 85 8d 90 70 99 62 63 84 a6 c3 61 8b b1 8d 79 7f 8c 2a 88 82 82 82 64 6d 82 7a 97 38 74 ac 2e 55 67 8a 63 99 89 8c 51 71 8f 82 7a 8d b0 6d 72 48 82 7a 6e 7e 6f 8d af 74 78 88 a2 78 74 73 49 79 7e 5d 95 73 6b 42 89 73 76 6f 88 8a 6c 70 75 81 9f 99 7d 7e 68 73 9e 78 79 80 9b 6b 97 7f 72 8c 79 5a 79 9f 7c 94 63 72 84 7c 77 64 a1 67 53 8c 7c 92 74 8e 97 7d aa 7d 85 8a 83 96 80 98 9c 87 78 6a 92 7b 87 a3 9a 89 76 76 7a a9 a7 69 85 85 61 79 75 64 7e 7c 4c 8d 6b b6 b0 88 84 7b 65 8d 4e 89 af 58 6e 74 74 a4 86 68 79 71 90 68 c9 94 8b 7b 95 4c 4e 5b a8 4f 86 9e 8f 92 8c 90 78 85 95 87 75 7b 99 71 7c 83 a6 a0 93 76 8d 74 86 97 76 6c 7a 93 8d 70 84 72 71 4d 84 7a 93 9e 84 72 a1 8a 84 5e 87 94 5f 86 43 92 5c 8c a3 73 83 78 97 6b 95 61 7e 7d 8f 7f 6d 7e 5b 87 72 81 93 64 95 bc c1 74 b7 8d 5e 5b a7 a4 6c 94 b3 55 6b 84 75 62 bb 57 98 ab 41 7f 82 34 d6 50 c9 b1 c1 4c 61 c7 5b 85 cb 8e 2d 78 5f 4a 95 a8 ac 85 41 7e d0 50 99 34 3a d1 88 6d 52 84 60 7a c0 18 50 c4 90 8c 65 84 83 93 73 83 9e 68 94 60 64 76 80 6b 8f 8f 96 9b 7d a3 5c a8 7d a6 65 64 83 60 88 78 4f 72 85 82 51 73 6f 80 91 7f 93 88 77 8b 7e 9c 67 a1 49 9f 67 92 79 75 89 66 8c b3 6b 85 79 5f 55 70 74 74 50 66 6e 8e 86 6e 9d 60 6a 8a 95 72 4d 79 78 7d 95 8a 8c 6f 92 46 69 5d 6a 64 6a 80 ba 98 a8 8c 84 7a 92 a2 6b 69 83 6b 4d 64 42 49 67 7e 8d 5e 43 57 81 7d 66 6f 76 73 7a 78 3f 67 77 79 8b 9e 81 a4 82 88 a5 77 a2 82 8a 77 73 7b 43 7a 9a 89 64 84 3f 81 90 93 53 a9 85 85 7c 6c 92 93 77 7f 6c 77 85 71 a2 7b 8d 7a 7e 8d 86 6b 77 7f 5e 66 71 87 5f a9 5b 79 81 78 91 5a 5a 79 7a b2 9e 80 8e 63 6c 61 37 91 72 af c2 65 77 7f 50 b0 93 76 6c a7 7a 6c 66 79 7a 95 7a 78 86 6d 3d 8a 7e 50 8c b8 7e 4c 9b 5a 75 80 a3 91 69 7a 89 7b 96 56 59 7f 97 43 7f c1 a8 6d b6 52 64 83 78 98 7a 93 9b 55 74 73 90 99 8c 96 96 93 70 b5 62 70 88 45 71 c1 41 62 76 7c 91 65 6d 83 6a 8c 79 8f 8c 6e 8d 7e 84 6c bb 69 67 ab 95 69 89 71 c2 76 9a 69 84 95 88 6c 42 89 6a 6d ae 83 60 a3 7d 94 6c 7e 6c 72 6a 85 84 94 82 69 56 6f 71 82 ae 64 63 98 66 9e 7b 91 91 66 7a 7a 7c 72 9c 78 88 5b 80 4c 9b 5c 8a 78 a8 a7 8b 71 5c 80 64 9f 5a 98 8b aa 63 6d 76 5e 98 56 91 75 5e a3 5e 7f 92 84 80 96 8e 8b 68 83 6c 70 66 7d 6e 85 8c 77 70 9d 8d 76 64 65 ac 8f 83 69 a1 8f 6c 7a a2 99 b0 85 74 88 7f 6b 8d 7e 59 68 6a 89 81 98 96 90 6f 7c 94 77 4a 95 90 9d 8d 8c 61 60 7c 73 82 67 96 80 55 88 85 b7 65 8e 6f 71 9a 9c 94 7a a2 7c 7f 58 57 93 86 98 6a 6e 77 8e 82 86 84 72 70 7f 7e 80 7e 58 6c 80 8f a1 6c 81 6c 97 69 78 b0 9c 75 8c 80 4e 73 7d 6f 65 9b 78 6f 80 78 9a 92 6d 83 75 a0 70 7c 74 85 8f a7 89 8b b0 a7 ae 47 92 4a 83 84 83 91 b4 7f 6b 71 84 ab 8a 8e 78 99 82 97 86 79 73 5d 90 8e 70 6e 8d 70 82 8e 86 7e ad 73 76 7a 91 73 8e b2 76 6a 6a 8b 6e 6f 7c 60 5f 4d 95 90 6b 79 81 6c 8b 6e 85 a6 7d 7c 86 60 8c 60 5e a3 7c 6e 49 69 78 70 49 71 53 8d 88 75 87 a2 74 74 6c 7d 82 8a 96 76 7e 60 65 86 7d 58 67 6e 95 89 8c 81 6a a2 88 54 99 7a 80 81 63 4e 80 83 9f a2 72 8f 8f 7a 85 5c 6f 89 97 6d a7 88 77 6e a1 74 7a 7d 92 83 89 69 74 90 7f 5a 8b 8d 77 85 76 8c 7a 81 9e 76 9c 5b 7c 7d 80 6e 8c 5f 8f 84 65 99 7a 5c 8f aa 4c 7a 9e 68 60 8f 83 83 92 71 4c 66 80 48 72 87 6a 6d 7f b2 76 7b 86 8d 8c 60 8b 6c 82 6d a1 81 97 79 62 76 5e 6f 67 6f 90 7f 94 96 5b 68 67 a3 94 4d 93 7e 8e 96 88 9b 70 77 7b 74 84 8e 5e 77 87 7b 70 6a 7d 8a 94 84 87 6c 8e 68 6c 66 8a 71 8e 79 77 73 68 74 7b 64 68 72 83 8f 95 65 78 76 92 97 91 75 87 91 71 7e 9c 7b 86 9c 63 8e 75 89 8a 92 85 7a 73 6c 7e 6d 89 9b 90 6e 86 69 64 6a 8f 96 8c 88 98 73 88 73 95 9f 61 93 6c 93 87 8c 67 a1 7e 7f ad 91 8b 76 bf 74 cc 7c 72 63 68 7e 6b 6d 6a 8f 50 72 a4 5e 83 93 6b 6a 6d 78 9f 87 7b 87 7a 67 98 65 92 b3 92 83 75 a5 81 ac 74 6d 7d 62 93 78 79 6d 6c 89 77 6e 93 68 67 88 a4 6d 57 79 7e 85 7c 7a 4f 9b 3e 98 92 7b 8e 6f 70 95 90 8c 77 7f 94 85 84 68 89 68 93 99 78 86 8d 84 7f 77 92 6e 7c 7d 70 7a 7d 62 84 67 7f 5d 66 5b 56 83 63 86 6b 68 83 7a 7a 8a 75 7c 89 96 8e 64 5f 70 86 8f 89 8a 49 98 61 97 6a 73 76 65 81 6a 9b 7a a4 67 97 a4 75 79 86 88 85 7a 90 93 89 8e 80 99 73 69 94 a5 62 72 73 79 8f 73 78 88 a5 60 92 98 80 75 87 84 82 7a 96 7f 91 a5 a0 97 ab 80 80 a0 a5 83 a7 81 8b 5e a0 35 9b b2 83 73 6c 78 74 6e 55 82 8f 77 73 86 6b a6 7e 6f 93 9d 7e 76 ac 7f 79 8b 59 90 6a 22 3d 97 75 99 73 71 82 69 87 83 86 86 94 aa 38 60 8c a4 68 94 67 84 a8 6f 8c 61 9f 72 98 9e 7a 72 86 53 66 74 93 7e 60 8a 87 66 a6 68 6e 85 71 b1 69 8f 82 83 86 78 8f 98 a2 51 9e 63 5d a3 68 97 4e 73 94 6f 94 aa 78 a2 7a 7c 6a a5 85 85 9c 68 8e 7b 9c 9c 7c 93 a0 67 91 a5 95 96 81 54 96 8b 94 60 85 73 7f 72 7d 69 92 96 69 9c 81 83 9c 93 8d 96 8f 83 54 6b 7a 88 83 84 76 6c 8b 5d 7e 71 a8 8c 82 a3 7a 89 6e 91 a2 78 5e 5c 7c 89 5a 50 74 73 92 8a 80 aa ac 75 80 95 6a 72 8e 95 63 7e 7d 69 aa 70 53 6b 77 61 5c 71 8e b6 85 b0 ad 8a 45 7f 9a 68 9c 85 7f 52 7b 63 67 75 59 77 6f 80 9e 79 55 7a 56 94 96 6f 85 6c a5 69 97 96 7e 91 91 a0 92 6b 62 8a 5e 5f 7f 86 58 91 6e 82 5d 6f 63 9a 6d 5f 86 65 84 a5 60 94 9c 84 61 82 7f 72 7b 8e 8f 99 76 9c 95 74 8e 6d 6d 6c 81 66 62 7b 78 9a 7c 8f 97 80 86 90 6c 6f 72 90 72 92 84 78 8c 85 82 94 92 bd 73 74 a2 90 a2 77 95 7a 7d 44 a0 3c 5e 7e 7f 8a 55 80 8b 83 94 9b 7f 68 77 4a 67 83 94 72 88 80 8b 6f 76 8c 75 79 5f b6 7c 8f 80 a0 84 85 85 7e 96 84 80 53 9e 9e 8e 84 5e 37 9d 63 7c 8d 94 b6 32 94 91 7b a8 7e a0 b5 61 aa 89 45 7e a3 80 62 64 a0 73 70 86 76 6e 61 86 54 5c 9b 61 67 83 97 97 7e 6f 5c 70 83 79 ac 79 90 73 79 69 97 81 73 92 72 60 6d 9f 79 6e 8d 60 8a 6d 9a 94 95 95 8c 5a 8a 82 76 99 5a 73 74 8f 8c 5a 85 5c 84 86 73 6d 9a 71 8f 7b 97 61 7f a3 85 65 b9 65 62 87 71 67 90 48 7d 8f 84 92 71 75 92 6c 8e 69 67 9b 42 87 97 77 7b 7e a0 81 82 9d 8f 72 9e 57 62 69 76 65 8d 84 75 71 b4 4e 60 9e 7e 83 5a 51 5e 83 6c ac 76 9b ba 8b 7d 82 84 5f 69 9a 9c 79 99 60 84 4a a6 8d 91 a5 81 7c 4c 95 6b 74 72 8b 70 a3 7a 72 69 8d 80 34 80 6b 7a 6a 7f 83 83 74 94 82 8f 62 57 52 5e 9e 94 9e 71 8e 91 a9 79 8d 8a 65 91 70 8e 80 66 68 7e 9b 60 95 87 86 6a 6a 70 87 80 a1 8e 51 88 6f 8b 86 7d 97 24 7d a3 67 95 86 c9 9a 48 57 7c 79 60 60 8b 74 7c 83 b2 