74 7c 6d 78 90 61 67 6f 6e 71 7c 82 67 85 63 8d 7e 92 7e 8a 9b 7e 91 7e 60 6a 78 85 83 92 6f 80 98 8b 99 71 8e 88 96 9d 53 5b 7c 78 83 8b 5c 7e 78 76 7b 6f 9b 96 76 6c 68 7d a8 9c 82 96 78 8b 76 58 99 81 92 6c 81 83 76 5c 75 7b 5d 65 84 5e 84 79 65 77 94 99 97 9d 7e 83 65 8a 90 73 89 8e 8e 8a 8a 7a 68 6c 94 56 8e 9f 98 7a 90 5a 6f 72 95 61 69 67 69 54 65 78 93 9e 80 7c 77 71 a0 80 6f 69 93 79 70 84 7d 87 85 8a 50 82 60 7e 92 a9 a0 73 b1 72 73 7a 97 6b 9c a5 75 60 7c 7b 9b 93 67 a8 83 99 85 9c 6d 75 71 98 7f 77 91 8f 8b 5d 6f 67 7a 91 8b 94 65 86 7f 66 9a 87 90 70 97 82 96 6a 7e 79 9f 76 94 90 92 92 78 81 85 5e 83 78 64 6f 6f a1 7c 93 60 73 67 83 9b 85 98 76 79 75 7a 89 7c 77 7b 88 6b 75 5b 8b 63 84 8e 60 77 6c 88 96 89 7e 7c 9a 84 77 6c 70 97 6a 74 8f 85 62 a1 67 7f 74 91 6f a2 67 89 79 63 61 ac 99 85 76 82 73 80 86 63 89 6e 88 5c 74 80 a4 a2 6d 7a 83 6a 9d 5c 9c 74 7c 7f 8e 81 a4 6c 73 91 7a 75 7c 5a 71 85 9a 68 72 99 59 a1 8a 81 93 71 6d 8d 5e 6c a0 5d 8d 93 9b 5d 81 8c 66 9d 62 5a 5c 69 9a 7d 93 81 90 8a 81 82 86 98 71 7f 76 9a a0 6f 57 98 71 7e 59 5f 79 77 7d 6f 5a 7c 7b 89 7c 60 94 6b 94 65 58 a3 8f 6e 66 8a 7b 82 68 92 b4 b8 9a 8d 7a 97 63 76 7e 87 65 80 7a ad 74 7b 7b 60 79 6a aa 55 74 5c 89 88 61 8c 9d 92 90 8d 68 8c 6c 7d 54 8b 82 65 46 a3 78 55 95 7c 5b 89 80 83 60 77 98 89 89 85 8e 7f 63 81 60 66 a1 5b 8a 80 83 8b ad 79 74 61 69 82 7b 50 9c 8f 73 9a 59 79 5e 84 7a 92 87 92 95 6a 6e 6f a4 96 7b 9b 9a 83 91 62 86 86 67 9d 94 55 53 8b 8b 73 8f 8e aa 78 7d 79 6e 87 79 8b 78 50 94 7d a4 77 86 8a 73 89 59 76 74 82 8e 70 8c 89 73 53 8a 92 6c 9d 71 6f 9e 86 6e a0 6f 94 ac a9 6c 82 5d a7 81 73 85 57 87 8f 99 5d 79 7b a5 80 5c 70 77 9e 62 9d 63 9f 68 63 80 83 79 a3 98 97 92 76 69 68 76 90 7a 70 76 a2 7c 78 51 7c 72 85 a7 5f 80 8e 91 a0 97 92 97 7c 7f 6a 88 a3 62 94 74 6d 6b 8b 93 92 9a 5c 8f 7e 89 9b 97 8c 6d 7a 55 8e 7d 9f 72 7e 84 84 6f 90 91 69 a2 76 79 a3 99 7c 7e 66 58 7b 96 71 6c 99 8a 9d 85 70 9e 72 8d 9d 86 77 6f 92 6e 63 69 91 8b 66 84 87 85 74 79 79 94 7b 7f 68 71 7d 9a 7f a5 87 5e 65 70 a8 79 7e 8e 6a a4 77 71 83 79 72 9e 67 59 7f 7f 71 6e 7d 8e 93 79 68 6b 83 8c ab 91 67 90 77 7e 81 8c 6a 7f 52 7b 61 7d a6 7d 77 8c 86 8f 9c 79 6c 89 6a 56 65 8b 8a 8f 70 8f 72 69 72 bd 67 a3 93 60 7b 65 81 6c 88 6f 95 80 98 68 52 64 6a 6a 94 96 72 79 7d 88 79 71 bc 81 97 8d 84 83 92 82 64 98 81 77 9b 86 92 77 92 73 93 75 84 6d 65 90 84 6b 86 87 63 77 8c 95 8f 7c 83 62 74 72 73 72 73 83 81 83 88 6d 71 9f 60 8c 77 80 9d 99 7b 91 67 76 6b 8f 9f 8b 58 84 90 8e 8e 82 6f a6 90 82 78 6e 6c 92 90 5d 84 80 7d 7e 67 9e 79 71 8a 8f 68 8f 81 8f 96 65 6e 77 7f 87 5e 77 9c 64 7d 92 58 6b 5b 8b 8f 79 8d 79 87 99 7e 88 79 76 62 81 6f 6e 9c 7a 71 90 89 62 74 96 b0 7e 5e 69 85 61 90 88 8e 8a 7f 6c 72 9a 99 5f 82 98 8b 62 63 8f 66 8f 89 92 8d 6b 79 6b 90 63 64 89 61 85 78 8a 8b 84 73 87 6b 88 91 76 73 73 80 a2 96 6f 90 88 b0 6f 60 7d 7a 89 6d 5d 9b 94 8e a1 83 7f 68 74 6e 6c 99 94 84 8d 65 49 5e 92 74 66 72 99 62 93 a3 91 9b 7e 97 75 79 a5 9d 8b 71 63 66 6d 64 84 79 a4 70 8a 9c 70 85 83 8b 59 77 63 6a 5c 7c 86 92 78 72 5f 7a 5e 5f 71 72 8c 5b 6f 78 86 8b 91 64 73 74 63 87 80 6b a0 86 91 73 99 8f 84 7f 90 75 6f 71 7e 8b 7d 8f 65 8f 89 91 68 8f 79 66 7a 56 6e 6e 59 80 85 8e 84 64 61 7b 6e 9e 7f 90 66 79 9e 92 6d 77 79 77 6e 77 6c 6d 77 88 77 94 85 6f 94 85 6a 82 6c 8e 77 8a 99 7c 6e 64 a4 6d 8c 94 71 8f 7f 97 9f 5a 8f 61 95 6c 72 80 7b 6f 88 5b 8d 6e 7c 9e 97 94 8e 8a 81 9a 81 81 8c 68 97 87 85 7f 9a 73 76 73 9d 78 9a 9c 96 96 77 83 67 81 66 7c 87 62 91 70 6b 6a 97 6a 66 71 80 98 71 93 58 68 9d 62 82 70 96 71 86 61 85 95 85 81 71 76 68 61 81 84 8f 84 64 68 7b 5e 92 86 7b 94 80 8b 61 8b 7b 89 7f 63 91 86 66 9e 9e 6d 75 7a 84 8d 5a 5e 72 79 6d 54 8a 88 93 aa 8a 62 8a 75 53 97 6d 57 87 8f 67 5d 59 8a 93 a7 72 a1 9c 80 87 77 87 7f 70 87 9d 6a 8a 61 93 6c 85 81 52 80 83 74 6d 7c 7a 77 74 aa 71 94 7f 84 95 7b 7c 5b 88 64 a0 93 96 9b bd 87 5e 62 7f 77 88 57 5f 66 62 8a 8d 84 52 6c 8e 94 7f 87 70 7f a0 79 88 98 7b 88 96 8b 8b 7d a1 74 65 91 8e 99 60 ac 92 64 79 6f a6 66 96 89 96 55 76 9d 87 88 5b 66 84 8e 7c 6e 97 82 7a 90 96 89 8e 89 6a 90 76 8c 8b 9a 7e 80 97 6f 92 69 80 5a 65 66 6b a1 90 88 86 84 81 94 7a 7d 70 6e 92 56 8d 8d 9d 73 79 9a 86 a0 89 7f 8c 7e 68 9e 7a 71 8a 96 81 74 a4 64 7b 5d 92 98 73 6f 8b 88 6b 89 75 4e 77 89 89 89 72 8d 7a 96 50 80 60 6a 98 7c 64 6e 9b 74 94 71 8f 6c 7b 92 9a 7f 63 93 86 64 8c a1 7f 79 a6 66 7c a2 68 82 63 73 76 74 68 85 7c 69 94 6e 58 7e 98 89 8e 9d 91 53 79 62 8c 70 77 9c 95 a8 8c 83 99 82 a1 5d 7f 68 7d 75 98 92 81 77 7c 6d 9f 76 71 6b a4 a7 52 53 58 7c 87 8d 74 89 78 8f 7b 81 68 78 76 75 66 9e 60 6d 98 7d 60 6d 52 83 85 82 96 65 a0 69 66 9c 61 64 62 64 87 87 a5 69 8c 88 8a 60 6d 94 9b 6f 87 7f 7d 95 72 87 71 93 8d 6d a4 79 7b 70 8b 7f a3 7e 88 67 80 92 7a 9b 70 9e 79 70 71 93 6b 82 5d 6a 76 88 95 7b 9d 6e 6f 76 a9 94 86 85 85 71 75 5a 8b 91 88 88 5e 69 84 65 65 89 7b 75 6f 70 90 91 67 63 93 8c 84 9d 9a 81 6c 90 5f 6b 8a 94 96 99 53 a0 87 94 66 99 81 80 90 74 89 95 71 75 4e 92 6d 7e 85 9f 9c 9d 8e 8f 7b 6a 70 69 90 6b 76 72 84 a1 8c 5f 6c 62 72 5e 52 8a 75 7d 71 75 89 9e 9e 7f 8d 9d 89 5c 72 74 62 6b 5f 96 90 70 74 93 83 73 7b af 68 93 9d 84 73 98 86 6b 6e 4b 66 71 9a 67 76 82 87 4e 6e 69 78 76 a0 74 81 7e 66 97 7a 9d 70 91 83 99 92 65 7c 74 8b 84 79 8c 72 6d 8e 89 94 89 47 a2 84 85 8f 82 72 78 7d 63 85 9a a7 58 4c 89 92 98 7c a6 94 7b 8c 7d 68 7a 66 6d 99 5c a3 79 88 9e 74 7f 77 5c 8d 6e b2 9f 63 7f 93 59 8d 76 70 6e 7e a2 7e 74 75 7a 88 6d 62 5f 72 61 6c 94 7d 6a 81 94 7e 99 75 6a 65 81 80 64 9f 75 7f 6d 9c 6a 70 65 93 86 84 a7 90 66 8b 90 69 8b 88 9b 86 a5 8d 89 94 5a 95 84 74 9d 99 85 9c 6c 7a 5b 84 7a 67 8c 9c 74 94 89 82 75 76 90 90 8e 85 71 7a 7c 89 64 79 8b 9f 5f 74 97 6f 6e 83 77 67 8b 7b 91 5b 92 8c 9d 80 74 75 83 75 6f 92 8f 6f 89 68 69 72 7b a1 5f 68 69 81 7f 9b 77 7f 7c 6c 8e 93 a5 91 96 6e 5d 62 81 8c 80 a4 74 98 77 7d 87 7b 65 8f a8 81 7a 71 88 6a 90 8e 59 6f 81 8e 66 89 92 65 8e 99 85 89 a4 93 76 96 6a 6f 74 a0 8a 96 88 97 71 52 6d a7 7b 8f 79 7c 61 84 a2 8d 9a 8e 6c 6b 75 96 70 7e 7c a9 60 77 7c 8b 74 76 73 96 74 95 84 71 97 82 7d 87 7e 6d 81 75 62 a6 8f a7 7f 72 83 6d a1 a1 6f 73 83 87 74 84 80 6f 9b 80 78 83 83 7c 77 96 90 95 58 a1 86 76 76 96 62 6d 9a 84 99 65 90 84 54 9f 80 70 9c 9a 6e 96 7f 65 7d 7a a8 94 80 89 72 91 a3 99 74 8e 68 8e 66 69 7c 60 90 8c 9f 78 57 7d 6d 5f 56 66 7c 98 7f 59 70 88 78 9c 6c 78 8d 63 93 98 61 7b 70 83 5b 83 8a 65 61 60 86 5d 5f 6a 8c 79 9a 67 72 6c 82 7c 6c 90 77 95 93 7f 8d 8b 7f 83 66 65 76 73 9f 63 72 6c 6b 67 80 84 75 74 82 73 71 60 6d 62 76 96 8a 7a 72 90 72 91 81 7e 97 80 6c 6b 7f a7 75 90 91 6f 71 58 7a 84 88 73 7d 90 6e 8e 7e 81 7c 8e 68 83 7b 67 95 96 74 98 95 8f 74 7c 77 8f 7e 7e 7b 6b 94 65 91 77 70 89 98 66 98 7e 76 6d 9c 73 7b 9b 59 86 8d 58 97 89 7a 89 a8 72 85 80 6b 76 a7 8b 81 90 62 71 88 78 9a 5e 78 7f 6e 54 8d 97 8b 6d 88 91 7d 7d 9d 7e 97 80 6d 82 49 9d 75 91 76 6f 78 83 7a 6b 68 5f 77 81 88 95 7b a4 62 8c 75 84 5e 68 8d 90 9d 68 81 65 5e 7f 8a 9c a6 89 8f 9c 97 7d 6c 9a 84 81 83 8a 6c 59 74 88 93 9a 6e 6f 6e 71 5e 68 97 79 7e 76 70 7d 63 86 66 8e a3 92 7d 6d 97 78 80 93 64 85 90 6c 9c 86 6f 87 78 99 99 9a 88 7f 7f 68 69 57 75 88 78 73 7d 76 95 91 74 a6 9a 71 6a 6a 9a 62 84 6a 76 a2 a7 64 6e 5a 83 af 6f 5a 8d 77 78 89 9a 82 5d 68 74 7e 84 94 78 92 b0 4f 94 92 8a 5d 70 8b 72 99 7d 9d 92 75 8d 99 84 81 7a 8f 90 99 7a 82 65 67 88 89 71 98 82 66 64 83 99 5b 98 9b 6c 53 87 85 8c 9e 68 99 77 80 61 6f 8c 7e 97 8f 74 60 95 8f 89 8c 73 7b 68 66 88 7b 8f a3 73 78 84 7f 72 8c 8c 7f 9f 9f 86 78 71 9e 8e 72 87 83 92 a7 89 7e 5b 8e 7a 99 b4 6e 88 ae 91 6e 68 72 88 86 79 7e 6e 7e 82 86 66 a7 88 a2 97 74 91 82 90 76 7a 72 65 66 6e 89 70 a3 60 69 61 a8 94 6d 79 79 84 75 6b 6e aa a5 8b 7f 89 96 6f 88 7c 91 ae 74 8b 86 73 9b 8e 77 88 80 74 76 65 8e 6c 74 74 78 7f 82 67 5b 9c 8d 44 74 4e 88 87 63 91 8d 8c aa 67 5c 7e 8e 93 85 88 59 77 77 5d 86 88 71 a1 6e 84 8c 65 9f 79 72 91 72 8e 71 81 79 78 af 7a 68 82 94 91 a0 8a 69 81 74 6c 7d 87 72 87 7e 6c 7d 9c 8e 90 5c 64 8e 7c 76 96 94 5e 77 68 86 75 92 6e 92 95 77 82 91 8c 5f 67 90 71 a0 6a 99 6f 68 68 8a 9a 73 77 9a 80 6b 84 90 72 80 6d 72 7a 85 75 5d 72 6e 74 63 90 81 93 86 64 88 5c 73 91 77 9f 72 70 91 96 85 82 9b 6f 75 77 70 99 70 8b 89 78 87 8c 72 7b 6f 82 7c 6a 9a 95 66 5c b1 98 82 83 94 7a 88 76 7c 7d 73 78 4a 79 7a 8e 98 ae 8a 96 7b 9e 50 73 a1 9f 99 9c 7a 58 80 90 62 7d 98 9c 73 98 a1 a1 6c 5c 93 6e 82 7d 7b 6a 71 a2 a5 89 99 90 6d 95 6b 73 6b 80 5b 96 9f 5b 59 66 61 4f 6f 7b 82 82 79 51 8b 7c 75 a2 7e 8f 67 84 4d 5b 89 7b a5 89 56 58 5c 82 71 66 85 76 90 64 7c 59 8b 7f 9b 9c 96 84 53 a4 87 68 72 81 80 84 7c 90 6a 7b 6f 5e 97 91 60 6b 5a 93 70 7f 85 7c 7f 83 69 84 75 85 77 6f 6a 71 93 7b 66 79 72 7a 96 84 73 8d 74 60 76 91 8d 83 94 8a 91 9c 64 67 70 9a 62 64 88 5f 81 82 71 87 74 81 74 7a 8d 89 9a 73 5d 86 75 7a 82 93 72 67 8f 77 8a a6 6c a8 9a 8f 63 96 86 84 8f 6c 65 85 8a 70 9c 8c 80 84 83 6c 85 82 9c 91 7c 98 8b 72 71 a5 68 98 7b 7e 9c 90 89 8a 87 72 63 79 83 7b 80 9b 67 5e 99 96 8e 8b 88 8c 85 61 66 88 93 93 61 82 71 68 67 7b 82 8c 71 71 6d 7f 6d 98 6e 5e a7 84 95 83 8d 80 a6 77 62 78 89 8c 8d 8c 89 7b 8a a2 8a 95 93 81 8c 8f 7e 91 74 8a 8f 68 7d 5d 81 5b 7f 89 95 71 68 6d 86 80 76 79 63 6e 9d 71 5b 68 91 91 72 93 55 7d 8e a0 75 7b 8f 91 a8 6d 5a 87 65 8b 8d 8d 57 75 a9 85 7a 5b 7d 67 9d 66 7d 7c 78 8f 8f 89 96 60 81 5b 75 92 76 77 63 8d 81 78 9c 97 9a 6e 70 9c 61 b0 a1 7d 6a 99 8a 83 a7 98 7d 74 86 54 63 66 83 a8 97 5a 75 53 65 73 8d 7b 5f 98 8e 76 82 87 84 73 90 80 88 74 78 79 78 65 8d 72 8e 89 7c 80 a1 96 61 89 89 5e 6e 78 78 6d a5 64 6b 9c 9b 9f 92 7a 55 89 8c 61 89 96 97 84 86 99 75 90 8b 80 70 77 7c 86 6e 91 6f 64 62 90 92 62 8e 5d 6c 6e 92 67 7b 83 96 93 72 94 61 7b 7d 84 8f 6c 8c 7d 66 66 69 8d 82 8f a1 54 76 6c 7a 77 8b 8a 56 89 7a 66 87 67 65 5e 77 6a 68 8e 6b 8c 86 7e 90 80 78 7f 8c 6f 63 88 83 8f 97 7b 6f 62 6b 92 75 84 80 5f 83 6f 8d 75 76 8e 6a 64 67 73 6c 63 76 75 8d 6e 86 6e 80 71 81 67 8a 87 8d 8b 68 95 7b 96 8c 6a 62 92 84 65 92 5d a0 66 9a 8c 82 6f 6a 77 65 7c a1 90 91 77 72 87 61 93 5f 5c 6f 71 90 61 8f 7a 8d b0 77 95 80 82 75 69 8a 8b 97 77 8f 8b 5f 62 7a 8e 8d 78 7c 6c 90 84 77 9a 6f 5b 7b 64 77 8f 5d 69 80 68 58 7b 7f 69 ab 52 6c ac 93 4e 97 85 7d 76 6a a9 7b 54 83 7b 8f 9e 98 7a 58 88 8f 73 95 73 9c 6f 71 87 6c 91 73 76 76 6e 99 92 62 81 67 88 7b 78 6f 94 9e 69 a3 71 69 82 67 5e 80 6e 82 5b 6f 8e 65 91 64 84 70 6b 7c 77 73 68 97 6c 96 77 65 71 7a 78 a5 7a 96 73 63 7e 8e a2 69 79 8f 93 75 90 8c 90 9c 7a 6d 91 64 87 64 69 79 8b 95 86 96 85 7a 5e 64 9f 70 63 67 5f 88 85 7a 93 66 a3 73 8b 74 79 84 92 94 84 9a 8a 7b 8e 97 8d 80 9e 6b 5e 8b 75 a6 6a 81 93 96 9d 92 74 70 5e 6f 72 8e 65 87 6c 98 60 a0 58 90 96 6c 6c a6 89 65 6d a6 8d 96 8f 5e 9a 7c 95 73 53 a4 7d 6f 75 68 63 56 63 8e 8e 9b 82 75 86 70 81 6e 89 90 a9 8f a3 81 6f 88 6d 8f 8a a1 8d 5c 7e 63 62 90 74 8a 81 9a 80 8d 63 90 67 70 80 7b 5a 92 9b 68 9a a1 90 6b 54 81 8d 87 6a 77 6d 75 61 8c 77 b8 6e 92 90 80 79 8b 93 80 77 72 9c 7a 66 55 9a 8e 72 5b 7b 90 70 8f 50 7c a6 6a 83 7f 78 77 a4 63 8a 7a 88 7e 6f 7e 57 66 87 95 ad 87 8d 5a 6f 8f 7e 7b 97 68 98 76 79 a0 7f 6e 83 91 89 88 5c 89 8f 87 5d 84 99 8e 85 a2 73 82 6d 77 6f 73 5f 66 59 67 6e 8e 8a 8a 8d 6b 89 8e 64 9c 77 5f 63 62 5e 6a a5 65 5e 77 51 7f 78 9c 77 8b 7e 7f 78 68 83 85 80 58 80 5b 69 6f 54 5f 6c 8e 5d 66 88 9f 88 73 55 7d 85 92 66 7a 7d 66 94 87 75 88 82 88 82 74 66 96 9a 97 6c 7d 79 65 72 93 68 6a 95 60 89 85 94 7b 85 78 8c 81 8d 9f 8a 7f 5a 8f 5e 8c 9a 91 8a 54 7d 6b 84 71 a3 90 a2 7d 75 87 6e 8c 7a a9 63 6e 64 96 5c 9d 87 73 92 7f 93 67 8b 63 76 79 69 7d 87 6e 80 93 7d 99 63 62 7e 76 63 7d 92 71 71 6b 6e 5f 95 75 7e 71 95 72 9c 7d 6c 8d 8f 74 8a 8b 7f 74 66 90 7a 72 9b 69 6a a6 77 82 5e 9c 89 7a 86 75 78 5c 84 5f 98 8e 8c 66 60 66 8d 98 83 7e 88 8d aa 93 7b 75 aa 6c 8b 74 6a 75 8b 7f 93 86 66 74 95 82 77 67 a0 83 70 78 67 91 76 8e 83 9a 97 88 9b a3 70 80 6b 7a 88 87 6f 79 82 91 89 72 9a 7a 7f 54 8d 7e 7e 79 a2 78 7c 6e 60 73 8f 8f 8b 8a 94 67 72 80 6b 6d 7f 6e 97 72 80 56 8e 8e 6a 69 75 76 98 a3 81 90 8a a1 68 81 72 63 62 69 95 73 89 75 71 81 7f 98 95 8b 79 5f 60 6c 9b 94 92 99 6f 46 9a 8b 7c 66 94 85 99 6b 92 56 78 5c 7f 9e 65 86 77 6f 6c 61 87 89 5d 67 95 99 71 7a 6a 95 59 8e 84 78 73 80 84 88 5e 80 9a 83 76 a5 85 89 6c 68 7a a7 92 69 8e 87 8a 71 6d 8e 7b 78 95 75 69 76 8e 5b 74 8e 87 6e 6a 96 68 84 