4e 91 67 7d 83 8d 7a 54 47 62 87 63 77 a6 67 4f a2 71 84 71 7c 9f 85 86 9f 95 53 73 9f 92 7f 71 86 4b 78 a8 8e 80 87 78 5a 6d 79 96 5f 8b 8c 96 8a 6e 95 79 8f 75 3e 59 67 6b 8a 79 9c 8a 8d 8a a1 96 74 7d 88 83 5c 73 99 8f 60 78 68 7c 6a 54 6a 80 9b 72 65 7e 84 7b 61 90 85 77 68 85 88 73 5c 5f 82 6f 95 8e 7a 5d 5e 6a 97 79 62 8d 9d 83 95 8b 9a 6a 93 79 39 92 96 ab 7e 84 7b a8 7b 5a 6c 76 7e 82 87 69 93 68 65 79 74 97 5a 5d 74 7b 93 94 97 87 95 86 82 84 64 61 79 95 55 91 98 94 77 70 6b 85 72 50 73 61 6b 6b 6a 83 89 73 58 68 8d 69 6a 59 6c 89 9d 62 54 87 7f 9b 7b 8d 5e 93 71 4f 89 50 8e a8 7d 9f 61 6b 97 86 80 90 6b 62 5e a6 94 6c 83 71 95 69 93 46 81 72 a6 7e 8c 79 56 6a 6c 67 60 81 8a 6c 70 85 7a 6e 92 80 6c 70 9a 83 73 99 94 8c 7b 75 83 74 76 7d 70 9e 63 7f 74 73 6a 9a 73 8c 86 a9 79 3a 4f 70 71 64 64 76 66 71 57 62 61 86 75 6a 81 9e 88 7f 8b 5c 7c 91 7d 96 7f 8b 6d 7a 6f 71 7e 60 95 82 63 97 b1 84 6a 5d 73 6a 4f 7b 7a 6c 8a 68 96 8f 5c 50 6b 79 84 8b 95 67 64 a1 70 67 68 93 82 94 89 84 5d 83 5b 50 49 9d 73 59 70 91 73 85 58 8e 8b 81 70 79 81 68 94 72 69 81 72 9d 80 88 73 97 51 7b 7e 77 84 7e 89 85 96 80 8a a3 8a 95 6f 6c 8d 75 5f 62 93 75 7e 6e 72 9c a2 5d 8e 65 83 71 96 8d 60 7f 5a 96 86 91 a5 67 75 66 42 72 7d 7e 77 a2 67 95 5d 5b 75 72 63 7e 76 5e 82 90 91 93 8f 3f 84 a1 5a 69 50 9f 88 74 70 3f 83 7f 69 79 93 6a 6a b1 62 88 78 5f 7c 8d 8f 6b 78 75 5a 6d 67 4e 75 5b a0 9b 5b 99 65 9b 75 86 96 49 79 81 84 65 71 78 5c 74 8f 93 56 98 90 9b 78 6b 78 74 8d 75 67 5c 80 99 67 99 7a 79 68 81 96 8b 59 6e 83 97 88 6c 85 61 77 8b 89 90 62 75 8c 8c 78 87 7a 72 94 83 82 83 74 8b 5c 7b 78 68 5a 72 9a 91 7e 9b 97 83 83 83 85 91 87 8e 81 68 8e a0 8e 8f 87 82 6c 69 90 86 80 8e 64 84 77 8f 78 62 7b 6f 82 89 6d 7b 74 67 9a 62 81 4a 67 5d 98 6b 76 67 7f 8b 57 62 94 91 88 89 88 42 8f 5e 72 96 71 7e 84 79 7b 7e 8f 7c 7d 7c 99 98 73 4f 76 65 8a 63 81 67 96 aa 7c 4d 6d 90 6a 8a 60 68 7e 90 93 63 69 aa 8e 73 74 70 94 90 7c b1 85 8d 6e 6a 89 83 8f 8a 6a 6e 7a 92 7b 84 57 75 8c 7e 5a 92 87 7f 91 88 5f 85 7c 6b 6a 68 7f 4b 7b 70 71 81 67 63 79 62 91 63 8b 5a 6d 36 7b 8a 8e 66 8f 5c 7c 4f a2 67 72 7c 52 68 7b 9a 62 96 64 89 96 90 90 8a 88 7f 7b 6f 7c 86 76 91 88 77 8d 7e 66 68 67 7c 71 72 78 6e 86 6d 8c 73 82 53 8e 81 93 74 6f 87 75 70 96 53 95 79 8e 73 68 9d 71 84 6b 76 71 97 69 7b 89 82 76 60 98 7e 72 6a 68 93 48 6b 84 8b 88 7b 6b 65 82 6d 69 68 8a 63 77 76 91 8c 89 8c 9c 7e 6d 82 8f 5c 85 74 7a 6a 84 7d 73 75 68 6e 84 88 60 73 61 8b 5c 66 7c 84 83 6c 70 93 76 8e 87 86 80 5b 57 6a 90 9b 73 5c 9c 61 6e 91 97 95 91 63 85 7c 5b 74 91 85 77 99 75 66 6e 85 89 8b 85 89 aa 97 64 61 9b 6c a1 3c 77 85 92 83 88 98 87 59 70 45 9a 85 76 4a 97 9c 74 61 2d 65 68 6a 8e 95 7f 94 93 9b 89 82 8f 72 6b 67 98 95 58 87 88 91 7d 74 92 92 7b 71 6a 6e 7e 67 7b 64 82 75 6f 7d 5c 6a 6a 98 90 9a 5b 82 86 80 92 60 8b 97 77 7e 83 76 9e a2 82 84 74 80 6a 81 86 75 9c 83 64 8c 65 6d 85 73 85 72 72 5b 5e 78 99 7a 92 7b 4e 80 7c 95 96 73 74 90 8f 85 75 9c 96 71 89 7f 88 51 8a 90 93 90 90 70 9a 2d 82 8b 6b 5c 65 58 7e 77 84 7c 7b 9b 92 a3 82 84 a3 70 57 5d 94 84 92 85 67 79 6c 50 7a 7e 7e 84 67 50 8e 8b 8d 94 89 73 8b a0 76 6d 90 6e 94 91 6f 96 75 68 8d 82 7f 76 74 88 71 76 8c 73 9e a1 86 92 72 82 95 6d 7d 8f 6f 4b 6a af 6c 5f 9a 81 78 81 8f 93 7a 96 61 81 5c 6b 7b 95 65 6b 85 6a 95 63 74 88 a0 85 92 6b 7e 9f 82 74 83 6d 79 7a 92 89 7b 67 6f 7c 83 7a 86 6d 87 96 6a 8b 81 71 98 97 62 9a 62 8d 87 8f 75 7a 83 82 74 94 7b 88 56 78 65 7c 47 73 7a 82 77 66 4f 7f 6d 8b 82 86 70 74 82 92 76 8f 7f 87 8b 90 8c 6f 85 76 6a 6d 7c 72 89 61 74 83 6b 6a 72 70 91 71 85 99 91 68 8d 71 70 72 70 93 87 65 6b 8b 8d 90 5b 7f 86 83 98 97 7d 55 7e 96 94 81 79 96 96 85 a5 98 5c 90 62 55 77 88 88 a6 5d 7c 4e 92 ac 59 71 8c 6c 7b 8b 75 54 79 78 89 5d 6b 90 7a 70 8c 79 52 7d 9b 81 44 73 6a 7e 67 72 45 84 89 68 98 84 62 92 92 77 84 5c 47 58 74 63 77 5d 77 82 95 90 4d 74 6c 76 6d 7f 7a 5e 69 8c 7e 65 64 84 48 64 54 7a 71 72 89 5f 68 95 86 65 90 99 77 82 4d 99 86 6c 7d 72 63 5d 8c 6b 7e 2a 89 53 4a 58 7a 45 62 90 74 6f 7d 64 71 97 8e 7f 62 a5 96 83 72 62 6d 92 79 9c 81 7e 6c 64 82 86 65 9b 94 60 80 71 5f 62 6b 75 95 90 7b 70 7b 8f 81 95 91 92 98 91 62 4e 79 6f 63 84 67 8e 7e 6f 83 8c 6f 7a 85 74 78 7e 86 7a 65 85 7b 8a 7c 81 87 79 80 7a 91 7d 81 7d 88 88 97 80 8d 95 99 71 90 82 8f 84 7e 7c 9c 70 7c 70 99 51 52 82 83 82 7b 91 91 4f 58 87 7a 9f 74 83 70 82 7b 5f 69 8a 54 65 6b 9b 90 9e 78 7f 8b 65 8e 9f 78 6d 8d 91 6d 76 75 90 7e 6a 56 75 7f 6f a3 4a 8c a5 91 92 8b 89 7b 87 9f 8d 82 92 93 78 9a 79 5e 8c 70 8d 81 97 96 81 66 8a 7b 6f 6d 89 58 4c 91 67 79 6e 91 8d 6d 7c a5 70 83 5f 90 72 6a 6e 5b 65 6e 8b a3 8e 85 87 9f 64 4c 80 6b 61 84 39 7b 76 6c 6c 81 92 7e 64 42 94 70 7b 70 7c 68 81 91 98 82 78 81 83 85 7d 4e 80 83 94 8a 8b 80 8d 93 74 7b 8c 82 87 76 69 8b 44 71 5f 7c 9e 98 8d 66 5e 80 56 74 66 59 87 76 7a 97 5d 8e 7c 7b 8b 92 6f 84 66 76 8d a6 8f 68 86 6d 9a a2 7b 9c 84 57 48 9a 8a af 93 6c 9b 58 8a 77 65 61 9e 84 86 90 58 88 67 af 89 5c 95 9f 99 7d 78 85 87 8a 7a 87 88 92 7c 80 63 63 92 5f 6c 9b 86 85 75 55 8c 7a 6e 7a 6e 82 64 6b 94 8a 9d 7e 6a 53 80 6d 93 83 59 7d 65 85 7e 74 92 83 82 74 94 5d 81 64 81 84 83 5e 63 8b 52 92 a0 41 51 a0 8b 8c 66 69 9c 5e 5e 7f 89 82 4f 6d 83 83 90 8e 65 a2 91 48 6a 94 7b 86 a0 65 7d 74 64 69 6f 71 79 96 88 74 55 5c 83 83 aa 6f 68 90 65 7c 6e 72 93 6a 63 98 6e 5d 7e 92 53 76 8a 76 7b 7d 66 62 6d 7b a7 7b a0 68 63 67 79 a1 84 99 81 6e 8b 6d 89 78 81 62 7e 77 84 62 61 a9 72 8e 64 7d 53 a4 5b 70 87 a1 7a 60 1b 76 9e 7c 79 68 95 44 72 9d 9f 86 7a 9a 8e 90 4e b5 66 49 66 7e 9e 4d 51 76 9b 70 74 82 46 9a 6d 80 56 a9 ae 62 94 72 94 90 61 75 9f 96 8b 63 a4 62 49 56 7f 6b 71 49 7a 7c 7c 88 78 6c 63 5f 87 6f 8b 64 83 81 6e 66 a2 6a 64 50 76 8e 7c 9f 7c 7e 65 88 88 85 71 56 8b 73 6d 8e 79 7e 98 4d 6e 7a 67 66 90 6b 8b 81 5f 7f 66 99 9c 8c 7e 80 62 94 68 9c 93 62 89 5c 85 8c 98 61 7a 6b 79 6b 83 97 8d 83 88 97 9d 96 71 64 81 8e 82 7c 99 89 88 8a 7c 59 77 7d 79 7f 78 61 6d 87 71 90 93 91 73 83 8c 9c 74 87 7e 9e 79 73 80 83 60 77 7d 68 67 6a 7d 97 a7 5a 7e 9a 86 7c 77 89 73 66 78 8d 9e 66 7a 76 8d 9a 59 61 93 75 87 91 73 6c 90 7a 8a 8b 61 9b 5d 7b 79 8e a7 97 8a 7f 6d 81 73 6a 5f 6b 7e a1 9f 5f 93 81 6f 76 85 98 89 a3 9d 74 4f 91 5a 76 80 9f 6b 7e 86 76 6d 4e 66 74 99 92 2f 8e 67 65 60 71 71 73 8f 86 88 66 92 71 5f 8e 96 77 98 98 53 6c 95 9c 8d 8d 85 76 65 7e 78 8c 97 8d 83 76 81 6d 88 60 56 7e a1 8f 7a 79 6a 9c 88 7d 88 7b 67 5f 84 73 5b 63 7c 6d 81 97 78 7d 78 96 8a 7b 7b 73 70 92 6d 76 87 86 98 99 8d 9d 65 6c 5e 92 7a 8f 6c 85 72 8d 54 78 92 99 74 73 72 71 60 93 94 72 64 6b 74 78 ab 82 9c 72 90 7c 4e 8f 59 95 82 a7 43 73 92 77 77 7d 87 65 55 42 85 6b 61 98 6f 95 8e a0 88 8d 45 87 61 9e 98 71 81 71 65 5e 7a 8d 7e 9f 81 79 76 8a 84 8e 90 98 5d 80 7d 72 6e 8b 36 70 7b 83 8e 7b 9a 65 93 90 81 7f 92 7d 84 75 39 7a 99 30 76 59 93 9a 81 72 a7 6d 7f 81 6a 7a a0 83 6d 6d 7f 6d 6c 95 6f 8a 70 76 61 79 79 8c 72 6d 31 82 8a 7f 8a 60 83 71 81 84 80 a3 70 67 6c 7b 8a 5d 80 79 80 95 6a 5f 83 94 84 7f 7d 6b 8f 9b 6d 7b 7f a4 76 96 83 7d 77 80 65 88 9a 97 83 80 86 8d 84 60 73 71 6d 8b 63 90 7b 6a 98 75 94 8b 66 85 66 89 7e 8b 74 7f 65 69 65 61 86 8f 8c 48 9a 68 73 75 8e 5b 95 85 8e 8d 53 8b 7f 81 7d 6e 6e 58 55 80 85 7f 6d 9a 5c 76 73 78 86 6e 6f 90 7b 7e 8e 86 7b 6e 7e 7d 89 84 5f 8f 78 8c 5e 8b 5b 57 8c 7a 66 86 72 64 66 7e 92 87 8c 85 81 6f 92 8b 6b 89 80 68 82 9b 6f 82 78 76 74 7d 78 69 7f 71 7f 56 78 9d 58 7b aa 88 70 82 73 85 50 92 76 89 79 63 87 82 4e 63 74 77 81 91 95 69 a2 92 86 57 7d 76 69 99 49 62 7e 98 57 8d 47 85 6a 60 45 91 6a 8a 77 6e 75 80 81 82 68 9a 67 78 9f 7d 5f 92 54 91 86 9a a0 97 7b 8c 82 87 73 6b 87 6f 76 89 6c 82 9f ae 86 60 84 a3 7a 4c ab 79 77 8e 86 9c 89 82 59 82 96 97 ac 80 a2 95 64 51 89 90 7a 97 74 75 7f 58 95 92 7e 81 6c 79 6e 9a 61 86 8b 50 50 b0 83 69 8e 68 7e 71 a1 7e 79 90 79 85 83 6e 6d 84 6f 8e 7e 9a 77 83 4e 5d 79 9d 89 7c 63 5f 71 8a 87 95 7d 85 6b 5d 94 97 80 54 7d 71 61 78 84 62 85 53 76 98 56 61 7f 64 73 6d 7c 8c 7e 9f 9d 7b 92 8e 7d 7e 7c 68 8c 86 87 97 65 93 70 91 92 7b 8e 8d 5b 8e 92 7a 98 67 73 88 66 8d 62 83 6e 8b 97 7c 78 5c 8d 70 78 5f 7b 7e 6e 9e 76 99 a2 8a 8b 81 64 64 96 65 53 91 9e 85 68 7d a0 55 8c 77 82 83 a2 81 75 75 95 9c 54 76 7a 6b 6e 9c 70 6d 93 76 8f 71 92 6c 9a 76 78 6c 82 6e 7a 8e 70 74 5b 97 44 ab 95 93 73 8b 6c 8b 7f 88 99 86 67 8b 71 58 8e 67 79 73 73 56 85 62 8f 83 65 6f 73 93 92 88 74 69 6e 7b 90 74 91 72 84 5d 6e 75 58 44 98 6b 75 71 67 74 86 83 57 76 69 96 8b 82 6c 81 7b 71 72 88 78 97 a2 88 70 94 4a 85 7d 66 63 a0 98 84 8c 67 a1 a0 78 66 7e 6b 78 7c 78 63 75 86 7b 86 6d 7c 66 97 95 72 5f 84 78 a2 79 96 98 98 77 93 82 78 a0 99 76 6f 6d a8 87 74 8b a9 97 87 58 6c 8a 5f a1 7c 5b 90 54 94 37 97 80 7a 81 6e 6d 98 96 98 60 64 65 97 62 62 81 a1 9e 8c 9b 67 8a 89 63 74 a2 6f 8b 6b 78 8f 7b 88 93 6f 61 97 76 95 6d 75 6b 5b 7e 5c 62 7b 62 87 56 8d 7f 91 72 85 6f 96 8b 77 6b 67 6e 7c 9e 76 7d 68 73 6f 8d 6c 80 73 93 8b 8c 71 58 9b 6d 8a 75 7a 79 7d 7f 83 8a 84 8f 8e 5f 71 65 74 87 77 88 99 74 64 90 60 57 58 7a 87 99 62 69 86 8e 79 7d 94 7a 91 77 82 7c 75 68 78 7c 6d 62 69 82 79 8a 97 89 5b 7b 7e a0 ac 6d 98 7b 9d 8c 75 6b 7d 97 47 a4 69 7b 70 93 64 8c ab 7e b0 8a 7d 64 62 7a 69 68 69 95 7b 7d 6a 76 40 75 6c 76 b0 84 84 74 95 54 8d 5d 87 46 8e 7a 70 80 50 78 80 90 80 a4 5c 38 8f a0 5a 5b a0 7f 7e 9c 79 93 89 7d 9b 71 7c 52 60 84 75 5a 5a 68 77 90 98 89 69 a0 87 98 94 9a 60 82 85 65 8b 5b 74 72 67 64 66 7b 87 6d 7a 5c 8c 88 81 78 61 86 85 68 8a 90 79 65 8a 60 72 66 6e 71 7e 65 72 71 69 87 99 80 8a 82 87 91 67 7a 83 76 81 73 68 70 6b 7a 94 7a 8c 7c 70 87 97 72 8f 76 5b 56 83 90 73 7f 7f 89 9b 78 63 78 7f 81 7b 85 7c 81 7a 78 70 98 8c 7f 82 a4 68 73 90 9b 8a 85 4b 85 7d 65 82 6b 80 67 98 99 72 90 93 9e 87 8a 88 4f 5a 8e 84 78 82 6c 7e 75 74 84 74 8c 92 96 75 8c 65 4d 8a 8d 6d 69 85 6b 75 69 5e 63 9e 79 68 97 74 9e 83 85 4f 63 a8 98 8b 92 8a 86 93 84 7a 41 89 6c 7c a2 91 92 a2 75 60 71 8a 6d 77 78 92 92 7b 73 7c 42 ac 86 9b 7e 74 71 6f 8b 6b 63 57 82 7e 6b 75 87 60 7e 7d 89 76 9a 77 4f 70 93 8f 9a ac 8e 60 8b 7e 9f 5f 7e 82 85 7a 96 7e 3b 98 56 95 51 6f 91 79 60 82 81 54 8b 65 7f 6c 7c 7b 63 76 88 84 73 8a 9f 7b a0 67 81 8d 8c 8f 71 7c 5d 8b 95 65 aa ab 4e a8 76 70 7c 4f 70 72 9e 91 a7 59 8b 77 8a 66 68 6a 6f 8f 94 8a 74 67 83 9b 7d 9a 8f 79 8f 69 8e 87 5b 76 5f 6e 8a 84 6c 87 81 8a 8b 8e 72 73 8c 87 67 70 8b 8c 82 6c 87 61 89 6a 86 7f 48 8a 76 6b 6d a1 91 5b 6c 74 7c 68 64 9c 69 93 8b 63 8a 7d 61 76 a7 8b 76 5b 8f 90 8d 9c 9d 80 9e 78 7f 69 71 84 69 8f 6e 64 76 80 50 92 80 93 65 79 83 75 72 65 8d 84 86 81 97 77 96 6e 82 96 74 71 97 84 76 81 89 50 63 88 84 90 67 87 a2 7d 61 72 68 88 68 b1 6c 5c 96 7d 9a 66 5e 81 8c 82 7f 84 59 76 79 82 5f 96 87 41 87 91 69 51 65 8f 83 74 8b 6c 8d 7b 85 6f 74 8a 83 87 76 74 51 71 86 46 a1 7e 85 78 79 93 81 87 89 8e 68 95 a3 98 75 65 97 8f 79 87 a0 77 36 62 62 79 75 6e 91 7e 65 85 7c 72 7e 9b 72 84 7f 58 76 6f 80 74 5c 8a 84 76 9a 83 79 97 86 63 6e 8d 96 83 77 8d 82 6e 87 a4 6f 71 9c 87 87 7e 87 87 80 84 71 94 66 a5 73 82 94 85 81 9b 96 7c 5c 6e 6c 86 53 5c 8d 62 69 a0 84 98 8f 7d 64 a7 78 97 8d 75 64 75 91 5a 8c 37 70 7d a9 6e 7c 7d 50 97 7c 98 6a 5c a4 9a 44 4e 93 69 67 84 8f 43 80 7b 92 7d 64 50 83 96 6d 65 85 62 78 98 80 8b 9b 69 8b 95 70 80 8b 90 91 72 96 92 60 78 8b 6d 7a 78 85 65 6a 90 61 5c 73 66 93 91 6a 71 95 7f 6b 9a 68 88 91 9f 6c 92 71 6c 78 5e 8e 88 63 70 9b 99 94 5d 90 65 4a 96 69 85 95 94 7c 96 68 7b 7f 7a 78 88 7a 65 7b 95 79 82 8e 6b 4f 59 76 7a 6b 8b 8a 93 92 93 49 75 6d 84 89 82 78 87 6f 99 6c 7d 8d 8d 93 6e 98 89 44 7b 91 59 80 92 8c 89 63 8d 66 90 7e 89 7f 8a 95 67 6f 69 72 71 9b 88 56 89 7d 66 79 86 6a 69 a4 94 73 8a 5d a2 9e 7e 71 6b 7d 68 53 67 8c 7f 53 81 78 89 94 8f 85 70 8a 87 8c 52 82 7f 77 53 7f 88 6d 75 92 66 ac 53 7d 8d 68 5e 8a 79 74 81 7d 7e 69 5e 96 9e 83 7d 72 8c 7f 80 7b 81 96 7d 5a 9f 62 94 73 38 9b 56 8a 7b 6f a9 94 7a 68 a1 a1 8f 6a 7a 9d 85 72 8d 68 88 9b 8f 90 5e 68 69 92 3a 81 7d 48 6f 8f 8f 99 75 6b 60 68 59 a2 77 82 63 9a 66 64 60 4d a7 90 67 6c 59 73 9a 8c 73 68 97 8c 77 77 84 42 96 90 76 89 6e 89 6d 8e 6f 75 7b 78 71 a7 91 85 69 95 7a 78 70 7e a5 80 8e 6b 8b 5f ab a4 7d 7d 77 89 7f 70 95 86 56 a0 72 8b 4d 93 77 aa 8b 7d 68 50 9a 97 74 68 9f 79 6b 6e 96 79 50 85 80 ab 67 9b 4b 8f 99 9e 68 60 8b a7 97 7b 77 8f a2 77 79 5d 6a 97 7e 87 7d 88 a6 8a 7e 8b 56 8b 7e 76 89 92 8a 6f 8b 78 89 7d 6a 9b 8f 49 23 