65 7f 65 b2 8d 9b 86 4d 9a 7b ac 5e 96 76 8c 9e 95 9d 87 96 66 7c a5 81 60 8d 8c 8e 82 84 8e 6e 6e a0 68 76 8f 6a 88 8d 87 a0 90 aa 8a 84 84 6b 5e 77 68 85 64 82 7d 8c 7a 64 74 9d 6f 88 67 6b a5 7f 8e 99 82 69 85 85 89 90 a2 88 9c a0 76 9c 95 97 a8 87 8f 86 62 70 5a a6 82 6d a0 6c 6b 61 88 76 49 9e 87 63 a2 67 a0 55 58 b3 90 8d 69 a0 90 89 7a 76 bc 65 5b 72 77 70 82 98 79 7d 73 81 7f 8f 8d 65 73 6d 73 9f 6d 7d a1 90 a3 87 60 88 7b 5e 77 73 84 59 6f a8 82 a1 64 79 98 87 a0 9b a5 88 74 82 63 72 a1 77 8f a7 a9 80 72 82 82 70 8e 78 7c 72 93 87 8e 7a 94 5a 9c 72 57 5a 80 95 89 a7 69 7b 7d 85 7d 67 8e 74 a1 94 78 8a 7c 9c 8b 78 7b 8d 9e 8d af 6e a4 96 65 68 78 92 7d 73 88 7f 77 7d 67 61 7d 46 93 83 8d 75 97 8d 82 a3 8e 5d 7d 6d 57 5b 55 77 95 6f 66 6f 6e 6f 73 86 9c 8d 89 83 8b 56 76 94 79 8a 81 9c 5e 78 9a 84 8f b0 84 61 5b 59 7c 71 ae 90 7d 8e 90 99 84 90 91 75 99 7e 7e 9c 86 a8 8a 77 83 7b 45 5d 7e 96 89 7a 78 a2 7a 6d 86 66 9e a4 85 8b 92 6c 93 86 71 9a 77 51 67 7a 5b 6a 7d 98 6a 61 72 96 84 78 68 41 8e 5d 82 94 68 7f 7a 91 72 95 7e 5e aa 6e 7f 89 61 65 8b 85 88 9e 67 7c b5 5a 8d 73 7f 73 70 bf 58 97 6f 7f a1 ac 6b 5d ae 97 87 9a 51 8b 99 88 7c 83 76 87 7b 57 93 a6 82 8e ab 6e 5b 9d 84 63 67 7a 54 71 ad 9b 54 83 52 a1 86 6b 85 86 6e a5 86 87 55 76 5b 78 6c 74 99 5c 5f 75 6b 5a 78 7b 76 7d 53 b7 6e 84 89 8b 70 60 69 8b 91 65 74 c2 71 8c 59 90 55 79 59 70 6c ae 72 a6 81 76 4f 83 74 96 62 97 85 62 88 84 8d 60 51 62 9d a0 a1 8f 59 80 4d 72 86 7e a5 55 7e 67 79 9d a4 a6 9a 63 6c b7 a6 79 97 79 9c 60 77 61 57 9c 5b 7c 65 62 7d 6e 62 7b 7d 7c 8c 88 61 8e 88 6f 9c 7c 90 a8 69 a1 57 56 78 67 7d 5b 82 64 a4 4f 96 92 9b 6f 6f 4e 63 8e 9d 8e 64 5f 90 55 3a 6c 55 90 61 55 7a 5f 76 66 8c 74 ab 6b 8f a7 72 69 99 94 6e 65 9d 5d 9a 79 85 7f 7a 85 6c 97 6d 3d 9f a4 6a 60 73 91 97 be 83 8a 6d 8a 79 6d 4a 6d a7 5f 81 5f 95 83 6b 76 6b 9b a3 95 72 9b 73 61 76 9b 6c 60 6d 7c 93 71 59 97 84 9b 72 9d a4 5b 87 7d a1 6e 7f 90 5a 8c 52 66 61 95 93 8f 68 76 8d 5b 73 8f 77 68 a6 5b 75 6b 60 8d 68 97 84 8b 86 90 6b 7f 76 6b 82 8e 6e 96 85 8b 84 76 8b 7c 64 98 62 67 80 a9 91 67 90 80 78 97 6a 64 89 72 74 7d 73 63 9e 9a 81 72 94 b1 7e 72 aa 8d 92 8b 6d 8e a9 86 58 83 8c 7f 5a 86 a1 60 66 7b 88 91 93 59 78 89 98 49 6e b0 56 7b af 5d 5e 8f 83 91 b2 91 5b 62 89 76 7b 71 90 a0 54 75 a4 83 59 b3 76 73 65 7e 7a 6a 67 85 8a 79 a0 79 81 6c 89 70 72 84 68 67 80 57 a0 76 7c 71 76 84 7d 6a 75 80 66 89 91 75 66 84 79 7a 64 91 6b 97 67 82 68 94 8c 89 83 97 75 8a 6f 88 8f 77 6b 78 7b 67 a1 7f 81 78 68 81 57 67 5b 69 a3 83 a1 78 82 7f 81 8e 5f 87 8d 6c 92 7e 57 4d 95 83 8a b5 86 6b 4f 82 4f 91 7e 7b 98 7e 71 6b 95 7f 8c 6c 9f a0 6d 6c 6a 82 64 7b 89 73 93 80 68 76 5b 89 60 73 69 92 79 8c 62 81 69 9e 7a 62 5a 47 63 84 b7 a5 88 60 59 55 6f 96 7c 97 a7 5a 83 8b 64 6a 5c 76 8a 85 95 64 a6 77 75 65 88 73 7b a2 59 86 83 9c 72 74 7d 7f 7b 4f 8f a5 8f 83 92 66 80 92 7f 8b 54 80 91 7f 6d ae 74 60 87 5e ae 9e 96 9e 9a 74 b2 48 71 a4 5e 83 65 69 93 7f 76 9a 68 9c 84 9c 76 91 a0 ab 63 48 6c 99 8b 70 7f 81 a3 93 60 8e 5e b0 6e b2 8f 5b 6d 86 81 7f 8c 6d 5c 57 bc 8f 95 b6 6f 60 85 84 78 8e 74 91 94 82 99 77 98 8c 98 76 77 91 9f 72 6f 7c 92 8a 5e b4 86 76 72 72 8e 87 a6 93 82 7c 68 6d 6d 85 8a 7d a2 8f 9d 68 8c 7d 65 6d 71 6b 98 9d 8b 79 a1 62 6d 5f 84 7f 8e 64 69 81 73 8d 80 61 97 65 82 a3 8b 6e 63 9f 78 80 98 6d 71 92 7a 91 76 69 6c 74 74 7b 74 6b 89 92 7b 95 73 7d 74 72 64 5f 69 87 8c 62 78 93 9b 7f 6a 74 a0 81 6b 92 61 71 8a 66 6d 5a 8f 7d 82 98 68 74 8c 79 7b 66 91 a1 96 5c 7c 69 52 75 7c 90 73 8e 8a 6d 7a 63 57 7a 96 8d 78 5f 83 89 6e 6e 8e 91 81 7c 7f 9a 78 64 7a 83 5f 87 8a 87 7c a7 75 88 79 9a 79 7d 97 84 85 85 8d 82 9b 91 8c 88 6a 9b 63 7f 85 a0 85 92 76 6a 8a 5d 80 89 6b 86 97 85 a2 63 4f 92 95 6e 6a 68 3d 91 5e 79 90 77 76 58 4b 95 86 47 60 7a b6 6a 8e 8c 70 b3 88 8f 92 b1 81 a4 95 67 78 5f 76 a4 76 7d 86 7a b1 6c ae 80 7d 8a 5b 7b 9c 70 8c 78 9b 76 7a 5c 94 55 96 98 7b 82 78 76 9e 91 87 69 99 69 40 82 94 79 65 7d 40 88 af 89 76 9b 7a 60 6b 7c 6b 8f 5e 86 66 80 5d 88 7a 8d 58 5a 76 87 7b 75 8b 67 9d 8e b0 aa 83 7f 7b 81 71 67 96 8b 6d 8e 9d 8a 8f 71 a0 76 8d 87 50 9a 73 8b 7e 99 69 59 b0 75 7d 62 94 94 82 54 8a 73 6f 71 93 8f 57 87 6a 67 58 5d 96 72 a5 8e aa 5f 61 63 65 6a 8d 5f 8b 83 84 7b 77 7e 88 66 6e 83 7f 5f 93 71 8b 8d 88 aa 82 89 7a 94 73 8b b2 82 84 8b 7d 7b 96 99 7f 8c 82 96 84 69 93 76 6c 78 72 85 7e 6d 86 68 a1 98 8d 76 71 6c 91 6b 6e 90 7b 8c 72 75 ae 65 9e 91 62 86 9c 67 5f 7a 76 8a 81 7f 60 5f a6 b2 97 9c 89 55 89 a2 99 63 62 8f 8c 96 77 69 58 6f a5 50 9f 78 80 4c 85 7b a0 65 98 92 a3 82 67 7b a7 49 a4 6c 65 60 9f 95 55 ad 8c 6b 9f 68 58 4d 68 b5 8c 82 9d 3f 86 6e aa 86 78 8a 6b b1 95 54 9c 89 92 4e 6b 69 a7 55 77 7e 69 62 8c 75 98 71 88 aa 95 65 79 95 6a 67 87 77 85 86 89 a0 77 67 92 5f 70 a3 79 87 8f 7b 61 86 71 94 62 75 81 5b 6a 7a 95 5e 98 56 94 69 8d 7c 99 82 9b 6b 8f 68 78 7f 95 84 5f 5f 8a 89 90 98 8b 97 88 6a 77 69 72 a5 59 87 89 82 98 a2 80 7a 70 5b 76 63 9c 72 97 8d 68 86 80 90 67 76 7a 88 77 77 93 6e a4 95 93 77 9d 9b 94 74 8c 87 94 5e a0 68 75 6d a2 9b 63 9c 5e 95 89 5b 98 91 7c 77 93 84 7f a0 5f 61 9d 92 a2 73 75 66 82 62 94 75 66 8d 8f 67 9b 96 60 68 72 82 50 b6 81 51 5b 77 4f 9f 8d 7f 69 6d 7b a9 80 6e 68 86 52 7d 88 86 a9 9a 7e 85 77 a6 87 97 5f 64 6a 9d 8b 7d 65 69 aa 6d 43 93 9d 6c 74 59 92 a1 6f 7a 84 5b 95 83 76 40 72 9b 84 74 9a 91 98 63 74 8e 52 79 92 6b 84 6b 94 72 7b 78 bb 66 89 92 67 97 8a 6d 9b 93 5c 49 a0 81 68 67 6e 7b 9e 73 9c b0 61 92 5d a0 b1 8c 7d 7a 8d 50 8e 7c 80 95 7f 64 92 97 7c 98 a0 94 84 5a 8a 94 96 95 b3 6a 99 9f 74 5e 69 65 67 77 ae 84 88 aa 44 b3 8e 73 5d 9e 84 93 64 7b 91 73 7e 5e 93 7c 58 8b 83 6f 88 9f 80 6a 99 72 8f 9c 7d 67 7a 7c 75 97 72 92 8e 92 83 8a a3 54 5f 88 8d 9c 7d 7c 8e 5c 76 99 53 88 83 7b 85 6d 82 64 6f ae 73 78 6c 79 74 7b 7e 6e 7d 70 80 8a 96 7b 6d 60 85 7e 99 9d 96 8c 5d 93 7b 9c 61 74 6b 97 63 96 5a 8a 82 94 9c 74 6b 92 60 8b 91 89 9f 76 68 6b 9a 92 9f 73 99 74 7c 88 9a 63 3a 49 93 80 76 7b 99 a6 69 7d 81 ab 87 8d a5 8d 89 68 78 61 4e 66 67 b5 8f 77 80 89 6f 8c a0 81 71 a0 8a 80 82 79 67 81 9f 73 6c 89 83 84 61 9a 70 7d 8b 8a 93 5b 7e 96 62 7f 69 97 6e 7b 54 7b 7a 85 83 93 6c 8e a0 83 8d 9a b2 8d 8b 5b 62 a3 b2 54 77 6f 8f 73 70 69 54 8a 6d 8c 8c 78 5d 9d a2 8d 77 68 75 93 8c 7f 7f 8b 9b 61 9e 8c 86 89 90 7c a3 6c 66 80 85 9e 70 71 8c 7b 82 80 63 94 95 94 a4 6f 57 68 5d 85 78 6e 73 7f 73 85 90 75 5b 55 64 79 87 74 7b 8f 7a 86 73 5d 7f 84 84 7f 95 8b 7f 65 98 7f 74 9a 53 65 65 73 59 95 86 89 7c 71 7e 76 8c 96 7b 71 73 ac 77 47 71 98 71 82 79 74 98 82 9e 9d 5b 60 99 82 86 85 9b 7d 85 7e 91 7d 82 8d 89 9f 8f 52 5f 70 6d 8f 8c 59 98 98 91 80 6c 6a 68 91 71 88 5d 64 7f 91 84 87 7a 73 88 7e 6e 76 63 a0 a8 79 b2 8c 8e 86 96 8a 79 83 7e 8e 73 6c 8e 8f 61 9b 67 80 7e 68 72 79 9a 7b 5f 7a 8b a1 9b 7d 9e 95 54 6f 83 67 8b 72 78 88 84 b0 89 77 93 ab 76 58 55 73 93 6f 87 43 7c 9f 84 6c 5b 73 92 72 9a 67 78 7f 80 74 63 80 90 84 7a 60 6e 69 89 97 86 85 9c 65 90 8d 76 78 63 90 78 75 7f 87 83 6e 9f 7f 9f 82 9f 8a 99 7c 90 60 85 60 9e b0 77 72 a6 5c 6a 8f 94 a2 62 a3 7e 6d 79 74 7a 4a 95 8a 72 b2 96 aa 87 96 7b 7b a5 7b a5 b6 5b 60 90 8e 78 8f 7f 6c 55 84 61 50 83 7d 66 76 7a a7 a0 7b 96 78 98 7b 79 a3 74 45 77 ac 75 80 4d 73 64 ac a0 6d 3c 59 9d 68 b6 56 5f 92 81 b2 83 76 71 66 72 b5 63 ab 62 8c 6a 8f 88 76 5f ad 6b 8e a0 6e 5c 8a 62 7f 7a 74 87 8b 8f 75 a1 98 7d 9c 79 73 9a 87 8b ab 84 98 49 86 73 7b 9d 7a 8b 47 b2 67 89 88 82 93 5f 7b ae 67 86 76 85 65 85 83 5c 74 54 86 6f 80 63 66 6e 75 7a 52 6c 80 7c 51 85 78 70 52 8e ac 66 7c 6b 5f 81 74 85 5c 74 7a 77 87 76 78 5b 75 85 91 63 70 8c 60 a1 93 7d 87 65 91 80 7c 76 65 6c 81 91 7f 5a 7b 94 56 8e 6d 7c a6 a1 75 a2 8a 82 76 97 92 75 5e 98 82 93 a1 7a 65 79 95 8f 58 a3 83 5f 7c ba 60 7a 84 8e 6d 6d 6a 60 a6 6a 7d 55 6e 55 6b 85 b2 76 63 69 7b 62 8d 81 94 4c 5d ac 81 93 79 48 75 9e 90 95 7d 88 6a ba 5a 8d 4e a8 9c 61 a4 64 5b 8d 9f 8d 5d 8c 85 a4 90 9f 98 8e 64 98 7b 8d 8c 8c 7e 7c 91 7a 9e 6a 85 70 73 8c 5e 6e 6e 74 69 82 66 63 85 58 7c 89 a0 84 99 95 7e 6b 57 88 7a 86 8b 7e 8a 91 7d 60 49 86 92 6a 9e 76 72 61 7f 60 8a 9d 86 81 98 79 a3 6a 8c 7f 7b ac 7b 92 8c 90 6d 74 90 8b 86 6d 8f 71 71 94 65 92 85 8d 73 61 78 63 86 7e 61 8c 5c 8a 93 5d 61 9e 71 90 9d 8c 7a 8e 78 8e 89 69 85 94 83 70 74 94 5f 71 7f 99 8e 76 7a 69 77 84 91 81 97 94 82 65 91 85 76 7a 8a b1 7b 90 95 7c 6f b6 b6 41 87 53 94 99 71 68 a8 64 79 98 94 94 64 83 89 47 a0 79 8f 56 ac 85 a5 90 67 72 8b 59 9e 93 6b 7a 7a a9 98 87 62 76 69 a6 90 b8 94 90 62 90 60 85 7e 5b 63 82 8f aa 50 74 a0 5c b6 a0 8a 8c 7a 64 5a b0 82 99 a1 87 69 a6 6c a2 9f 5a b0 73 5a 5b 80 8e 55 9f 85 83 62 80 7a 93 6b 78 5d 65 91 86 68 4b 80 5b 6c b1 62 4a a5 72 59 9a a5 a8 53 78 69 48 7e 78 6f 7b 84 66 6d 73 71 65 8e 7e 8d a0 63 72 88 82 92 6c 6f 65 74 64 93 60 62 8e 9e 62 54 6f 82 96 6a 64 7e 98 78 94 63 64 81 72 72 79 79 98 78 68 7e 87 80 88 64 87 81 75 83 73 66 a3 7c 8f 98 71 9e 77 8b 81 76 59 65 ac 5c 6d 51 8b 81 7e 6c 84 5d 95 55 9b 5e 68 80 7b 69 6d 73 77 62 8c 83 69 89 95 6b 5c 86 65 75 8c 6f 86 92 73 76 85 68 94 8b 79 9e 73 ab 86 8a 94 72 6e 8a 8b 77 70 6b 66 65 72 98 b1 9a 7d 98 62 79 5f 6b 94 71 78 6c 83 79 97 6e 95 9d 74 92 62 72 71 9c 71 80 6a 7c a6 7d a3 76 90 91 90 98 73 81 5d 6d 81 9e 56 79 7a 5e 96 7a 7d 62 94 a6 74 72 96 77 63 59 6c 62 5e 8d 80 84 87 6c 8b 70 78 8a 4f 92 9f 9e 6d 62 81 89 70 65 8d 76 73 69 70 4f 6d 58 75 9e a8 68 6e 66 a2 81 55 79 86 91 80 93 91 72 b4 87 79 a2 7e 94 74 60 4f 5f 84 61 b4 8f 5d 64 ab 4f 7d 9c 56 77 5f 6a 6c b9 78 6c 8d 75 68 6c 7c 77 84 74 61 81 77 7f 9b 76 54 73 7e 61 85 88 9f 6c 73 87 8c 85 a1 87 8c b5 83 89 7b 4d 84 80 62 82 5f c3 8d 9a 80 61 7e 8f 99 a0 86 69 74 94 85 b3 65 a5 7d 6e 70 95 8a 8b 81 6a 67 74 85 81 9c 6d 5d 75 76 91 74 87 87 86 71 9f 86 5d 7e 62 99 8b 6a 84 66 8f 8c 61 7b 61 8e 97 7e af 8a 63 9b 88 94 62 8e 85 5f 64 6a 72 69 72 8e a3 7a 77 9f 73 8e 60 6e 6d 6f 76 8c 85 72 92 78 5e 82 70 8e 77 89 75 8a 80 67 8d 88 8c 71 79 76 68 95 6e 94 84 88 a1 95 89 55 6c 6b 88 89 87 76 72 78 92 8a 5f 94 8d 95 6f 87 88 73 71 66 7a 77 6a 6f 7a 62 a1 96 8f b7 a5 8a 8f 8c 7a a2 89 9d 60 93 76 5c 4a 7f 6f 5b 91 62 47 80 86 6f 7e 82 74 59 59 69 78 68 5f 6f 7e a4 7f b3 8c 48 37 88 8a 72 8b 5d 74 72 90 9e 88 7b 99 95 4f 7d 48 8e 8c 53 92 63 67 9b 62 66 68 9c 76 6a 89 8a 7b 76 87 6d 7a 91 95 8b 89 7f 71 71 73 51 88 61 7b 68 9b 59 6a 8b 88 6e 52 76 95 7a 7e 51 89 7b 7e 91 9b 6f 8c 6b 99 82 63 9e 74 5e 96 79 66 59 a0 64 99 6c 8f 76 84 7d 68 64 74 82 6f 63 a0 a5 9e a3 7c 73 72 67 87 8f af 9d 6c 74 95 83 65 71 6a 7a 6b 8a ac 75 b3 77 94 79 65 88 82 7f 7a 95 74 65 7f 74 89 6e 76 6f 8b 7c 92 94 82 76 65 9c 7d a2 59 75 76 6f 69 9c 80 96 a1 b5 7d 68 7b 5c 88 55 84 ac 6a 89 8f ab 65 72 70 78 9f 8c b2 95 b5 6c 70 5d 8f 80 ab 67 60 86 8d 52 9a ad a9 60 ae 94 7d 83 79 93 8f 85 7e 6f 6b 5f 60 62 6a 72 85 8e 89 ab 62 6d 85 8b 86 a7 ab ae 61 91 8a 88 6a 89 6a 77 5b 6a 66 6a a4 6a ae 95 91 4e 8a 73 68 69 6f 4e 90 72 53 7e 7e 58 6f 66 4d 65 9c 6d 8b 67 96 6c 9c 5f 63 3f b7 ac 44 97 8e 5c 8d 83 87 b0 84 35 59 5e 90 8d af 88 64 75 7d 8b 7f 85 8c a2 79 8f 8e 82 69 76 76 5e ab 67 86 6d 8a 65 77 6a 89 6f 55 7d 90 7b 7f 75 9e 52 63 86 71 9f 98 7e 97 78 97 5c 6b 8a 5e a2 99 8c 89 91 6b a0 63 6f 59 9d 9b 98 65 91 a9 7b 8e 8e 51 96 7f 91 a0 79 62 83 48 6e 83 65 6f 5a 90 9d 83 67 6d 73 ac 71 8a 8f 8e 82 76 8b a0 5e 8d 48 a9 a0 7c 98 5d 5f 58 62 8e 7e 76 5f 7c 6f 60 94 79 66 6d 79 83 5c 7e 8c 6e 89 78 88 70 75 76 87 88 99 6e aa 70 9d 7b 88 9c 7c 7c 83 82 8b 8e 86 5d 9e 76 8c 74 8a 6c 69 70 8a 9e 79 80 80 69 58 7b 6e 88 7f 98 71 81 9b 5c 71 82 7a 98 5b 82 68 8f a0 93 8a 75 57 9a 8f 76 79 6b 7f 8e 73 8c 73 6f 91 69 89 6a 62 89 66 9c 8e 94 52 52 60 8b 77 65 71 87 7d 80 68 70 74 7d 97 63 74 88 84 7e 83 70 62 87 6f 81 79 87 78 6a 7b 7a 81 88 69 86 7f 78 bd 8c 6f 6f 93 8b 8a 6d 7e 86 7d 78 af 81 85 b6 87 66 94 93 68 7a 74 74 7d 80 a0 83 99 74 9c 7c 89 71 63 9b 82 4f 7a 8e 80 75 a5 90 9d 97 90 7d a0 99 4a 79 80 79 a9 75 7f 85 6e 63 72 86 7b a2 6c 8d 98 6c 47 97 97 a1 84 92 82 82 88 5f 7d 70 9a 49 86 76 64 7c 63 7c a4 8e 5c 8e 7f 9d 80 8f 5d 7e 5c 7e 77 41 92 8a 7b 87 77 6e 57 8e 88 76 82 67 b2 85 76 91 8c 93 6c a1 91 85 78 87 45 b0 74 81 69 7f 82 78 82 ae 71 8b 8c 81 82 81 95 8a 6d 89 92 9b 93 5d 59 6e 8a 84 99 6a a0 8c 88 79 79 79 8f 71 90 86 67 92 97 6c 7d 65 82 66 6e 99 6c a2 96 66 95 67 a0 6e 95 9f 7a 98 5b 74 61 a0 56 a1 9e 5f 96 91 67 5e 94 88 8a 72 