6e 81 78 92 51 89 86 59 94 87 a6 8b 6c 46 93 ad 64 98 89 ab 89 5f 6b 6b 9a 50 93 58 6a 6b 7b 57 a5 73 9b 5f 85 5d 6f 78 7d 6d 63 8d 8d 8e a9 64 74 a8 62 62 52 8e 62 a1 5d 5f 5c 84 72 75 63 7e 98 92 7e 52 6c 85 7f 4c 6c 85 87 9c 79 8b aa 7d 91 8d 83 82 6f 90 7c 7f 71 a0 77 49 8d 7c 93 84 9e 79 8d 95 88 65 76 61 4e a7 89 77 68 91 8e 7a 59 54 9f 8b a6 76 92 8c 6e 7b 5d 8f 80 56 5f 7b 79 68 92 56 99 76 94 58 73 9f 5a 76 a9 73 84 78 59 8c 78 98 54 a1 83 72 95 64 a1 8e 82 7e 80 8e 87 98 95 9c 8f 85 76 79 79 83 9d 92 62 83 93 81 73 6f 8a 82 7f 94 62 74 95 72 8b 91 48 5a 7a 8e 55 a6 93 57 65 83 69 92 7a 84 92 77 7b 60 55 94 3f 8e 98 7c a1 5e 89 7e 77 60 7c 9f 7d 6c 73 8f 65 5b 7a 9a 8f 5d 81 54 92 57 90 6b 5f 5f 98 77 8d 66 56 a8 63 80 9f 91 7e 6c 64 5a 75 73 63 57 5b 85 4e 6d 5c 95 7c 86 95 8a 66 92 66 80 80 96 9b 73 96 8d 9e 92 81 9d 70 54 63 84 58 85 3a 9e 67 7c 7a 83 82 72 54 a0 a1 7a 96 87 9e a2 63 9e 87 7d 6d 99 72 73 9a 95 74 6b 53 9c 60 77 6c 99 96 98 85 5a 52 71 94 a1 8b 6e 8c 89 a1 7e 93 95 7e 90 64 72 98 6d 7b 7d 6b 61 91 a2 a6 76 49 69 b5 85 82 6a 77 69 6d 79 81 96 9d 9b 8b 94 80 a4 82 7c 77 a0 5f 71 a2 9b 75 89 90 69 7d 81 8a 93 80 7f 81 57 61 8b 83 73 97 7d 8e 8a 5b 95 a2 8f 69 74 9b 9b 75 68 7a 58 93 74 92 8d 69 65 75 ab 75 52 83 98 85 9d 73 8d 7d 6e 7a 67 76 5b 79 80 80 90 85 75 63 79 8d 7f 85 94 88 76 71 75 53 89 70 57 6a 6a 81 57 9b 70 5c 8e 59 86 93 a6 8e 90 67 83 8e a7 95 79 80 7d 58 9e 75 8e 82 9d 8a 87 6f a3 7c 70 7b 74 72 77 8f 8e 86 94 63 48 5e 66 92 69 93 66 80 82 7c 60 88 81 ac 64 a8 50 7d 7f 84 9d 59 91 70 52 64 99 7c 71 6a 85 7e 6a a1 77 8e 56 a0 8f 8c 98 7e 6a 8c 6e 88 6c 89 80 83 a3 80 6a 8b 5d 8b 91 54 7e 65 aa 62 78 7c 8f 71 7e 5e 97 61 87 84 7a 93 88 78 82 7e 8e 89 ab 90 89 79 53 68 84 89 7a 62 91 96 82 88 81 86 86 4a a3 55 80 6b 6b 8b 8f 7e 8b 9f 67 77 8d 6e 8d 82 88 91 97 8b 98 52 66 95 71 84 79 98 6f 87 62 70 76 aa 7c 9c 6c 70 ab 71 88 7b 89 55 a8 7e 91 a7 8d 94 95 87 86 77 6d 99 5f 72 7d 6b 67 99 87 7e a0 5e 53 74 77 7f 93 71 81 9d 6e 74 7c 92 6b 9d 68 8a 7b 87 9c 4b 6c 9a ab 8a 7d 61 77 a2 56 67 62 74 60 46 60 8f 5d 74 81 72 77 65 4b 60 96 85 50 50 72 8f 74 85 70 96 91 65 70 af a8 78 4a 84 79 61 89 5e 4d 6e 9e 6e 81 7e 6c b5 54 8b 8c 82 5a 88 97 66 98 84 8e a9 4f 61 84 8b 6c a1 77 9d 8e 51 63 96 9d 8c 79 93 a4 72 78 49 7f 86 91 8b 5b 9c 72 b0 9e 82 75 75 73 85 84 72 5d 9a 73 99 44 5d 90 8b 5c 97 73 7e 7a 99 6e 8a 6b 6f 5d 8f 99 85 4c 6e 6b 74 9a 87 69 80 99 6d 5b 7a 50 79 79 71 8e 86 73 6b 93 6b 9e 9a a1 a0 73 88 76 5c 6b 98 8c 85 84 9f 9b 5a 80 72 8d 88 87 8b 81 3c a3 6b 98 7a 72 76 75 92 a1 84 8f 84 7f 7c 8e 59 9a 81 68 74 74 83 9d aa 9f 83 52 56 8c 83 6d 53 65 98 54 5d 93 5f 43 38 86 94 78 ac 75 86 4d 6a 7f 90 50 85 96 7a 79 9c 73 7a 85 99 96 8d 69 5c 64 84 63 7b 5a 49 82 56 86 8e a4 ab 71 a2 9d 7e 87 9b 4e 5f 5d 79 90 4b 7a 70 9d 66 b0 61 90 88 79 98 85 83 59 96 89 82 62 7c b1 83 93 91 7b 98 65 7d 8c 7a a3 63 7b 84 67 b1 9c 82 74 6c 8a 79 a7 5e 76 7d aa 77 96 7f a9 82 76 97 7b 79 89 53 89 5f 73 83 69 8a 7a 64 91 91 7c 4d 91 74 63 64 92 9d 84 97 84 45 7e 97 41 6e 58 7f 9b 51 8d 82 39 94 8f 94 b2 96 65 8a 85 89 5b a4 6c 87 7f 6c 82 4e 84 9a 72 7f 85 b2 8b 4b 7a 8a 80 b5 96 5c 57 80 81 90 92 8b 6a 4a 77 6e 8b 77 59 89 7d 82 8d 7b 97 87 a3 8d 8d 5a 65 9a 73 75 58 87 86 9b 65 79 4f 83 81 59 91 79 8b 6b 58 6c 96 60 82 73 52 64 9f 84 70 69 65 6b 64 89 96 70 68 96 70 6c a6 7d 98 5d 9d 74 a1 69 59 8d 98 8b 5f 43 7a 87 65 6a 74 5b 64 97 5a ab 90 86 9a 85 66 78 56 8f 86 80 79 a9 81 4c 6d 95 80 82 86 92 93 71 54 9e 89 71 82 61 84 95 88 85 70 5c 8d 8f 54 a5 74 71 84 63 83 6d 98 a2 83 96 92 9b 63 4c 8e 81 9e 6e 7b 67 81 6e 8a 51 91 66 58 86 9d 65 79 96 79 88 6a 68 81 87 7f 51 71 8b 7b 7e 9b 6d 75 68 7f 5a 57 9e a1 63 6b 72 7e 59 76 6e 63 6d 99 71 7e 83 5f 5c 6d 86 78 75 6a 6c 6c 45 89 8b 80 6c 8e 76 83 80 67 67 a4 64 91 68 57 84 9f 8b 72 75 65 7a 75 50 67 72 5f 98 68 75 71 76 69 90 a8 90 94 80 82 88 83 ad 66 9e 8d 77 90 95 78 77 76 76 97 72 76 6a a2 5e 7b 96 4b 60 9e 6d 6f 62 60 73 5d 8b a3 a7 78 a5 6a 55 84 6a 55 77 75 73 71 71 63 7e 64 7d 71 91 77 64 8b 8d 78 6e 86 8c a9 81 7d 6d 95 9b 78 a2 4a 63 8a 95 72 93 73 7e 58 8c 9c 6a b6 9d 89 6a 8b 5c 73 a6 8f 6f a1 6e 8b 7e 59 68 72 63 90 80 74 73 88 93 84 66 9b 6b 8a 6b 9c 71 8e 99 6f 70 78 6c 7a 52 47 59 75 7d 5d ab 8c 6b 6b 6a a1 47 94 77 a8 7e 4d 82 76 52 70 a6 8d 9f 6a 8f 97 5d a1 95 60 43 70 87 88 79 8e 5e 96 89 8e 88 6c 62 7a ae 8f 69 7a 70 7d 94 68 8e 6d 92 7d 90 81 5d 9a 98 40 84 9e 74 8f 63 95 70 7c 79 92 6d 58 72 91 78 72 91 7b 69 86 58 6e 67 70 84 92 9f a1 94 95 5a 64 76 a3 6b 50 73 89 72 78 95 9f 94 73 79 97 90 83 83 64 55 88 6d 88 92 95 79 9d 5a 93 94 62 5f 7e 81 6a 96 50 6c 86 89 83 76 81 5d 60 6b 7a 97 91 55 98 57 76 9a 8c 72 ad 75 98 59 8e 85 9a 98 6a 84 63 73 60 8e 98 64 76 49 8c 68 81 91 68 89 6d 51 63 a7 9f 5e 84 66 9a 95 67 6a 4c 77 88 6b 67 73 88 8a 75 7c 52 4d ad a0 8c 9b 7f 56 82 9e 79 94 7e 61 73 5d a9 8a 8b 5f 70 9d 73 52 64 9f 9b 91 74 6f 79 69 5a 61 86 50 91 6e 81 78 93 63 82 ab 92 78 5f 84 8d 93 63 74 6f 8c 86 85 76 82 97 6d 61 8d 97 97 8c 6c 57 46 76 9a 80 7b 86 57 6f 9a a5 6e 6c 99 75 72 7f 86 7b 9b 81 81 56 98 69 82 70 7c 6a 98 7f 76 6d 76 7f 93 7a 91 ab 1a 7d 91 a4 ae a7 8b 77 7c 98 89 7b 99 80 80 89 72 4d 8b 66 4a 87 5e 54 8a 86 79 8c 87 58 7a 80 7f 8c 9b 98 7d 96 68 5d 62 71 92 99 6d 84 94 90 78 86 49 81 6f 85 6e 97 80 ac 9f 69 71 54 72 6e 7e 9f 8f 94 77 71 98 8c 64 9a 69 3c 8b 87 98 93 6b 59 7d 99 66 6f 95 84 82 89 7b 7a 55 6a 9a 78 6c 42 70 8b 70 83 7b 94 80 6f 5c 6e 87 8c 77 82 76 69 61 a3 65 85 83 88 74 7e a3 68 83 87 35 5b 82 86 56 9d 81 65 66 9d 7f 99 69 8f 5e 5f 70 6e 8a ac 87 76 64 83 7d 78 84 8e 80 86 5f 7a 5b a3 86 7d 75 6c ad 95 6a 9c 55 84 7b 57 5c 75 80 69 8c 42 63 8a 91 74 99 81 75 9d 92 a1 74 6c 76 96 75 6f 93 91 7d a3 58 64 83 6e 7a 48 87 63 7d 73 97 65 84 aa 97 6f 7a 5f 6e 66 5a 87 99 6c 73 8f 83 73 7d 6e 77 86 79 98 85 97 59 70 6e 91 9b 65 68 6c 7b 6f 7b 80 82 94 5d 8b 98 9c 7e 66 8e 51 48 46 57 89 65 62 a5 97 6b 82 a4 8a 55 5e 81 90 6d 77 6a 6e 89 5f 4d 66 71 62 6c 6b 87 87 76 70 9c 70 b1 72 74 92 5f 6a 63 58 51 63 7e 76 6c a0 9c 7b 4b 76 55 76 6b 98 40 81 94 64 98 66 5f 8e 84 77 5e 8e 9c 6f 8b 78 8a 54 64 81 a4 a4 9f 86 79 7c 89 5d 8d 6a 59 88 73 7b 7b 74 75 7a 79 89 74 65 9f 62 8e 99 8c 7a 6b 97 88 5b 62 50 75 75 a1 4a 98 96 58 7e 5c 9c 46 9e 89 7b b0 9b 65 8b 45 4f 6c a2 89 6f 58 8a 72 68 8e 80 74 80 90 8e 51 79 68 63 5c 9f 9e a3 80 9b 5d 94 8e 87 67 87 8e 79 7d 7a 79 96 6a 89 64 8c 93 52 88 64 79 90 6d 7e 41 87 4e 59 8f 79 85 74 90 99 95 9e 71 9f 80 49 86 88 8c 72 67 53 90 9a 94 7a 6b 6a 76 9d 90 7c 8c 7f 86 9b 86 67 6f 92 7c 74 78 90 a0 79 4b 72 81 ac 76 77 7f 7f 7e 8b 6f 69 94 5f ae 7d 88 63 87 6f b4 64 8d 7a 74 6b a2 60 5a 76 81 80 2b 91 59 a6 55 67 61 68 79 9b 93 60 6b 82 a3 8b 88 70 87 23 63 7e 89 93 71 78 76 92 57 93 67 a5 76 88 74 90 76 83 7c 5c 50 74 65 91 a5 65 93 68 83 9d a7 59 a5 61 73 8b 8c 7c 83 a8 95 64 82 85 6a 78 77 6c 4f 95 82 8d 7c 7e 6a 84 71 79 90 a5 78 73 9a 5d 7e 7c 86 88 a3 83 4e a1 7e 9d 75 98 97 72 8a 76 a8 5b 98 9c 67 59 9f 7b 89 76 70 69 5f 91 9b 76 88 76 79 9c 7f 91 5c 96 79 5d 8b 5e 63 99 91 71 83 7b 71 a4 b4 7e 76 71 89 98 8e 5f 7a 90 85 57 95 8f 7f 66 8d 71 88 55 6e a2 8d 65 6a 9f 8c 92 6e 71 8b 6b 6e 9f 66 72 96 96 9a 64 93 8f 8e 84 69 97 81 83 88 9c 7a 9a 8f 55 7c 93 6d 93 6d 4f 6a 85 4e 5b a3 88 65 7e 64 91 88 67 79 99 7a 7e 7b 9a 6c 88 7e 74 8d 5d 7b 6e 85 4f 67 83 8e 88 69 a8 9a 7e 71 7e 6b 70 82 7c 57 9f 89 ae 8d 6a 7a 94 7c 60 5d 8f 78 8c 4d 85 85 7a 70 95 79 7e a5 57 94 7c 96 84 93 9d 9d a2 aa 89 85 9b 59 5d 7b 96 63 9f 6c 66 57 a6 89 97 90 8d 79 8c 74 7a 79 65 9c 96 72 bb 84 91 72 6f 7c 86 a1 84 6d ab 7d 7f 5b 89 7a 48 85 68 7a 96 81 6c 92 71 81 90 76 8e af a5 6b 5e 8d 6b 99 b2 8c 9e 74 82 aa 9f 53 8f 84 6a 5c 74 7e 61 97 90 84 7f a4 78 87 9c 75 5c 70 a1 6f 8e 72 4b 80 7b 8e 6f 53 8c 61 50 8c 8e 8f 93 87 80 8d aa 7c 9c 95 7d 7b 8e 6e a7 7a 6e 7a 90 66 86 49 8d a1 89 a8 7d 91 5d 70 85 6a 7b 49 a0 74 7f 91 5e 5d 64 9e 76 77 52 5a 69 94 59 ac 5b 77 64 6d 5f a2 91 9f 72 78 70 9e 8b 60 9b 73 90 80 95 93 8a 80 95 a7 91 4a 64 89 70 8c 5c 74 82 5c 8f a9 88 97 93 76 75 80 6d 9b 58 ab 78 7f 77 70 98 61 67 61 7e 8c 67 4a 7a 75 a3 86 98 65 65 55 8c 79 63 9c 98 76 74 66 71 61 8a 88 8b a0 ad a3 7e a4 6d 55 94 72 74 8a 60 69 8d 83 91 55 75 88 9f 9c 54 79 7a 9a 7b 9f 7d 97 80 87 68 61 3d a1 7a 65 7a 86 77 82 6c 93 9c 6d 96 97 5f 8e 8b aa 49 89 9b 6e 87 9b 9c 63 51 72 87 85 95 52 78 8e 73 3d 77 70 64 79 68 6b 9d 8f 90 95 a4 9a 81 84 a3 7a 69 73 83 60 8a 62 3a 8c 98 85 6d 7b 96 92 9c 9c 5d 52 8b 85 98 84 7e 79 87 8b 8c 68 65 7d 71 77 5d 64 85 8a 76 5b 97 7b 74 92 90 7e 78 90 78 6a a4 84 b4 75 ae 8f 64 93 89 a7 77 8a 9e 64 64 3b 62 69 9b 53 7b 8d 7d a6 5f 69 72 84 7a 66 80 7f 81 8c 95 9b a8 9f 80 8a a8 8e 98 9d a8 61 8c 90 50 9a 93 5c 8e 6a 71 89 ae 89 8d 88 7d 93 6b 70 87 9e 8b 71 83 80 7d 7d 7e 64 6f 6d 5c 75 7c 8e 70 5d 66 6b 6b 79 53 86 9b 76 a7 7e 8e 74 78 a7 80 69 86 93 44 ad 9d 68 6d 7c 6b 89 76 a9 a6 7b 5e 5c 8b 98 87 6b 92 92 92 69 76 b2 83 59 8c 6c 9d 51 a0 69 98 68 7e 98 7f 86 76 6f 89 94 96 97 81 a7 77 87 56 87 86 58 8a 9c 9d 7d 9e 5f 5c 91 66 56 80 89 69 95 9c 70 75 70 8c 7a 6c 8e 7a 7a 80 87 96 b3 83 7d 85 7b 6a 71 79 59 99 a7 7b 79 8b 6b 47 88 99 7a ad 6c 9c 65 53 48 6b 72 77 82 9c 71 64 53 61 46 92 85 70 8e 90 8b 74 5e 84 5c 6d 9d 6d 77 8d 8f 5a 78 4e 96 9d 91 97 98 93 8e 7a 74 b4 a6 7c 5a 6f 8a 70 70 95 7f 74 65 84 83 7b 8d 78 94 8e 8e a4 5f 92 7b 7e 76 6f 85 9a 83 97 91 51 65 93 7c 67 88 54 8b 5a ab 49 5a 99 9e 90 65 8f 8c 69 87 94 7e 5d 70 73 77 8e 6a 7b 9b 77 95 7d 41 65 76 86 68 7d 82 94 7c 6c 88 7b 88 7d 54 67 77 99 7a 8f 9a 74 80 5e 6d 37 b0 54 a4 9e 73 a5 5f 69 6b a5 73 a1 8d 5e 74 59 a5 80 87 8a 53 81 6d 78 8e 7f 81 71 9e 6d 84 6e 87 72 8c 64 73 58 98 83 96 64 80 8b 99 88 9a 63 5d 9d 7b a7 84 8f 78 76 88 73 87 a7 7d 6a 75 8c 97 8f 3f 53 9c 8d 7c 5a 6f 91 5a 77 8e 62 a3 75 64 b0 92 89 7e 84 a0 69 75 70 6d 61 7e 94 89 34 a2 9a 61 54 68 88 5e 7e 6f 92 73 8a 7b 5a ba 63 8d 92 78 90 68 92 5d 3d 88 81 85 61 98 95 6c 79 5a 73 7a a6 5b 42 94 4c 56 4d 71 69 4e 96 91 89 95 91 6e 9f 6c 88 9b 73 84 50 64 6c 8a 5c 95 9c 57 65 8e 6d 8e 65 88 7c 7d 7f 8d 45 78 8a 6c 84 51 5c 9b 6a b3 65 8c 79 79 3c 9e 73 94 8e 75 56 60 81 64 61 7b 6c 8a 95 8b 8a 6a 57 89 92 7d 8c 57 6d 5d 5c 85 71 5f 90 a4 a0 71 93 63 83 96 76 6d 86 86 9c 91 64 94 6a 9a 6f 5e 59 82 ac 61 7c 6d 64 76 63 67 ad 8f 98 52 70 8c 5e 4e 9e 65 a0 75 8a a0 51 73 61 86 76 4d 5a 87 8f 6d 87 74 90 49 64 98 81 83 5d 76 6a 7d 5e 79 81 80 69 92 6f 76 8a 25 6d 7b 9b 9c 9d 9d a0 7b 89 67 9a 9f 6e 9f 67 6c 55 90 70 73 83 a2 93 73 8d 9a 5a b5 84 90 8b 5a 9b 75 83 92 8d 83 7d 95 8f 56 89 8d 79 6b 9e 80 81 76 75 6f 5a 6c 54 88 77 73 53 97 73 90 69 90 5b 8d 75 7c 80 98 94 81 9d 4e 48 8c 85 9e 79 8f 78 88 6c 88 91 95 87 92 70 81 76 a1 81 54 59 61 7e 9d 5a 6d 7c 69 b0 64 8a 99 98 4e 9c 8e 75 7a 9b 85 8b 5d 5f 55 7f 9e 7f a4 94 65 93 71 70 8d 9d 9b 8f a8 67 78 9d 7a 59 8b 89 55 5b 97 82 67 86 93 60 8a 5e 92 9a 5f 86 88 7e a6 a3 9d 80 a3 5f 66 77 86 92 87 72 7d 8a 95 95 71 52 9d 3d 8e 75 85 76 95 b0 68 72 a7 6d 81 88 77 3f 7f 87 67 58 73 98 5b 59 7e 79 a4 9f 8a 54 6d 88 85 8f 70 82 8f 7e 95 65 77 88 69 69 a4 89 60 76 96 5a 5c 84 a4 76 61 8e 8b 77 9a 4f 58 ac 76 80 86 73 61 71 a9 6a a7 73 57 6f 87 51 98 6c a8 91 6b 7f 95 70 92 64 75 52 6d 91 99 76 72 8c 75 4b 77 a5 48 8a a8 8b 97 79 97 63 63 49 69 a1 63 88 87 79 70 9c 91 6a 9b 93 ac 7f 6b 7e a0 67 97 79 91 63 90 81 74 a6 83 66 8b 93 73 68 9d 49 8b 8d 8d 6a 49 88 77 86 ae 66 40 a6 70 9b 77 69 55 87 81 90 a3 5d 99 94 6a 8b a3 8e 81 72 7f 9e 6e a2 7f 82 74 7a 60 71 9e 58 9d 5c 7e 64 91 51 97 87 6a a4 5f 51 6f 64 7c 9c 89 69 98 95 65 4f 6b 5f 8f 76 a4 7a 73 6d 5c 75 a5 6d a2 6a 7c 67 9e 77 86 5f 5e 5d 85 6a a1 9e 4e 6d 7e 5a 80 85 7a 77 6f a3 9b 8d 52 93 75 62 91 48 3c 9b 7f a8 8a 97 6d ab 78 7f 6c 86 94 71 88 5f 8f 65 58 61 70 5f 97 7e 88 67 78 7c 95 6a 6c 9d 9a 83 61 90 64 7b 72 6e 5c 83 77 70 78 90 70 51 86 71 68 5a 8f 90 72 85 68 50 68 a1 73 7e 72 83 50 85 82 93 73 71 74 93 74 8f 72 b5 72 76 7a 6a a7 79 7d 9c 78 8a 90 50 73 82 57 81 43 78 83 96 97 72 8c a1 7d 79 8d 82 7d 90 56 8d 6b 69 a5 7e 49 75 66 9f 9b 91 6b 7b 82 8f 93 4e 6e a0 88 70 4a 95 57 83 86 4d 84 7f 75 87 7a 6a 84 72 8e 4f 6a 4f 70 7b 65 81 92 8f 5b 93 8c 63 8f 77 80 9b 65 86 65 88 9c 89 9b 93 7b 68 4c 90 79 72 8e 96 6e 90 95 6c 80 9f 78 74 90 5f 