a1 74 97 57 72 73 a8 84 6a 62 88 64 7c 55 b2 8a 8c 6c 6e 8d 97 77 7c 53 6e 86 77 8e 82 80 96 7d 6b 75 a9 75 96 96 89 7c 7d 7d 4a a0 9c 89 a1 7c 6b ac 77 80 8c 6d 5d 60 73 63 69 a1 6b 84 8f 6d 8c 7e 92 79 6a 7b 70 64 79 9b a9 90 8a 62 7c 92 6a 87 6c 8a 62 55 80 86 61 8d 78 83 56 8d 68 a5 96 7d 5a 7b 66 5e 67 a9 5d 65 8e 67 9b 8d 7a 8c 77 7e 7a 96 95 77 8a 99 4f 62 66 7f 6d 82 67 84 77 86 96 6a 90 83 93 7b 6b 9e 9e 68 80 6e 88 67 8e 87 84 8d 99 8e 58 82 80 58 81 7c 67 79 84 82 75 89 8b 94 9c 81 6d 6c 89 7f 66 80 5b 62 a0 78 84 6b ac 85 95 84 84 7c 6a 9b 90 5f 8d 66 a3 56 5a 76 60 83 7b 86 a6 82 83 84 78 76 6b 6f 8b 76 97 8b 55 8f 91 93 7f 7a 56 6f 8e 8c 78 6e 72 82 83 9b 89 65 69 75 6b 7f 6c 83 a6 92 6c 7e 63 5d 88 7e 77 5e 7c 8b 93 9c 9f 8e 9f 73 7d 68 9f 8e 6b a2 8c 96 90 6b 82 8b 80 88 85 8e 62 5d 88 76 81 81 85 8d 8d 71 60 76 96 83 90 65 83 8a 90 65 9e 96 7a 7f 96 70 7a 55 78 8a 8b 6d 86 53 8f 69 98 73 81 70 92 7d 6e 85 70 98 7e 65 72 76 88 7e 97 71 c6 4d 81 4f 6b 9a 8f a1 8e 7c 69 98 9f 8d 85 7f 73 61 7a 96 56 9e 8c 69 64 74 8f 98 98 61 83 6e 80 80 82 69 68 63 88 97 9a 91 86 96 5a 93 80 67 9a a0 9a 7a 75 96 69 82 6f 90 83 5a 4c 82 5d 64 9a 95 8d 7e 6d 7b 71 7e 68 75 86 84 86 97 94 88 8d 67 92 9e 9a 87 70 97 93 7f 6a 5e 83 70 6a 6a 69 6d 80 7b 7f 81 a0 86 81 7a 59 95 8d 7e aa 70 90 89 74 93 5d 9d 88 8e 82 81 59 92 a0 a5 69 9e 8a 76 73 66 93 4d 70 90 85 6f 87 5f 8d b8 73 b2 8b 5c b1 8c 62 74 67 78 81 6f 93 92 62 7f 7f 90 93 a0 86 7c a0 70 64 69 6c 6f 72 8c 8d 9e 89 a3 9e 74 79 9e 85 89 96 97 8f 76 54 69 9a 6a 9d 80 88 80 89 8b 85 75 78 78 a1 7f 8c 8c 6f 4a a1 81 72 65 44 af 63 93 a5 9d 6e 77 7a 6e 79 88 8e 7f 72 49 8f 85 77 65 9c 6a a7 97 71 8b 74 80 5a a5 7b 79 51 89 65 81 a4 7c 72 82 61 6e 7d 7e 96 72 65 5e 8d 91 95 76 6d 84 69 7e 8d 80 97 73 70 8c 51 92 72 9b 7d 83 80 65 68 95 82 7c 8d a1 90 8f 78 66 90 96 76 8f 8a 71 71 82 77 78 8e 90 8b a8 8a 74 6a 84 90 8e 5c 96 62 90 81 87 8d 75 a1 8c 6c 7c 89 76 8d 9b 84 79 83 84 70 a7 b2 79 94 99 6e 90 7b 80 89 77 6b 71 6c 7d 96 6d 99 67 8a 7e 7f 6c 7d 77 7c 95 70 71 9c 7e 84 72 81 80 68 7e 84 90 82 70 64 75 6c 89 67 7c 73 82 71 9e 94 65 6e 66 81 72 75 a0 7f 77 89 94 84 59 61 88 82 63 83 6e 7e 4f 97 6e a2 51 5a 6c a3 a8 66 64 71 5f 90 7b 8a 83 8e 68 6c 6a 77 83 8a a7 9e 67 9f 74 94 71 61 8e 89 71 72 80 8e 92 6f 6f 9c 86 95 8a 7c 74 8b 94 7e 81 81 90 91 75 8a 82 6f 6d 6a 82 79 6c 95 76 84 78 64 7d 75 74 72 6d 6e 6f 6c 65 87 77 91 75 7d 83 65 89 a4 7b 60 84 89 69 7b 64 91 68 7e 62 5f 6b 8a 9e 88 6c 91 81 9e 78 89 7c 86 7a a0 97 73 7c 94 75 62 9c 98 6d 92 82 90 93 94 78 79 4e 8f 82 79 94 6d 6b 7a 6c 67 9f 62 8d 5f 67 73 71 80 6e 8f 78 77 89 88 81 6b 74 70 74 70 8a 95 6b a0 85 93 79 7e 79 a2 94 8b 67 6e 95 86 65 66 8a 7b 82 93 79 62 79 a6 8d 89 73 9b 9c 7a 7d 6a 86 83 a4 5e 65 7b 88 8a 82 72 6c 69 97 7b 6c 68 6a 98 63 66 84 74 6a 8a 78 77 7a 6a 63 5d 9f 75 65 94 82 8b 91 85 80 76 8c 96 8e 6a 56 87 64 9f 79 93 95 86 82 88 8a 56 8e a3 68 ac 68 71 6b 91 66 86 88 62 7d 67 4a 89 74 69 61 7d 93 76 7d 68 6b 8b 93 85 98 9f 76 8a 69 89 71 77 8c 74 9c 73 95 6f 98 4c 6e 87 76 88 a4 77 6f 8b 96 69 83 72 5b 88 8c 76 a5 ab 8e 96 7e 64 88 70 8e 85 90 85 9d 7a 68 96 69 69 9a 98 86 8a 9d 84 87 72 83 67 73 68 96 81 81 79 88 7b 5b 9b 5c 77 8b 70 7a 78 7b 79 73 8e 86 6d a3 7e 67 82 7d 68 6c 8b 67 75 7f 8e 85 77 81 67 80 65 74 71 58 8e 76 72 88 96 73 80 8b 85 6a 6a 97 78 7b 75 8c 9d 9c 86 88 90 8e 89 7f 78 80 8d 96 76 87 6e 66 6a 6c 8b 61 65 71 86 81 9d 7b 99 93 9b 91 7b 79 9e 89 99 69 89 85 88 76 8e 89 77 79 75 7d 74 7c 67 69 7c 81 5f 6f 4b 72 9e 8a 6f 80 7c 9e 77 82 84 7d 85 8f 6a 6b 75 76 82 80 63 8e 9c 97 82 6b 80 a4 6e 65 5b 8e 69 6c 79 98 9c 8b 62 7b 8c 92 87 95 6a 65 94 7f 50 92 76 60 87 4f 8e 8a 5f a3 98 95 84 6d 7e 7a 7a 98 64 4a 7d 6d aa 8d 6b 76 6d 62 64 9d 9a 92 74 49 8c a6 6a 84 92 89 76 87 97 77 9f 6f 7a 69 a7 61 77 a4 6a a2 62 86 94 4f 88 6c 69 6e a2 85 93 6a 6d 9e 8a 94 7f 8d 79 98 67 b3 9b 90 8a 6b 76 74 6d 88 4e 61 91 6f 99 7f 5f 99 89 61 62 86 90 8f 6a 7c 88 aa 7a a3 86 77 aa 88 7f 74 81 a2 8d 7c 7d 7e 5b 5a 77 85 9e 73 68 8f 77 7b 9c 54 8d 79 93 7f 84 9b 89 78 7b 65 9b 7b 64 64 77 6d 8d 85 77 75 6f 82 98 98 85 61 85 76 7f 62 79 97 78 8f 5a 97 8a 81 7c 92 82 a8 9e 85 86 71 68 65 92 9c 91 79 90 81 88 75 8d 8a ac 79 90 95 8f 73 73 91 7e 74 99 67 6a 87 9c 84 84 86 78 77 78 75 84 7a 7f 96 a1 59 78 7e 6e 76 9d 76 93 7a 7a 73 70 90 89 77 6a 75 7b 77 77 74 8b 6f 7e 8c 8c 8b 9c 81 78 6b 75 6f 80 75 71 80 6d 4d 8c 64 61 80 97 73 87 83 5c 90 93 87 86 76 8f 8b 5a 9e 83 97 7b 75 7c b1 75 97 5a 89 71 a6 86 a8 81 8d 85 4d 64 80 58 ae 94 6a 76 9a 62 81 82 b2 97 95 7e 7e 50 83 74 9b 78 8c 93 92 6a 7f 53 70 89 9c 69 64 82 98 66 84 8c 75 99 a9 58 9a 61 84 83 67 6f 6d 79 88 79 73 9e 90 5c 98 68 77 66 87 84 92 57 68 7f 84 93 7b a1 7a 72 86 7d 7a 7d 80 76 8a 77 a1 a0 9c 96 88 96 91 71 99 8d 7f 89 7d 99 9d 84 9b 65 8a 71 79 8d 7b 62 74 89 65 7f 8d 76 80 75 70 5d 70 7d 9a 86 81 74 81 80 69 68 a2 72 6d 5e 80 99 63 67 62 80 a1 88 9f 80 82 9c 57 54 8e 63 81 81 6f 95 70 71 97 9b 7a 96 a5 93 77 97 96 69 74 99 66 9a 8f 97 82 93 6f 6b 91 9a 6d 6f 8e 8b 5b 8e 8e 53 7e 69 7e 79 73 83 7a 99 9a 66 6f 88 79 82 7f 9f 7d 95 6f 64 79 93 8b 81 82 6f 70 6b 6d 51 59 8c 7c 78 83 69 96 5f 7c 95 9f 73 77 a9 67 85 4b 6e 80 84 95 7f 8e 80 7b 80 90 85 70 9a a4 65 91 76 6d 72 95 88 a0 8a 9d 7f 7c 7c 7d 6e 87 9f 81 7c 79 97 80 7a 6a ab a3 70 9b 81 68 82 9a 92 7d 80 a5 81 89 77 82 64 a0 8f a5 6a 88 9a 52 82 57 81 67 7f 8b a2 92 6e 95 8b 92 65 82 a2 8a 7e 8e 76 7b 67 61 9a 7c 76 97 a0 84 63 71 89 5e 6a 8d 76 76 7f 76 9d 7c 72 91 83 78 7d 6f 7e 6e 99 5c 7c 73 82 92 73 8c 81 80 8c 96 83 83 6b 91 83 82 93 70 80 68 8a a7 8d 83 85 8b 61 81 81 70 7f 82 8f 7a 85 87 9b 75 69 85 82 6e 9e 61 6a 78 9b 8c 9e 79 86 78 97 66 65 65 94 66 6b 6f 8d 97 71 94 7e 89 99 63 70 68 72 63 80 81 89 74 77 8c 61 88 5a 6b 88 80 74 9f 6d 85 78 8f 87 6b 8a 8a 4d 7c a5 97 76 7b 82 96 8c 69 7b 75 7e 73 8a 7c 88 8d 78 9a 89 73 8d 74 7e 7e 62 7c 7a 6c 84 5e a3 8f 6a 5a 75 95 7f 75 68 74 8b 73 7f 7b 7f 71 8c 91 9c 6c 74 8d 6e 4f 6c 8e 88 83 97 7a 70 65 9f 85 79 9f 82 9a 78 79 71 9a 69 5c 90 88 79 6d 81 84 6c 78 7e 99 6b 95 8f 5c 6f 7e 80 8d a4 81 73 55 77 a1 88 91 8a 80 8d 81 7e 7d 8c 8d 6a 8e 82 9c 6b 70 83 88 8c 58 69 73 81 a5 76 72 77 80 7b 77 bb 74 92 9f 74 8e 5e 57 75 6b 90 72 9c 59 69 5e 6e 6d 76 8c 8c 7c 75 7b 70 73 67 5c 9a 8f 88 58 93 7b 81 9f 72 93 86 65 8b a2 a4 94 6d 61 96 7c 75 96 82 79 6b 6e 5f 73 7c 93 80 73 93 7e 7b 9e 90 74 6a 6d 71 76 9b 79 80 90 93 5f 99 61 86 5b 81 88 81 7d 61 77 65 7a 6b 7f 90 98 86 88 96 6b a2 98 85 71 85 67 83 8d 63 72 86 89 93 87 98 92 72 79 7d 7c 6e 77 70 84 77 96 99 84 86 90 63 8d 97 6c 6b 8e 87 91 9f 73 72 8f 79 7a 8c 87 8a 6e 72 7d 87 96 76 83 90 6f 9a 8b 73 75 78 78 91 83 71 94 7d 65 98 5c 9d 8b 9a 89 88 a1 5d 75 7e 6e 8c 77 83 59 77 ae 67 78 6c 93 90 83 8c 8d 86 7c 56 75 90 74 9d 99 72 75 8e 65 82 91 9f 5a 79 9b a0 8d 66 73 9a 6c 82 81 a7 93 73 53 9c 66 80 99 6f 80 8f 83 8d 8f 72 79 6e 8c 56 8b 95 7d 6f 91 90 82 73 62 a3 69 93 83 63 6d 76 6d 7c 8c 81 92 91 9b 6b 90 84 98 7a 8f 7f 5a 5b 6c 8f 6a 66 8c 86 85 76 98 58 84 6d 9f 86 60 9b 98 87 9b 75 8a 94 9c 7b 8d 63 67 82 9b 7f 74 87 80 6d 73 6b 6a 5c 6b 8e 92 8c a4 61 92 7f 7f 6d 7d 63 6c 69 97 75 6e 62 67 a6 63 9a a4 9f 58 55 83 87 85 7f a9 8c 7a 8d b2 65 7d 82 83 83 87 87 83 b0 5e 9b 80 8b 60 96 52 7f 98 73 62 5b 71 93 71 97 88 6b 82 84 93 7e a0 71 7f 87 8c 7a 96 79 52 7d 6c 7d 7c 98 84 8e 9e 8c 67 9a 72 68 82 78 9d 7c 75 70 91 91 90 94 6d 70 67 89 82 93 65 9e 7d 9d 62 78 7a 8a 7f 9f 71 6e 76 72 6d 6e 87 8e 8f 8e 71 59 93 9a 81 8b 8b 66 8d 7b 75 7e 8d 60 87 74 7f 92 85 7d 88 65 76 87 5c 68 6c 52 81 8f 88 81 7a 93 7a 64 9b 72 97 5d 76 78 87 92 81 78 85 76 76 a0 7b 95 8f 79 8c 56 5c 88 62 88 5a 65 6c 62 64 86 58 a6 6e 9b 9d a4 63 78 97 72 8b 5a 76 5e 7d 79 a2 96 90 65 60 a5 65 80 84 8d 76 77 7e 81 6d ba 7f 76 68 a3 73 97 8d 80 56 85 7b 85 58 c0 69 65 88 74 98 9a a2 a3 70 90 62 93 78 71 64 81 8d 73 69 64 6c 83 84 64 69 86 8b 82 75 91 81 83 9c 79 97 97 7c 8c 85 75 83 68 79 6b 74 99 93 69 93 94 65 9a a7 76 62 86 7f 64 85 5a 9c 70 94 91 98 a1 6f 9e 66 9b 8c 8a 71 6f 76 8c 76 97 99 94 53 7b 87 98 8d 88 93 7a 79 7c 8b 94 84 73 6e 76 8a 70 77 8e 93 72 5d 84 7e 5f 76 5f 5f 99 8d 89 72 73 6c 82 7e 7e 82 65 6f 98 7d 80 7e 92 89 88 94 89 81 6b 73 83 6b 6b 93 87 94 73 65 73 6a 96 8d 86 5d 98 a0 69 9c 87 93 63 72 7e 55 a9 91 67 6f 83 a2 80 72 54 85 81 69 9e 86 b5 6e 7d 85 96 83 62 94 79 69 87 5d 9d 93 87 76 9f 75 55 9d 96 93 90 71 77 9e 5d 80 71 6f 56 92 66 56 72 58 3a 7e 63 67 6a 63 5d a0 94 71 91 84 67 7a 65 5f 7f a4 81 7a a9 8b 9e 9a 60 7b 96 89 79 7f 96 5b 70 68 73 55 9e 78 84 90 8c a7 92 9c 92 5c 74 77 7d a0 54 69 84 72 75 98 82 7f 51 79 85 7f 70 84 82 76 8c 80 6f 7c 9c 4f 60 98 6b 6b 8c 72 66 a1 85 91 7e 69 91 9e 78 78 7c 8d 94 87 68 5c 6b 75 73 75 98 8e 58 5e 76 72 8f 90 7b 98 71 94 7d 73 7c 7b 67 8a 8e 79 50 90 90 6c 8a 75 6c 9c 63 72 81 7d 98 75 7c 98 8f 61 86 5d 6c 79 78 71 69 72 81 8e 7a 62 71 7f 64 82 7f 84 9b 71 7a 91 84 6f 5b 86 87 7c 9b 89 99 70 60 8c 9c 72 76 8b 95 7d 88 73 7e 74 90 68 8c 63 73 9c 8f 69 71 64 71 6d 92 79 75 7d 78 9c 66 67 79 8f 61 79 6d 7a 93 8f 94 78 5f 9a 83 74 76 7f 8c 7b 95 86 78 67 a0 60 6b 99 8a 75 a5 73 a5 8d 98 71 97 72 6e 7e 71 8d 6c 6b 9f 8a 86 87 a0 66 9f 68 66 66 70 90 83 60 ab a4 96 6a 87 77 64 59 8a 7d 80 58 94 9b ab 89 63 92 5d 8c 7c 81 6f 90 89 93 87 45 a5 88 8c 60 64 79 4d 74 7a 62 5d 75 7a 56 86 82 66 6a 75 6d 8e 7b 76 64 7b 95 a3 9f 76 c3 63 91 83 88 76 8d 7a 97 72 90 97 88 7f 6c 6e 87 9a 80 8a 62 68 41 8a 7f 76 a0 84 79 7e 87 8a 4e a5 80 6e 7d 63 9b 82 7e 83 95 7b 86 86 a2 85 a0 62 55 79 9e 7f 9b 5e a2 60 63 68 65 63 91 80 9c 9c 7f 89 89 70 63 80 94 65 70 85 8e 95 5a 84 67 a8 66 93 7e 91 97 87 73 6b 7d 89 8b 80 7a 6a 6d 83 88 6a 7b 7b 8f 60 61 76 90 61 94 6e 7c 8e 9d 88 89 67 85 64 6c 93 62 8f 8b 8d 90 8a 96 5c 6c 75 5d 97 89 92 97 82 6f 63 83 7e 75 6f 7b 73 a5 72 6d 6f 8f 95 61 96 6d 76 6e 6f 75 65 7d 81 8a 88 6a 8a aa 8e 73 84 85 74 8d 8c 8f 80 88 7e 8b 79 63 72 88 8f 7a 6f 84 83 84 86 7f 87 95 77 71 6d 7d 75 83 7f 7d 82 74 81 94 7d b3 95 85 7e 5a 91 92 77 b2 6a 9a 7b 69 7d 9f 91 55 73 6b 9a 75 7e 74 98 8c 48 92 80 7f 6a 74 6c ad 7c 61 6b 62 80 81 81 63 7c 64 7c 7b 89 71 af 71 69 72 78 67 72 8f 9b 7d 92 7d 68 53 8b 79 a3 76 7c 85 a3 75 8e 76 ad 82 7e 7b 7a 72 6d 58 98 84 70 73 5f 6b 64 82 65 82 6a 94 92 74 63 6c 8b 8c 94 93 61 91 8f 89 99 ab ab 80 a4 8c 8b 72 89 5a 60 80 8e 7a 73 77 8c 76 5f b4 91 7b 94 61 69 85 4d 9b 6c 6f 80 7f a3 65 63 6a 8c 98 59 71 63 8b 74 6d 86 8d 9b 76 8e 97 96 92 82 74 68 67 79 71 96 a7 92 65 73 6e 5b 6b 83 6d 8d 9d 97 76 8d 78 87 83 80 5d a3 91 97 55 75 84 98 66 78 9c 70 7a 7f 88 ad 70 83 76 80 92 6c 66 8d a1 5b 79 a1 5e 63 67 98 8b ab 99 8e 4c 8c 8a 85 92 67 6c 77 7c 88 7c 89 96 8c 8d 65 88 68 67 6d 88 71 9a 76 84 74 64 a7 5a 93 87 70 7e 84 8a 75 7a 92 88 9f 84 63 af 90 6b 7a 93 5e 77 67 7e 79 96 71 45 9b 77 93 7d a3 a1 67 6d 60 81 86 9a 9b 72 91 6c 78 76 94 80 92 61 7f 75 66 75 70 9a 73 98 68 7a 71 9d 66 58 98 70 83 89 8b 6f 85 9b 7b 7c 5a 8b 84 97 6e 7a 85 8f 9d 9e 6d 85 9e 70 8a 97 94 6d 83 a2 a2 72 7e 5e 66 92 69 78 80 9a 74 5d 8e 73 ad 95 63 62 50 8c 6b 8f 68 6c 49 68 91 77 67 7f 70 77 92 7e 9c 74 80 94 5c 8c 4e 8f 63 76 57 9a 8c 97 65 72 87 65 67 6f 6a 76 93 7c 8d 66 5c a4 69 74 6b a3 82 94 73 68 79 5a 5b 89 70 96 61 71 7e 8c 59 92 6f 6e 41 a0 42 5b 8f 6a 5a 97 75 9c 60 9c 3b 5d 9d 84 5c 60 97 73 8a 6d 87 7a 88 72 51 7d 8d 7a 90 65 94 87 87 67 9e 7a 7c 5d a1 69 60 6e 82 a0 90 6f 57 95 63 96 66 9a 9c 76 83 75 73 5d 6e 70 78 89 6b 85 80 8e 61 99 6c 7f 8d 77 6d 79 7c 7e a7 72 8a 8d 77 8a 73 4a 99 68 9e 76 a4 88 7e 9a 7a 8e 60 61 86 99 91 99 a3 8d 8b 7a 6d 7c 54 5e 69 8c 90 7f 52 5b 87 80 65 94 99 72 8d 7b 7b 8d 5d 74 58 8a 5c 6b 73 76 73 a6 8e 89 83 92 59 8f 7a 6c 8d 6b 88 5f 80 64 90 75 74 9c 83 58 59 7a 9a 74 8a 87 95 78 80 76 91 6f 77 6c 88 84 6b 84 6c 80 a2 89 7a 86 80 74 a2 81 95 81 72 a3 6f 95 5a 6c 6c 7a a5 a7 77 60 8f 90 72 7c 91 71 98 97 a6 6a 75 77 96 9f 6a 9c 84 74 9f 7f 76 73 af 85 ab 94 71 61 91 82 97 99 5a 85 77 70 71 87 60 96 8f 5d 71 88 90 7d 9e 6b 80 86 8c 67 7e 8f 95 6e 5d 9f 8b 65 9b 73 5f a3 72 69 88 78 71 7f 6e 56 72 80 89 88 88 65 97 99 78 91 61 79 6c 8e 8e 72 69 73 6a 90 7b 86 83 67 81 7c 66 77 68 7e 81 7a 7e 6a 7c 79 6f 6f 73 8f 87 a8 98 73 7e 62 6b a8 7b 75 90 8e a0 76 86 83 94 61 68 6c 66 73 6f 89 7e 90 61 6e 