32 3b 8a a3 6f b8 75 af aa 31 9e 81 52 aa 76 a3 6c 70 a4 81 62 a1 62 5d e1 aa 16 ae 5d 5c 5b 95 b2 71 4e 8b 52 a1 8c ad 29 ac 42 9a 4f 74 b6 8a aa 7a 40 ba 06 94 82 61 90 92 89 6d 9d 0e ce 81 3a aa 35 7c c3 27 3e 5f a1 72 ab 98 41 47 b4 73 b6 9f 16 8f 5d 07 b8 a8 5c 75 66 96 ae 4d a1 81 a0 7c 69 6f 65 5a 72 8e 76 80 7b 5f 7d aa af aa 8a 81 8e 9f 5a 66 55 5d 46 4a 81 80 53 d4 4c 94 22 d9 62 94 38 fd 12 6e 94 81 8c 76 aa -1 56 68 58 78 99 84 1b 38 76 6c 47 66 a6 a1 b1 3d aa c4 61 6b 6a 59 3a 7b 88 a3 b3 2d 2b cc 72 a1 7c 67 54 ad a0 77 a3 a4 5c 6c 60 51 d3 8f 8b 81 8e 88 3d c2 0f 8e 75 6e 98 a8 77 13 7a 92 b1 7f 46 9b 74 6a 8f a5 61 87 92 68 35 8f 8d 73 77 90 b9 6d 9d 43 90 79 60 a6 51 a7 9c 55 5f 9c 79 89 3c 9d a0 5e 9c 82 54 a7 b7 92 8f 33 44 7e 8a 88 63 8c 