86 6f 83 84 99 7a 87 8c 6c 70 7f 66 7c 92 70 87 90 98 69 6a 66 8f 64 91 94 95 96 79 63 8f 8f 87 6c 6b 81 76 8e 6f 70 87 6d 63 77 79 93 8f 99 9a 77 80 8a 66 78 6b 78 85 96 67 73 82 9a 8d 8a 86 71 82 7d 86 70 80 7b 67 7b 66 72 79 6b 96 73 6f 7c 96 6e 67 94 6a 89 96 90 71 88 95 98 9a 84 72 93 77 64 71 7f 6d 95 93 8a 6f 82 74 8a 7c 7b 7f 84 9a 7c 65 64 96 8f 72 8c 80 64 6d 8f 6d 95 75 7d 88 99 69 65 8f 8b 82 85 80 80 8b 98 87 7e 6a 7a 85 66 8e 94 79 81 7e 83 6a 6d 8c 90 71 9a 8f 67 78 7e 77 95 63 96 8a 93 74 7c 7c 71 83 88 7d 6c 71 67 77 96 68 73 81 6c 87 97 68 88 7c 65 7a 6f 6a 67 9f 7b 8e 71 7f 6d 90 67 80 6d 7b 6d 75 83 63 6e 81 64 7c 60 85 7a 8a 79 8c 69 86 82 85 78 7c 71 5f 75 85 92 8e 90 8a 61 63 8f 76 6f 88 77 83 75 64 8e 84 73 65 99 97 8f 80 6d 8c 8b 69 84 92 8f 92 92 71 75 60 7b 6a 80 88 85 98 6e 90 69 99 76 84 90 6a 81 7c 9d 8b 6c 69 98 6f 66 74 84 9d 7a 69 a0 7e 8e 77 86 86 87 7d 75 63 5b 6d 5f 6d 72 97 6d 8e 98 8b 87 6e 66 84 95 97 78 6a 68 8d 98 74 8e 95 78 97 71 82 86 97 74 84 8d 6c 86 92 71 8c 6b 64 7c 8c 69 8d 93 69 8b 8d 68 70 8c 88 8a 65 7f 6f 6a 8a 66 65 6c 99 7d 77 85 65 71 6a 78 64 75 89 7d 6d 6d 69 97 70 8b 63 82 6c 67 75 8d 7b 94 80 8b 6c 70 85 7e 8e 88 84 8f 7b 6b 9b 88 80 6a 76 71 6f 85 90 75 8a 86 67 6d 72 75 87 93 8f 94 77 80 83 7b 6c 6a 69 96 70 67 9d 84 8a 63 88 7e 8f 79 97 7f 8b 94 8b 8b 86 6d 88 86 63 82 6a 8f 70 73 92 6a 95 8e 7e 79 70 87 7e 83 86 68 91 97 7a 66 70 90 77 6b 7b 8c 8d 71 7e 68 71 93 75 8f 71 91 95 6c 81 69 76 67 84 99 76 80 7c 83 95 7a 7b 63 6d 65 7a 6f 96 72 70 8c 9a 93 65 9a 80 84 7a a1 70 70 7c 97 96 7f 7f 94 92 7e 81 86 83 7b 7e 6b 93 72 83 86 6b 9a 8c 85 85 9e 8e 90 74 8e 78 6c 7e 81 72 91 6a 7d 73 69 97 84 66 7d 78 5f 73 97 86 94 90 87 9c 93 99 7c 7b 96 8e 6d 85 8f 7c 93 77 72 75 7e 8d 8a 6d 71 90 6c 84 74 7b 8c 84 89 82 81 82 71 82 98 92 8b 76 7f 7e 99 68 7f 86 6e 72 9b 85 67 91 78 6e 6c 6a 6b 78 94 94 65 5f 80 88 98 69 76 8f 7a 7c 81 80 6c 81 7e 83 6f 7d 7f 87 93 75 6d 8e 8b 73 7b 83 73 8a 9e 7b 89 92 93 6d 90 80 77 88 73 7c 8f 9e 89 70 7a 66 72 7e 83 7f 6c 8e 7e 73 7c 89 51 98 6b 65 8b 75 84 7d a2 66 91 90 86 71 7a 92 76 8c 57 87 87 a4 86 82 83 76 80 99 88 a0 4f a6 71 65 8f 8d 63 6b 7c 91 71 88 94 9b 55 aa 9d af 79 86 68 95 92 a6 82 9c 66 80 b1 6c 9a 64 9d 72 b8 83 87 63 73 b1 5d 60 97 6f 85 ac 7c 80 89 91 7f 79 a8 6d 82 57 79 8b 6b 9b 7f 7e 63 65 a8 62 83 95 9d 73 82 8a 95 8b 56 7c 68 75 9b 7d 74 53 83 31 94 53 65 72 68 5b 80 8f 69 76 7f 9f 9d 7a 5b 92 70 91 a4 76 a2 8d 80 88 66 81 8e 58 97 72 a6 89 96 9a 70 64 6d 7a 69 7e a0 63 6c 63 7e 52 84 94 8f 61 69 a5 7f 5b 8f 89 47 8c a9 60 59 7b 88 98 97 57 70 73 63 8d ad 9a 85 61 6a 7c 8c 91 a7 60 6d 90 89 8a 93 6f 84 7c 9f 80 82 50 41 77 aa 72 82 d2 78 6d 54 60 47 5d 32 65 77 8a a2 9d 39 a0 b2 7c 5a 63 97 8d a6 7c ac 9d a8 ad 98 7e 79 97 83 85 94 7b 6c 26 7c 73 51 af 79 b1 47 5c 6e 83 79 8a 7a 6d 7b 87 40 d5 5d 67 ae 89 89 78 a6 8f a3 82 46 5d 94 78 ab aa 9d a2 6b 69 90 7b 8c 7c 6f 6c 6d ab 6a 77 4a 75 a0 8b 51 6c 77 83 6f 89 80 ac 8c 63 6f 80 50 26 97 78 6d ae 55 70 95 55 3b 80 7d 5b 9e 97 73 78 2a 9c 7b 68 9a ab 3d 6a 5d 97 32 67 49 3d 8f af 65 7f 9e 8c 73 4e 5e a1 74 7a 4e 5d 96 71 7c 66 7b 43 c4 7c 88 47 9e b7 ab 8b 40 c5 7d 9c 84 b0 6f 36 96 97 7f b6 69 64 52 bf 9f 61 9f b0 5d ad a3 89 b3 a5 8a 82 9f 34 63 65 8a 80 a1 a5 a9 8e 97 85 ae 74 8a 5c 8e 74 af 66 5b a6 64 ab b3 75 5d 70 2a aa ab 77 6d 62 72 5c 96 af 64 a2 71 1e 27 8b 58 a9 a4 9e a7 42 81 38 7d a0 7c 6c 3e 6e 62 ad a3 6c 4e 9b 37 61 5f 6f bf ae ad a3 8a b3 b9 6e ae a5 8e aa a2 5c 6c 99 b4 61 67 72 b1 69 91 6f 93 80 97 75 6b 59 44 62 7d bb 95 20 4e 7f 4d c5 58 31 a8 a6 77 78 b7 96 62 64 8e 97 62 b7 3d 57 6f 61 96 52 65 85 9a 68 80 86 82 76 7f 9d 79 5d 8f 5b 77 75 96 6d 5d 85 a0 63 9a a9 7e 66 73 64 6a 55 53 85 8a 83 7f 53 83 52 79 80 57 69 81 5a 8c 91 84 96 8c 7d 89 6c 96 5f a0 81 9a 84 9b 51 8e 51 64 79 73 72 70 90 9d 87 a7 a9 bb 88 a5 5c a7 50 8f 9b 53 88 6e a6 74 6f 82 87 98 6c 59 81 a7 4e 95 79 a7 5d 54 64 87 c8 63 5e 9c 7a a0 a5 bd 5a 41 90 5d 58 85 8b 63 8b 6d 98 7f 9f 78 9d 56 a5 68 34 87 b8 83 83 82 8a 96 88 77 6a 4b 98 8c 9e 5e 9d 88 91 94 78 74 78 86 6a 8c 8d 80 8c 7d aa 8d 84 72 87 7b 76 73 73 94 75 68 95 85 79 85 8b a6 70 71 8a 86 a2 7e 87 8f 70 7a 5b b6 90 82 65 5f 96 8c 72 75 ae 9c 85 65 8a 4c 9b 9c 5e d1 5e 8f 92 7f 82 55 ae 89 82 76 5f 9b 6e 97 91 86 87 8a a2 a1 55 40 6d 9a 8c 75 70 aa 60 98 97 38 7b 7d 85 7f 8f 68 73 6e 91 6b a2 57 82 68 97 5d 8f 72 84 70 ab 8a 98 85 91 7c 83 63 7a 52 92 83 79 55 69 69 84 a0 72 77 95 90 89 8a 6d 6d 8a 5f 8d 76 83 58 86 a0 7a 6c 87 73 66 7b 98 7d 76 7c 6d 9d 80 9a 99 96 6f 8b 90 7b 6a 6e 93 88 71 81 85 80 92 79 7b 91 61 69 79 a7 8d 86 92 8b 8a 3d 6e 8c 85 9a 97 65 bf 60 44 6c 47 a0 88 8e 6a 70 83 a9 4e 91 49 9e 74 6c 9c 62 75 a0 78 96 9d 38 7c 82 9c 71 8c 9b 80 9f 5d a0 79 86 7e 73 7e 68 86 8a 8b 6d 78 6e 63 84 67 83 95 84 79 6a 8b 88 88 8b 71 7e 6c 7c 7a 98 7a 96 7d 90 66 9e 80 85 80 6d 96 8e 7f 97 93 77 91 97 90 63 74 90 79 7b 6a 96 6f 85 8a 86 78 8a 84 85 81 86 74 75 77 82 92 69 67 97 9b 87 6e 72 7f 8e 9d 87 9c 77 67 6a 7c a2 83 8f 92 68 7c 83 67 60 84 89 7d 97 83 69 a3 78 76 85 70 8f 7e a5 93 7c 7a 92 98 7b a0 7f 7e 84 5c 7b 70 8b a5 96 68 8a 94 77 59 5e 78 95 69 95 81 7f 92 7c 89 80 81 72 60 96 6f 88 9b 92 85 7d 85 84 69 9a 87 6d 9e 76 76 80 7c 7e 84 6d 88 7c 82 7b 76 98 6d 92 88 87 7e 62 99 6e 5c 65 78 88 8f 84 91 89 76 89 6a 93 86 6c 7e 82 74 6d 88 70 83 7f 75 98 97 70 69 95 91 93 86 98 8a 6e 65 6a 8c 67 79 7c 77 7a 8d 83 94 83 78 90 7e 98 96 79 93 75 76 88 72 73 69 99 97 73 6f 8c 89 91 93 71 98 98 6f 66 97 92 73 90 68 77 92 63 67 79 7c 79 6a 65 86 8a 72 96 79 81 63 96 7e 68 78 7b 9d 73 8b 8f 96 6f 69 83 85 6e 72 5b 71 7e 61 6d 85 64 81 93 87 90 98 86 80 93 83 70 81 6a 70 66 8b 80 78 93 72 7e 71 94 7f 8c 85 9f 9e 60 57 6f 91 85 73 86 7c 7b 7b 80 7e 7f 87 99 8f 95 6a 9a 85 95 85 7d 84 78 80 89 70 6d 85 92 94 96 83 65 98 78 83 93 94 81 7d 88 6a 7d 77 6c 7b 80 67 84 78 7f 89 8e 6e 6c 7b 78 69 66 63 72 75 79 65 75 6c 79 86 7d 99 70 96 75 97 8b 93 67 60 82 62 7f 6a 6c 94 84 8d 6b 87 82 78 7d 5e 77 84 69 9f 89 80 86 81 92 8e 8a 62 9a 7a 7d 8c 79 a1 7d 7d 75 67 78 7e 7b 9b 94 9c 84 9e 69 78 7e 65 8e 9e 81 6e 5e 6d 91 7d 6c 85 8c 6b 95 92 8b 70 8a 7b 6a 83 87 79 6f 80 88 98 93 87 73 6b 64 8a 6c 99 89 6f 87 79 75 72 75 90 76 79 99 6f 6f 9a 65 85 88 6c 6d 7e 83 84 89 83 84 99 7b 82 97 73 8a 7d 79 6b 69 70 78 70 77 77 7c 86 8a 6d 8b 81 8f 9a 79 69 88 a0 92 83 6d 6c 7c 8b 8c 72 7d 73 71 81 9c 72 6f 85 90 84 67 60 82 7a 68 78 91 71 7d 74 90 7f 83 88 9e 6d 7f 7e 75 66 69 68 6d 88 86 6f 7e 9b 95 97 78 70 6d 8e 6b 93 7c 95 6d 6b 72 70 6b 6d 93 68 89 6e 82 7d 94 67 6c 88 8e 75 73 6e 83 7b 86 8b 86 92 8e 6a 91 93 71 81 6a 7d 6d 6c 95 73 6f 7c 98 87 6d 63 7a 96 93 6a 6d 8b 7a 8b 91 95 8f 79 82 94 89 8a 6a 6f 73 6b 8c 6c 91 92 84 92 64 78 7d 88 66 93 90 7a 8f 6d 62 84 78 71 98 6e 70 8a 69 7f 77 85 8c 95 a3 8a 8e 7d 6e 75 8b 8a 67 72 7b 87 94 8a 90 76 75 86 93 70 73 85 8f 74 83 82 78 78 63 66 77 80 90 67 68 67 8e 8e 75 73 77 80 84 87 88 78 7e 85 76 8b 74 6b 7a 95 72 78 8e 93 7e 84 81 70 97 92 82 65 91 83 68 63 82 7f 79 90 7c 65 74 7f 73 9a 8f 95 71 7c 64 64 7e 8c 91 6e 6d 65 8c 73 7d 8a 78 6c 79 97 70 95 92 90 82 87 6f 97 66 6d 86 74 8a 84 64 6a 89 75 6d 7b 5b 81 92 70 6e 9a 91 8b 68 95 6d 74 8a 87 51 7b 91 7a 74 6b 85 67 8d 7e 81 90 81 60 6f 78 77 77 6c 76 8d 73 65 7a 99 74 85 6a 68 85 8b 6a 68 7e 8f 8f 93 67 86 64 69 81 6c 69 64 88 8b 7f 6d 63 82 93 7d 91 89 91 8c 8e 70 71 63 94 86 8e 73 7f 91 7c 83 6e 93 85 7a 92 6f 93 88 83 75 6c 98 6e 75 90 8c 7c 80 72 91 77 91 8b 87 64 9c 92 82 8b 70 9b 98 74 76 80 73 65 8a 68 74 80 6e 87 a0 7e 87 73 61 77 79 94 74 97 88 72 8c 82 7d 71 9b 97 83 74 76 77 86 6e 89 a7 60 5d 76 80 92 69 94 70 7d 7a 80 7e 7c 99 90 6c 8e 6c 8f 84 75 7e 63 6b 7f 63 97 86 7e 74 99 6f 65 97 89 8d 95 6c 8a 74 92 77 63 8b 76 70 8f 74 8e 8e 7c 90 93 7b 98 68 8b 66 81 73 89 8e 99 96 84 84 99 6d 6e 93 6f 8a 93 6b 91 96 91 86 81 80 7f 8a 7f 8b 84 72 7d 7b 85 92 87 75 64 70 71 6f 8e 98 78 68 70 8f 6b 81 73 75 84 84 8e 99 84 87 6f 84 7b 7c 94 70 8c 81 86 75 9d 89 90 91 70 96 83 8b 7e 7f 77 78 7d a2 78 76 75 7b 91 70 6a 65 9a 98 83 97 77 6d 92 86 7f 7c 63 6d 92 95 70 63 92 80 85 91 98 96 91 67 6c 7b 86 6b 7d 85 74 83 78 96 79 96 7f 86 67 67 63 82 7b 77 64 86 75 77 90 84 64 70 6b 65 92 6c 70 8b 95 76 91 88 58 88 74 76 93 92 70 85 81 7d a5 84 83 6b a4 6a a2 99 69 82 72 86 7a 81 74 93 87 84 7b 7a 84 93 92 80 8b 75 8b 68 82 82 90 7d 94 9b 75 75 88 8c 96 62 9e 82 77 79 70 91 75 75 6f 83 75 7d 97 6e 91 67 6f 96 64 7d 7c 64 77 6a 81 82 70 87 93 8a 6f 6a 64 70 67 7a 65 66 88 74 85 7c 6d 96 73 98 6e 95 73 69 7e 66 8b 79 81 94 6a 69 6d 68 99 6c 75 76 94 89 74 67 8c 99 87 6b 6d 72 6d 7f 84 77 83 79 6f 86 91 77 8b 6b 66 6c 7d 95 7a 6d 95 87 9c 89 8f 7b 89 68 71 6b 95 7d 70 6b 65 90 80 91 67 81 74 89 99 8d 9c 80 75 95 70 9e 8e 88 83 53 87 5d 68 91 78 8e 60 62 60 53 77 80 6b 7f 8b 69 6c 98 67 8e 8d 81 73 88 6e 77 92 98 67 94 84 66 7d 7c 64 70 70 77 79 82 79 99 8d 8f 8a 6b 66 8e 8f 80 73 63 82 7b 6c 78 97 93 75 6a 9a 67 80 8d 68 90 64 8f 83 82 8c 6a 78 88 6e 7e 8b 74 92 88 6f 88 71 79 7b 73 85 69 76 7e 76 87 6b 8d 82 8d 7d 94 6d 6e 89 71 89 75 96 6b 86 97 76 87 77 8b 71 8c 7b 79 7d 95 8a 85 53 85 87 7e 6e 8d 8a 8b 7b 77 6b 7c 73 72 8b 89 98 8e 88 79 73 83 96 8d 85 88 90 81 97 6c 6a 84 76 95 6c 6d 6f 6d 97 71 63 7a 77 8a 67 96 71 67 73 8b 75 94 65 70 8c 88 7e 9a 86 7a 83 8b 6b 93 91 95 69 7e 73 9a 94 95 6c 97 8e 6f 70 85 7c 9a 8c 78 88 67 71 76 80 76 63 71 87 8f 7f 8f 87 92 66 86 a2 67 7f 8b 95 70 7c 94 7f 6d 84 70 8d 8c 6a 7b 53 96 85 8e 6d 8d 75 6c 60 76 95 88 6b 7d 4e 74 6a 8a 6e 69 7a 60 91 94 67 88 7f 92 78 6d 74 72 8d 77 89 8a 66 99 86 8e 98 73 79 72 69 92 8c 68 7b 80 6d 80 7b 96 8d 6c 82 73 74 83 99 89 65 8a 85 95 91 86 97 8a 6b 90 85 6b 84 6c 7f 7c 77 65 80 6f 8b 94 8c 67 92 96 77 82 7c 86 7e 95 96 82 68 8a 74 98 88 95 8f 74 83 8c 86 7a 61 75 79 81 93 89 7f 8c 76 8c 94 6b 9a 8c 64 82 82 9c 8b 7c 81 97 9d 8a 8b 97 92 8c 95 94 80 81 8b 62 8b 7b 75 8d 7b a3 8f 97 6b 71 86 6d 8e 85 9c 85 7d 6a 58 70 6c 99 74 75 90 6b 8a 6a 84 77 7e 69 63 8d 6e 81 94 73 77 7f 8f 68 78 7a 7e 69 7f 81 8c 65 74 68 93 69 7e 96 96 8c 8b 8c 7e 8e 6a 8c 7f 64 79 92 6b 82 6a 8d 93 81 7a 90 72 71 92 7c 90 81 94 82 76 93 8e 7a 7e 77 8c 7e 7e 89 70 62 86 80 93 73 6a 65 9c 91 6a 72 90 70 7d 6e 5c 67 81 a3 70 72 5b 67 87 97 92 6c 95 9a 70 5e 92 73 73 66 68 8d 90 80 93 96 76 85 7f 88 84 69 7c 64 84 71 84 78 5d 84 90 64 84 82 85 95 69 8f 82 69 8d 86 71 8c 86 83 65 64 80 6f 6b 6c 89 94 70 73 6b 6e 77 6e 71 64 6d 70 83 7b 6b 6b 82 7f 99 73 73 72 78 7b 6f 95 7d 7d 7b 8a 94 76 66 87 75 8d 93 8a 69 90 82 8d 7f 7e 7f 89 8f a0 9e 8b 9d a8 9a 87 83 8f 80 89 8b 8b 6f 81 78 7a 83 83 78 97 7e 92 6f 69 72 74 6e 94 6f 64 86 89 88 81 8d 7b 6f 6c 66 73 82 90 84 7b 8f 8e 8f 64 6b 61 90 91 76 7a 98 86 89 57 6e 78 83 96 76 84 9a 90 93 94 7e 76 82 8a 96 82 7e 94 7c 75 85 6f 65 68 8a 68 6d 97 98 77 98 66 7e 6c 95 67 8c 8c 67 74 77 7c 88 9a 8a 98 73 6d 6d 96 8e 8f 87 6f 87 7a 98 83 92 7e 72 70 98 66 96 77 94 81 6f 66 8a 9f 97 97 90 90 82 6f a5 71 9e 66 99 8e 5d 6a 8b 7d 7b 8e 69 91 9b 76 95 6e 67 90 81 84 a2 9d 9a 76 6d 88 8a 98 83 6d 75 8a 72 79 6d 53 83 94 85 62 76 5a 83 6a 92 a1 8e 6a 7c 8e 6b 73 6d 94 8a 8b 90 8c 85 66 98 65 8b 69 70 89 95 8a 66 70 89 84 7e 7e 83 6b 82 71 8b 90 6b 72 88 76 77 6b 8c 88 97 8b 8a 8b 8b 82 70 73 90 73 64 84 75 68 91 98 97 78 98 96 7a 82 8d 69 7d 91 80 75 7e 9e 7a 80 3e 94 83 7e 75 8d 97 9c 9e 75 6b 67 8e 92 8d 70 8c 98 97 84 8d 89 62 80 92 71 89 96 8f 90 5e 99 8c 90 76 6b 70 68 78 9d 6e 80 5c a5 8e 83 82 5d 8e 9b 8d 78 87 65 70 9a 74 89 8e 6b 83 76 8f 79 9a 97 77 8a 80 68 8e 82 8d 7f 7f 8a 77 93 7a 7d 84 72 7b 9a 77 74 6c 95 7a 66 96 85 63 6a 68 79 79 87 84 63 89 6f 93 6f 95 82 8e 65 75 91 96 88 8f 77 69 99 67 94 6b 70 6d 87 65 7f 85 6a 74 95 79 83 82 72 6a 94 7d 71 8d 6f 6b 7c 77 76 54 76 9d 8b 69 7b 7a 92 69 81 7f 6f 64 69 76 7e 8b 63 91 7d 82 85 70 8f 94 6d 86 7e 8a 84 98 6a a0 9b 87 7b 7d 7c 86 82 96 9a 71 8f 79 70 6b 6e 8c 7a 65 6e 83 80 99 92 63 9a 7d 97 73 86 68 97 82 7b 71 7e 8e 75 81 89 98 64 6b 79 97 88 93 89 82 88 6a 89 7e 6b 9a 7f 93 6b 64 8f 8b 8e 6c 8c 65 87 8f 69 8d 7a 73 64 91 72 7b 80 97 75 78 6e 8e 8c 83 71 79 70 76 8b 89 64 77 98 85 98 79 9b 81 70 72 6e 81 8f 7c 78 93 80 8c 6d 74 80 84 68 6a 92 8b 71 7c 6a 60 72 7a 84 98 69 7a 72 7e 72 7b 82 73 87 84 89 58 8c 86 7e 