ad 3f 93 7f 41 58 6d 7f 7f 5c 53 7e 99 4e 42 7f b6 71 3d 7f 65 62 6d 7f b7 9f 86 7f b9 5a 4c 7e 63 61 4f 7f 7b a2 a5 7e 85 9f a9 7f 83 97 87 92 a5 66 4d 7f ac 86 78 7e 92 9a 98 7f 33 6c 90 7e a7 bc a2 7d cb 9a 7c 7f be 99 82 7e a8 9c 7f 7e c9 77 4a 7f 3d 50 67 7e 78 7d 83 ad 96 80 7b 7f 7a b1 b8 7f 60 92 9d 7f 67 53 4f 7e 8d 78 8f 80 4e 87 93 7f 83 b3 a5 7e 71 8e 8e 7e 63 80 88 97 a3 88 79 7f 37 68 8a 7e 76 86 87 a2 99 74 73 7f 63 48 4c 7f a6 4e 88 7f 96 9a 77 94 5e 4e 55 7e 43 4f 58 7e ae 61 4e 7f 54 70 7e 7f a7 78 63 7f 92 3e 5a 7f 45 4b 5e 80 5b ac bd 7e ad b5 a1 7e 57 7e 96 7f 8b 84 8c 74 c1 a1 7d 7f 87 ad b3 7f 91 50 99 80 7f 6d 86 52 aa b0 a0 7e 9d 9e 8e 7e ad aa 98 7f 3a 7c 91 7e 3e 8e a2 7f a3 87 7a 7f 6a 62 6d 7f 9e 65 57 7f 79 9f c2 7e 8e b5 b2 7e 