6b 8b 70 64 8d 7c 8e 94 8d 8e 6d 88 75 6b 90 69 96 8a 98 80 7e 80 63 8b 73 74 75 65 87 7d 95 83 6d 90 77 85 95 72 89 88 65 7f 76 74 84 6f 6a 66 6d 89 90 7a 6e 87 99 93 94 8c 95 7f 82 6e 8e 95 72 5f 88 5e 8e 8e 7f 61 9c 9a 92 8e 7f 9c 70 9e 9e 70 6a 7d 51 7a a1 81 8e 7e 79 a7 7b 83 7b 79 8d a2 96 90 6e 70 73 96 85 5d 98 82 75 6f 8c 9e 7c 86 77 89 6a 80 92 9b 8a 8c 6b 5f a3 65 6a 5d 7b 7d 7e 6e 82 7a 92 75 95 73 8c 85 81 66 80 92 68 96 69 6a 95 81 6f 95 91 7a 91 78 75 83 6c 69 72 84 96 7d 8a 84 79 6b 8c 75 87 98 6c 94 81 6a 90 81 7c 82 68 6f 66 65 74 76 83 6a 8c 90 81 97 6f 7a 8f 64 8b 8f 96 8a 7a 73 9a 7a 90 88 84 87 88 7e 84 72 8f 94 82 97 86 6b 99 82 77 85 70 66 65 8a 74 84 85 78 75 8b 8a 8f 81 86 6f 6f 65 71 8b 8f 7b 78 89 7d 98 85 73 93 6d 6b 6f 66 7c 73 96 97 81 79 6d 77 93 71 69 7c 95 7d 91 99 79 6e 8e 96 91 6c 6e 8b 78 7e 74 7f 7f 91 65 7c 73 85 77 99 71 83 72 6e 91 72 8e 82 96 8a 93 8c 95 7f 78 90 75 82 8f 8e 87 8e 95 65 74 95 6a 81 99 7d 5c 7b 89 59 87 90 89 6b a2 98 8b 8f 7f 93 6f 87 87 6b 72 62 84 86 9f 7b 7f 87 8d 70 96 80 7c 8d 8e 7d 80 8d 8e 7e 84 75 6c 82 75 72 85 9a 83 62 7e 7d 85 8f 63 8a 6e 82 7d 77 95 75 92 86 a6 6a a3 8f 75 86 6c 53 88 8b 57 66 58 95 95 57 5b 5d 8a 9f 7e a9 89 5e 7d 59 69 98 6f 55 67 89 73 a1 41 52 83 8e 5a 5c 4e 62 90 8e 5a 92 81 92 a7 a5 a9 67 5a 6f 5a 75 78 64 50 93 89 9f 83 86 8d 9a 9f 40 9e 87 a2 4d a3 79 82 65 57 53 8d 4b 71 60 57 75 81 9b ad 63 5d 6d a9 9d 5a a0 95 90 83 ca 88 6f 72 34 8a 4d 4e 95 8c 7c af c1 79 6f 66 60 a4 32 a5 7a 83 a9 ae 70 46 a2 32 9b 56 72 9b b0 bc 4e 86 b3 c4 7c 26 90 4d 47 79 97 5f 3a 6e 60 4b 95 b7 9f a0 61 a0 b9 97 74 ad a1 83 c2 9c d4 7c 9b 85 a2 aa 97 77 4d 45 4e 70 60 77 6c 58 9d 7b ab 68 9f a0 b0 9f 75 39 5d 5e 7e 2b a0 5f 60 39 a5 a7 89 97 75 10 7d 67 6b 4b 95 c5 8e 9b 55 8a 78 73 82 9c 41 72 a8 94 5e a7 a6 6f 73 90 95 80 83 9b 97 72 7d 8e 76 78 9b 8e 89 9f a5 6a 61 65 95 62 6d a1 95 44 9c 3c 9a 58 70 54 3c c0 8c 45 95 58 74 bb 8c 61 6b 5f 80 8c 7f 89 74 a3 80 78 6c a8 89 ae 98 7c 83 97 8a 99 85 87 8d 6e 9e 85 79 70 6a 7d 79 5f 94 78 75 8f 73 30 9f 84 6f 81 b1 64 31 97 98 73 a5 72 79 70 66 3d 8a 71 96 6b 8d 83 58 89 76 76 83 99 88 94 78 98 98 86 5c 75 96 40 7a a8 96 8e 76 9a 75 91 75 7f 98 7d 88 7b 90 97 80 66 66 91 93 86 7b a5 6d 74 6b 69 5c 90 86 84 77 a6 8a 86 76 70 4d 6b 8a 6a a7 70 8f 70 82 74 97 83 5a 83 6e 79 67 7f 7a 8a 8b 7e 8e 94 6a 8d 91 69 86 8a 8f 93 8a 9b 69 8d 96 6f a2 77 98 93 81 85 69 95 73 7f 77 5d 65 6c 7d 85 8e 7b 6c 97 74 90 73 69 57 87 6a 90 80 6c 88 8e 7e 70 84 65 70 7a 95 70 6b 69 8d 89 a1 7d 74 89 97 97 95 73 75 83 65 8c 75 95 6d 93 78 7f 85 73 6f 81 6f 7e 7f 83 86 65 85 98 84 7f 6f 9c 99 89 73 7a 7c 70 9d 8f 6f 8c 78 80 7e 7c 77 9a 7e 4e 86 7c 88 70 7c 6a 6d 87 65 75 8d 87 88 7d 9b 91 76 57 8c 7f 79 6e 71 52 99 84 92 73 85 81 4f 63 85 5a 7a 80 70 7e 70 76 69 63 77 91 69 95 81 7e 97 74 69 74 78 8b 8c 84 76 87 6f 85 7b 70 92 88 a0 7a 62 5e 77 72 7b 9d 78 95 8d 7f 82 6d 93 66 9d 87 96 8d 82 8e 93 7e 7b 77 7e 85 7d 6b 7a 76 98 7a 98 8d 85 85 8a 9e 58 95 84 98 93 65 61 8b 9c 80 84 8a 80 76 75 70 6f 9d 7b 83 85 73 6c 5e 73 9c 9e 6a ae 89 81 96 6c 94 84 96 7e 6f 98 80 ad 70 6a 67 7a 7f 6c 69 83 70 83 74 95 77 6b 5a 5d 85 85 9a 81 85 a3 73 65 49 85 5e a5 72 9b 7c 8f 78 96 81 8f 79 61 47 a3 92 88 78 54 65 aa 76 73 89 80 79 6c 7b 94 83 87 8d 7e 6d 97 93 68 75 7d 86 84 62 5b 85 78 93 7e 98 84 8b 8a 87 7a 96 8e 74 72 63 96 7b 8f 69 9a 81 46 7e 8e 7f 6e 69 6a 86 94 8e 65 72 6b 7b 72 76 61 8e 73 78 7d 75 aa 7a 61 58 76 98 90 50 84 69 91 9f 96 6f 90 a4 8d 81 86 89 75 7d 81 68 88 79 82 96 7d 85 88 6c 5a 9f 72 b2 87 5c 43 5a 79 87 00 95 64 8a 62 6b 8f 7b 78 59 7b 5b 5d 8b 8e 72 8a 7a 87 67 67 7a 8a 78 73 5c 7d 9c 66 81 76 77 83 7d 83 95 62 6f 6d 7a 6d 61 91 64 71 a4 a9 8c 7f ac 7c 72 9b 93 5c 68 79 56 a6 67 74 9a 6c 94 8d 58 81 83 79 9f 61 92 82 7d 6b 86 87 86 62 7f 86 72 7f 76 79 83 98 76 7b 94 87 82 9c 7f 7f 85 90 83 92 8c 95 59 64 75 62 94 8a 89 86 8e 75 85 84 96 61 6f a4 8b 77 52 7a 7e 6f 6c 8a 6a 7e 65 90 65 87 78 86 9e 8b 88 6e 8e ab 97 a6 81 70 67 7b 7d 62 a2 9f 91 78 72 6c 81 9d 54 91 80 7f 88 80 65 80 83 7f 78 66 80 7d 95 7f 90 58 69 91 84 71 66 83 86 80 85 8e 99 75 a8 6a 89 59 82 76 9f 64 76 a0 75 92 85 62 68 60 7f af 6a 60 7c 7c 8f 88 7b 6a 85 76 96 7b 5f 6f 8f 90 78 8e 6c 7b 83 9e 8c 9a 7a 8a 9f 7d a1 8b 70 6d 8a 76 6c 69 8e 8c 7a 8f 62 6c 9e 8a 81 6d 7e a3 92 73 86 8f 77 95 7e 93 7e 81 7e 7e 62 92 9c 81 89 73 73 68 91 75 7b 66 75 7e 70 7b 70 7a 76 8b 73 7a 7b 95 96 64 95 76 85 91 67 99 8e 93 8b 8c 7a 89 89 76 92 7d 85 73 8a 8e 83 6f 77 8d 7a 7c 7d 91 97 88 65 71 7c 88 8d 93 91 95 6a 83 6d 84 7a 89 93 94 7d 7e 96 8f 77 96 88 7e 67 90 84 82 8e 6e 73 78 79 6e 6f 98 72 6d 8b 8f 73 6a 6f 78 83 78 75 73 82 7c 7b 88 95 89 74 83 8e 7a 65 88 73 75 7e 77 95 84 91 78 7d 88 75 83 8a 73 90 8a 6a 7b 90 75 75 71 99 9a 8f 6c 91 92 81 86 73 92 67 91 7f 86 72 94 7c 95 91 92 7d 6c 94 68 98 75 8c 89 9a 78 93 67 6d 6d 6a 6b 6a 92 69 8d 82 75 74 95 81 8d 81 76 93 7c 7f 7f 7f 88 7c 69 70 96 82 95 78 7a 89 69 63 7b 68 66 84 84 71 7b 72 83 8e 76 8f 64 70 69 9a 93 92 7f 6d 8c 93 6f 93 68 7c 79 87 82 8a 6f 87 87 64 66 6d 94 6d 88 7e 67 6e 95 90 6e 6e 6a 96 69 82 96 71 9a 83 6b 86 73 6d 81 85 65 78 8f 65 6b 78 85 6f 83 68 8e 88 81 6f 74 74 98 68 96 7d 70 81 78 6c 8f 89 76 7a 77 8c 92 98 71 94 69 93 8c 89 97 6f 69 7b 95 65 95 81 76 87 63 8f 75 69 97 7c 8c 8b 74 8b 7e 89 8b 98 83 91 99 83 87 80 64 77 88 8e 70 82 93 7c 69 7f 76 72 6c 8a 8f 8c 88 63 6c 85 89 74 93 6a 8c 8a 88 8d 91 7e 6b 93 71 81 7a 7a 7f 98 67 96 83 7c 74 6d 6c 99 6b 64 8e 6a 93 6c 7b 7d 6b 6e 86 93 89 64 7f 71 7a 7c 6f 8f 89 8c 75 8a 73 70 8e 94 88 97 76 75 70 78 70 6e 8b 7c 86 87 96 80 6e 6a 71 90 63 8d 84 93 71 75 6b 73 6e 81 8b 8c 73 99 80 6b 82 99 73 72 74 98 69 8f 65 86 67 64 65 77 8b 83 93 8f 73 84 95 88 99 77 70 83 96 6c 8f 69 75 6e 6e 73 8d 7d 6d 6c 73 93 75 8d 7d 70 88 96 6d 96 6f 8e 84 7b 88 8a 63 77 99 83 87 7d 7b 8f 7b 8d 96 77 7f 93 65 71 8d 77 7a 73 77 6c 7d 8a 7d 6c 8f 85 78 7e 81 79 79 70 7c 7a 69 85 8d 95 84 99 7d 7e 8d 70 81 84 7f 75 6d 79 96 86 8b 73 67 90 74 86 6b 94 65 91 88 6f 67 68 74 96 8c 7c 94 87 69 68 6f 66 73 99 6c 99 98 74 7c 97 68 87 66 8a 7f 89 69 8b 80 8d 93 7f 67 93 82 6e 93 97 7b 8f 8d 6b 6c 85 97 6a 8f 73 65 69 7a 72 71 79 80 68 94 8f 6f 94 90 6d 6b 79 7e 82 89 6c 93 71 81 85 98 7a 7d 8b 65 79 8e 98 71 6c 8d 9a 80 7c 6f 92 7c 82 69 6b 78 73 95 8e 94 83 6a 67 65 87 99 9c 7b 9c 99 7b 78 69 7a 7e 8e 8d 7a 65 8a 7b 95 8e 7c 81 80 77 75 79 85 98 92 71 7b 8b 87 94 93 a8 8e 8b 7a 69 8f 82 7f 7d 90 6f 95 7d 85 83 6e 96 8f 79 86 98 88 a7 6d 81 60 83 69 97 87 72 8b 6e 81 97 6c 92 99 92 83 69 66 6a 6d 92 6b 8a 76 96 87 89 92 86 80 63 88 7e 83 6e 80 6b 67 93 68 63 6f 85 91 97 93 81 95 78 6c 85 80 85 74 92 68 81 68 74 96 72 86 93 6a 78 94 77 68 67 6a 85 7d 7d 91 87 82 94 97 87 6f 86 90 7c 8a 7a 86 6a 8e 86 80 8a 86 76 85 86 77 95 7f 8b 7e 8e 8e 80 80 74 91 70 76 65 7d 6c 6d 8a 63 77 87 73 87 8f 6b 67 96 92 94 6e 6e 99 6c 85 72 7d 64 68 95 67 64 67 6c 88 70 77 78 93 76 67 74 7d 8a 76 7a 64 8c 88 95 63 6d 69 98 93 83 67 97 88 99 74 92 63 68 74 81 71 91 81 8a 66 92 81 72 83 6d 96 99 8c 96 67 96 81 83 64 7f 75 83 75 78 8d 87 7e 90 5d 92 98 63 a6 75 70 70 80 8b 7f 85 73 80 69 8c 78 9a 91 96 69 90 64 9a 84 6a 7f 66 88 7d 7c 79 8e 98 a3 91 6c 5f 7d 80 73 6e 94 7a 61 6b 77 84 87 7c 91 85 91 6f 70 89 96 63 98 78 99 73 77 99 4d 8b 9c 68 55 6b 8b 83 9c 89 58 97 6a 88 7c 8c 6d 7c 92 59 72 ab 7a 61 0c 75 6e 75 8d 55 74 7e 72 9b 6a 92 97 80 76 8b 84 78 98 9d 91 90 7d 7e 79 63 78 61 9a 87 62 a2 6c 9a 6c 9d 5b b9 ba 9c 9d 76 3d 72 97 85 52 66 7c 7d 94 69 b2 b2 52 69 75 a8 2d 4a 36 ad 8e 4b c5 92 5d 32 8f 72 2a 98 8f 76 af 8c a3 3d 7c 70 95 c4 b0 77 93 7e 7f 89 32 5c 3c 6c 78 4b 35 79 98 81 76 76 b1 a0 27 af 97 4a 52 71 80 ac 3f 1a ba 9c 63 64 ab 69 9c 76 ad 6e 75 5b 48 56 3f 6c b2 61 32 62 70 47 74 3e 48 a0 6b 62 a9 aa 64 89 7b 14 80 95 9b 7e 36 b5 43 5a 6a 90 8c ae d1 ad 75 a4 55 a9 88 d7 86 81 c1 ae 6e 7a 80 57 77 8c 68 9c 8d 77 9d 2e 7e 78 8e 90 45 95 3f 40 71 4d 96 58 7a 40 8f 95 65 ae ac 9b c2 a5 7d 8b 91 51 65 3a 61 62 8f 86 98 8e 30 6f 56 61 3c b5 7c 82 69 8d 98 9f 8f 91 69 69 6c 53 73 72 95 95 8b 7a 63 84 6e 70 9c 81 68 82 83 68 7a 7b 79 81 70 87 8e 7c 94 8a 85 61 5e 78 9f 6d 75 5e 97 87 6e 77 7a 71 78 66 85 9d 7a 7d 7e 8a 8f 91 9e 75 9e 71 8f ae 85 6d 8e 9b 8a 87 85 6f 70 72 94 b0 62 85 90 72 58 7b 96 82 91 90 89 89 7a 73 a4 70 7a 6d 81 74 87 73 85 8d 77 89 80 85 83 70 82 aa 91 4f 76 68 78 70 9d 8e 97 81 96 68 7e 7e ad 9d 82 92 7e 6e 82 66 76 76 82 79 74 60 89 89 85 87 aa 8f 78 86 88 83 84 7d 84 6d 98 5a 98 7a 98 82 8d 86 8c 71 7d 6a 6e 87 79 76 73 7e 7a 65 80 67 4a 6d 6e 83 8e 6e a0 84 8a 9d 7b 95 85 93 7f 7d 70 8a 7c 76 61 79 74 88 87 64 8b 6d 75 80 77 87 82 7b 64 97 77 78 75 89 73 7c 86 97 78 8d 5e 78 84 7a 74 71 6a 71 76 95 68 68 6b 81 6d 84 76 86 95 8a 85 8f 8a 7e 77 80 6d 8c 93 74 63 6b 92 96 6b 5f 84 8b 6b 90 8c a1 91 73 67 92 6e 8d 91 6d 7c 8e 86 7f 83 7d 98 64 a0 94 90 8f 7b 7a 84 5a 8d 7c 67 7e 8f 78 61 9c 74 74 71 60 9a 71 8f 8a 6f 67 81 56 99 62 6f 6c 93 89 76 63 98 6e 63 77 95 82 7d 76 a1 87 79 82 6e 60 80 67 5e 71 82 7e 9a 62 67 89 9f 6a 61 6e 7a 87 94 90 78 86 6c 84 80 6b 80 81 64 65 a7 99 7e 7d 95 90 95 8e 8a 8a 72 93 9a 92 76 76 6d 88 82 7e 7b 7b 7b 76 8d 7a 8b 69 72 7c 52 74 7a 5b 7a 74 76 71 87 6f 72 78 91 84 77 7c 8b 68 9d 89 8e 74 92 54 82 67 90 88 6e 71 83 98 88 82 8e 66 70 90 81 81 7d 99 8f 5b 81 a6 73 67 61 a3 7e 6d 9a 86 6a 8f 79 83 8b 52 9c 88 68 5f 94 85 92 99 3f 7f 6a 88 81 7a 93 80 69 7c 92 a3 9b a8 9e 63 75 78 76 6e 65 79 67 7a 78 94 7f 66 a2 72 82 7b 66 a6 8f 6d 7c a0 87 82 98 58 76 58 7a 8f 82 72 a8 90 83 90 58 8e 74 8b a7 7a a1 6d 9e 84 72 7b b2 a4 82 74 76 92 8d 6e 86 48 63 52 85 6c 95 b0 80 99 6d 61 94 98 58 8f 4d 86 7d a9 67 87 73 83 96 6a 93 a5 84 72 9b a5 62 8c ad a1 8d ae 85 80 62 96 61 90 a5 8b 80 53 6f 8d 92 8f 46 78 60 76 7d 78 67 9c 8d 97 8b 74 8f 76 81 ac ac 9d 76 87 7e 5f 7d b5 7a 79 57 33 77 70 74 7e 71 68 81 9c 94 6d ae 93 96 91 78 6d 81 ad 9c 79 68 76 8f 92 75 55 7f 93 83 68 8b 64 95 77 9b 7b 93 96 76 90 8c 7a 79 79 59 89 77 90 a3 76 96 93 52 86 a5 63 99 5a 90 7c 8c a0 78 2a 9b 73 91 63 b3 6a 86 69 86 73 9b 78 ac ab 89 69 5f 6c 43 8a 94 6b 7d 77 9a 6d 89 b3 98 85 86 94 5d 7a 9a 9f 56 8a 7f 85 87 83 94 82 7d 85 6c 97 82 8a 6e 93 a5 46 6a 81 30 88 84 8c 58 71 88 4b 54 72 89 85 8c 79 a5 9d 6f 87 79 66 79 86 60 84 53 80 b0 4a 73 87 94 74 77 69 87 69 99 8d 91 77 a1 86 7f 68 66 70 7d 8d 7f 89 64 93 82 64 7d 82 73 80 59 87 6b 82 71 6b 35 8c 93 8d 7e 86 78 91 5f a5 8d 8d 53 95 75 61 61 80 7a 86 7a 63 84 99 88 6b 94 8f 7d 82 7a 83 86 71 8b 7d a3 87 8f 8e 7d 78 7e 9d 97 87 84 8f 83 94 81 99 8e 6c 6a 79 9e 94 90 73 93 8a 77 97 9e 5f 73 5c 64 83 72 81 9a 91 8b 75 71 81 8c 8b 7a 85 72 6e 8a 8e 6b 8a 6a 96 6b 60 8b 79 90 78 98 72 8c 75 a9 82 7e 76 ad 84 79 77 76 6b 93 a7 88 63 6a 7b 78 85 9a 78 74 8a 66 7b 88 86 64 71 8b 7b 7b a6 8c 80 7b 89 92 59 75 86 71 7d 8c 9e 8b 83 86 97 8e 79 83 67 8b 9b 61 93 78 59 8b 73 83 95 8f 5e 59 87 77 7f 8b 7c 83 6b 89 70 7f 8a 8c 76 96 84 85 75 83 67 5e 77 6a 77 79 9e 7f 79 7c 74 7e 8e 8f 71 80 6f 8b 91 52 81 97 85 4e 8c 90 6c 58 84 68 83 65 84 91 59 79 67 94 85 74 85 78 90 95 63 95 73 94 67 75 60 75 98 8b 81 7f 7f 77 89 72 6e 93 92 73 64 93 81 93 68 88 67 61 93 95 6d 93 7c 7d 80 7f 67 6e 7b 6f 75 51 7c a4 73 94 8e 7e 6b 71 7f 81 9d 6d 77 96 9b 70 7d 71 65 7d 86 80 7d 7b 98 a6 9b 73 90 88 6d 65 87 7a 60 83 98 98 93 77 74 8c 89 93 73 88 88 97 86 72 90 93 8f 82 58 7f 8b 8c 86 5e 79 99 88 95 84 84 5b 61 92 7a 7a 7e 73 84 6d 68 78 72 99 83 93 68 9e 77 6b 74 8e 65 79 78 52 8a 85 91 82 70 64 75 6e 8b 8c 7b 7a 80 87 64 8d 65 8a 8d 64 78 96 64 8c 8f 66 6e 8d 8c 97 73 6a 89 83 68 98 6b 8f 73 6e 98 63 6a 97 76 92 86 73 7c 92 6e 99 84 64 94 66 96 66 68 67 8d 8b 7a 6f 83 75 6a 8a 84 6a 89 99 84 83 66 6b 67 91 76 67 6f 76 6c 92 99 91 72 89 71 98 72 64 65 97 78 66 87 8a 76 79 8b 74 96 77 6f 76 94 90 6d 85 88 83 8e 75 80 86 84 65 91 93 69 8b 67 6d 73 73 83 76 69 99 6d 95 76 92 8b 7c 71 6a 97 81 91 79 85 6c 90 86 96 7e 66 8b 8f 6d 91 7a 73 89 82 89 86 90 77 74 6b 96 69 8e 69 7f 8f 76 8c 8c 95 81 94 81 94 85 75 72 72 67 94 70 84 86 80 92 87 99 7d 75 72 64 66 94 6e 76 89 64 7d 80 6c 96 72 89 91 8c 8b 7b 79 84 7f 82 7a 75 83 7a 8b 95 6d 95 78 7d 6e 8f 70 99 97 79 95 69 71 97 98 7e 7a 63 83 70 6f 68 80 73 91 76 8c 6e 96 66 99 64 7e 73 98 94 8d 7b 85 91 83 8f 