6c 6c 8c 6b 98 99 5b b7 51 7f 35 98 99 44 9a 87 75 51 80 a0 52 90 a6 8e 28 a1 95 89 7e 8a 7e 6f 5a 35 d2 86 74 9e 65 84 48 43 af 70 a1 93 8c 74 28 3b 68 6d 66 94 91 c1 86 79 67 6d 5b 91 78 ac 98 88 81 93 cb 9f 0d 67 97 41 71 a9 7e 8f 53 8c 7b b9 00 7b 9e 78 4e 8e 62 7c 90 96 46 57 95 93 69 77 61 5b 46 87 9a 9a a8 59 9a a9 88 48 34 8e 64 98 a8 b8 50 95 9c 6b 94 77 56 9a 75 8d 69 c6 a7 66 a1 be 99 98 9b 5c a6 66 a6 99 73 7e 85 8b 67 53 93 74 6b 23 6c 9c 95 40 59 7f 8e 41 8c b5 24 e8 00 65 b1 88 49 c0 7d 9b ac 67 7a 5a b0 7d 9d 23 36 92 42 be 2d a7 28 b8 e5 77 35 3e b7 a6 53 64 93 9a 9c 9a 7a aa 38 97 d3 99 77 89 6a 7a 49 a3 84 bb 2e 90 62 83 03 ad 0e a8 91 14 75 64 7d 62 5d bf 5f 9c 90 6a 69 7d 8e 86 5d 8d 9b 7c 9d 93 62 8b 8d 55 6e a2 71 72 75 a8 4e 9b 61 aa 