bc 92 89 82 5f 9b bb 84 6c 2c a8 65 5d ca 92 66 4b c4 5f 71 2c 2f e3 8e 6a a2 72 92 7d 9a 7b 5d 7e 95 4c 9e a2 86 2e d5 47 d8 97 98 33 2c c0 9d 6c e2 52 70 68 5f 62 73 c6 bb -1 a8 8f 3c 92 c2 8b 57 6e 97 36 7a 7c 9c 99 33 3f 87 20 d6 7e 6b 9a 9c 6c 65 b6 7e 5b 82 7c 97 63 72 86 6b ab a0 6a 82 95 66 84 65 92 79 58 7e 57 6a 60 94 9d 75 80 97 1c 72 5b 88 6e 6d bc 50 5a a2 85 47 a4 72 89 8f a0 69 81 5d 78 59 80 a1 79 87 f2 -1 23 88 57 a4 a1 a6 95 50 61 a8 55 90 7e a4 5d 90 5d 8b 4b bb 40 a1 80 82 54 9f 89 74 74 8a 37 d5 -1 7a 22 c4 20 9f 01 d8 31 8a 5b 9d 8f 89 12 cd 57 8a 2d 9c 89 7f 7b c8 50 7d 73 69 62 75 8b 1b b5 b6 69 5c 62 99 60 93 7f 5f 18 22 a1 b7 4b 31 ad 67 a7 97 7d ba -1 14 db 90 2f 55 a0 b0 0e aa 41 92 9f 7c 92 aa 9a 88 1a 9d 76 6f c6 6d 46 81 b0 78 