78 6f 76 69 6c 5d 55 67 65 5f 5f 71 74 79 8c 94 7c 6f 9a 72 81 8d 68 58 51 6e 82 91 7e 9d 87 ad 8b 77 6d 70 92 87 96 9c 60 9d 3f 8e 6a 8b 82 b6 86 90 71 61 76 66 64 a0 6e 97 6b 88 8d 88 81 53 8b 8c 6f 95 5e 81 7c 75 84 8f 6a 76 6f 92 3a 89 88 71 64 60 9b 85 6c 8c a3 60 92 58 9a 77 8c 92 65 6d 83 97 5b 80 76 83 52 64 ac 74 93 52 94 85 44 6c 58 8a a0 59 95 6a 66 7f 5c a5 a9 74 69 51 6a 68 ae 7a 9c 4a af 5f 5f 75 88 78 b1 bd 95 57 8c 9e 69 7a 86 93 6b 6a 99 62 40 7c 5f 57 77 6f 44 6e 61 90 6f 52 88 7a 58 7d c2 78 a9 85 ab 51 7c 80 9c 64 59 8b 74 72 5f 6c 5b 69 78 93 61 99 96 7b 95 85 90 54 88 65 77 65 53 97 97 52 7e 5a 86 7f 81 63 5e 93 89 97 6a 7e 91 74 86 96 9b 88 7e 69 79 76 78 94 8a b3 9f 88 50 72 95 52 79 8c 8d 69 48 73 98 92 8f 58 6f 76 7c 60 9c 7b 5e 82 92 8f 95 88 7d 5d 72 70 67 7b 98 68 76 7d 50 7c 5a 88 50 99 69 7c 94 98 79 6f 75 55 80 7b a2 80 c3 a5 84 97 8d 7a 6f 82 9c 8b 65 9a 56 76 a1 72 54 69 64 84 67 55 7d 5b 70 5b 61 59 a0 83 64 72 c4 93 80 81 93 62 50 8c a7 5f 92 6a 5e 89 85 87 66 8a 9d 83 76 43 89 81 7c 8e 82 65 70 70 99 87 5c 92 5d 54 8a 59 86 9a 8d 5a 92 4a 70 a3 7f 60 6d 76 81 73 62 a1 88 88 86 72 58 9f 73 95 6b a3 55 88 73 70 5f 95 96 7b 74 82 66 95 5f 6e 7d 97 7f 67 66 5b 57 69 5e 83 7c 6a 8e 85 8f 70 61 95 54 75 7e 67 92 70 9e 66 a4 8d 92 83 93 61 4e 6d 9d 8b 6b ab 81 5d 75 93 8a 80 6a 6b 8f 5a 92 44 9a 89 49 89 7d 43 7d 8e 81 92 89 8b 5e 5f 75 a2 73 59 4d 77 9b 9e 8f 62 99 75 76 8c 93 92 9a b1 61 8e 61 81 5d 9a 7f 66 63 53 9a 99 8d 70 6d 99 7a 7f 61 6d 68 56 45 5c 63 74 73 5c 7b 78 75 8d 61 ae 80 64 85 55 7e 59 53 97 81 72 61 92 2b 40 58 aa 62 83 88 28 65 a4 a0 67 7f 61 74 92 78 37 53 7d 5f 81 91 6f 8b 9b 79 63 3b 50 7f 79 6f 7d a8 78 90 6a 5c 92 86 98 7a 61 60 61 9a 9e 7a 5e 57 8d a8 9a 8a 88 56 61 a5 7c 91 7e 59 99 9a ab 59 8a 5b 6d 80 90 42 93 71 78 74 7e 97 89 8f 7c 69 82 50 66 72 51 a1 7e 7d 6f 8a 81 95 a6 5a 52 5b 9c 6e 68 98 53 3b 4c c3 72 a2 65 3a 53 40 c1 8a 7f 79 79 7a 9b 50 8a 76 7a 8b 76 6c 6a 79 a6 82 7b 8a 6f 6d 87 88 78 65 6d 7e 73 68 5b 8e a1 a4 98 80 5e 79 8b 5a af 58 85 8d 8e 54 7c 46 8b 7e 76 6c 7c 6c 8d 6d 73 9a 5c 64 90 86 8a 5b 9b 2e 7a 5c 94 75 a2 5e 61 b2 80 61 8d 5e 4a 87 c3 6e 88 5a 69 93 81 a3 7a 75 7d 91 69 95 98 79 47 89 7a a6 65 70 71 5a 6a 81 90 96 9b 64 57 b2 c0 77 76 7c 71 6f 86 72 84 86 7b 7f 6b 68 87 78 bf 13 71 79 a4 8e 8a a4 71 91 89 90 9c b6 c9 6f 33 99 7b 75 90 87 8c 52 52 60 63 6f 89 95 77 67 56 7d 66 87 98 5e 83 5b 81 7a 62 84 5d 92 6d 56 93 6d 70 5e 5d 5b 67 a2 6a aa 62 9d 8b 9c 74 9b 55 69 5a ae 89 86 3d b2 5d 6c 8a 9f a0 af 80 a6 7d ae 93 52 59 81 6f 88 8b 72 81 72 6c 64 9a 8b 7c 8c 59 79 7c 92 93 7a 8c a3 99 9f 6e aa 5c 89 81 88 85 a4 5e 65 6a 93 6e a1 89 3a 4f 78 75 68 7b 8e 72 78 75 6a 86 95 82 6d 74 75 9c 7d 97 70 a1 6c 94 6a 7b 67 84 90 8a 8d 8a 85 90 61 91 9b 8f 8e 83 6f 7a 8f 6d 54 a1 a7 57 77 62 69 81 95 95 99 7c a7 94 96 85 8c 96 62 89 93 93 82 5b a7 81 82 92 77 68 63 98 87 7a 7e 5e 79 4e 9f 6f 9a 9c 84 95 75 8c 8b 66 90 80 91 93 63 87 56 5d a0 95 99 8b a2 7a 9a 72 77 85 86 96 66 61 62 94 9b 84 56 66 70 5a 96 67 73 58 7a 77 88 56 aa a0 86 67 