a0 6e c9 a3 bd 61 29 7f 9e 65 9e 9c a4 53 87 64 a6 00 a4 67 24 a3 92 b0 71 85 c7 9a 82 4d 63 66 bc 6c a2 72 c8 ae cc cf 24 8a bc 6c 8f 1d 9f bf a1 95 96 92 76 84 18 ae c0 4d a6 4b a1 97 71 3f 74 99 75 80 80 8c 97 8f 9e 6f 9b 76 83 bb 73 7f 78 91 56 7b 77 7f 83 86 89 87 6f 51 6b c1 66 82 63 81 5c a1 73 5e 4b 5a b5 94 5a 6e 7a b4 28 8d 8b 7f 21 74 6a 62 96 62 86 61 61 a7 99 79 86 a2 87 71 82 71 8b 94 60 8f 7d 68 5c 5d 74 7c 84 6d 97 96 7e 69 8c 92 76 58 64 8e 7a 91 7f 88 7d 6f 9c 70 95 8a 53 96 7a 9f 76 77 49 5b 81 73 51 8f 9a 8d 79 70 83 86 5e 4c 8a 45 74 9d 6b 8d 66 8b 79 7a 82 71 80 60 66 83 61 7d 93 6d 77 9c 5f 8e 96 73 67 a2 76 80 76 66 89 82 7d 82 91 9f 76 80 92 67 84 92 77 6a 62 74 77 8a 88 7b 9c 64 85 96 5c 70 81 66 81 5c 75 63 95 69 78 a2 7b 9c 8c 76 79 89 7a 84 7e 85 8f 62 82 75 a0 79 8f 88 85 78 75 a1 6d 99 9e 8d 95 8b 8c 8a 90 52 78 79 83 8d 8e 98 75 9f 99 93 72 6b 99 54 83 52 4a 8c a1 a4 84 82 84 78 85 8b a5 78 81 7f 85 82 a0 74 68 8e 81 9a 8b 7e 67 67 91 70 54 67 62 7f 50 88 81 99 93 68 7c a1 ab 89 60 54 94 58 63 9b 6d 78 b3 a8 89 84 6e 89 70 6b 94 59 a0 97 75 83 84 af 95 55 67 8c 54 51 5a 84 af 8a 81 5b 6d 97 7a 8d a0 a4 66 96 1a 78 5c 72 9d 85 69 81 67 5d 69 91 6d 8e 6b c1 52 a5 57 54 7b 5e 82 9b 5a 3f 89 9e 5a a6 4e 91 4c 60 4f 46 40 4b 90 78 6e 9b 50 c6 97 7e 79 8d 95 70 ba d3 c2 86 72 91 66 9e 7f 3a 8c d6 5a 5c 8c 86 8e 7c 42 6f 6c 89 77 82 a6 5d 75 33 9d 59 9e 57 36 a8 6f 98 8a 80 b8 ab 90 6a 6a 70 a4 73 85 73 99 ad 88 b3 31 86 76 a5 96 2d 60 8e a1 88 82 6b 85 40 19 76 9e 64 78 7f 88 bb 89 1a 4e 82 a4 66 52 92 d2 78 52 62 66 6f 76 cc 67 d4 46 cf 3f 92 d2 66 92 60 6c 31 42 0b b0 8a 6a b2 5b 97 5c b9 63 59 15 6c c0 5e a3 9d 17 e3 3b 55 88 91 7a 98 bf eb e6 89 62 8e 6a 9d 6a 43 8c b8 64 77 65 99 8a 60 61 66 77 7a 9b 65 7d 56 9b 59 a7 5c aa 45 45 a5 89 8d 6c 69 b6 d1 84 70 85 3b 9b 89 a0 70 a3 c9 c4 c8 42 ab 99 6c e4 3e 4f 8c 8f 61 34 77 72 35 1b 8c b1 5b 97 78 91 bb 59 4e 75 7d 7a a1 86 7d ab 7e 7b 89 97 6f 8c 7a a1 73 91 88 70 aa 94 92 92 99 81 71 95 77 79 84 7a 71 80 69 7b 90 82 82 95 6a 98 81 6d b3 9d 94 8a 9a a2 7f 6a 6d 5f 61 92 86 92 9a 86 69 9b 72 79 9d 65 95 80 73 55 54 76 9a 37 72 48 88 56 7a ac a0 78 1d 7d a4 00 b1 61 59 69 5a 7b 93 24 51 a0 a2 6c 5c 6d 67 56 77 83 97 94 9c 8b 9a a5 87 40 68 41 96 53 67 44 08 82 8a a8 7b 61 60 a0 8e a6 66 9b 7c 5e bb b0 7d 94 6b c5 76 b2 76 b7 80 6f 80 6a 52 85 54 2b 79 a2 be 82 b4 8f 83 ab 80 8b 5a 89 70 9c 6d be 69 80 a5 54 9d 85 7e 6f 5e ab a8 c5 79 52 5f 78 90 53 8c 8c 7f 66 89 8a 85 9b 61 77 93 82 87 9e 89 47 75 90 90 88 80 7e 85 8b 55 72 82 6c 8f 6f 75 9b 93 8b 9b 95 83 88 8f 8b 9f 84 63 78 62 8b 7c 60 61 62 7a 7b 69 7e 7a 84 a1 93 96 67 7f 76 71 9e 8d 76 87 96 87 a8 83 96 82 50 8a 92 9d 75 64 5b 78 42 8d 6f 97 67 5b 76 41 7e 65 86 99 86 91 6e 78 64 76 74 a2 7a 78 93 82 72 7e 9c 70 54 80 95 89 8b 89 8e 5b 9c 5f 6a 3b 7e 99 76 7d 57 5a 77 7c 8f 7e 75 83 9d 9a 6c 7d 8b 64 b1 94 9f 68 64 6a a3 6e 92 88 91 69 7b 77 9b 71 97 59 7a 81 8c 6e 69 7d a3 9a 82 5c 78 60 ab 90 aa 8c 91 b2 aa 9c 5f 79 67 61 81 43 99 b1 94 68 91 60 89 67 35 85 72 92 8c 7a 71 7f 8f 55 8b 6f 60 75 91 ac a5 85 74 84 7e a0 bb a2 66 a7 71 8a 71 85 b1 5a a2 7f 6d a9 8b 50 8d 8f 7d 7c 74 6d 64 a0 6b 6a 5f a8 a7 59 8b 66 08 b3 89 85 85 6f 61 64 8b 86 a0 87 7b 6b 7c b0 59 3b 71 74 a7 55 d1 e2 c5 b0 97 78 d5 78 e5 5f e3 a6 57 be 3b 25 57 44 00 2d cd c8 81 b2 c8 4a d4 91 80 26 cc 67 c2 aa c6 d9 43 fe 51 1d ba 7f 68 28 c4 c4 d4 3a da 76 af b7 1f d4 6d 8d af 88 4c 67 56 70 a0 2b 70 e7 db 9d 98 8a f3 78 d8 5e b6 49 5d 2d 7e 1b 94 23 0e 5d bf b8 6d 9d b1 9f 86 87 9f 3e a5 6d ca 73 b9 b5 bc e4 41 47 65 6d ac 00 3e e5 b2 44 5a 6a 6a 3b 00 89 8e 71 8f 81 77 9c 65 46 85 9f 6d 6b 87 9e 9f 61 63 91 8b 7c 6a 95 9d 70 91 7a 99 a1 9e 72 84 77 83 79 94 79 86 8e 86 88 7d 6e 72 67 66 83 98 91 7a 94 84 7e 81 89 61 87 8c 90 73 59 6e 72 77 73 8d 54 6d 86 7c 96 64 91 6e 79 b8 a0 93 7f 62 80 a3 8c 99 68 b4 54 73 7f a4 a4 a9 3b 94 81 a0 73 8c a9 a2 9b 78 70 a7 4f 9d 64 ba 5a 62 a0 9c de 51 69 5b 4f b2 48 68 a3 8b 62 9d 97 83 74 12 54 71 92 77 74 8a b2 68 2f 77 8b 96 87 7b 9c a0 71 8f 6a 79 86 91 8d 86 82 a2 7d 85 72 8b 5a 7e 93 91 79 9c 91 9c 82 56 7f 76 9d 7e 88 98 65 89 95 89 53 97 83 7a 79 7f 88 92 7d 78 8f 8b 73 69 8a 7e 54 75 90 92 82 87 61 78 85 6e 71 59 76 79 7a 4e 5f 46 67 6a 9c 82 76 86 70 76 91 79 9c 74 56 77 56 89 9e 8b 95 96 92 7d 79 78 7d 4f 6d 94 92 9c 97 69 91 87 7d 84 4f 89 73 4f 70 77 77 83 7b 9c 68 68 91 94 7d 71 6f 83 7c 85 80 70 88 87 6e 74 6f 8b 70 7d 78 83 7e 93 70 7c 6d 93 6e 91 95 76 65 8b 6f 80 7c 65 6c 8d 6f 7a 67 96 96 72 71 97 66 7d 98 67 69 8e 8d 69 67 6c 7e 84 8d 67 91 71 64 6c 6a 95 79 83 6c 80 75 68 92 4b 6f 57 64 4f 90 5e 81 7c 7c 74 80 84 7a 81 98 5a 84 6f 63 8a 7a 83 a6 6e 58 8b 80 7d 6b 7d 90 55 99 7b 77 85 97 83 7c 91 5c 4c 70 6b 67 95 84 76 51 6f 43 9b 74 95 65 87 8d 76 86 74 8e 73 72 68 6d 8d 80 8e 78 88 9e 6b 9c 6c 82 61 49 72 72 69 82 87 68 72 a0 97 79 90 79 83 8d 7b 50 6b 91 66 8d 92 8b 6d 7e 4a 6c a2 84 60 64 80 6d 91 66 99 6d 8e 6d 99 97 96 75 7f 72 73 6c 62 98 87 6e 80 8d 7f 7d 83 89 81 7b 92 79 91 8a 8b 92 8d 9f 73 8f 87 80 7b 65 6d 74 a1 7e 75 72 97 79 94 80 9b 6f 99 72 73 ab 9f 5b 58 7d 4a 72 89 84 79 80 5a 7e 9f 8b 90 7f 72 80 78 62 90 86 65 72 76 75 88 78 68 7d 77 65 9b 95 9f 75 7a 91 98 68 85 86 7d 78 a3 88 6f 83 8b 82 95 70 5e 78 a0 68 6e 68 95 64 66 88 33 43 69 84 83 67 45 8c 6a 63 aa 67 71 8c 5d 7a 9b 9e 71 8e 6b 77 64 57 6c 81 73 88 8a 98 84 69 94 6b 8f 7c 8d 6c 93 73 90 87 7d 75 52 77 6c 7e 7c 87 66 90 91 89 73 ac 7a 53 94 8c 82 7e 8d 95 63 a2 49 63 72 5e 6c 86 6e 93 69 78 80 9b 62 6d 91 8f 8c 77 9d 89 97 a0 5c 63 6a b1 86 60 4c 85 7b 83 a4 69 78 5b 77 32 84 62 a8 72 2c 94 94 91 60 4a 94 b2 67 56 94 75 89 83 83 79 9c 9a 7c a3 76 96 5e 99 76 73 6c 9c 97 59 8c 9d 8b 48 58 bb 94 8b 75 95 76 7c 91 56 8d 84 9c 7f 97 90 5c 87 7f 71 8e 88 7b 59 a1 77 8a 66 b0 66 8f 85 88 89 74 4f 9d 91 83 82 92 8a 9c 6b 84 7a 61 8b a5 a1 2c 88 6f 6e b7 45 2a 59 6e 88 52 5a 84 8f 5b 5c 93 67 85 73 96 b2 80 59 75 6e 78 a7 a4 c1 a5 7f b1 77 90 4b b2 be 46 97 63 86 21 6d af 55 9c 86 66 7b 6b 30 92 c7 8e 86 71 8e 77 bb 9d 51 23 65 a3 58 94 99 26 97 76 9b 79 7d 7a 73 b2 ca c4 a1 50 85 89 9f 64 4a 7c c3 84 a3 65 65 7e 69 76 6d 96 6e 83 6b 5b 6e 8b 65 69 60 8d 90 70 8b 68 8d 6c 68 87 a1 81 91 94 73 74 5a 80 8d 82 61 73 74 76 a1 68 86 98 84 67 81 77 84 73 6d 8c 7e 8e 57 82 66 58 7c 8d 86 86 8d 7d 7f 6f 7f 77 aa 99 8c 8e 73 94 90 8b 98 79 a0 4e 82 5e 70 7a 76 7d 8b 69 98 88 4c 81 a3 77 5a 96 6e 88 8f b4 8c 64 91 8f 5a 66 91 4c 94 69 b4 98 77 6c 98 97 57 6f 8e 5f 78 80 a2 5f 59 7b 82 6e 5e 93 a9 7d 87 48 68 c3 86 91 46 a2 58 65 39 8c 69 b5 5c 66 70 5e 96 86 b3 9c 8b 82 54 89 6f 9b 87 b1 64 ab 8a 82 b3 3b 70 6f 8c 8e 5e 7a 9e a5 85 43 82 ac 96 26 7e 9e 9b 59 76 7f a1 65 49 93 a2 6a 55 60 7f 6f 72 43 78 4f 79 4e 65 a1 7f 83 82 9a 97 71 8e 5c 6c 6a 42 7e a8 56 65 8a 9b 88 75 79 3d 72 88 9a 70 99 90 80 6f 9c 7b 99 4d 4f 82 6d 5e 72 80 89 53 9e 87 8c 64 9b 95 83 5b 7a 5c bb b3 a9 a9 7c 70 a7 86 9e 87 ba 9c 7a 8f 72 4c 97 6e 5b 57 87 90 7a 8d a9 6f 81 84 9d 5b bc 7d 9f 98 95 6e 85 a1 57 9e b0 89 95 36 9d 87 ad 73 a9 8b 9f 82 3b aa 76 83 74 81 65 89 96 48 9e a9 74 7c 5a 61 68 93 75 76 90 82 80 6a 9c 59 7a 4c 86 9a 64 a5 97 87 7f 68 9e 9e 77 72 8b 87 93 68 8b 61 72 9a a4 88 63 90 7c 64 bf 68 a0 76 7f a4 8d 5e 9a 85 5b 45 9a 74 82 7e 7b 8c 81 86 a6 92 6a 96 9c 88 7b 78 9e 80 98 8d a0 8b 82 7c 69 94 5e 6b 8e 57 84 87 8f aa 84 60 94 ae 86 77 83 93 9e 85 8e 8b 70 88 87 70 a0 62 8c 8d a7 9d 9c 78 6a 70 8b 8c 95 97 8d 5e 9b 8f 7d 63 76 91 6e 6d 8d 9b 7d 96 91 68 a6 6e b7 6a af 78 78 ac 94 77 93 71 4c 7a 84 b6 7a a8 8b 70 81 81 9e 83 96 8d a5 89 b1 7f 82 a5 8b 73 69 6f 6f 6a 5d b5 82 92 81 84 a2 6e 7b 61 60 63 9a a6 63 6d 5b 5b 75 84 77 7a 73 76 6a 88 86 68 66 65 8a 7f 94 8f 84 59 8b 9e 74 9a 64 71 60 8e 75 8e 7f 85 85 89 80 57 9d 85 6a 67 7e 81 67 7c 91 47 a2 85 88 65 93 a0 9b 80 7e 61 8d 6d a1 85 86 6b 89 98 60 88 af 98 56 72 84 96 86 85 8a 75 96 74 6e 8e 80 ba 49 bd 83 90 93 7b 91 80 78 90 4d 53 9f 77 83 89 6d 75 79 69 8f 44 63 4c 7a 75 89 80 57 62 95 a7 94 87 aa 6c 8f 73 c6 a2 6a 99 77 61 75 40 89 8a 4b 88 99 97 94 82 95 64 8a 8f 77 84 67 9e 8f 89 71 7d 9d a8 9f 99 65 a5 70 69 9e 7d 8b 74 6a 66 8f 6a a6 a7 b3 92 a6 7c 93 9a 72 6c 7f 94 64 85 8c 6d 50 6c 6c 63 83 89 75 56 68 9c 9c 97 69 7d 77 a1 93 a1 96 80 7f 5c 8b 67 6d 68 88 67 62 92 80 5c 8e 6b 4f 82 92 75 5d 9c 8a 96 72 87 6d 68 7d 6b 96 72 84 6f 92 7a 96 97 69 74 80 97 88 72 6b a1 93 5f 8d 71 9b 80 94 9e 79 75 80 7f 5d 69 6d 71 8a 74 7d 8b a3 6f 74 61 81 57 91 75 63 90 8f 98 5a 71 6d 73 72 93 8f 77 8c 5d 7c 96 3e 98 82 7b 80 7a 94 76 77 6c 91 6f 8f 75 62 64 61 8c 94 90 6d 62 90 7d 90 88 72 57 75 77 79 8a 96 93 82 60 47 85 9c 84 89 69 a0 63 97 76 95 8c 7d 9f 68 89 59 96 55 5b 93 ac 66 af 6b 3a 85 8d 3e 81 79 68 88 95 a4 78 58 77 85 59 78 84 5a a5 9b 9a 9e 5a 8b 82 7e 6a ab 7d 44 5b 8d 9a 75 56 86 9b 63 9a 93 3f 3e 5c 94 7b 50 6c 4a 63 54 80 77 5d 86 a2 80 89 94 94 79 7f 67 66 9a 97 73 73 54 80 63 81 77 74 63 7d 85 9f 63 90 8a 73 8b 52 70 57 5d 7c 4c 98 80 5b 80 1b 68 93 6a 95 99 87 83 71 72 a1 5c 5c 59 7c 79 82 6f 75 63 63 6a 6a 92 9f 98 99 67 a4 98 75 69 72 7a 88 67 77 67 83 a1 9e 6f 9e 66 76 77 4b 8b 6e 56 9c 9e 7d 6f a2 63 6c 58 7d 8c 67 71 b2 ac 99 8b 92 78 5a 9c 9e 6f 9c 7a 79 67 81 8c 7f 88 6a 89 6c 88 79 c2 5c 68 59 4c 97 4c 6b 1f 6b ac 86 70 a9 80 5b 8f 91 37 6b 93 6d 90 91 91 a8 50 ae 93 21 71 41 6a 74 91 87 92 8d 75 84 a6 50 5b 99 50 76 6c 9e 65 4f 61 85 62 7a 69 9d 90 84 a1 8c 89 63 9e 8c 9e 95 8c 70 7e 9c 87 7f 3b 73 80 b3 63 9b 70 77 8d 8c 87 84 9c 7a 9d 91 9b 76 66 87 45 5e 8d 93 84 72 8f a1 ad 6f 82 81 a0 9b 68 83 6f 84 80 7b 82 84 6e 82 5f 7e 7b 8f 8e 8d 98 89 75 7b 7e 78 80 6f 7f 73 94 69 92 85 77 8f 95 73 5f 8e 8f 90 93 76 78 9e 7e 5e 8a 72 72 a0 7d 93 90 9d 60 78 8c 96 49 66 8a 7a 9f 76 98 9a 79 72 7f 6b 69 8d a3 7c 76 90 50 3c 7f 8e 73 c8 a3 95 87 74 9d 7a af 92 38 b0 32 c3 62 78 97 2f 6e 82 75 8f 8e 33 95 84 5a 45 ab 5d 98 c6 31 bf 75 8e 94 36 4f 6a 4f 81 98 97 9d 61 a2 68 b0 bc 6d 90 7c 86 70 b6 4e 4b 5b 9b 76 75 9d 6a 6d 67 6e 65 73 7e 6d 9f 65 4c 8b 5b a3 57 93 5f a3 b6 65 5c 91 88 9e ad 5e 55 a8 7b 8a 63 a3 44 7a a3 bf b4 3e b0 80 58 a9 4f 9b 6f 59 86 64 7f 6e 3e 60 4a ad 65 8b 6d 79 95 6b 44 62 76 8f 6f 75 7f 98 75 9b 66 8b 94 78 81 7b 9e 98 6b 7f a2 3d 93 6c a0 6c 90 76 72 86 8a 5e 88 88 88 8c 6d 8a 81 98 80 62 6f 56 72 62 66 94 85 7e 9f 85 8e 70 7f 74 8f 8f 82 5c 9b 7e 67 8b 6f 6f 8c 8c 7b 8d 8b 94 79 57 7e 56 87 62 85 7a 76 82 77 84 84 5a 96 70 58 8b 7c 73 8c 57 95 73 a3 65 85 75 7a 3e 8a 80 7b 9d 8c 52 60 66 81 62 5e 73 88 38 91 48 57 9a 92 a4 61 8e 86 99 77 99 93 75 74 92 8e 77 a1 7c 8c 95 83 a1 9b 90 9a 78 80 6d 9e 94 96 90 8e a6 a8 60 7c 9d 68 9d ae 6a 67 92 9e 9a 72 9d ae 80 76 83 5d 5c 87 65 88 6c 93 78 92 83 8d 89 90 69 64 88 69 5a 7a 73 72 76 90 75 9c 8c 8e 78 54 64 6d 5c 86 43 96 7c 65 9e 63 83 a1 c3 95 6f af 80 62 6b 6c 9e ae 54 3c 8f 59 a3 7b 7a 51 53 c2 99 a2 3f 9a 58 89 9a 4a 4f 46 53 70 8a 83 7c 41 2c 82 a0 96 6b 45 7e a4 9e 5b 5a 78 7c 8a 77 7e 82 91 82 6a 98 67 b2 7c 52 98 67 7c 74 59 a2 4b 97 ab 61 a4 a2 69 87 74 5d 6d 8c 7b 93 82 96 7e 5e 98 87 63 8e 65 70 6b 4a b3 81 93 72 74 b0 68 8b 93 6f 84 72 9d 53 73 78 6b 6b 8d 75 9e 7f 89 98 80 79 89 78 99 83 8a 83 8a 6b 89 71 7c 9a 9a 82 89 75 68 80 88 91 7a 7d 8b 7d 7e 92 80 84 78 8a 82 90 79 77 84 7f 77 63 67 91 94 5f 75 8c 67 6f 59 84 67 87 87 63 8e 7b 8c 45 5b 68 81 96 9d 96 6c b1 87 ae 7f ba 5c 54 a3 7c 89 6a 57 70 6a 9d 97 8d bb 95 72 8a 9b 71 7f a6 58 a2 a6 9f 9b 5e ae 61 65 79 5e 61 48 4a b3 ad 7b 9d 7a b3 93 65 80 7e 5e 55 9a 3d 60 76 4a 65 6b 9a a3 93 87 71 77 79 68 7f 67 b2 69 7c 88 72 62 a1 52 59 73 79 a0 7c 78 b9 7f 5f 5e 65 5e b3 6f 91 89 a1 b3 91 b5 49 9d b0 3f 9b 20 42 96 ab 7c a8 65 87 84 16 8a 97 79 4c 7c 7f 78 4e 46 79 94 60 7d 80 88 83 81 95 8b 93 85 97 a3 70 a9 66 c0 75 a0 68 5a a1 65 69 91 82 48 80 9a 61 75 70 84 6b 84 86 63 56 5c 81 4a 4f 69 2f 9b 6a 86 74 87 99 6d a2 a8 c8 73 52 86 87 9b 65 41 6f 94 8b c4 4e 33 4d 74 c3 96 22 6b 31 93 51 86 a1 81 62 a3 5f ce 4f 7c 55 4d 65 7b 34 57 33 8d 28 de 50 77 28 88 40 12 62 2f 5c 99 9c 85 83 be c0 1f 51 a4 42 7b 9c e6 ce 8c 85 7d 87 56 9f 91 a1 ad 73 87 73 6d 8e 98 aa 6f 73 83 7c 80 96 7e 5c 6e 70 a6 5c a7 45 80 73 aa 65 97 85 62 75 95 7e 97 73 74 86 8b 76 67 5c 80 61 69 89 67 54 91 63 6a 72 77 8c 5f a2 7e 8a 7d 72 71 5e 9a 76 58 90 a9 