96 80 87 91 63 89 64 88 66 81 7f 82 74 7b 6e 8e 7f 99 85 7e 82 96 93 8b 82 87 83 8a 93 92 95 6b 64 8a 66 6d 87 9a 83 89 82 6b 91 67 7d 88 71 8b 92 6e 71 63 6a 8a 98 6b 89 6b 91 6b 7c 93 6d 6f 68 79 66 8b 66 68 8d 79 6f 65 92 73 85 68 9a 81 84 80 84 64 75 8f 7c 73 8a 6a 70 7a 77 92 89 7f 73 7e 96 74 73 88 64 8c 65 81 72 99 63 76 93 80 88 6d 84 72 71 99 83 8d 7f 8b 8e 98 6d 91 7a 98 84 93 8b 91 73 99 66 68 6a 92 90 6b 6b 95 7d 76 8d 88 6a 82 95 90 83 94 76 93 81 86 8a 72 65 8e 89 8f 63 95 70 65 8e 68 8c 92 63 7c 67 8d 76 99 67 84 7e 73 67 94 8c 78 81 88 70 77 64 88 7f 80 91 7e 5f 90 6a 92 74 6d 84 71 93 6c 7d 94 81 79 84 8e 83 87 65 70 82 61 6d 93 8b 84 7b 84 64 78 96 98 85 8f 69 91 90 81 6b 92 99 74 91 80 7d 7a 93 65 8f 81 98 85 89 8c 75 60 99 88 95 77 86 91 70 83 7d 73 7f 6d 80 6b 8c 92 67 8a 70 65 6f 6f 6c 73 78 88 95 77 67 6f 64 89 80 7a 8f 83 8f 61 87 85 75 82 74 67 87 6e 96 8a 8e 6f 73 73 88 6b 5f 71 7b 68 79 7a 7e 90 74 7e 67 64 68 90 76 75 6b 64 8f 91 92 95 91 7d 68 73 68 84 82 92 81 98 71 79 80 6e 7a 7d 7d 91 98 68 7a 98 7a 9a 96 78 82 6e 8e 7d 6b 99 6c 80 66 9a 90 93 76 82 6e 93 95 82 64 78 96 85 99 8a 6c 92 72 79 81 6a 90 6e 82 89 76 89 7e 78 87 8a 69 7f 65 a1 6c 75 7d 78 65 9a 8a 96 84 93 95 69 82 6a 8d 9d 78 7b 81 73 6c 78 80 70 70 79 86 70 82 98 67 86 68 90 85 90 75 88 70 7c 76 8c 8e 96 6b 8a 66 76 91 8a 7b 6f 83 7a 79 85 81 92 7b 6f 65 7e 77 6b 97 67 92 79 8c 6c 66 69 81 73 67 7a 94 83 96 8d 8c 8c 65 91 96 76 85 7f 72 98 76 79 74 73 82 86 8f 72 66 8f 8d 73 8d 8a 98 6d 6f 8a 94 71 6c 79 68 86 7d 8a 8e 68 96 7b 77 72 95 8d 77 84 78 7b 6b 77 93 8d 86 91 8f 8e 6f 80 6d 88 66 88 8b 89 9d 7f 64 72 8a 76 6d 69 6c 74 7f 87 7a 99 86 7b 95 7e 6d 7f 82 94 91 79 67 7c 92 7f 85 89 71 8f 61 8b 6b 79 62 64 6f 90 61 88 94 89 9c 89 7b 79 a0 6f 7b 68 6a 79 66 72 86 92 8b 7a 88 84 93 83 8e 87 92 7b 98 90 9a 97 95 9a 83 81 97 6c 99 7c 71 86 6f 88 92 95 91 9f 8d 95 80 72 7e 74 68 96 5f 8c 79 94 88 8a 94 8c 7b 94 95 69 8f 80 8b 75 75 75 85 6a 6a 9f 93 76 65 92 75 8b 98 7e 93 80 7a 71 67 75 86 80 93 6e 7f 88 69 69 7c 87 8e 6b 89 8f 77 98 5c 8b 8b 65 93 76 71 9d 83 78 68 8e 6f 97 88 74 9e 7d 91 99 9c 83 7d 91 6c 97 9d 9a 85 65 7a 7b 7c a7 6a 6b 6c 6f 75 a6 8b 72 93 86 69 90 8c 8d 72 7c 65 81 7a 77 72 7d 79 80 72 99 91 85 94 8e 6a 80 93 98 73 86 71 a5 82 7a 8e 79 86 7f 8d 90 75 7a 68 8b 8b 55 6a 70 88 88 88 53 6b 5f 7f 7e 73 52 53 60 55 a4 93 98 89 63 77 9d 46 8e 84 6c 7d 63 78 8c 62 7e 9c 8c 73 68 87 71 47 5d 97 3f 78 93 9d 50 5a 9a 9f 94 8f 97 87 53 81 85 80 75 67 7f 7f 65 53 82 60 79 ae 64 45 5e 72 8a 60 71 6b 5d 78 43 8e 96 88 8b 5c 76 9e 91 93 6a 7f 8c 59 92 78 9f 78 8e 82 87 74 49 ad 64 72 91 8b 92 87 88 86 7b 87 80 83 7e 7f 56 9d 8e 72 50 78 81 93 3f 95 db 9f b5 6d b9 a1 78 89 b8 7a b4 72 8c 99 85 7c 7a 5a af 59 98 9e bf 88 62 90 6b 62 8b 86 3e 6d 99 95 6e 63 8d 75 51 5b 8a b2 90 bb 7f 78 6b 8f 7b 82 a6 9f 22 a7 bc 87 8f 8f 6c 75 4a 59 86 81 71 95 4d 65 67 32 75 9c 74 98 92 98 91 66 5e 63 81 94 72 8f 92 85 5f 6e ac 99 ab 74 71 6d 9a 72 39 99 61 59 86 63 88 72 6d 70 98 95 95 77 92 93 55 5a 2f 74 85 2d b2 3d 54 ad 69 51 7e 6a 46 91 8d 51 9b a4 49 a2 28 9f 97 51 75 4c 76 6e 61 99 8f 91 89 aa 51 8f aa 74 5a 8b 73 7a cd a8 7b 63 93 80 4c b2 c0 45 84 b1 5c 81 8a 3b 84 50 77 92 76 3f 3e 96 63 9e 99 a1 9a 55 5e 85 79 99 89 7a 97 4f 7d 85 91 3b 85 76 5e 4c 5e 90 b3 71 9a a1 46 75 67 57 9e a7 9d 4f 6b 66 8c 75 81 92 bb 6c 3a 74 95 66 84 7d 58 84 51 76 bd 7a 5a 4c 2e ad 8d 61 11 8d 6d 19 8c 83 b1 97 ad 12 a0 a0 b0 89 c0 c4 8b 58 b4 5b c0 46 9f 71 8e a3 72 77 7b 89 6c 40 a4 b7 b6 4b ca 88 9c 7a 8d 88 a2 19 49 b4 64 82 a1 b8 8e a2 3c 76 91 9c 5a 28 4c 72 70 68 85 b3 8b 77 46 63 9a bd 73 84 74 28 48 84 85 6f 6f 8a 76 6c 71 6b 69 7e 7c 7e 8b 63 4d 69 5c 8f 5b 8e 73 8d 50 87 80 72 95 79 7a 73 5d 83 73 67 62 6b 5f 87 92 74 78 92 7c 85 6e 8d 91 8b 7e 96 7a 8c 8c 6a 81 6a 91 94 62 8d 67 76 53 85 83 9b 47 93 9a 9d 99 5d 78 bd 84 66 a5 86 9f 92 70 aa 69 42 8e 7a 79 5f 2f 9c 55 70 a6 6a a6 42 5e 68 77 83 56 8c aa 9c 71 86 79 a3 7e 50 4b 72 5f 6c 82 9b 68 57 6a 80 8f 35 95 59 70 a7 63 82 8c 7d 80 7a 8a 81 8c 87 7c 79 7c 5e 6e 80 99 67 a1 83 8c 75 8f 7c 87 71 83 68 5a 77 7d 64 6c 87 89 64 80 69 a6 69 87 7b 8a 6f 92 73 80 6d 9b 85 96 77 a8 9b 90 70 75 8f 85 79 7c 7e a1 9d 97 8a 8c 75 6c 8d 7e aa 96 78 87 93 85 ae b1 90 7e 64 78 90 8d 65 97 9a 8e a7 5b 63 85 7d 89 7e 9f 5e 52 56 8a 68 66 7a 8c a4 59 97 6e 75 8b 5c 53 1f 44 53 54 8c 29 73 7b 84 72 3c 8a 76 8c 93 5d 86 8c 7c 87 76 92 92 92 88 5d 7a 70 8f 7e 92 9d 6c 80 8c 7a 98 70 6d 87 94 9f 94 9c 80 88 93 83 61 8f 5f 94 91 82 74 84 66 8c 67 7d 81 99 7f 83 7d 7d 79 9d 87 8f 6c 98 81 74 75 60 8f 6e 92 89 83 84 7d 74 8d ad 82 9e 84 70 92 7f a7 2e 7d 97 7e 61 8e 73 7b 95 a6 96 a5 61 6c 6b 76 95 6e 9c 6f 9c 97 94 96 77 67 a9 5a 6e 64 90 72 7e 69 6b c5 92 79 90 73 2d 86 77 7b 8e 7d 71 70 93 a4 76 66 8a 68 7a 8a 7e 7a 93 98 70 74 74 95 8c 7d 8f 8b 8f 72 6e 69 74 44 7d 72 8f 6a 76 87 99 82 7a 6f 76 8f 81 93 90 85 6b 5e 98 7a 76 75 82 75 7e 7a 7f 6a 63 97 70 8e 79 89 7f 9a a1 80 85 89 76 8c 68 69 83 82 78 8c 9a 78 47 8c 7c 80 70 81 7b 7e 7c 88 7a 5b 9a 65 9e 92 7c 6f 58 81 79 65 8a 6f a0 ab 88 90 40 65 78 6c 7a 6a 8f 92 6a 8f 83 c5 99 62 8e 88 70 7d 69 82 74 84 71 65 6c 87 8c 6b 92 89 70 6c 82 6c 7b 7f 77 79 79 98 88 77 92 78 88 74 a4 72 8a 80 77 86 80 6c 79 63 7e 93 8b 8a 72 99 83 63 76 6d 6b 8b 94 85 90 72 92 90 87 7d 81 6b 96 93 76 6c 6d 8b 7c 74 7f 83 83 7a 8b 64 81 63 93 9a 8d 81 7e 84 85 71 7f 64 87 97 6d 87 92 6c 73 82 6e 66 8e 88 71 88 8a 95 97 8a 88 8f 64 90 7b 79 81 81 75 78 81 6d 97 99 77 89 97 7e 89 7c 98 94 6e 94 8c 67 80 70 6e 6c 89 70 9a 62 99 7d 68 73 8b 66 8b 9c 64 70 8c 9f 80 82 64 8d 7b 79 75 94 94 71 67 64 83 78 78 7c 73 63 7b 79 9b 71 91 63 9c 6a 88 71 93 8b 93 7e 89 78 9a 8b 85 84 71 8d 84 68 82 78 77 6d 90 9a 65 8d 99 86 71 94 89 70 6a 7b 80 7e 8f 64 8e 94 7b 7c 7d 80 91 6f 99 68 86 7b 93 76 82 7e 8d 89 73 8b 99 78 64 68 9a 99 75 74 66 89 78 6f 68 88 71 85 86 8e 80 70 7b 9a 68 78 68 6e 72 92 70 83 92 80 91 92 84 6b 70 6e 8b 89 87 74 a0 83 7b 72 7f 75 9e 88 75 7c 6c 66 72 7c 7d 94 87 82 74 a8 6a 6e 7d 72 8c 85 6f 7a 8b a2 80 8b 87 98 91 61 85 94 7f 84 9c 81 9b 98 94 83 82 a5 69 9f 6e 85 7c 94 7f 70 8f 98 73 90 6e 6e 72 68 90 7d 6d 8e 87 83 83 94 7a 69 75 77 83 91 86 65 88 70 82 8e 7a 65 68 67 74 8e 77 87 81 83 69 88 6f 6e 79 93 6f 7b 63 88 84 86 6e 79 80 80 7d 94 70 72 74 81 96 7b 80 8e 68 5b 8b 92 77 7e 6a 66 80 9c 68 97 82 84 87 85 78 6a 8d 82 8c 4d 69 6c 73 80 91 85 70 65 8a 83 87 88 9a 68 7b 74 7c 69 a0 82 8f 9a 68 8d 77 7a 7d 93 6d 78 88 76 5e 6d 6b 84 5b 5e 6e 92 6a 7b 78 82 66 81 6a 75 82 95 68 66 93 95 8b 93 8e 69 94 6b 76 92 8f 74 70 72 86 71 85 70 91 69 93 6f 78 6c 6d 89 67 6a 87 74 64 7d 7c 95 8c 84 88 73 90 83 7d 95 93 73 7f 82 80 94 71 9a 72 7f 74 64 6a 79 66 88 97 4e 80 7d 92 8c 6c 6d 70 91 8f 96 6d 74 7d 91 6f 64 78 97 8a 91 84 78 69 6b 78 80 76 79 80 85 69 7f 7e 87 7e 75 83 71 73 93 80 7c 80 7b 94 8f 8b 69 8c 78 7c 6d 8e 58 7f 77 99 70 90 97 95 83 8f 77 64 8a 7b 86 85 81 6d 8f 6b 96 64 7c 98 88 85 83 71 7c 91 72 99 78 8a 88 95 83 76 7f 82 70 95 6f 66 87 7a 92 87 70 97 85 6e 71 8e 76 93 98 8a 90 7d 74 64 6d 81 81 91 68 92 85 8e 59 7e 74 87 64 75 98 74 8f 76 6c 75 89 7b 80 72 83 97 72 73 78 77 5e 7b 7c 77 7c 8b 61 94 88 7d 88 74 94 88 84 77 66 75 7a 91 74 74 83 6f 79 60 79 92 8d 72 91 85 7f 9b 6f 7b 86 6e 81 75 7d 8d 88 71 6f 8c 78 90 76 64 8b 8a 6f 6c 98 65 64 7f 81 8f 8f 73 71 74 78 6a 6b 66 67 94 97 88 70 69 8b 93 6f 92 67 84 6d 72 93 94 74 80 68 88 95 81 6e 6d 6a 75 70 84 6f 7c 67 78 98 8a 99 8d 87 72 74 7c 90 8c 94 6a 80 90 6a 90 7d 85 7e 6d 81 82 77 73 7a 70 6d 78 5f 74 82 92 6d 8a 69 72 70 5f 76 96 67 8c 79 85 7b 95 72 8f 72 73 68 7a 72 9c 6e a7 93 81 6d 83 9a 7c 87 94 8b 9f 83 6f 73 98 6f 86 78 64 8b 72 74 98 83 98 65 6e 69 76 7b 8d 8a 8e 83 8a 87 7c 8b 94 71 91 7c 87 95 72 74 8a 68 78 6a 84 6a 92 69 65 7a 71 80 7b 6b 85 73 75 7f 68 7c 7d 93 88 7c 99 63 76 8c 9a 95 80 56 6e 76 82 8f 73 60 7c 7d 60 90 91 8b 84 97 6d 96 83 9a 9e 97 82 6e 66 95 68 67 6d 67 80 7e 87 63 6e 74 81 95 77 5b 70 6d 86 93 88 85 a0 76 77 78 97 6b 86 81 7c 88 69 7e 92 9c 6a 74 88 96 8f 6d 7b 71 80 6a 65 8c 7b 78 80 97 7f 6f 99 74 93 72 8d 6b 72 7a 80 6b 7b 7f 81 67 82 8e 8c 70 89 7d 6d 82 76 70 6b 91 7a 90 75 6f 7d 6c 6f 95 80 6d 6c 85 85 95 97 73 6d 77 6b 63 83 8c 8e 99 6a 79 70 83 86 88 85 72 8e 87 8a 74 84 80 8b 8c 90 85 90 8f 8f 83 6a 5c 85 70 8f 8c 7b 81 9b 8e 92 88 7b 96 7f 7a 7f 86 87 8a 8c 9a 84 8d 94 81 7e 88 73 8f 65 64 6a 76 8a 82 a1 74 7f 9f 7c 65 77 96 88 98 7f 79 89 66 71 8c 6c 6a 80 6c 8d 90 7e 65 85 72 80 6a 77 91 6a 66 98 77 8e 91 76 87 63 71 76 73 65 86 97 6e 79 7b 7a 71 8e 77 8f 95 92 8b 84 90 6a 8b 7e 94 66 79 63 8c 99 98 8e 8a 73 77 77 6c 6d 76 7a 89 93 74 73 5a 93 7c 70 7a 68 70 7a 5f 75 95 7d 6e 74 ac 6e 92 8a 88 88 69 8a 82 8c 8e 93 63 77 91 90 94 78 6e 7f 8d 7f 8c 77 79 7d 82 64 69 75 94 7c 64 8f 54 70 80 6f 72 85 78 79 79 72 72 78 66 7c 7c 63 90 87 66 69 87 8a 94 71 70 76 98 7e 79 8e 75 73 97 91 94 85 94 8c 92 6f 6c 71 81 6c 7e 75 64 8b 6e 65 86 6f 83 87 9a 92 97 7a 6a 8b 7d 93 70 88 86 96 98 6f 6a 99 7f 88 6e 72 6b 80 6e 75 76 8e 6c 7a 82 86 8c 84 8e 95 6d 93 80 8c 7d 7d 7d 7f 88 85 64 90 64 7b 6b 82 87 5f 90 7a 69 85 66 7e 62 93 9c 6c 81 6d 7a 92 84 80 76 89 60 6d 81 67 86 92 6b 90 91 91 76 87 94 7b 88 85 8d 8a 8d 6a 66 68 7e 8f 6c 95 7c 86 80 76 77 66 95 78 97 66 82 78 8c 83 86 7d 7f 8e 8e 88 98 8b 8a 87 66 63 73 7d 6e 6a 64 76 79 9a 89 6f 8f 78 78 8a 94 66 82 7f 91 94 70 8f 6b 8f 80 76 71 5e 74 6c 6d 81 74 91 7c 69 7e 83 64 8f 68 77 96 7b 85 7b 7f 62 84 71 82 9b 7c 84 7b 87 94 61 95 8a 77 95 7a 8a 77 90 85 79 7d 93 76 61 8f 6c 63 5e 8a 6a 7b 9a 91 77 8f 69 6e 88 70 81 73 8a 78 79 68 7b 75 93 6a 98 99 77 91 8d 84 8b 7c 91 8b 6a 95 97 8d 69 87 7c 8b 8b 96 6a 7a 88 79 63 89 70 81 87 70 92 97 7f 75 8a 82 79 89 96 6d 6f 90 6d 69 89 97 86 8b 84 68 70 69 85 64 83 7b 72 89 71 68 72 87 7d 5f 6e 64 81 98 86 8d 8c 94 62 82 58 7b 76 5d 86 82 7c 62 63 82 93 7b 76 5f 76 6f 87 80 6e a2 6c 7e 79 8d 90 6f 85 7e 79 7f 60 7b 7e 5e 8a 9c 7d 7c 92 84 87 8c 9c 7d 91 84 94 78 73 71 75 73 6a 69 93 67 86 70 6e 8a 6a 94 85 95 98 76 77 88 84 6d 6f 7a 74 6f 71 79 85 8d 8c 69 96 76 70 7a 8c 75 79 6f 71 8f 84 6a 75 7c 98 6b 6d 67 83 8a 73 76 67 6e 78 6e 6a 75 7b 63 82 76 92 66 87 5d 6f 7b 7b 84 79 6d 6b 66 8d 93 77 7b 7d 6d 71 72 71 74 85 74 69 77 71 81 91 72 79 65 84 8b 8b 61 64 84 7b 7a 61 73 7d 6d 7e 74 69 6e 79 93 7d 80 6f 7a 92 9b 93 6c 7a 7a 78 76 92 77 96 74 95 8c 99 6e 94 90 7a 6a 94 68 90 8b 77 7f 8f 98 95 7a 7a 95 95 8a 6b 73 8c 7c 9a 91 7f 84 82 80 71 79 66 7d 7c 79 79 97 70 66 91 83 80 7d 65 90 65 7c 8a 75 8d 98 95 8e 65 66 76 60 87 84 81 92 78 86 8c 84 7e 92 38 89 a1 6c 7b 7c 78 82 86 9c 8c 63 74 85 7a 76 94 80 70 7b 73 8c a2 67 82 83 77 76 92 68 8b 86 7a 82 75 6b 86 7e 8d 80 7f 7c 8a 91 9b 6d 84 62 91 81 84 76 8d 6f 7b 96 86 7b 88 79 9a 65 95 7a 64 86 95 63 69 92 93 6f 98 93 70 85 91 6b 90 90 73 96 85 7d 72 6e 96 65 65 77 80 74 75 8d 93 9a 6f 73 92 6f 85 86 93 77 8b 71 88 77 8a 6e 72 72 84 71 78 8e 88 68 a6 8b 75 94 5f 67 85 6e 86 8c 61 5f 5f 7a 91 84 a1 a4 6d 81 95 6e 70 5f 90 75 93 94 62 95 75 ad 8a 69 91 6c 83 78 76 84 9f 8b 72 9c 8d 67 60 9b 90 71 58 9c 88 6f 8e 5e 6b 8c 6b 76 71 69 69 64 91 81 99 95 70 89 8b 6e 94 71 7e 6e 81 89 66 91 89 7e 63 82 7e 6d 6b 89 90 84 89 73 71 6a 90 82 96 94 63 66 7a 7a 6f 83 86 70 6c 79 81 95 96 67 95 76 82 76 7f 6e 82 95 74 72 7b 8c 6b 9a 5d 77 76 7b 8a 71 77 85 64 6c 65 93 71 93 83 8d 8a 7a 68 66 82 88 93 71 7e 86 81 97 6c 98 7e 6c 64 5f 6b 63 a8 88 6b a2 74 74 83 83 58 86 85 8c 89 60 a1 85 91 7f 78 8e 65 7f a3 71 8b 8b ad 85 9a 67 72 96 8b 8d 81 98 8a 74 7b 7d 8b 8d 89 76 97 91 81 71 89 82 7f 94 8a 76 78 63 74 76 8b 93 97 97 76 79 89 87 94 6a 8a 93 8d 80 87 98 6f 7d 80 89 8d 8f 7b 72 72 65 6a 7a 75 72 93 7b 8b 8d 97 72 79 a3 6d 74 70 94 70 96 93 6e 8b 72 74 6b 7b 7e 9a 88 6a 73 5c 97 72 6e 92 8d 73 98 79 8c 8a 69 86 67 76 77 7d a5 82 74 88 5d 8d 76 72 8b 78 7b 94 8e 7e 72 82 8f 91 8b 8b 91 7e 89 6d 8f 6b 72 6e 65 8d 96 93 80 67 80 97 6c 8a 95 7d 95 6e 7c 96 64 86 66 82 66 88 79 65 7e 90 6d 6b 65 6e 6d 7d 85 69 72 76 64 69 72 7a 6d 70 8a 6c 87 85 95 68 82 6b 7e 95 78 98 7c 71 87 6f 8c 93 73 8e 93 73 7b 76 52 83 74 64 50 6e 86 85 6e 9c 6d 8d 91 70 82 93 62 7d 81 71 92 74 6a 88 7f 9a 81 90 84 61 93 6e 91 7d 7d 7e 6f 7e 78 75 81 78 6c 78 74 78 91 86 94 6c 70 61 6f 6e 7d 7f 79 6a 