98 6d 77 67 72 76 6b 75 8b 8a 98 77 74 96 85 90 7c 6f 67 84 7d 7d 96 78 90 73 89 79 89 6c 79 91 7d 7e 8e 90 9a 78 7b 81 74 97 98 8b 98 96 6d 98 93 8e 7d 79 6c 67 74 8b 8a 65 6c 71 7a 8d 71 6f 75 63 6c 83 74 69 9a 81 69 8b 6c 92 79 7b 70 87 86 7d 79 8b 86 7a 63 8b 72 88 72 97 69 7e 80 99 85 98 80 6e 6f 95 87 76 69 64 7f 8d 8c 80 82 67 8d 65 7e 67 8b 6c 75 8f 65 69 71 96 6e 88 6a 75 73 86 80 6c 93 71 8c 7c 89 76 8d 75 6c 98 92 6b 69 86 8f 7b 94 92 93 86 69 7c 6a 99 76 6b 95 7d 90 7c 82 78 6a 67 6e 75 7d 7c 78 86 68 7b 63 7d 89 76 87 88 71 74 86 6f 6c 73 7e 99 80 7a 6f 64 69 93 8b 6f 9a 8b 8f 5e 65 7c 85 95 6c 62 72 88 6d 70 9b 5f 9f 68 8a 84 8e 97 8c 9d 95 6a 85 67 96 75 98 92 6b 71 7e 85 91 7d 7c 99 8a 86 6e 63 5d 7f 69 88 73 84 97 67 6c 74 73 93 7c 80 96 82 7e 64 6f 6e 93 92 9d 83 85 98 93 84 88 72 71 6d 6b 83 6b 8e 92 6c 8a 86 67 98 81 84 61 95 95 68 90 68 83 6d 5f 91 76 85 7d 88 76 91 88 99 7c 69 93 6f 7c 88 65 63 95 7b 6e 95 9c 7c a1 6e 6b 80 98 7a 68 83 65 89 75 97 6f 7e 84 76 81 81 77 8d 65 87 9a 94 7c 95 69 94 7e 8e 6d 68 71 7b 77 86 7d 82 89 92 80 70 9a 68 7d 85 80 6b 70 87 81 85 7b 6d 76 6b 69 73 84 80 6b 88 91 6c 94 8c 73 73 7f 8b 6d 8e 8f 74 81 8d 75 7c 83 72 6c 9a 69 70 6e 72 9f 92 92 7a 7f 85 8f 8f 66 6f 74 6c 67 83 84 7b 78 68 81 93 7f 8b 7b 67 63 7e 81 93 8c 7c 89 6c 63 7a 84 91 85 79 80 9e 86 7e 9b 7f 6f 67 98 92 83 96 88 6b 95 79 64 81 82 8e 76 91 8f 7b 8d 77 67 70 78 8a 6b 8b 77 9a 64 94 6a 6f 77 7a 68 70 65 91 8e 69 76 74 72 80 8c 67 7d 64 99 78 6c 81 92 71 65 90 87 88 6a 80 68 82 75 7e 84 7f 6f 64 8b 62 91 a3 8f 6f 7f 90 8a 84 71 66 8c 62 68 8a 7f 91 72 73 7d 80 7c 83 79 83 69 73 75 6c 90 68 74 6e 74 80 a4 6c 74 92 86 68 6f 8c 79 8d 94 6f 84 94 78 6d 7a 8d 84 7e 76 76 9a 6d 77 66 94 7f 7b 76 9b 74 94 87 7a 98 8c 91 6f 78 95 5f 72 7c 7c 68 7b 86 92 87 79 95 8b 9e 93 8b 82 8a 78 7c 87 76 76 75 73 89 6d 86 92 89 95 8f 95 68 54 89 8a 6f 78 6d 81 97 6c 9c 71 95 9b 80 85 7d 91 7e 70 5e 87 82 92 71 66 6d 99 6d 7e 98 6d 8a 8b 84 85 89 7b 84 6c 89 92 66 81 91 75 85 73 69 8d 8d 71 75 7f 7e 8d 68 84 78 85 7e 97 92 73 89 a7 68 78 65 99 66 81 65 87 8a 87 91 79 83 82 72 8a 69 7d 86 8a a6 65 9b 86 70 7b 91 85 78 5a 5c 86 ac 63 87 85 6c 7c 9e 80 73 9a 95 97 a1 8e 7d 80 6a 8b 6f 78 85 7e 71 89 66 75 a4 87 83 78 69 6b 5e 7a 92 89 5e 7f 78 78 9c 6a 72 75 62 9d 73 7c 6a 56 86 97 8c a2 56 91 8c 78 85 a3 6d 89 8a 76 5a 91 5c 4f a0 87 76 a2 6f 51 5e 5d 76 78 76 98 a1 6f 9f 6b a0 8c a8 89 92 73 52 7c 54 77 8c 7e 9c 8d 76 7d aa 83 4f 5d 4f 43 98 a0 9d 65 44 6a 84 88 90 a9 8d 7f 71 59 7b 50 77 82 90 b2 62 8d 75 8b 69 94 ae 5d 4d a2 63 92 8b 8b 74 79 8e 8b a8 8a 9f 75 a0 3a a7 65 6a 76 83 7a 82 9b ae 85 93 88 86 73 a2 9f 4e 63 87 9f 56 75 88 64 83 7c 88 5a 7d a6 51 52 80 6f 55 55 ad a1 41 7e 7c 67 7e 7a 6a 7e af 5c 9d 6f ac 7a 5f 71 93 7a 52 6a ac 82 a8 22 79 64 84 81 8e a4 78 af 86 5b 4d 8b b4 14 52 71 a2 b8 94 b3 3b 4f 69 3a ae 71 7f 97 68 76 83 71 80 76 5c b0 76 9a 78 9e 70 85 a9 6f b4 89 8b 94 8d 70 7a 2e 4d 69 7c 9d 6a 73 2b 9c 4b 59 85 84 85 5f 55 9a 8a 79 81 30 6b 79 39 69 6d 7d 84 83 7a 9b 9b 84 9d 9a 81 8f ae 85 47 95 52 63 90 53 87 72 8c 8b 45 73 83 72 7d b9 87 44 aa a4 84 86 9c 32 ae a9 9e 8d 8f 4a 5a 7c b0 7c 90 70 9b 9c 5d 7b a2 54 a8 6c 96 ad 86 5d b0 b3 73 c6 61 8a 8f 17 6a 87 73 85 b5 3d 8c 97 81 ac 74 b5 3b 6a c2 62 9a b3 54 89 4e 99 88 a6 b3 b0 ae 73 95 77 84 76 94 43 4c bd 60 9e 93 94 21 ad 66 74 64 8e ae 4d 39 4d 87 67 98 42 90 a4 66 6a 9d 73 65 a5 49 7c 6f 9a 55 55 6e 6c ad a7 a4 79 b9 ad 7a b6 4d 50 b4 82 bc 81 90 58 85 93 87 88 66 37 8c 67 76 b3 7e 80 88 87 4e c4 c9 65 40 99 79 61 54 cd 98 61 71 ba 4b 70 79 a4 6e 83 b8 7c 52 ca b3 25 73 16 b8 cd 55 66 6e 77 82 81 81 57 66 81 83 61 73 76 79 a0 9d 7e 83 86 71 86 75 7c 7b 6e 86 70 99 8d 4e 5a 6f 70 93 8b 6a 66 87 7e 91 8d 8b 97 99 73 78 78 87 98 67 7e 89 65 87 72 9a 7b 89 62 89 8f 5b 8b 8f 9a 6b 90 75 6e 72 9a b0 68 b3 64 83 4b af 7c 61 6a 63 50 b6 8a 6f 9f 90 17 c5 37 82 88 8d 96 8d 4e 8a c0 78 68 a8 98 80 94 71 9d 8c 73 54 7f 5c a7 8a b6 99 7c 91 7c 6c b5 bd a1 70 51 a4 81 82 51 7b 71 5a 7d 89 81 a7 a1 82 a4 76 92 8e 98 94 65 8d 73 7a 61 84 a3 89 84 9a 83 60 65 7d 72 81 b2 6d 71 99 72 97 6e 99 83 66 74 59 83 84 5c 71 5c 8d 94 94 4d 6e 54 87 74 74 84 8d 7c 73 76 79 6d 66 6f 75 9d 78 62 a1 a4 a3 37 85 88 6c 6a 76 74 5e 9b 8c 80 7f 9b 82 7c 95 5e 77 a6 74 92 9f 84 4f bc ac 6c b8 51 5e 94 7d 92 83 6b a0 73 14 af 43 8b a1 56 6b 9a 98 9d c0 8d 5a 71 86 8b 5e 6b a5 3d 81 55 86 8c 70 85 74 7e 72 74 8e 99 7e 7f 91 6e 8c 61 7c 90 92 9a 7c 6b 77 86 64 72 73 88 8a 6f 71 72 6c 60 8e 6e 82 7d 70 5e 99 94 6a 8c 8e 95 83 86 6e 5f 8f 8d 89 85 6b 8f 81 87 96 92 90 74 8d 8f 8c 58 8e 8f 8e 67 6c 4e bc 7a 76 a4 89 92 6c 9d 7f 81 83 8f aa 78 9d 91 7c 6f 85 99 53 81 96 81 b5 7e 98 61 80 8a 82 8a 68 9a c6 7c 65 90 64 4a 8a 99 87 80 78 98 84 83 98 a1 87 7f 77 4e 76 80 73 8e 7d 90 5d 95 95 67 87 79 77 89 60 8a 6a 7f 76 a6 80 65 79 7e 86 70 8b 6c 91 7c 86 63 87 77 92 85 6d 9c 75 89 68 87 78 8c 67 91 6e 7d 73 7c 97 5e 89 71 8e 72 82 7e 8c 6a 85 7d 87 76 56 8d 7c 79 71 77 9b 6f 70 69 9e 83 87 aa 81 82 65 7a 80 85 82 77 59 62 86 86 91 9e 78 90 73 88 93 97 8a 5f 6e 93 74 5c 6e 73 7f 95 bc 7a 8b 73 64 89 6f ac 5c 69 7a 7c 8e 93 9a 93 8c 76 6c 5f 8b 85 85 95 6d 6a 74 78 7a 84 75 85 7d 72 9c 87 90 81 88 6d 79 7d 7a 8a 6f 8c 7c 84 9a 7a 7c 78 80 91 75 87 67 84 75 82 82 99 7f 72 80 90 81 91 8b 86 80 6c 89 85 94 7f 84 95 92 6f 7f 84 87 8a 5b 95 89 79 80 93 73 88 93 92 7f 94 89 6f 94 6e 7b 70 7d 7f 8c 8f 8f 71 8a 86 6c 8f 80 67 6d 6f 63 83 88 71 78 98 79 90 77 86 8b 6d 66 7c 7a 74 7d 92 63 6c 6d 67 81 69 99 9a 71 6e 75 95 77 7d 87 8a 6c 63 8c 7b 8c 6b 75 8c 67 99 7f 89 9a 9c 7f 72 7d 66 6a 68 78 8b 6c 74 71 89 6c 7b 9d 90 61 63 85 5a 9a 9a 95 8e 63 7c 7c 75 8f 8a 6c 7b 67 78 81 6b 7e 71 88 90 8b 74 95 7c 8f 7c 63 84 90 88 91 90 6f 8d 64 7f 68 89 97 80 6a 7f 77 79 76 97 77 6a 66 97 73 6e 7f 83 7c 6f 7b 83 7a 8a 8d 67 84 84 75 7d 88 8c 84 7a 7f 6c 96 87 7a 97 92 6b 94 69 8b 7c 93 75 7a 8f 68 91 98 71 81 7b 69 88 72 73 6d 74 7c 92 87 8b 8d 6f 89 84 7d 73 87 74 7e a7 88 6a 8f 7c 7c 7b 81 9c 83 8b 8d 7a 6c 6d 85 7f 9a 91 98 85 83 60 7d 98 88 76 7f 95 98 90 63 6c 6b 70 7f 6a 86 7b 65 73 78 7b 5f 6f 86 91 93 6f 7d 8a 73 7a 97 90 65 95 89 98 8e 81 90 95 79 8a 83 8a 97 8d 81 8b 70 73 6a 8f 83 68 6d 7c 66 7a 90 8e 73 8b 95 6e 64 68 95 72 73 7d 73 6a 8f 8a 8b 7f 7c 86 83 7e 81 66 7e 91 81 8a 87 6a 66 50 68 7d 79 73 68 7a 70 7a 67 72 6d 8c 85 91 90 77 89 82 78 7d 98 6e 61 8d 62 6b 73 83 75 82 74 80 88 83 97 68 74 9b 61 98 92 88 6e 66 78 90 83 77 71 7d 7e 4c 78 8a 91 75 77 7b 80 9f 75 80 73 6e 65 87 95 76 92 6e 64 6f 7b 67 75 78 79 88 80 80 6c 75 86 88 6f 76 75 72 63 6d 8a 91 7d 66 65 7a 8b 6d 7b 80 84 95 98 71 9a 92 6f 86 74 67 81 91 67 78 76 94 72 90 93 7e 92 99 87 7a 84 7f 83 72 7e 8b 7c 7f 84 84 93 6a 69 76 7c 67 8b 7b 8c 6f 93 80 70 9c 6f 8c 6e 7a 7f 77 77 7d 64 7e 6c 6c 8f 94 98 61 5e 6e 81 89 79 6d 85 80 60 83 93 7a 84 85 87 9d 92 81 88 82 82 85 7e 88 6e 75 88 98 93 85 65 6f 97 77 66 82 6a 88 6f 89 97 87 78 82 90 73 70 68 76 96 76 66 97 6f 7b 87 6b 78 6e 80 6c 73 91 9a 7b 72 7b 65 6c 6e 6f 87 70 75 85 8b 79 98 93 80 72 70 79 7f 93 67 68 83 99 8e 79 76 73 87 7b 66 64 8c 8e 70 6d 82 6f 8c 87 9a 8f 73 7b 7c 68 96 77 71 8d 6d 7d 69 6c 8f 77 72 76 91 73 70 7f 84 75 79 8f 77 73 7b 8d 7f 7e 67 7f 55 95 7a 72 74 73 87 7e 85 73 97 8d 86 87 7c 8b 94 7d 63 85 89 79 7c 66 6f 96 8d 9a 93 69 71 99 8e 8e 6d 69 78 84 75 98 72 91 91 65 71 74 8d 7a 67 97 6c 98 76 76 7a 85 8c 6a 9a 7c 67 79 70 65 86 77 7e 84 6c 7f 76 8f 99 70 97 8e 84 8a 83 99 74 75 75 66 88 82 83 87 66 7d 8a 69 83 85 67 92 77 7f 74 9d 73 8b 9e 8a 8c 8d 91 8f 86 85 66 74 68 74 91 84 53 63 8f 98 87 84 88 93 7c 78 36 8b 88 91 82 6a 88 71 78 8e 6f 75 79 79 92 83 8b a9 95 94 71 86 82 66 7e 85 98 83 6f 6f 8c 82 6c 63 85 7f 94 8e 7a 97 80 80 64 7d 6a 8d 94 69 9a 80 85 95 75 6b 95 79 8b 94 70 94 67 72 74 7c 67 82 8d 6f 73 95 96 89 81 7e 70 95 7b 6f 70 6a 72 98 63 85 6b 58 70 81 8d 6f 8e 83 84 95 70 75 79 62 71 93 7b 5b 75 73 82 87 79 6c 93 84 92 6a 77 85 6c 64 6e 8a 5f 81 6c 76 7e 8e 7c 84 6e 67 60 85 66 8e 84 7a 8a 8e 7e 82 7e 85 8a 89 86 8a 8a 75 8e 98 8f 73 6e 90 67 7e 71 97 74 8b 79 97 8e 8c 8b 8e 7f 81 7d 68 74 73 88 6f 7f 70 84 63 8d 64 7f 7f 86 9a 79 8f 82 82 6b 6a 87 70 7b 77 92 66 83 95 97 83 94 95 66 92 8d 78 92 93 71 8a 93 7d 91 5d 78 7d 62 7c 7c 7c 6f 54 6c 82 91 72 84 63 78 6d 98 63 7a 6a 92 6b 73 6a 6c 71 7f 7f 69 86 8b 74 80 8b 87 7b 86 8c 89 70 6f 7c 7e 74 5e 71 64 82 78 76 6f 6e 77 a2 83 86 77 a8 86 80 93 96 96 8e 76 7b 75 8c 77 88 6d 7a 97 78 93 6f 97 8d 6a 96 8f 70 8e 8c 81 7e 72 80 66 92 90 91 75 63 7c 83 73 6b 92 82 8b 8b 70 6c 8d 94 7d 81 7f 6f 79 96 7b 81 7e 7c 78 96 8b 90 6f 73 80 8d 6a 84 96 72 76 8f 72 63 89 8e 6f 76 68 8f 6e 8d 8a 79 89 4b 8e 8b 7e 76 6b 65 6d 6e 8a 80 8c 84 77 70 6f 93 61 93 67 8c 61 72 8a 77 6f 92 57 66 5d 86 71 82 77 67 7c 75 71 76 8b 8c 76 7a 72 99 7d 69 6d 63 82 6a 65 6c 90 94 89 6f 8c 71 7b 81 96 8f 83 73 76 7b 9a 96 94 80 8a 8e 87 8e 96 7f 64 79 77 63 85 78 7e 70 69 69 77 8e 64 95 95 67 64 82 77 76 88 79 6c 6c 68 6d 98 96 8d 67 6d 84 7e 78 4f 77 89 88 7d 70 84 80 71 85 91 80 8b 8f 71 81 81 8c 9b 67 6a 74 6d 90 86 7f 7f 8c 80 89 67 90 8e 8b 73 89 98 7e 8a 8c 85 74 7b 70 97 83 98 6f 63 7c 7d 7c 74 98 77 80 8b 6a 8c 71 8d 8c 73 99 63 70 91 7a 88 84 7d 68 96 6e 64 7a 68 6d 64 8b 82 67 90 96 80 8c 74 6c 80 89 6a 6b 92 83 85 80 7c 74 7a 79 94 73 7f 66 89 7c 90 76 93 97 7b 67 7c 90 6c 7d 8d 72 82 8f 94 90 7d 7e 77 90 99 97 7a 7d 8b 7b 60 5a 94 8a 6d 72 74 9a 92 7a 66 80 76 7a 83 85 71 92 86 7a 70 7c 7a 89 79 8a 82 8a 6f 82 6c 82 a1 92 73 8c 89 73 7e 88 67 82 af 77 5b 81 79 81 85 7a 6a 89 76 8d 6a 74 81 97 8d 88 68 91 83 8f 7c 69 6f 6c 8a 7a 7a 63 82 75 8f 8c 67 7e 96 66 6f 72 7f 6c 71 93 7a 6c 94 64 8e 6b 8c 98 8c 71 95 7d 6f 97 6b 90 63 74 93 99 84 7c 96 94 7d 87 87 85 91 77 7c 8f 6e 8d 6f 7f 71 8c 8c 73 8a 9a 77 86 6d 82 7b 85 83 7d 6a 72 80 66 97 57 76 8c 7e 8e 90 97 7b a9 6c 9a 81 65 92 76 8a 8e 98 84 86 87 5d 79 74 80 85 82 80 81 77 77 79 61 77 68 81 92 95 7a 65 81 a2 6e 81 60 8c 95 65 70 65 94 74 84 81 77 6b 80 8e 96 74 98 8d 71 84 93 7b 65 79 75 95 71 91 7f 80 64 84 89 82 66 76 96 6c 82 86 94 85 6a 82 97 6c 87 64 7e 7c 8a 99 7d 88 64 85 88 94 79 8a 74 8d 8a 98 8a 95 69 75 8e 76 6b 8d 6a 88 8f 68 87 83 7d 8b 85 97 8d 81 67 8d 8c 8d 92 8f 77 67 6c 7e 81 76 7a 5e 86 86 7c 83 68 8a 96 90 88 7c 7f 74 8b 7a 88 98 6b 83 87 79 85 87 88 89 8c 76 7c 89 80 78 76 7b a3 76 75 94 77 72 71 85 7b 8c 69 91 90 71 79 81 8d 94 8c 90 71 78 6f 8e 88 81 7f 86 63 76 83 82 97 68 84 8c 97 87 8c 83 8e 67 6d 84 85 96 76 72 70 73 94 97 8b 97 6e 64 8a 63 87 64 89 65 66 71 8b 77 6e 6b 89 90 a8 60 84 44 a5 6f 74 61 70 94 5a 9e ae 76 60 90 80 9d 86 9a 88 7a 7b 69 70 70 7a 74 74 71 96 6d 67 69 56 87 76 50 80 5c 89 84 74 70 89 7c 5c 8b 8f 89 8f 8e 86 6b 7c a2 8c 68 72 88 95 7a 85 92 94 6f 9a 66 8f 65 8b 8f 6a 95 85 89 82 6a 89 63 8a 6d 90 77 84 76 86 94 86 64 6c 65 79 89 9a 6d 7f 8b 87 63 6a 8f 90 66 92 6a 94 75 81 6a 6b 72 7c 7d 8c 81 8c 73 70 77 7b 8b 67 7e 90 9e 89 85 69 90 7d 8e 95 9b 83 a1 88 9d 62 81 60 80 7e 94 7e 85 74 8d 8c 7c 78 6d 8a 67 72 59 79 5d 79 6e 76 9e 5f 74 56 4a 7d 5d 53 89 61 68 81 88 92 5a 92 65 9e 93 8a a5 8d 94 91 99 71 81 81 8d 6c 78 6b 76 8d 68 78 77 8c 91 8e 83 91 76 6c 7a 71 64 87 6d 72 74 93 67 89 68 6a 76 97 64 69 73 7e 69 8d 6f 71 7f 79 91 84 6d 7d 77 67 8e 87 6e 8d 8c 6d 94 93 64 75 93 7c 7c 95 77 6d 71 87 8e 8d 94 a7 7a 98 83 88 81 83 71 70 79 81 93 6f 61 65 a7 73 73 75 79 9e ab 98 9a 85 64 9a 83 96 92 69 82 89 9b a0 9b 6c 6d 95 9c 7b 3b 6c 6b 69 75 83 79 94 7c 7d 68 97 74 6f 55 78 7a 86 65 6e 83 8f 8a 70 84 8b 74 6f 7d 83 8a 95 72 87 93 96 91 90 7b 86 85 6d 70 8e 6d 77 71 88 85 72 8a 85 71 86 98 78 8a 91 87 7d 98 99 65 92 8b 74 71 6b 8d 88 6d 92 8c 87 78 95 81 91 7d 8b 76 82 60 95 9c 87 5d 74 7a 74 7b 7d 8b 6b 7c 8e 7b 98 63 6f 7d 7f 62 8e 92 89 65 82 88 7b 8e 67 8f 7c 81 92 93 83 90 86 90 8e 69 7e 92 85 90 8e 73 8d 71 62 7f 8c 76 8f 8e 71 6c 86 80 7f 8c 68 99 87 90 7b 81 6f 82 6e 72 87 91 7e 8c 65 6f 96 91 68 77 89 79 87 6f 7c 73 84 84 82 63 91 96 77 8a 73 8e 8b 66 92 6e 79 91 6e 65 83 6d 63 8a 83 77 93 83 67 8f 96 97 64 8e 79 7a 73 96 65 77 75 9a 85 64 85 79 87 90 9f 7a 84 8c 90 6c 68 7c 8d 76 62 82 8a 95 97 85 8f 76 71 65 66 80 61 8e 85 64 84 6c 77 8d 8f 85 81 93 95 98 78 57 8f 90 75 83 8b 69 91 84 85 91 7b 77 73 87 91 74 81 87 6e 81 93 