5d 74 9c 79 7c 8f 67 6c 80 74 98 96 6c 8d 7c 84 93 7a 9b 97 84 6c 94 8a 88 58 6a 75 7d 9a 76 91 8c 96 71 87 6a 7c 82 92 72 81 8a 6c 66 a5 66 7d 83 5f 6c a1 73 70 6c b0 62 7e 86 8b 6f 85 9c 61 7f 92 8b 77 65 74 74 92 95 85 a3 70 a0 6a 8b 70 8a 75 69 7b 8c 77 81 77 69 70 72 78 85 78 87 6b 91 75 7c 74 7d 66 95 90 7f 94 71 67 8b 70 67 89 87 84 7e 6c 97 74 93 61 8c 66 81 98 61 60 80 6e 65 43 67 82 6f 8a 70 64 7e 77 76 54 62 9e 76 9e 92 77 88 8f 70 5e 78 8c 85 80 7c 88 8e 87 88 77 85 76 75 92 93 84 91 97 7b 76 61 81 7b 72 97 80 7f 83 7e 7c 8a 77 6d 58 88 88 8d 67 8b 5f 8a 96 90 6a 8d 97 8d 8f 5e 7e 95 79 74 80 7a 8a 89 9c 60 78 72 6e 6d 7d 60 7e 79 7b 7c 92 6b 91 a3 62 92 70 61 90 75 8b 98 8b 76 88 7b 68 79 89 6d 9c 82 73 6f a2 a1 63 6a a3 66 66 83 6b 99 68 a6 74 79 66 95 79 95 68 88 7c 6c 8c 6a 96 88 93 83 76 84 6c 6f 7e 83 84 6d 6c 84 79 7b 99 91 88 7f 6d 6b 8b 6d 79 7d 70 89 87 88 8f 86 8f 81 6a 85 8e 7b 65 75 8f 6c 78 6d 83 68 95 68 7a 8c 7a 63 9b 74 7c 66 58 74 77 6a 83 95 4c 65 5a af 8c 92 b4 59 7e 5f 9d 6f 6f 8e 50 64 94 73 8f 59 85 8b 91 81 72 66 6f 48 6f 85 77 91 8e 97 8d 78 69 54 9f b8 ab 8d 7b 86 6b 8d 7e a4 87 5c 88 a1 68 b5 5d 73 7e 91 84 63 82 8f 81 87 7d 9d 83 a1 8a 7c 87 80 8c 7a 77 78 71 5b 74 72 7f 65 6b 5f 84 82 71 7d 6f 8c 64 90 a9 91 64 7f 86 7f 8a 7c 58 6a 84 89 96 88 9a 72 85 93 57 a5 91 61 7d 96 84 6b 66 89 58 9e 6c 99 7e 8c 76 7a 8c 97 80 a5 65 8b 63 b9 a6 a8 7f a1 79 5c a5 a5 91 ae aa 87 9a 77 7e 51 86 68 7e a7 89 b3 5e 6f 82 89 6a 71 6d b4 69 60 4d 6a 76 4a 96 92 69 6e 7a 8a 59 71 aa 49 a7 7f 7c 6f a3 6b 74 63 75 55 6e 71 a9 73 a8 70 91 97 a4 96 62 98 8f 5d 86 87 6d a9 ab 8d 77 8f 6e 64 8a 80 7e a6 64 52 73 6d 7b 83 74 6f 78 7e 81 72 92 a7 62 78 79 a0 9f 94 6d 9d 45 9e a1 82 77 93 7e 9e 34 72 89 68 61 cb b5 c3 9f 30 47 66 87 b8 a0 7d 9f 82 70 5c 8d 93 83 a2 75 86 8d 3f 88 47 7a 71 6f 8d ae 7d 60 78 71 73 82 98 52 98 46 37 6d 97 91 1b 9b 87 50 25 6c 78 9e 4a 89 2c 63 74 8e 77 b3 70 76 8c 93 7c 89 70 73 a8 7c 88 65 83 a1 6e 72 83 63 7e 8f a0 91 8e 94 86 71 69 73 68 70 74 6f a8 5d 70 8c 7c a4 88 81 8f a2 b1 4f 74 82 90 80 7f 89 85 99 90 5e 80 5b 86 9a 7c 99 78 93 75 8b 63 5f 90 8e 83 8d 7f 47 8d 7b 90 9d 80 63 74 69 66 84 8f 8b 83 7d 82 93 59 5e 98 7d 85 67 8a 5f 6c 84 69 96 7a 7d 81 6c 8b 8f 6e 91 9f 7b 90 9a 6d 5e 7a 9a 94 99 64 7d 9f 7a 7c 8a 64 55 b0 77 81 68 65 78 6d 93 86 56 54 78 72 52 b9 9d 98 77 94 66 49 a6 b7 81 a3 65 b8 84 56 6a 56 7c 6c 7a 9f 8f 7a 75 90 6e 8a 94 73 57 a3 67 4a 6c b5 65 55 9d 8e 2b 61 70 67 9e 5e 8f 53 c0 b4 52 82 5f 64 75 70 75 6f 91 88 99 7f 7f 74 8a 8e 94 96 77 a3 6a 85 81 8e 6a 81 a2 95 94 67 7b 6c 7d 8f 8e 8a 6d 85 7e 88 63 82 8c 75 85 98 8e 6b 5c 84 6f 6c 8e 6f 8f 65 7d 82 57 8e 82 66 84 9a 70 9b 9a 7f 7c 75 8f 75 b4 6f 9d 8c 97 59 46 9b d6 a5 76 b3 87 9d bf b0 76 c5 b1 a5 97 53 95 70 66 66 91 9a 59 4e 5d 81 82 91 8d 96 88 b0 75 61 70 65 52 65 a8 c5 75 6b 50 a5 37 76 cb 60 a0 8d 83 7d 79 8f 7b 89 8b 84 7c 73 98 72 81 8b 67 8a 7f 86 73 80 80 76 6e 6e 81 74 6f 6f 70 8e 6f 7f 84 66 66 8b 98 73 95 77 66 6d 7e 73 95 71 5f 6a 65 6d 93 7f 72 8f 98 94 66 7c 67 88 82 81 7b 85 5e 90 6c 7f 8b 62 7e 96 99 83 91 43 66 86 95 86 84 70 9e 95 93 80 89 8f 94 9b 8a 8a 70 65 73 4e 6b 6b 80 74 9c 87 5c 96 92 96 81 7e 5e 86 54 45 7f 89 9b 4a 81 95 6e 60 86 97 9d 79 8f 63 82 63 61 75 95 6b 83 76 7c 42 74 69 8b 82 8a 75 6d 7f 8b 91 8e 9e 76 68 86 95 9d 7e a8 a2 65 8c 6e 92 90 73 6b 94 0c 94 93 6a 7d 93 68 89 87 82 9c 88 71 5a 66 77 69 74 92 a4 84 81 1d a9 89 9f 83 c6 83 6c b6 85 6e 76 6d 0e 7a 54 e8 b6 cd a9 4c a2 cb af 68 b9 75 3a af a2 5a c6 e3 bb 73 b0 6c 9d 8e 8c 8f ba -1 7f 87 7a 97 b1 76 73 8b c1 9d ac 81 6e 32 bb 6f 8b 72 82 6c a6 -1 74 f8 9b 65 93 7d 92 ad 80 92 80 89 83 8e 6f 63 99 ca 85 3c a2 c0 ad 64 9f 72 81 a2 b4 a0 c9 a1 c7 93 7a 92 56 69 75 6d 99 3c 9f 6a 8c 93 8f 6b 73 7e ca 5b 6e 41 97 29 71 a2 9f 72 7e 43 c3 2f 50 b6 7c 98 5e 5a 99 6e 7c 62 84 62 bf 74 90 7e 2c 4d 8f 7c 90 69 71 83 7c 85 55 80 86 85 75 62 6c 93 6a 76 84 65 69 74 81 a5 99 85 7d 8d 84 8c 8d a1 6d 59 60 93 7b 96 5d 81 6e 73 40 6d 7a bd 63 6e 70 5f a0 a1 92 9b 95 81 8e 92 2f 90 80 90 a8 a7 85 71 91 be b3 69 b8 69 64 96 93 5c ba a8 bb 73 7a 67 83 79 7c 64 9c 40 54 75 65 a2 87 96 8c 4b ac 76 6b 54 8c 59 83 a0 7d 7d 5f 4b 9d 3e 84 c0 5d a0 81 86 84 82 8a 78 6d 7d a9 a5 bc 9d 86 67 87 5e b1 8a 7a 8a 8b 65 64 6a a2 85 91 66 76 7a 3d 84 4b 8b 89 7b 77 a1 87 48 95 94 9b 67 85 52 a5 4f 32 69 93 7d 3b ba a5 7d 6f 71 74 ab 56 76 44 98 b6 63 58 d0 7b 87 75 71 22 8d 29 75 78 d8 84 68 9a 9d 76 63 92 6f 77 8a 85 64 8a ae 8f 63 9c 88 83 6b 70 68 81 4d 53 90 90 88 73 92 74 ad 85 8d ad 7e 91 74 b5 a1 9c a1 5e 8a 8a 08 75 b4 a2 6c 94 96 73 d2 95 81 81 90 -1 76 42 5c f0 af 86 8a 92 92 81 5c 7e 75 9f 7e 8b 9f a2 b0 6f 8c bf 89 7b 93 70 95 86 38 5c a5 71 8c 9b 63 64 81 8a 9c ab 68 57 4c 9d 79 75 8f cb 78 98 26 9e 9c b0 95 ba 83 a8 88 80 65 7a 8f 7e 87 a7 9b 78 71 80 64 a8 92 a4 88 9d 8e 94 92 80 67 9e 93 82 77 6f 78 56 75 82 6a a2 94 69 66 87 7d 80 85 71 89 85 5f 7d 81 7c 58 6e a7 77 79 84 6e 9e 7d 63 9a 54 7b 82 6f 75 83 7c 7a 81 69 87 7d 7f 80 73 94 86 83 74 9b 77 69 89 63 6d 69 84 70 91 82 76 90 8c 74 9b 71 7a 77 98 7e 6d 86 71 84 78 70 71 7a 7f 8c 9a 88 94 8b 8b 7c 74 85 72 91 93 90 78 7f 70 7d 6b 76 a2 45 70 82 8e 69 99 ab ac 95 65 5b 7c 5b 7a 8d 9e 69 99 90 7d 88 93 60 af 8a 95 84 51 78 68 70 93 64 a5 9b 71 56 66 89 8a 70 69 74 89 57 63 63 98 5d 43 86 95 57 4c 69 84 a0 5c aa 53 a3 8c 71 7a 6f 66 64 71 6a a6 79 8d 5d 9c 71 7e 79 5d 5c 80 92 6e 84 7e 94 7c 6e 6b 70 7b 6e 70 65 7e 67 69 73 7d 92 9a 90 93 88 87 92 80 6a 83 6d 95 93 86 7e 97 88 63 68 9d 95 95 98 6a 74 88 7c 53 8d 8b 44 73 8c 7a 82 88 ae 8f 82 69 2f 65 8f a2 7a 8f 8b 6d 87 8e 6a 87 4e 8e 66 82 7b 3a 63 3e 78 99 92 5d b4 94 3c 80 6a 84 72 6b 65 7e 09 31 5a 78 9f 21 9f 6d 54 6e 92 6d ba 4d 84 0e 94 7b 5e 95 70 60 76 80 62 7b 69 94 8c 7d 9e 94 77 62 85 7c 75 72 60 7f 6b 7f 56 8c 88 81 8e a5 72 96 8c 8d 6a 7b 51 6c 93 54 8b 58 66 6b 9e 88 8b 77 7e 56 6c 80 63 88 87 77 78 70 97 90 67 a2 77 9a 7d 80 9d 6c 94 6f 87 79 86 92 97 a4 7f 82 8e 7a 62 70 78 88 85 72 67 8c 7b 60 68 6a 7d a4 78 a0 78 81 68 69 7d 85 90 80 94 6b 6d 7d 63 8b 72 9f 8e 59 93 95 71 6f 6d a5 78 93 82 94 6a 83 84 cd 61 85 9d 94 7d 8c 8d 3c b6 6d b6 ac c1 6c 49 b1 ba c6 55 c5 7d 75 ba c1 75 ce d9 a6 95 89 8d 88 72 91 8a ca 40 62 95 92 80 9b 86 95 95 c5 94 91 6e 6f 20 93 b9 b8 83 83 4e 88 33 6a eb 80 87 61 88 74 98 86 7c 84 95 9f 85 69 8a 88 84 73 88 6c 8c 90 89 58 7f 64 7f 62 90 82 79 86 60 8b 79 7f 94 69 9a 66 6e 77 7f 8d 84 95 98 88 7f 8b 71 6d 81 98 7b 7e 86 78 73 60 8e 5a 9d 73 7a 95 92 9d 63 91 68 77 7b 82 6f 4d ca 94 95 7b 73 75 75 a2 b0 b1 87 a4 62 99 95 b4 94 ae 78 a7 7e 59 82 5a 95 6b 60 b5 98 79 4b 7a 7b 8a 87 67 9f c9 6c 3a 76 9c 4a 4d b0 a2 b0 8f 40 7c 6c 82 a6 3d a0 7f 8d 6e a8 7b 80 7a 75 0f 8d 45 72 92 b6 63 71 66 8a a1 98 9f 81 57 8d 8b 6e 87 c3 b2 80 86 6c 77 6d 66 97 9b 35 4c a1 7b a7 93 87 6d 60 ae 8f a9 69 93 8b b7 7f 8a 6e 99 83 78 25 85 b5 86 96 74 84 8d 8c 77 70 93 78 3c 84 5f 66 67 95 64 77 70 83 92 8b 7c 6d 7f 7f 8d 8f 80 90 74 8d 80 94 9e 7a 91 8e 8b 5f 82 91 8a 5d 75 75 8d 7a 6d 83 7a 80 69 86 8d 9c 6b 73 88 7f 91 5f 74 9f 77 8c 69 69 99 71 8c 81 6b 8b 92 94 8b 6a 43 5c 86 a5 64 62 75 aa 50 77 8f 6a 62 72 79 77 61 a4 7e 8a 88 86 89 7d 64 a9 7e 69 6d 86 80 87 97 97 66 5b 5f 8f 91 b0 64 7d 5e 80 77 7c 62 ad 98 50 6c 60 94 88 9b 7d 94 66 70 96 a1 85 8e 68 78 7b 6b 91 6c 75 85 74 7e 71 5c 8a 74 8d 88 73 67 85 99 7e 87 8e 84 64 90 89 70 91 6a 7b 72 81 8f 64 76 7e 77 71 6d 82 87 75 7e 7d 88 91 65 68 8c 67 9b 85 ab 96 85 9d 62 79 8b 98 71 90 74 89 7e 86 82 8f 76 88 8b 75 8b 94 85 95 91 66 94 93 7c 92 a3 63 90 98 70 8e 9d 2b 93 7c 94 72 6a 7c 67 7e a0 7d 85 7f 61 7a 77 70 81 b0 6a 79 7d 44 62 96 aa 8f 78 78 8b 4d 82 6d 80 93 89 86 8f a1 86 51 81 a0 72 93 8c 96 8b 84 4c 76 67 94 89 7c 6e 84 75 6a 74 8a 80 6f 7f b3 74 74 62 9b 74 88 62 67 70 60 6e 97 6f 9e 87 8d 93 55 6e 86 6d 8d 5c 86 75 83 7e 77 88 ab 93 7c 83 7a 79 85 6c 7c 8a 97 92 5d a9 83 7e 7d 89 91 72 9a 9a 63 9f 7e a3 6c 5a 6a 5e 63 99 96 7e 85 84 54 98 55 85 86 78 87 a1 5b 80 6c 97 76 70 93 b3 5d 67 8c 8e 6f 62 8e 86 7b 78 5f 8f 6f 61 65 79 8a 84 7b 9b 92 53 8c 7f 7f 67 5c 87 7d 65 88 8a 88 71 7b 6d 84 6b 7e 79 7c 87 8e 69 8d 62 8b a7 6b 90 70 80 67 8b 77 81 95 98 99 75 71 99 83 6b 8c 71 7f 7e a6 87 69 97 5d af 63 79 6c 67 71 8d 6f 29 b0 7b 7c 64 5a 82 7b ac 9e 88 80 a0 8d 94 8e 99 6b 8c 91 84 a1 5d 7d 5a 86 8f 89 8e b0 6f 65 56 70 52 53 92 82 91 45 54 85 86 90 57 a9 9d 5e 53 5b 85 95 6b aa 57 96 63 4b 7f 69 73 78 79 84 7d 8b 94 9c 40 47 96 7c 9c 5c 90 a9 6d 66 6f 5e 80 69 6a 7f 6c 92 65 85 80 81 68 79 78 ad 7d 76 5f 66 87 7c 91 51 84 73 55 9b 5f 7f 59 a4 7f 59 5a 7b 78 aa 6f 7d 4d 5f 81 79 93 b5 66 84 86 99 40 97 68 ad 31 bc 6e 64 8e c6 c2 88 cf 88 5c af c0 61 c1 aa 99 7d 62 84 4d 6f 8e 91 ac 32 84 6a 5f 84 83 8f 71 9d ba 66 5e 53 a6 50 85 a2 af 5a 98 74 a9 0b 56 ae 5f 9c 75 89 98 82 81 85 7e 77 63 6a 6e 72 95 75 83 7c 6b 72 7b 7e 7f 86 70 9b 7d 6a 8c 6c 92 66 80 8f 73 7c 67 74 67 80 69 74 75 9a 6c 91 8f 82 98 8f 70 83 81 77 88 6a 8e 88 7d 7a 74 90 66 83 84 6b 5d 74 89 92 74 66 61 89 74 81 64 56 73 91 7a 9f 8d 7d 68 8e 73 6c 9d 73 63 8c 70 7d 7a 91 79 6f 84 6c 7f 6f 6b 6e 67 86 59 80 60 83 8f 69 7d 95 75 7c 7e 73 99 65 84 84 72 8a 8e 6c 66 56 81 80 79 7c 82 ae 88 85 7a 72 26 9c 55 6e 9e af 6b 67 73 99 9f 89 81 61 71 7e 94 5e 81 ab 85 7d 93 7c 88 6b 6e 80 79 46 58 74 91 74 a2 7b 89 7b 7a a0 78 85 65 92 a4 80 8b 8b 81 6c a5 36 a7 8e 84 93 87 7c 8f a2 72 8d 72 98 61 8f 57 96 22 c9 65 7b a1 9e b1 76 be 81 7b 70 ac 90 b5 bd ac 84 7c 7c 65 73 77 6a 7f 46 5b 88 7b 8d 7e 79 8f 97 b7 85 78 68 7c 80 96 94 8b 3c 7c 6e 99 1b 8d b2 96 a4 81 95 93 6d 82 61 6d 80 85 78 9f 92 83 73 79 7a 8d 8b 76 8b 72 8c 86 7e 67 6c 96 6a 87 6a 5c 68 89 8f 79 6d 6c ae 7f 71 8f 7b a3 82 6e 7a 70 52 79 6f 66 a9 49 81 8c 86 88 7f 82 b1 7c 97 55 69 8c 9c 80 5c 71 89 85 6b 81 4c a2 9e 81 64 72 98 57 5d 5e ab 68 7a 92 65 60 78 49 74 7f 9c 96 72 85 91 88 89 77 90 9e a6 6d 70 79 8e 92 79 53 91 ab 84 72 81 98 53 4f af 66 8e 62 a5 6a 4d 92 80 8f 86 a0 a1 79 7e 66 75 43 93 7d 88 d2 ab 9b 62 a3 c7 9e 77 b7 8b 93 ae b3 73 a4 a0 a5 80 6c 67 74 6d 8d 69 a4 4b 7f 83 8a 9e 7f 89 98 5b ab 6f 6c 7d ae 5b 85 98 8b 79 88 68 a6 1d 7d c2 6f 91 69 69 98 a4 97 8f 75 6d 39 77 79 84 35 a7 87 63 71 88 a9 87 7e 7a 59 a4 7e 72 7f a3 90 7e 74 94 8c 65 66 79 9f 36 7e 76 74 96 58 65 98 a3 a3 8f 88 84 81 56 a2 85 7e 49 aa 77 93 39 61 82 87 8f 87 8e 68 59 71 8a 89 7c b8 8d a3 89 8a 52 78 9d 58 64 49 ad 41 75 76 54 69 8a 48 5e 34 8c 6d 91 79 67 90 64 52 bf 70 97 71 a2 92 67 74 84 59 8e 7b 82 82 9e 5f 78 5e 4f 71 8e 78 ac 67 63 92 43 68 7f 8b 94 8f 63 78 69 a0 62 71 75 7f 88 76 9f 6b 6f 75 84 68 7f 90 75 79 6d 6c 8f 87 74 7d 90 8e 6a 6c 85 86 68 8c a3 81 6f 6a 72 68 87 6c a4 a5 94 83 97 83 66 6c 70 97 97 8d 8b 70 50 a1 8c 8f 94 7c 81 95 6f 95 8b 62 8e 54 87 b1 c9 7c 67 8e a3 92 5d 8f 8c 74 aa b6 62 aa 98 a1 77 81 68 58 68 8a 72 a1 56 75 8b 93 6f 7b 8e 6c 53 ac 56 65 6a 62 51 62 aa 8c 96 92 7e b5 2e 49 cb 91 7b 65 6d 8b 5a 76 86 6c 95 b0 8d a8 7a 5f 5b 85 7b 8d 6e 7b 7d 76 8e 89 83 8a 97 7b 6b 7c 9c 5d 8d 61 73 6f 8a 6b aa 98 51 79 53 8f 88 65 51 7a 64 4d 92 70 7b 74 ac 59 74 5b 76 77 a9 9a 99 48 9a 9a b5 73 9d 69 87 91 77 10 77 53 9c c3 b9 83 5d 9e a9 93 5c d3 6b 77 a3 c0 74 bc a0 bc 82 75 85 75 6d 75 83 bb 50 53 7c 86 7c 8b 98 78 62 b0 82 60 47 aa 4f 7d 96 a7 8e 73 53 9b 1f 68 dd 6f 8c 7c 86 8e 84 66 79 8b 6e 8f 7a 8f 8f 74 86 94 7d 71 93 74 83 7e 80 74 87 99 90 71 83 82 93 61 7c 93 6d 7b 7c 73 8c 72 94 7c 6c 77 72 88 85 90 6f 7b 86 74 8e 6e 74 85 70 85 6f 8c 89 88 6f 72 8e b7 bc 6e 95 91 82 61 6e 29 82 82 8c 9a b1 5a a8 86 8a 5e a9 84 7f 83 59 77 5d 80 99 7b 6c 7d 78 8d 64 7b 75 8a 7b 6c 7b 67 97 82 7b 79 70 71 9a 89 82 8b 7b a7 a0 6e a4 a4 94 96 5b 6e 92 a5 5c 83 61 7a 6e 65 64 79 7e 8a 8c 8b 96 7a 6d 6c 7e 87 7d 9a 77 7e 83 5f 80 76 78 77 9d 82 89 8d 70 77 7e 64 6f 84 9d 6f 84 69 83 7e 85 79 92 79 84 73 7d 7c 96 73 75 99 78 80 92 7b 80 9b 6a 7b 7b 7b 8b 85 83 78 70 93 62 72 7a 97 78 79 83 70 99 82 6f 82 8d 7a 74 5a 92 68 8f 65 75 8b 76 89 7e 9a 8a 68 60 63 87 7a 67 66 8d 95 62 68 68 82 7e 8e 91 68 8b 95 8e 8c 6a 73 90 8c 8a 84 90 8c 73 92 62 7c 84 68 7d 60 79 6e 73 8c 79 98 79 6a 80 8a 6a 97 90 95 77 86 87 88 93 70 7f 99 8d 93 69 93 7a 7f 62 84 7c 5a 8e 61 68 82 83 7b 76 97 89 9b 8f a8 7b 8c a0 82 94 91 92 8e 7e 9f 77 92 7b 