84 87 6f 67 5b 70 69 87 70 60 8e 7c 9e 63 8d 7b 4e 92 81 71 8f 94 74 7c 93 6d 88 77 62 94 6a 83 81 95 86 97 9c ad 66 5a 75 61 89 7a 6a 8d 5c 7d 93 72 3e 67 89 7b 72 62 69 8d 9b 85 6b 82 6a 76 94 9c 71 a0 6a 8b 93 7a 93 70 a1 5f 88 ad 9d 7d 8d 88 63 81 61 94 8b 89 5e 93 83 57 80 5f 74 65 75 81 68 85 65 70 8c 7f 73 8f 72 6e 87 8e 6e 78 82 5b 55 6a 5a 75 8b 99 96 9c 9a 62 90 92 a2 97 85 5f 3e 7b 7a 93 80 74 91 72 53 70 6e 95 86 65 80 69 60 6d 63 8c 53 5b 7e 6a 78 7b 85 8e 60 6d 85 8d 6c 5e 92 a4 73 74 a8 53 7b 5f 84 86 9f 7c 63 78 92 6e 74 97 a7 86 84 88 8b 97 5d 93 60 75 9b 4d 7f 6d 6b 6a 7d 5a 8a 83 8e 57 89 97 81 7e a5 78 67 60 87 89 74 78 80 81 84 5b 6e 79 57 49 90 97 8e 7d 90 75 8f 6d 6d 67 6c 7d 68 63 82 63 8c aa 88 70 7e 79 98 75 64 83 53 7d 5d 8a 7d 6f 80 8b 5a 8d 6b 74 8a 85 55 59 84 a1 a6 7b 44 88 74 85 76 8f 5d 75 5b 95 8d 76 7f 9b 6a 5a 90 6b 86 74 6f 90 79 67 79 97 7d 5b 6d 5e 8a 7a 89 67 9d 88 7c 88 41 8d 87 7b 71 6d ae 73 88 76 76 8c 78 71 87 7a 84 98 69 5e 69 6e 77 6b 5d 6b 80 56 6a 6f 8a 87 6f 7f 79 92 87 9c 81 88 77 91 77 76 88 72 5a 7c 79 6f 6e 7b 70 6e 7b 8d 8b 6c 90 86 61 88 87 5a 7c 6a 83 99 8b 8a 77 8c 85 64 98 65 8a 90 81 67 51 75 88 85 67 5e 81 97 65 63 86 98 8c 7a 8a 78 8f 68 66 94 81 82 8e 56 8a 9b 67 93 56 74 5f 82 79 8c 87 87 84 79 92 6f 9b 8e 63 85 8b 84 4d 8c 76 88 91 9a 6c 5a 65 6f 7a 9f 67 9e 8a 88 62 51 7f 5b 94 8c a7 86 95 83 6c 83 7f 6f 6f c4 6c 99 7c 77 8a 75 86 92 73 7b 8a 8e 61 89 8e 63 76 56 8f 87 a3 5c 8b 78 70 6b 76 5c 90 7a 49 5c 82 ae 8d ac 5a 64 54 81 5a 6b 72 83 83 99 8e 5d 76 88 7c a2 67 61 9b 68 8f 71 82 7c 89 72 6e 96 82 77 78 8c 77 87 82 69 8a 91 78 95 4f 5f 78 8e 7e 74 99 9e 82 a1 6b 94 69 94 84 5e 68 83 5c 7f 5a a3 84 1b 68 5f 69 5f 95 63 a4 81 89 96 56 60 7d 73 86 65 a1 67 7f 6e 6c 6a 75 5f 85 91 90 95 73 78 68 72 99 7d 6e 80 8b 7d 7d 90 8e 4c 83 70 6c 84 b4 48 8e 4e 79 8a 72 98 7e 6d 6a 6a 82 85 7b 93 44 78 73 6b 6c 9f 62 91 6e 6e 93 70 97 78 6e 69 82 52 7c 84 97 7e 79 7d 84 80 86 6d 69 68 5c 9a 5b 83 76 88 85 61 63 71 9a a3 72 9b 82 8a 6f 55 83 85 9c 5a 75 95 8d 6f 7d 83 7b 79 6c 68 7e 92 60 96 98 92 7a 82 93 64 9b 89 83 5d 74 77 70 8a 7f 8d 80 83 7a a1 81 83 8d 5c 5c 89 73 96 97 7b 4c 8d 7d 98 8b a3 7b 56 74 8d 7e aa 78 74 97 a9 86 7a 62 94 85 85 67 77 65 95 7e 6d 99 59 49 8d 66 99 92 90 80 8c 97 82 64 a3 6b 83 5c 6a 80 68 69 88 5d 62 89 87 9b 57 75 7c 81 81 85 7a a2 77 72 89 90 73 4d 75 52 56 72 81 a3 6a 8a 77 75 8e 4d 61 75 74 79 7f 7b 9b 7e 5e 98 61 7b 7e 54 8f 7d 8a 94 61 68 8b 5e 89 83 72 7a 72 95 58 86 8d 95 55 73 7a 7b 51 65 58 74 6d 86 78 77 a0 68 6a 6e 9c 9b 6e 7d 6c 82 8f 7b 73 3f 5f 8a 96 70 86 67 91 79 6d b0 72 77 44 93 7a 7b 78 a5 80 7a 72 7e 2d 7d 60 96 66 8b 8c 82 8c 98 7b 85 7a 8d 93 8c 86 a1 99 67 a1 77 78 a3 79 52 86 7a 7c 6f 81 9b 92 86 9f 83 5a 75 69 79 9d 61 78 8b 60 7f 57 94 78 76 69 90 9c a3 9b 9c 83 8b 75 86 55 a5 67 a2 83 72 8e 61 ad 83 92 9b b0 95 95 84 83 76 7b 6d 7b 8d 7b 69 72 81 81 8a 75 71 73 7e 7b 84 6c 9a 5e 84 8c 7f 7a 9f 70 6b 80 8b 8a 8e 5e 60 67 a3 83 57 75 8f 98 79 79 77 93 6b 78 6d 91 71 7f 77 87 6c 92 85 8e 92 74 67 6e 47 90 6f 5e a7 83 74 66 7c 74 86 76 90 86 96 70 89 84 58 7b 8b 81 7b 48 81 5f a1 a3 7c 93 7d 77 52 63 5f 6e aa 7e 64 7d 99 82 83 89 7d 92 74 87 65 88 7c a1 90 9d 45 5f a2 7e 6f 85 9e 7c 86 68 8a 8e 7d 75 78 8d 7a 89 84 78 91 90 7d 6c 4a 94 78 8b 7a a3 9b 48 95 85 5f 91 7e 90 6b 7f 6c 55 6f 2f 7e 9a 86 78 60 5f 92 6c 3f 8b 9d 7d 98 6e 75 89 89 87 84 8f 61 a8 74 8c 84 5a 74 98 8e 85 93 67 81 65 6a 89 80 7a 6e 9f 5e 7b 66 40 5e b6 6c 9a 8b 8b 5e 75 64 8c 89 98 73 89 63 8b 8a 6b 88 7c 5f 6c 80 88 5f 78 70 72 83 a2 7b 79 83 64 9b 78 8c 8d a3 6b 6e 76 5a 6d 68 7b 81 82 8a 3a 5e 76 6c 6b 7c 78 6d 66 76 9d 80 8e a2 87 a0 79 7b 8a 93 79 6e 6a 73 98 5b 7e 6f 78 74 9b 76 97 76 7d 61 7c 8e 6e 8f 6a 59 74 61 99 8e 93 8f 79 58 78 87 60 93 62 98 6a 81 85 7f 73 96 91 5e 8e 75 76 82 86 8d 53 7d 9c 9a 96 6a 78 72 65 96 7f 65 88 7a 5e 65 87 8d 5d a0 9a 8f 99 a2 7a 66 91 7a 8f 99 54 71 78 6c 62 6c 85 66 82 77 91 88 8c 8f 86 a8 7c 5b 6b 81 6c 7b 7f 79 70 67 74 9e 79 87 6e 67 7f 68 94 95 98 60 67 54 73 81 5e 77 91 7c 92 9c 82 9f 83 8d 6a 84 84 84 71 92 8c 6f 79 81 65 51 7f 82 9b 97 84 64 7c 48 66 89 76 7c 64 74 8b 5b 7a 74 70 54 45 77 74 94 81 84 a2 6c 72 5c 66 68 77 6d 8c 9a 7f 90 9a 7b 79 77 6e 51 6f 4a 8e 9e 91 5b 75 5c 64 6b 90 8d 69 73 91 84 5e 56 6c 85 6d 9f 83 91 95 6b ae 91 82 88 88 78 71 83 9a 4f 7b 63 96 8d 5b 8d 83 72 81 7e 6d 53 72 6e 66 a0 5f 8e 8f 8b 94 71 85 6f 56 a0 8b 67 57 96 79 6a 9b 61 72 7f 66 88 7a 66 6d 60 87 6a 5f 85 80 75 6d 8c 5b 9c 4c 63 73 63 a2 98 4a 97 7b a0 74 62 87 9d 40 8d 48 89 66 68 65 85 8e 7a 91 78 80 60 87 99 9d 72 94 94 8c 7e 87 80 a1 80 70 8b 88 50 84 74 8c 8e 77 82 92 8a 5d 72 7a 91 88 63 5f 82 83 91 98 70 a5 97 6a 71 a6 83 90 81 87 74 86 9d 60 7b 63 a1 6a 7b 74 92 67 8d 90 80 7f 88 83 8c 5c 76 64 7e 97 72 6f 78 7a 76 8a 7f 93 80 82 6a 8e 58 4f 96 65 84 81 b0 7e 6e 78 65 6c 8e 7e a0 75 52 68 7b 8c 84 87 7c 8f 7a 8a 89 84 49 93 90 85 99 5f 7c 83 76 7f 63 95 83 93 90 83 99 51 81 8f 74 9f 8b 78 92 89 65 5c 5f 8a 95 8f 6f 94 82 63 83 4c 84 73 99 6d 73 6c 98 70 5c 6f 8a 91 91 6d 86 7d 8c 7c 73 78 81 99 85 66 74 78 57 7f 70 42 60 9b 87 54 75 9c 90 95 6a 84 80 5a 78 79 92 a7 9f 8a 88 8a 90 89 8d 84 74 58 9b 77 79 84 a1 6a 75 99 67 6e 8c 6f 7c 9d 7d 82 6f 69 84 83 8a 61 71 8c 70 72 72 a8 79 98 91 84 97 5a 42 99 70 7b 8d 88 8d 68 80 8c 9c 90 84 5b 7b 85 78 90 5f 61 5a 63 5e 5f 75 7d 9c 96 7d 8b a5 6e 81 7b 82 84 7b 90 61 91 a9 6c 87 77 9f 60 92 5f 51 96 86 70 5d 77 71 59 82 8f 8a 84 8b 7a 6f 9b 91 83 82 98 8f 8d 5b 6b 63 78 8e 83 74 9d 71 70 93 a3 6b 87 81 79 95 94 73 6d 9d 67 9f 7c 73 92 91 9f 8c 87 66 8e 8e 70 84 8b 89 84 8d 6c 77 62 7e 79 86 71 9d 78 81 90 ad 7d 74 65 8e 6a 6c 7c 76 87 4a 71 9b 74 46 8f 8b 77 8c 82 6d 7f 65 92 a8 99 67 7a 63 6b 8f 8f 63 85 89 a0 8a 9c 62 82 9c 5b 86 4c 9d 5b 63 7f 7d 72 71 97 8e 94 5b 8c 88 89 5e 82 85 6a a4 7c 89 56 79 5d 9d 89 89 84 65 83 87 6c 52 6d 76 7b 72 7e 62 53 95 97 76 81 97 41 76 79 8f 76 8a 82 6d 64 92 90 7d 8c 83 78 88 53 7d 8b 9d 58 7d 8e 61 98 7e 87 94 73 92 6b 7b 91 49 8b 5e 8a 78 70 5f 9f 69 63 8b 7e 99 7c 8f 8d 73 89 87 8a 8e 52 9f 81 9a 8b 9b 81 70 66 87 7e 8f 7d 71 81 6b 89 9c 80 6c 6e 76 6f 9f 7f 65 71 6e 65 6b 8d 76 98 5a 99 63 70 97 8a 59 7b 59 6c 88 82 9d 91 82 6c 8e 89 87 6a 7d 6a 7f 95 5f 70 6b 8e 77 95 90 5b 81 97 94 93 96 6b 7f 72 94 8c 92 77 77 68 a3 72 6c 64 92 97 a1 8c 83 89 75 6f 8e 85 9c 75 72 9c 8a 91 95 88 5c 7e 5f 8a 66 5c 6e 94 9f 7c 98 89 87 7c 81 7f 90 83 6f 98 a1 70 6a 7f 92 7f 91 88 7a 7a 85 5d 75 91 7e 6b 9a 87 6f 65 7f 6f 84 67 99 86 62 5e 6d 7c 6a 5a 51 8e 65 87 79 79 9e 98 83 81 77 7f 79 84 ac 72 a2 97 71 66 64 77 79 70 6f 7d 8f 9b 85 79 7b 83 80 5d 78 5c 5a 8e 48 79 97 8e 91 80 83 7a 7e 90 61 75 7b 86 98 93 6b 73 87 91 a5 91 97 85 7e 9d 90 7e 6a 86 68 7e 8b 75 74 9c 87 87 82 8e 8f 60 84 70 7b 88 94 9b 80 7f ae 95 74 66 5f 7c 60 6e 6b 86 7e 6e 7e 58 5e 92 76 78 8f 97 97 42 8d 7b 6e 4c 6c 7f 63 b8 a7 91 59 87 87 7d 85 7f 8a 7d 5d 8f 76 64 5e 93 81 95 80 85 4f 85 77 8a 58 6c 8a 76 78 47 79 83 85 47 76 87 c7 82 86 9e 9b 86 5a 88 77 8c 72 63 63 95 79 8c a5 70 71 7c 8e 8a 9d 88 8a 83 50 80 79 6d 81 88 8a 6f 82 79 ab 69 94 6b 7d 94 85 56 7c 80 62 92 83 56 a4 6a 76 8a 8f 65 5c b1 7d 77 51 83 86 57 6f 5d 7c 92 6e 8e 8e 81 76 87 82 8e 8e a3 83 8a 6c 96 ad 93 60 4e 92 7d 8a 99 7b 62 84 75 69 7f 3c 86 55 85 70 99 5c 83 8d 96 a3 82 73 6f 7d 8a 8a 72 a1 9e 69 a3 88 71 5e 95 8c 6e 95 82 86 7d 74 96 9a 6f 82 74 64 99 ad 80 94 9a 63 9c a3 76 7f 92 9f 6d 66 9d 7a 8b ab 90 88 7c 5a 85 69 83 8d 93 7d 88 7e 71 75 6e 84 86 71 64 7b 8f 5f 7f 7a 89 76 53 4b 78 90 86 85 8c 7b 8d 88 5a 64 73 75 91 9a 7e 98 9b 8e 7d 70 76 8c 84 79 8f 66 8d 96 88 67 75 9e 8b 79 7d 74 6a 82 82 6d 3d 85 71 48 5a 49 89 97 77 80 87 5a 77 4c 7f 9c 69 73 88 86 82 63 74 85 8c 88 90 61 8c 68 6e 88 64 56 91 9b 7f 8b 65 8f 51 72 7e 88 9d 87 75 7f 63 ac 65 99 a4 8c 8b 74 67 84 89 6c 71 7a 60 6c 7c 7a 5e 78 75 85 83 68 7a 87 90 82 6d 7c 64 6e 7e 8b 77 89 8e 6f 81 95 5f 8a 71 63 85 60 70 78 90 66 88 67 7c 8c 6d 93 90 7a 8e 7d 89 84 69 72 8b 90 94 6d 86 86 70 97 5d 5c 80 86 91 82 89 75 75 72 85 6d 50 96 94 9c 91 87 65 a3 56 8f 91 70 8d 68 9f 87 7c 54 76 90 73 af a2 63 92 7f 5a 58 46 98 8a 5a 7d 6f ad 78 9e 90 7c 78 9b 6e 6f 7e 79 6b 80 68 87 6f 93 75 93 6c 80 8c 7f a8 98 79 68 6e 4c 82 66 a2 62 48 a8 54 85 9b 8a 6f 63 6b 94 8a 75 a1 66 87 9c 7f 87 5c 5c 42 87 9a 82 73 63 93 96 65 7e 76 8f 88 78 7c 93 8c 91 5a 79 86 94 97 a3 75 a0 6c 68 5f 3e 8f 80 8c 98 89 93 40 44 71 8d 98 4b b1 6b 96 9d 5d a1 78 50 85 8f 90 8b 92 89 92 6e 68 88 79 5d ae 9a 69 92 8a 32 7a 50 76 8e 51 92 80 63 7d 65 69 85 92 6c 95 81 a1 63 63 72 52 59 53 6e a2 94 82 6c 6f 78 68 91 8e 8b a2 9a 5c 61 61 68 5d 9a 98 89 58 89 60 65 8b 8b 98 97 85 92 5c 87 9a 9c 6d 64 68 7f 94 5a 72 64 59 8a 85 6b 8f 86 9a 90 65 82 88 65 72 94 60 68 a1 81 6f 6e 8a 7c 8d 84 74 8f 75 8d a3 48 67 b3 72 a1 6d 9f 95 87 b8 89 6a 57 a2 7f 36 61 5d 88 8c 88 86 60 57 78 7c 52 87 8f 6f 6b 83 7e ac 8f 46 7b 31 97 8e 73 5e 75 69 90 7a 78 94 6c 78 95 72 7e 87 72 91 7f 67 69 6a 85 9b 6f 94 58 70 80 ac 78 60 50 6e 54 87 81 71 5b 7a b1 76 b8 93 b9 91 83 95 a0 75 a5 8d 65 a6 69 7e 39 8e a2 82 6d 79 81 a3 9b 8c a9 8f 63 80 85 b2 3a 7d 81 4c 95 77 8f 4f 93 8d 60 93 87 72 65 8c 7a 90 73 8a 8b 60 7c 8f 52 6b 52 70 81 8b 84 83 6b 7c 6e ab 86 7f 8f 90 76 74 97 4b 86 7d 64 72 9c 84 88 8d 71 6d 82 9c 5a 73 6c 99 a2 8f 94 79 69 7d 8b 77 49 88 7f 99 6d 5b 6b 65 72 62 6f 8d 82 8a 5b 81 79 90 69 6f 87 51 b0 77 88 87 8a 7a a5 58 80 60 80 5f 65 66 62 80 59 81 72 84 67 77 51 95 7d 7f 61 74 87 91 8a 85 96 7e 6f 99 76 83 88 8b 63 68 7d 94 89 8f 77 60 3a 89 80 76 77 61 99 92 84 52 6e 6e 54 8e 8d 44 89 a9 8c 8e 2f 52 62 65 73 61 5e 61 93 6c 46 a3 68 77 5e 8c 75 67 66 82 a1 84 91 7e 8a 6c 77 85 8a 75 7d 58 8e 72 62 89 5b 81 8b 8c 72 6d 7e 71 7b 62 74 73 66 5f 96 6b 54 73 61 9f 62 73 4a 6c 76 84 ac 53 46 9e 99 b2 61 64 79 80 90 97 8a 77 6b 75 79 56 9f 9f 64 7b 94 87 90 8f 86 6d 8d 78 50 99 97 73 81 67 59 79 9d 9e 61 6c 79 70 9b 75 84 8e 77 a9 67 9a 97 61 91 87 61 76 95 90 69 9a 6d 7a 57 98 79 69 79 7c 40 60 59 8e 90 72 92 79 7e 65 96 85 6b 61 61 9d 73 65 79 55 7b 6a 98 70 9a 90 6f 6d 8c 80 71 63 94 4e 76 5a 8f 8b 69 66 6d 69 7b 81 a1 77 9c 49 ab 6e 51 69 86 8c 5a 9c 9d 88 8a 69 92 83 6a 81 96 49 98 a2 6e 8d 66 78 99 95 2a 80 74 92 7e 9f 7f 7a 59 93 86 60 64 83 8e 7a 69 7b 8d 7e 74 59 8f 50 9b 55 67 6d 78 55 7b 93 2b 60 66 79 81 a1 82 8d 8e 37 a2 67 5f 94 5f 5a 6b 9e 7c 83 79 81 7f 9c 72 96 64 89 7e 5b 77 79 7d 98 60 73 89 98 a5 62 65 83 a1 68 77 6c a7 8f 7e 93 92 6f 89 71 89 84 8f 7f 8b 76 88 7d 89 8f 82 51 6d 8b 89 89 6a 67 5e 44 7a 21 3d 54 78 87 84 7f 5a 96 69 79 9c 81 9c 63 84 7d 69 67 64 9e 7d ab 75 79 77 78 97 63 9d 4f 96 50 92 72 8d 6f 7b 8e 6f 4d 60 73 82 73 5b 88 74 7c 81 7a 7b 6d 96 71 8b a1 79 76 80 5c 84 53 8e 67 9b 69 5b 63 80 88 92 50 97 88 9c 4b 62 86 9f 91 93 94 9a a2 73 76 7e 80 78 8b 6f 6c 6f 56 48 7d 67 6f 8d 7d 9d 8f 89 82 8a 5c 8f 36 93 87 9c 8a 9d 8a 8f 7f 3f 73 97 96 8a 7c 7e 50 9a 87 9d 74 7a 69 84 6e 8b 65 93 5b 92 78 6a 7e 97 83 93 9f 7e 86 98 86 7e 6e 8c 74 89 67 80 67 62 6b 90 78 98 77 82 6d 77 7c 97 8c 6b 8d 86 8d 6b 5f 82 7c 93 84 73 a0 4d 5b 4e 83 52 78 8a 95 74 5e 8a 7c 57 56 72 68 9a 94 67 5d 86 6b 86 91 81 76 62 7a 48 a0 9e 75 6b 96 77 5e 88 7a 81 92 9b 64 89 6f 60 66 79 7c 90 4d 74 8e 75 74 6f 9d 75 68 70 7b 68 62 49 8e 4a 9d 94 82 97 6f 71 92 97 7c 8d 98 8e 5a 83 7e 53 91 67 87 4e 55 7f 88 70 7d 6b 90 6f 7d 86 6f 67 7d 96 59 a0 93 81 5d 70 8a 7f 72 76 80 64 94 9e 8a 90 87 87 8a 8a 74 8a 8c 91 7a 94 69 81 65 58 8b 76 82 7b 58 7c 6c 61 91 74 54 72 8d 80 6f 7b 8b 97 99 89 8e 68 76 8e 71 8a 93 8a 5a 87 62 7a 42 9e 6e 90 7b 7f 76 8a 97 92 48 6f 83 7b 90 89 81 91 7f 55 88 a2 67 73 91 8c 77 80 89 92 5c 6e 8e 7c a1 8c 7d 8c 7e 7e 81 74 85 69 9e 86 78 70 78 54 63 80 90 90 8b 78 a6 6f 68 8b 62 67 56 79 87 6a 9d 9a 5c ac 65 55 9b 8c 69 8b 62 6a 79 75 92 5b 8f 94 91 54 88 92 8d 6e 7c 82 6a 5b 8e 96 6b 63 6b 7d a4 9e 4d 89 7d 8f 7a 7e 53 7a 7a 74 83 6c 53 61 7a 82 a0 73 76 9a 77 45 7b 76 47 92 7c 79 b8 96 9b 6b 54 2f 77 61 88 54 71 a8 7f 71 74 75 9d 5c 5a 9d 93 83 97 9f 9d 4d 9f 84 74 67 84 6e 70 93 4f 8e 90 6e 72 88 69 82 a0 9a b0 76 52 5e 6a 66 85 80 91 74 8c 8c 7c 7a 80 81 78 70 71 89 87 9b 73 6f 95 77 8e 6f 7b 77 69 55 8d 91 9d 6a 93 8a 7c 69 85 7a 62 92 75 57 72 af 43 96 85 8d 