49 95 5e 62 88 75 74 7e 79 80 99 97 9f 65 8a 72 7f 75 7c 72 90 6c 78 72 70 70 90 87 8d 7f 62 a4 79 6b 7c 7c 91 a3 6a 8a 97 6a 5d 56 74 99 8d 58 89 8e 7c 76 79 97 93 99 7e 6f a0 72 64 57 9c 60 8c 75 96 71 7f 7a 9e 54 6a 62 63 67 71 6f 8d 76 57 9c 87 75 5a 94 55 8c 6c 67 89 73 92 75 67 90 9b 6e 80 9b 84 90 89 7b 7c 98 9e 6e 70 82 79 76 5f 79 98 6e 6b 8d 59 8c 5b 6a 82 6f 50 a4 7a 5c 4d 72 72 97 61 98 6a 79 62 7c 70 74 53 a1 7c 8d 9f 87 9b 75 b0 7f 89 95 66 77 63 81 93 8b 89 82 7a 89 79 77 7b 63 6a 8f 7a 8a 7a 83 7e 7f 7a 53 97 9e 69 7e 5a 90 91 a2 5a a7 6d 85 56 8a 5b 8d 9a 67 93 93 71 7e 58 7f 7e 9d a5 85 81 91 92 85 5c 90 96 91 8f 6f 5e 92 69 8c a1 87 8d 6f 73 94 8e 8b 72 6a 7c 56 66 73 78 98 96 89 77 85 69 85 84 8a 76 93 a1 52 83 90 5b 6d 6b 5d 63 64 59 7f 75 51 62 40 9e 89 80 80 61 62 7b 58 58 a2 91 7f 60 88 9a 6f 83 63 89 70 4b 8a 8e 8f 51 4b 6c 98 83 9c 82 8a 6f 64 8f 7b 73 9e 77 62 78 93 93 8d 86 76 9c 6e 89 8a 9d 65 96 7b 85 6e 52 8f 65 6c 6a 6f 71 8b 72 7b 58 9c 93 9c 5d 97 65 85 89 63 93 88 81 99 6f 89 94 5c 72 76 9c 5b 8c 52 82 6f 7b 99 85 97 5a 73 4a 65 64 94 9d 76 81 74 65 8f 92 79 86 7a 85 93 8e 68 7a 71 73 82 85 75 8e 6b 92 87 81 63 93 59 51 7a 8a 7c 62 83 a3 79 9e 7b 94 6a a6 9a 7e 6f 71 83 51 8d 9e 8b 99 89 70 66 8d 6a 70 82 88 6d 77 67 67 6a 64 73 5e 82 82 59 76 92 88 8e 88 8a 86 97 70 6d 62 9b 93 7c 91 6c 74 84 89 61 62 84 7f 71 99 73 69 71 81 6b 7d a0 7e 8a 86 5d 85 a0 5d 43 55 60 77 8a 81 6d 92 81 44 90 5d 8b 6d 66 8b 78 85 6f 6a 8f 65 91 86 7c 9a 76 9b 61 81 87 9a 83 76 90 5e 8d 53 59 5f 5e 6c 84 7d 6b 61 83 6d 91 74 95 69 55 5d 69 91 78 7e 66 52 95 83 7e 79 98 76 77 81 72 7e 53 82 71 9b 77 83 96 6f 6a 64 94 86 8e a3 96 68 8c 98 4b 55 9d 49 84 95 75 96 74 9c 61 79 91 8e 69 63 80 7e 64 84 99 82 76 89 60 89 59 98 9a 8d 87 72 90 62 9b 6c 8d 87 64 96 88 8e 96 71 82 71 93 8f 8a 5d 93 84 75 8a 9e 82 8e 89 75 90 86 67 4e 7d 94 76 8e 78 91 7b 86 98 52 85 99 75 78 91 99 57 94 74 5f 8b 9b 85 99 80 89 82 9c 6e 8e 7b 82 6c 99 80 92 69 75 82 89 64 85 6c 93 8b 83 88 62 64 7d 6c 66 51 95 85 6c 8a 65 78 78 9b 90 70 70 93 82 8a 6e 84 a0 8a 8c 94 99 87 9c 81 6a 91 6a 68 98 75 4d 97 65 54 77 ab 37 95 8e 87 8a 4d 84 75 68 93 a3 83 8c 92 65 6f 8b 88 88 5e 8f 7c 90 94 81 72 5c 77 82 74 84 82 6d 67 7c 90 78 a2 7a 6d 8b 55 76 97 92 a5 8e 66 84 84 a4 8e 76 5e 69 83 5b 69 57 69 85 80 62 5d 6a a8 8f 59 6b 63 9c 7c 6c 97 53 9b 55 5b 85 71 9a 85 8f ac 9f 83 73 84 7e 60 67 67 80 83 7b 70 62 a4 60 82 7e 71 79 66 6e 6b 7d 55 81 80 55 68 87 76 8b 9f 36 89 83 72 76 81 96 61 67 89 81 78 7b 63 86 9e a2 77 8e 8e 7a 7e 83 75 66 7e 5b a3 53 9b 66 73 4e 6a 83 74 75 8a 95 5e 92 71 60 94 85 7d 77 a6 7e 72 84 82 63 85 78 67 71 6b 57 67 85 7a 97 8f 88 82 9f 8f 97 60 90 9c 78 74 6e 97 47 63 93 76 94 88 85 78 55 7b 9b 4d 90 87 81 5c 51 8c 96 7a 69 6b 5c 9d 7f 88 6d 80 88 96 79 5f 89 65 90 77 9d 6a 96 80 7b 86 6b 90 8d 9c 6f 6b 4b a6 80 74 81 5c 85 7b 69 78 80 7c 68 7b 80 89 91 8c 7b 77 a0 70 5f 64 61 68 7b 8b 84 8a 6c 87 8d 9d 6f a4 4b 78 a5 77 79 65 98 7f 7c 9a 67 74 8c 8a 98 7f 70 70 70 73 90 7f 80 86 80 6b 6b 8b 73 92 6d a1 7c 4f 64 8e 8e a0 89 63 9b 83 83 88 72 6c 93 97 68 93 87 85 7b 90 69 87 9a 91 9d 8f a9 81 8e 61 5a 9c 99 88 68 58 71 73 74 8b 8a 74 7a 80 79 77 56 50 8e 64 64 62 6e 65 9c 6e 6b 81 7e 8d 58 70 92 65 5c 77 8e 7a 4b 73 94 92 97 7a 8b 87 9d 85 89 8b 7e 94 93 40 7f 87 7c 71 a1 50 6c 76 80 a2 68 64 75 72 77 a6 5d 7f 6a 97 75 64 8d 80 78 6e 9a 95 9b 5c 84 85 96 71 92 7e 9c 64 98 88 96 91 7c 75 a6 97 95 61 6c a0 5d 95 70 63 7d 7a 65 6f 8e 75 9a 54 65 71 59 87 9b 95 90 6c 67 7c 93 7c 59 80 71 8e 96 9e 7e 54 a1 6d 60 76 6f 67 83 82 88 83 7a 89 83 77 76 88 70 64 84 7a 69 84 69 79 94 70 94 75 9a a1 59 79 64 66 94 7b 71 52 74 91 92 69 75 8d 7d 86 69 89 9e 4e 59 6b 8f 83 94 74 6f 6e 7e 6e 8c 7f 64 96 84 7b a6 9d 98 96 88 99 5f 6b 75 92 80 78 64 51 97 90 92 72 8a 9a 7e 88 99 7d 7a 88 73 82 6f 80 67 80 67 8a 60 86 5b 65 6f 69 76 77 9c 89 79 86 59 73 68 96 77 91 56 60 91 73 92 8a a5 89 82 86 9b 93 91 6a 5e 8b 7b 7e 8d 8e 60 89 78 76 9a 71 85 90 8f 86 76 84 84 9f 70 8d 71 9b 8c af 68 73 83 80 61 7a 91 70 69 80 7e 77 6a 91 80 79 90 71 94 6a 66 59 8b 8f 8a a2 7a 9f 80 7e 81 79 8d 96 61 7c 89 95 97 67 6f 89 64 60 68 74 61 8b 91 ac 59 87 8f 90 9a 92 5f 8d 70 72 92 9d 75 91 84 83 7d 83 8b 72 5f 79 a7 7d 90 94 8d 79 a4 84 81 8e 99 a7 93 6e 8c 6a 8d 9f 80 73 94 9d 81 8c 77 9f 84 75 9b 86 90 6b 53 6c 88 42 6c 96 7e 96 73 7e 7a 79 78 75 64 94 4d 7f 5e 7a 46 98 82 91 9e 81 53 89 89 76 93 88 77 7e 83 70 56 6d 8a 89 9d 69 91 90 7a 8b a3 8c 94 9e 87 69 8d 96 65 9b 79 8e 3d 8f 60 a8 7f 7f 7a 6a 8e 6a 6d 68 74 5f 71 81 71 8b 65 81 4d 82 70 5f 7f 89 91 7d 99 92 84 8f 6c 88 9b 91 82 41 65 47 79 72 79 6e 88 93 55 77 8f 9e 91 95 82 6c 70 92 81 81 6f 96 87 88 82 4c 6b 76 54 6f 7f 9c 9e 73 83 85 73 7d 83 72 89 71 73 53 7d 97 76 60 79 62 58 7e 7a 7d 6b 92 94 79 64 9c 83 91 69 78 83 90 82 78 94 7f 60 70 5f 72 70 71 88 57 80 7c 92 9a 71 96 84 84 87 65 7b 85 7a a1 87 5d 8e 7f 9d 6f 83 8d 58 8f 6f 8b 96 99 7a 9f 91 5b 6a 68 76 6d 83 96 7d 94 98 84 81 a7 ab 5e 4d 9f 65 65 7b 84 5e 86 98 a2 81 8c 8e 71 7c 68 6f 81 85 72 56 90 71 af 45 85 72 54 73 6c 8e 67 69 8f 87 50 7c 8c 89 8e 77 6a 7f 7f 86 83 6e 70 8c 69 80 77 8d 6a 7e 9d 7e 8e 6c 88 73 72 97 7f 93 8a 90 94 70 76 7a 8a 6c 6b 85 5e 78 9d 85 6b 9a 73 79 7b 97 7f 5f 7a a3 5f 93 63 93 84 5d 92 69 5c 85 82 8d 8a 8f 81 82 56 89 a1 9a 8b 94 72 69 98 63 76 90 90 65 7f 88 90 6a 67 59 98 73 8d 63 77 86 90 81 89 79 67 8b 7f 7d 8f 53 93 67 72 93 82 8d 6c 85 75 79 8b 77 7b 6c 7b 6a 55 6b 97 77 88 91 a7 82 71 8a 99 58 7e 65 9d 9b 76 9b 98 67 70 69 5b 64 92 75 5c 7d 74 5d 71 58 a3 87 78 7f 8a 6d 7e 90 8a 6e 71 6c 68 68 88 7b 4f 7a 3d 6e 79 8d 78 7f 5f 8e 6f 78 96 74 7d 9c 7a 6c 8f 5f 70 45 70 94 7f 82 71 6b 7c 51 92 8a 5d 71 81 9b 98 7b 88 80 5a 92 7b 5d 9a 84 79 9b 6f 64 95 66 82 5f 57 69 5b 8c 6f 64 85 9f 8f 92 99 61 94 87 90 6e 5a 62 6d 58 78 6f 9d 79 7b 87 99 76 88 9d 5d 9f 6c 9b 80 6d 54 8e 95 93 8b 85 58 7d 88 6e 73 9f 87 a0 96 8e 6d 58 90 8a 74 65 56 7d 9f 65 99 57 8b 8b 5c 5d 8d 73 5c 91 99 53 83 8d 95 7f 74 8f 88 83 95 a3 a4 7c 92 9b 7c 8a 99 5c 82 7f 86 72 88 6b 85 89 97 59 5b 9c 79 61 8e 7b 7f a2 4f 87 52 7d 81 79 99 6f a2 7c 99 8e 5f 7b 75 96 79 9f 7d 82 6e 7f 79 95 62 91 7a 78 71 66 6b 81 93 71 60 9a 7d 67 89 65 8e 6b 6c 70 7f 85 8d 5f 73 75 97 53 6c 8b 64 88 98 81 74 66 63 63 77 8f 4e 68 7f 81 78 7d 98 8d 6c 96 7a 82 8c 83 66 96 69 93 8c 95 87 61 94 5a 88 9d 98 97 83 8a 91 6d 7a 8b 9d 7f 82 5c 80 5d 80 84 65 8d 88 5c 77 49 a0 88 80 7b 70 82 8c 6b 53 a5 6d 90 77 74 9d 9c 84 8e 6e 8b 7b 6b 93 67 87 70 57 74 8c 97 9e 97 64 75 65 87 4e 5f 93 75 7b 85 89 8e 64 63 8c 88 8e 85 6b 5c 97 a4 88 63 77 9a 68 97 84 87 94 88 84 95 74 80 47 86 b1 81 95 87 77 7e 91 8a 65 9c 6b 65 a7 85 5f a3 8a 7f 7b 3b 74 55 8b 5c 88 97 56 90 73 76 96 7b 80 7a 60 86 72 69 9c 69 3e 8c 60 99 89 67 62 8b 93 83 67 64 8e 88 94 6c 67 81 9d a3 65 96 72 7c 82 90 84 5a 87 72 6b 90 61 8c 94 92 97 7e 72 6a 7d 8f 71 78 7a 6e a8 88 69 75 a1 59 99 93 5c 93 75 6f 86 72 7b 7a 8a 66 8f 88 8f 61 8a 92 8e 6c 74 87 89 89 5f 78 91 6d 90 70 84 93 58 7b 7d 99 85 86 73 84 66 7d 84 8c a2 94 8d 93 7e 67 86 78 84 53 6d 5c 6d 57 6e 87 71 6c 8e 9a 75 8f 68 5e 88 5c 60 8f 7e 6d 73 72 7c 86 b1 72 7a 6a 85 7b 71 99 8e 8f 7e 8b 85 96 81 9f 91 a2 91 86 82 97 83 66 a2 95 71 86 5f 5b 9b 70 77 5c 77 92 5a 87 61 9e 7c 6c 70 78 92 99 86 60 82 6e a0 72 96 61 a0 99 8f 83 66 7e 5d 85 6f a3 77 7e 7e 89 83 a2 96 83 93 86 61 6c 6e 4a 81 68 7d 81 87 98 6d 61 85 71 80 4e 55 83 78 8a 8e 79 5f 52 84 95 98 7d 81 99 82 8a 60 74 6f 96 5e a7 67 77 62 7e 6e 7a 6e aa 92 61 76 76 90 76 91 66 66 72 6c 90 7c 67 8c 5e 7e 95 83 6e a8 5c 99 75 9d 6d 97 8a 5f 88 a0 7e 87 75 73 63 66 81 9a 67 85 93 7a 7c 92 78 8c 63 7b 9d 7b 71 93 5f 8e 8b 72 7b 59 93 8c 56 84 9c 61 90 75 77 88 84 5b 7e 77 8c 7f 74 73 6e 64 5c 95 91 9b 9e 69 8c 79 6e 7a 74 77 75 78 88 6a a9 a0 65 64 93 91 86 8a 96 55 9c 98 95 8f 89 6c 58 5b 7f 71 8c 8a 7e 9a 88 66 62 7d 81 60 7c 63 86 9e 7b 5d 97 81 7e 5c 8f 81 91 94 72 8c 67 84 64 84 89 7b 72 8e 91 7c 82 79 86 6c 43 98 7a 54 83 8a 88 53 89 50 79 9a 78 66 71 8c a3 94 a7 66 8c 8b 68 7f 69 78 6b 7c 95 84 a6 86 7d 71 94 57 73 62 89 a1 87 6a 75 98 6e 74 5a 89 8c 6e 59 72 8b 8f 74 55 93 86 85 7a 75 99 68 5d 93 66 98 7d a0 7f 74 8a 6b 7d 72 6a 75 7b 9d 8d 90 91 77 84 97 7d 6b 62 7e 74 61 7d 6a 6f 8d 84 9c 62 69 89 8e 75 8e 73 59 70 74 89 8b 74 67 5d 77 56 67 61 67 91 8e 75 67 9f 64 93 8b 71 89 71 53 5d 8f 86 7a 8a 55 a6 59 54 88 53 79 80 67 75 8a 57 78 56 8b 80 88 78 6a a0 a8 81 99 72 5d 89 76 9a 94 70 7c 89 78 92 81 94 7a 4c 8d 74 7c 65 8c 7b 73 97 81 9c 7f 5b 69 8b 80 74 8f 8d a0 8f 85 69 75 8f 99 76 94 91 50 7b 68 58 63 7f 5e 58 8a 8e 8b 9c 98 79 a4 6c 4c 9c 9b 9d 93 9b 8e a3 97 79 99 75 64 92 7b 80 7c 66 9e 94 83 8f 71 66 8e 84 78 7c 76 71 73 98 5f 9a 96 88 5e a6 98 75 5b 85 68 84 91 a0 79 8b 8f 73 7d 6c 78 8b 8e 79 86 83 67 62 65 99 5e 67 91 72 53 6d 81 81 7e a3 78 71 85 89 58 88 8c 6e 93 5d 80 8c 76 a5 65 69 6f 78 a2 85 75 8a 6d 7c 61 62 6c 96 98 85 9a 6e 69 9b 86 67 6b 5f 94 80 67 93 7a 64 8b 80 6f 6b 64 89 95 62 96 9c 88 86 5c 9a 90 89 7a 88 8a 7a 74 75 70 8a 92 99 9f 5b 78 84 5f 86 89 94 5e 64 84 82 74 4e 63 63 9b 44 6d 96 65 7c 73 8e 83 88 72 83 94 a9 7c 55 61 6e 5f 77 4f 8a 7a 5d 8b 87 69 6d 95 79 6f 75 93 90 92 83 50 60 6f 6b 50 8d 98 66 88 9f 60 ad 87 85 89 68 99 6f 87 89 6c 83 7a 43 75 6a 3e 94 91 7c 96 88 62 69 6e 7b 8d 71 78 47 84 87 7d 99 8a 94 70 67 8a 6b 76 7b 89 b1 64 7e 8a 81 77 7b 7e 91 94 59 78 91 7b 9f 65 99 91 64 8e 87 7d 8f 79 74 88 97 87 73 6b 7a 7e 93 6b 69 76 67 57 7d 88 53 74 82 68 6a a7 85 8d 5f 85 5b 6a 63 70 92 83 7d 70 90 a4 92 86 a4 39 8a 79 97 56 87 8a 6f 5f 6e 97 80 9a 62 8f 86 5d 86 62 79 85 8d 83 99 80 8b 9c 8a 60 9c 77 63 7c 50 77 6c 62 93 82 7c 8d 8d 82 86 a1 7f 9a 7f 77 6b 7d 5f 69 92 95 78 5c 79 93 8f 85 98 7c 7e 8d 93 7f 8f 5a 41 8a 7c 76 99 57 6c 7a 71 75 79 65 96 99 5a 97 af 92 94 70 79 74 7f 87 62 89 70 64 67 62 79 ab 73 92 75 6e 81 6e 66 8e 8c 85 88 4c 8d 85 81 68 7b 77 82 98 7c 91 71 57 87 88 7f 9f 77 a6 6e 65 95 6e 90 52 5a 74 99 a2 6e 6d 5d 94 75 66 a0 76 57 87 8a 5b 68 7e 96 8b 7b 90 93 8f 5b 7d 6a 9b 62 83 9a 98 87 61 a1 77 a1 71 5b 7a 7b 66 78 5d ae 73 88 80 93 92 8b 90 76 64 79 a9 8e 62 7d 7c 87 7c 9a 8e 8a a0 57 93 a0 7d 8c 76 74 64 65 85 78 85 7f 81 6f 77 5c 76 75 67 83 79 6c a4 6c 50 a8 94 72 8c 5d 6b 7d 79 66 67 72 6c 84 79 7a 68 81 91 94 7c 7f 85 73 55 86 7d 9c 5e 7f a5 9f 6b 5d 7d 53 8c 89 87 73 71 88 7a 70 95 70 94 95 88 7c 89 83 8c 93 8d 6b 9c 68 96 8b 80 89 78 86 7b 77 65 80 95 6e 6e 7e 7c 98 a4 8a 77 54 79 64 70 65 83 75 8c 80 75 64 69 71 92 52 72 8a 5a 6e 7b 91 90 67 59 75 a0 72 5f 4f 72 68 5f 71 6e 82 8d 6b 81 94 68 7b 83 74 5d 96 8c 9b 98 a2 8c 91 84 79 84 5f 80 94 94 7b 85 90 6b 7f 87 93 97 7d 9c 8f 73 6d 78 7a 77 83 90 96 9b 89 43 4d 86 77 85 77 7e 87 87 83 7b 7c 84 5f 90 83 67 8b a5 72 85 4b 5c 68 84 63 7a 92 71 74 8f 95 95 75 8d 5b 58 77 9f 55 92 72 89 86 74 6b 9c 74 7c 83 90 8a 8a 79 7c 8b 88 5f 7b 79 68 9f 4e 82 8f 84 9e 93 59 87 68 64 78 92 8d 7e 99 6e 8f a1 7c 7b 85 a9 a3 9d 7c 67 7f 7c 5b 85 7a a5 7e 85 8a 73 73 73 6d 83 8b 7b 8d a5 6e 6e 63 6d 3f 88 61 4b 66 70 7a 7e 6d 79 ab 8c 8e 75 93 67 66 7b 6c 7b 6e 6d 99 73 80 9a 9b 83 6d 8f 6d 60 95 81 6e 84 61 88 9a 96 73 70 7c 8f 74 68 a4 74 86 5f 76 a4 59 71 8e 7d a6 73 83 83 93 7d 76 71 6a 74 82 7b 80 7c 89 7d a4 97 95 6e 86 8f 7f 68 94 72 56 82 8e 7d 89 8f 91 71 81 5f a0 85 70 93 97 7b 56 8f 6c 7b 9c 63 75 75 5d 7d 97 9c 9b 5c 8f 97 80 92 77 5a 9a 83 68 61 93 61 63 68 aa 75 95 6e 66 72 64 57 61 9e 8a 94 7e 96 86 97 8a 67 89 59 75 78 6b 5a 75 64 74 8c 6b 5d 88 75 70 66 60 6f 62 53 68 6c 8e 97 68 94 77 93 98 71 7f 80 a1 73 6a 79 7a 86 a9 8b 6b 56 65 61 98 a0 91 7d 79 8b 89 55 7f 5f 86 8b 66 87 72 7a 82 9d 86 89 8a 71 80 76 9b 73 6a a0 89 83 7c 6b 7a 86 7a 61 58 83 6a 8a 9c 6b 74 5a 86 74 97 a0 9f 89 7f 89 85 94 7a 53 a2 93 ad 65 60 6f 79 66 94 9f 5a 74 6d 61 3d 94 74 8b 9b 6b 99 95 95 65 7f 69 81 5f 88 94 52 a5 8f a5 53 54 70 7a 87 99 61 7c 6e 58 7a 91 67 8d 6d 90 5b 53 9e 8a 5f 75 8d 74 97 72 89 8c 7d 97 69 4d 70 8a 6d 77 8e 7a 96 70 94 85 5d 7a 77 52 87 88 94 9c 59 7b 81 83 8d 80 82 70 58 8e 8c 97 70 72 85 86 68 9a 6d 8f 6c 76 97 76 7a 93 79 69 7a 93 96 60 94 68 4f 8a 51 84 79 6e 8f 88 63 67 7d 64 79 58 68 8c 74 9b a3 9e 6c 78 66 71 81 92 92 87 91 63 9d 98 87 69 65 76 95 85 82 8b 87 98 7d 5c 81 8f 8e 8d 93 