55 71 b6 78 a5 49 20 9b a3 6d 87 6f 3c 2a af 98 b7 69 8e a0 ae 0e 4c b7 78 b5 57 7c 24 cb 0a 94 75 a6 2c 88 9f 6c 45 74 63 8c 69 7d 88 a1 97 93 89 a1 57 b5 d7 -1 62 b6 59 99 a8 ae 40 84 66 b5 e1 3e 73 a3 77 55 81 92 b5 af 4f 97 -1 a8 27 86 48 ac 9f a4 a1 26 3d 84 59 67 74 a8 a3 8a 9b a5 a3 b2 40 79 98 4e 5d a8 aa 77 2e 7b 7d 5a 6e 5c a3 97 1d 7e 4a 71 89 70 ac a9 49 6a 97 90 35 78 64 ac 32 79 70 9a 70 6f 29 5d aa 6d 39 b7 91 d4 9c 82 a9 62 6d 31 89 96 8b 14 b5 c0 23 ab 42 8c 28 1c cc 70 3a 5a ae b0 43 9b 8d a1 83 9f 89 ae 65 55 5a 92 67 a7 59 a9 5f -1 c2 89 16 4b 92 a7 73 6c 71 60 8a 6c 8a a5 a1 8f 40 7d 49 89 83 7b 45 d7 0e 65 62 44 96 97 8f 83 6f 5f b9 40 38 74 a3 62 73 86 06 34 b9 87 88 63 bc 91 7c 59 97 82 48 87 85 94 93 5c 90 9a b4 4b 7f a2 b0 2f 34 88 