98 9f 61 95 73 87 59 8c 78 6a 9f 93 7c 82 8c ab 9c af 98 87 82 86 a3 67 7a 8d aa 7b 8f 21 9c 8a 6e 79 80 97 64 86 82 71 ab 7f 71 b1 5e 96 b1 91 7e ae 42 b7 58 8c 5f 9a 83 97 84 72 8f 77 7b 86 8c a5 8e 59 8c 70 69 9c 5e 96 90 91 6b 94 7e 6c b0 91 6c 85 92 60 90 55 4f 68 8c 80 76 50 a3 8f 5b 63 6d 6a 71 6b 7c 86 9f 9e 8f 66 53 6f 9d 94 5c 87 7c 89 4c 72 a5 86 6f a7 67 62 94 81 6a 93 6f 6f 72 88 71 7c 8a 7e 92 67 90 82 62 52 82 79 8d 9c 79 95 78 83 89 74 8b 8f 6f 6d a2 a9 84 75 6d 84 73 77 72 89 7f 53 92 93 86 a4 98 79 91 81 72 78 89 86 89 67 8a 94 4e 77 77 75 70 66 8e 83 82 91 96 4b 7e 76 78 58 72 b0 5e 56 73 93 55 85 9b 65 94 60 a5 99 80 99 87 53 7b 99 69 74 62 72 90 96 6c 6c 79 5e 83 92 7d 88 99 4f 79 51 89 6b 8f 52 8b 63 62 7d 9e 7b 81 8e 70 68 7e 75 71 8e 85 6b 61 7c 7c 71 9d 98 94 5d 99 6e 68 8f 8b 82 7e a3 72 97 85 59 62 92 75 6c 60 72 96 71 6c 74 97 75 81 9a 84 85 98 91 8c 94 8e 90 5a 69 87 85 9e b0 88 91 98 7d 7c 7a 88 7b 99 91 6a 6d 79 4d 7e 86 88 ae ae 6e 75 88 66 88 ab 77 aa 6e 99 8c 6a a0 7d 89 56 a2 9a 70 83 66 b3 76 a7 90 8d 96 6e 79 66 5a 68 91 9f 98 9a 7b 98 91 75 8f 7a a6 88 3b 8d 8c 75 88 68 94 5c a1 7a 5d 8e 81 88 95 97 6b 85 a8 7b 93 80 93 73 8b 67 83 95 8b 74 63 53 79 68 7d 8f 61 92 69 97 9b 99 85 5a 95 83 65 7c 87 56 76 74 92 6f 7f 70 8a 96 92 83 63 81 7d 8e 71 82 68 98 51 8d 93 74 79 7f 6c 88 6f 73 5d 47 73 7f 6d 60 70 87 87 89 7a 7e 8f 71 5d 9a a4 96 a0 6a 7c 7a a0 88 87 64 81 69 6c 9a 79 95 62 a1 86 84 8c 75 94 7a 70 83 9c 87 80 9d 91 73 9e 8e 80 6c 90 54 b2 7d 96 90 6e 82 8b 85 65 6b 94 7e 61 81 6a 98 87 95 56 a0 7e 71 5c 84 a4 54 71 7e 7d 81 57 55 96 60 a4 59 74 76 78 4a 9f 73 64 a5 8f 6c 8c 88 95 79 40 70 5c 7f 6f a7 78 70 66 9b 73 ae 7a 7e 3c 75 54 5f 6d 90 77 86 95 8e 52 52 75 68 51 55 60 69 83 8b 50 95 90 3f 55 9f 96 8c ad 8f 79 8c 35 9a 88 9b 7f 86 74 47 70 89 66 82 74 74 7f 68 8c 8b 86 92 90 a5 99 95 a3 74 7a 8c a7 7a 6a 76 84 46 9a 8a 71 6e 91 66 69 67 1f 7c 8a 8b 8d 97 93 71 84 66 9c 87 7b 93 62 79 75 65 7c 66 99 51 6e 8d 7f 8b 86 90 66 71 82 72 75 99 79 6f 65 5a 6c 99 5b 8e 82 ac 82 70 a0 99 77 87 97 7f 74 79 7c 8b 98 64 7f 7e 9c 73 64 7b 79 70 97 83 a3 90 6f 6a 89 81 67 64 76 88 97 69 78 8a 7c 67 88 8b 74 7d 75 74 9a 64 74 7e 63 90 68 70 86 91 9b 82 7d 8c 97 6d 76 6b 85 92 66 7f 7f 68 ab 4f 72 a6 8a 69 83 7a 70 6c 8c 6c 69 7e 63 7d 76 6c 79 92 87 90 66 76 a1 61 58 94 98 7e 55 89 7c 7d 61 57 9a 96 72 76 a7 95 73 57 a4 80 8b 7f 8f 8a 89 84 8a 66 73 7d 6d 74 61 78 96 7c 8b 88 87 6e 74 8b 83 8f 6a 67 6a 90 9f 8f 72 7b 90 78 9b 92 70 93 66 73 8d 72 8f 71 8d 85 6a 7e 88 6d 88 7c 81 7e 8f 77 95 83 70 7a 92 7c 7d 91 78 9b 76 83 7d 8f 6e 9c 86 91 82 92 78 84 63 8a 82 81 64 9a 91 65 73 96 75 7b a4 8d 98 85 8d 65 8b 72 8e 66 75 6d 82 75 82 8f 90 73 7e 7b 85 8a a5 92 63 6f 88 56 9b 8f 8b 46 75 84 7f 98 99 7a 63 94 62 95 63 7d 8a 87 79 6e 8c a2 5b 64 6e 78 69 95 5f a3 82 90 5d 8a 6a 85 79 70 5d 80 8a 8f a9 7d 77 66 8c 67 77 93 6e 7f 7a 88 55 98 85 8c 94 7a 5f 75 5c 68 91 7e 85 67 70 8d b5 6c 8c 85 63 91 80 88 aa 77 86 68 47 6f 7b 74 5b 8d 6a 5d 8c a0 a2 75 91 90 82 86 91 32 7d 8d 5f 58 7f 69 79 af 99 6d 9b 88 68 70 91 5a 97 a8 6a 94 6b b4 75 89 a7 68 ae 78 5f 74 4a 68 79 ba 77 82 8f ab 7e 4d 62 4b 6c 62 65 ac 47 b6 8c 7a 95 70 8b 8f 97 4d 58 96 94 55 9a 9f 9a 54 be 79 73 7a 6c 7c 75 88 a1 98 ae 88 7f 4a 70 61 53 9b b9 a2 59 a5 a9 cc 67 77 b0 69 94 93 62 af 82 a7 69 8d 62 ad 86 79 49 6b 67 6d 33 95 6c ad 90 76 7d 4c ad 76 ba 80 51 58 83 39 94 70 aa 64 96 39 90 66 64 84 bc 8f 8d 75 ab 3b 69 83 72 83 a7 6a 92 ae 8d 86 5f 4c 58 5f 86 6f 80 66 71 8d 8e 7d 61 8b a5 8c 67 83 60 77 b3 86 77 5c 5d 78 6b b1 86 8d 4c 6f 85 86 91 a7 94 a1 71 6a 54 8d 90 58 53 78 87 87 58 73 90 8b 76 65 56 89 70 95 8d 70 8d 94 77 7a 93 97 94 89 73 7d a9 6d 8a 83 73 85 79 63 87 8e 84 69 6d 96 83 84 6a 93 64 7d 7b 81 49 a6 84 84 a1 78 69 9b 89 52 5b 60 75 6d 92 93 84 94 75 83 9a b2 87 73 a2 92 6b 83 88 62 7d 62 89 c9 87 83 50 4c 8c 85 8f 72 53 88 74 71 9b 98 65 b1 61 7d 82 40 8b 71 65 68 83 87 8a 90 8e 73 68 30 88 a7 69 95 9f 7e 99 81 82 82 8c 70 a6 66 7c 43 87 84 53 7b 70 72 65 a1 7a 9b 5b 79 8f 88 70 8c 9e 81 73 88 69 91 6e 8c ae 79 88 59 8f 81 84 8b 82 72 69 75 74 75 90 7f 95 76 9b 81 9a 7d 55 82 93 6d 88 9c 87 7f 69 90 92 70 74 94 67 98 87 80 65 6d 92 7c 93 94 66 6e 80 6a 85 94 8d 9d 7f 51 72 9b 66 8d 9f 91 a0 5f 71 92 79 9c 90 98 6a 45 9d 82 71 68 6e 6b 98 5a 68 8d 5d 76 6d 94 68 78 84 9f 9d 6c a5 a2 7a 57 78 6f 84 6e 69 68 65 74 83 65 4d 80 a7 8b b4 82 98 7e 95 83 9b 9e 8f 83 73 7d 79 77 85 8f 6f 6b a0 91 67 9a a9 96 5b 7d 8f 88 72 93 8e 7e 96 88 75 84 91 91 6d 61 7e 6c 98 67 8b 74 81 63 a4 8f 83 93 64 89 9a 91 6e 88 62 86 b4 7b 71 70 69 91 88 73 80 8f ae 57 61 65 87 79 7f 7b 8e 76 56 af 7a 88 9b 77 68 9d 8e 5b 89 58 82 ab 9f 7f 5c 91 57 80 9f 4f 4b 9a 56 6d 47 63 4b 9c 61 75 64 86 76 8f 53 8d 59 6b 93 87 86 6f 87 8e 80 64 88 91 87 98 8f 72 7b 8d 94 54 83 6c 8e 86 97 73 87 7e 70 93 91 72 90 93 72 78 27 86 66 64 6d 8a 7d 72 5f 75 92 6c 72 5d 78 60 7f 79 6e 87 78 42 81 68 6a 92 8d 8f 85 85 95 80 63 79 8f 8f 88 8b 9f 52 94 69 79 91 70 96 9e 60 63 8a bf 7e 6d 6c 8b 75 70 6f 93 7c 6f a1 88 b1 68 69 8f 99 8b b0 a0 6c 6f 9f 62 8c 76 81 a9 ac 84 3f 98 77 7d 79 7f ac 86 55 6b 74 80 6e 88 56 63 84 6f 8f 79 72 71 87 80 7a 78 7c 75 80 a4 a1 98 71 a2 54 7b 5f 79 6d 9a 8d 8d 94 60 9d 8a 86 72 99 7b 8a 9f 86 71 6b 8b 8a 7e 78 8d 90 ab 5e 63 9c 9b 82 6a 8e a0 84 76 65 6b 77 7f 7d 6b 7f 80 69 6a 7e 86 69 57 75 68 7d 86 79 9c a0 66 61 51 73 64 a3 a4 6d 8e 60 9e 7c 5a 74 72 64 85 8e a0 6f 9a 87 80 78 84 6c 88 a1 50 77 6c 85 92 93 66 a3 6d 72 63 98 72 55 5a 9b 90 40 6c 87 82 88 67 68 7e 83 a8 64 8c 47 7f 5a 9c 5e 7b a8 99 8e 59 82 88 c1 a4 72 97 77 75 77 63 67 ab 74 59 7f 6a 9c 91 80 64 69 92 73 85 9e 7d a3 a5 c3 a0 5b ab 99 a7 5a ac 87 9b 7c 80 5b 7c 66 75 66 5c a0 82 7d 74 6b 6c 81 8e 96 6b 99 71 72 89 87 72 6f 8b 6c 6b 79 75 94 90 79 98 99 83 73 86 7f 8e 7a 72 6d 8a 8a 64 89 7d 85 85 86 87 77 89 94 77 81 90 94 87 97 97 78 85 88 78 71 99 75 6a 95 82 6c 79 99 7a 44 5c 70 65 84 bb 78 64 a0 c4 36 88 61 9d 4d dd 95 48 83 63 c7 ca 4f b8 a2 76 73 a8 69 22 5c 77 c3 ac c6 9c 8d 6d 3d cd 5f 72 54 82 2a 36 52 5c a0 7e 42 8e 79 51 4d 4b c5 92 8f 8d a6 8b 66 d3 62 80 6e 90 79 89 7d 92 7b 6f 96 8f 8f 8f 94 64 7f 65 65 8c 5e a2 78 80 69 6d 97 8b 69 9a 78 90 90 74 78 8e 9e 7e 77 77 8c 7a 9a 84 7c 77 64 81 88 a5 83 94 85 94 7f 96 8b 69 72 72 67 92 78 88 68 8c 8c 6f 9d 9b 76 60 94 62 8a 91 7d 97 65 97 8b 73 81 72 91 69 90 6f 74 5a 77 84 8f 5e 67 6b 6f 9a 76 9b 84 6d 85 9e 75 90 5c 80 5c 99 66 8f 99 8f 61 6a 77 a6 66 64 9b 74 8f 93 73 60 79 6d 78 84 77 6a 9d 8a 70 9a 94 76 93 86 83 98 83 6c 66 98 67 78 9a 8f 6d 73 80 5b 89 95 8b 99 94 7d 62 7b 64 74 8a 80 9a 90 82 9b 4c a0 77 8f 86 82 78 7c 76 a1 95 7d 84 7c 81 7b 83 6b 91 81 82 81 8f 5a 80 8d 90 98 89 84 9f 99 67 79 89 a2 6b 9f 73 73 6c 70 72 7b 67 96 92 79 64 94 86 79 69 6a 7c 9e 8a 8c 9a 79 7a 8a 6f 6a 8c 56 51 8a 8a 69 7e 7c 67 89 8d 72 8e 8b a7 86 83 8a 98 72 63 88 69 4a 8a 9a 87 a8 b3 63 ac 99 43 69 76 9b 58 9f 1f 49 68 3f a0 ba 5f b8 9a 8e 82 ce 6b 93 72 74 90 b6 b2 9b 98 a0 4f b6 51 4d 73 6b 95 50 58 40 ad 52 97 6d ad 66 8f 60 a4 a1 92 68 90 91 73 b4 72 79 75 67 6b 7e 83 67 79 6b 94 8a 90 86 95 81 97 7e 60 82 72 93 83 6f 53 6c 8f 93 5c 9f 6c 63 78 97 87 6f 97 7e 6b 67 83 99 9e 68 96 7c 6d 7c 98 83 84 65 93 7f 91 89 78 82 6c 91 7d 61 6c 79 a6 93 93 a5 51 59 21 a6 32 41 81 83 80 58 a6 6f 7e ac 6a b4 91 68 aa 64 da c1 b4 71 5e 58 b9 71 43 51 53 6d 7a 42 8c 80 8d be 94 82 52 b8 94 b6 53 93 6a b6 6a 8e 67 98 72 b2 64 61 96 83 80 7d 9d 9a 84 86 a6 8f 87 7d 7c 74 77 79 81 a2 90 8a 6b 73 85 7e a8 94 86 82 6f 8f 80 76 73 52 6a 78 78 75 84 69 7a 95 79 9c 66 83 55 a3 79 66 87 70 6f 55 52 81 8b 6c 87 84 9f 98 99 6c 71 68 61 5c 5c 88 95 44 8e 7f 8d a0 71 5a 88 98 62 74 89 98 98 90 76 87 7d 7f 86 92 5e 9f 4f 60 6a 5d 8d 77 78 6e 89 8f 87 83 6a 74 a0 75 9b a3 72 79 72 80 99 94 6b 97 71 8e 53 87 88 86 78 7f 8a 89 96 68 75 51 6d 79 e5 74 7f 7e 6e a4 85 31 7f 7a 78 4c 5b 8c 8b 78 66 70 a2 88 7d 61 6b 83 35 a4 76 94 5e 9a 5e 3e 48 66 79 6b 7f 91 5a 21 6b c6 aa 5d 5e 05 89 72 58 c8 ab a0 49 80 60 9c 63 71 71 6c ad 8c 78 5c 97 80 7c 91 57 56 87 83 95 6a 77 6e 96 77 78 90 7e 97 8c 69 64 56 6f 81 6d 72 94 94 6a 7c 75 8c 6a 88 90 84 74 a2 6f 6d 78 79 ae 87 69 82 6e 83 7e 69 7f 9f 6d 63 73 87 9c 9a 72 63 75 8e 70 9f 7d 78 7b 7d 6c 81 6b 8d 79 71 80 a1 6d 80 7f 99 71 6a 6c 6b 6b 77 90 87 a0 95 8e 76 a1 7f 9b 9d 87 7a 93 83 91 79 97 a0 9c 65 81 8a 8c 8c 7e 89 97 75 79 8f 8b 7f 68 7f 72 62 7b 87 7c 6d 6b 7e 8e 92 6d 72 70 62 9c 90 43 88 9d 9d 78 a2 71 94 9e 78 9c 93 a2 5f 83 83 64 4c 89 75 89 67 80 6e 8a 80 8b 9d 88 98 54 77 6f 89 90 6f 64 7e 25 74 62 75 89 9f 9b 88 86 64 87 68 7d a9 9b 7b 6f 8b 80 62 6a 96 71 73 a2 7f a1 90 6d 58 7c 7e 93 92 7f 9b 76 50 80 51 7d 88 9e 84 83 7a 6b 7b 86 5e 76 83 8f 57 a5 8f 66 72 94 72 75 79 76 83 94 8a 86 69 7c 72 63 98 78 99 9d 8b 72 8d 74 7d 87 66 4d 75 a0 70 90 a7 7e 85 88 70 75 69 84 6e 7b 72 9e 96 79 66 85 a7 71 9e 9c a6 66 7d a4 65 5e 91 9a 85 89 90 73 75 9a 7b 85 74 75 77 88 8e aa 5e 5d 38 7a 58 63 70 83 58 71 93 8a 94 40 57 75 72 65 94 8e 48 ad a4 7d 77 8e 9d 6c 95 65 95 69 69 71 9e 4c 82 5e 44 84 9c 6f a6 4d 99 a1 99 6f 9a 86 b0 59 91 64 61 a4 86 9f 68 6a 58 b2 85 b6 75 96 69 89 8a b1 6e ad 9a 75 97 77 78 81 b9 93 c9 7c 70 6a 97 62 6b c2 a0 c3 79 99 5c 8a 9f 7e 93 52 74 ae 5e a3 93 ca 7f 7c 8c 6e 77 49 35 8b af 9e 86 9b 50 9c c3 7f 98 5f a0 b8 8d 48 cc 8f a3 7d 8d a1 ad 56 c6 4e 63 56 82 70 b0 b4 89 75 70 a9 9d a0 5e 98 96 5d 77 84 8e 89 6f 8c 8b 89 60 8f 90 67 95 68 6e 5e 95 97 83 95 7f a1 6c 70 86 8d 86 72 8a 67 6e 58 57 7c 72 89 77 75 9e 74 63 6e 88 a0 78 74 73 8a a2 70 89 6e 9a 64 71 71 5b 9f 8f b5 4b 9a 90 68 66 24 89 57 c5 16 4c 75 57 97 9d 72 a7 91 5e 5d 8c 5e 66 5e 74 ae be ae 4a 69 80 78 99 47 5d 6f 89 96 76 4c 68 8d 4d 44 7d 65 70 b2 6f 9c 72 85 bb 96 73 8c b3 85 95 62 6c 8c 6d 5f 9d 84 96 8e 5d 7e 70 9d 91 79 8a 6a 9a 7b 78 7d 7e 83 7d 66 8d 51 81 7f 66 76 89 7f 67 6e 55 8d 71 9a 8e 88 79 90 84 8f 86 6e 5b 8c 96 52 54 9c 94 86 73 78 7b 87 61 6f 7e 87 91 72 84 74 8d 7a 6b 64 6e a3 a3 2c 83 7c af a5 6d 73 8f 7a 91 9b 65 77 47 7b 7a b4 5f 9c 6a 65 82 82 91 80 75 92 9a 82 93 5d 77 77 7a 7a 96 56 5d 55 9a 8a 99 80 9a 70 87 6b 7c 46 8a 76 c0 7c 81 7a 9c 7c 76 95 82 76 6a 73 98 94 94 65 8e 77 72 80 88 a0 57 6d 88 5e 87 7d 72 86 6a 96 8b 95 96 79 8d 96 83 7f 9b 7d 6c 77 81 77 8b 77 91 74 81 7b 98 7a 9a 5c 86 a3 65 80 9b 6c 86 90 55 6c 50 88 87 c2 c5 b2 61 a2 ae 64 53 13 86 74 6f 68 84 79 46 98 7b 69 b3 b1 4f 91 89 7a 7a 7f 73 ab c2 ac 84 70 87 6b 8c 67 79 0c 88 75 8f 6a 70 7f ad 2f 6a 9b 98 ca 5e a9 87 85 b3 84 81 6e 65 4b 9d 84 6a 7a 7f 68 a5 73 7c 9a 69 72 6a 7f 62 b6 96 86 8a 6b 80 77 5d 98 a8 55 73 79 a0 a1 74 80 6e 78 80 5f 6a ad 76 99 7e 7a 74 8b 92 a3 9b 57 a3 79 95 6e 7e 94 72 65 75 68 8b 99 70 87 a3 6e 97 90 67 8c 6a 90 9f 70 b1 a0 92 05 4c 96 74 cb 96 97 88 43 7a a3 8a 95 90 3e 81 74 78 a8 6f 82 73 94 7b 6b 82 8c 4b 99 87 82 a8 b3 b0 ae 7c 81 ba 4a 7c 6c 55 8d 89 7b 4e 63 90 92 73 6e c7 63 69 6b 7f 66 81 68 72 69 83 8d 92 95 5d 9d 7a 5f 7b 6a 73 76 66 6e 5e c0 9a 9f 52 83 94 7d 7a 90 73 6c 74 73 6e 7c 76 78 7b 78 ad 95 65 a2 9f 68 95 76 81 7a 96 68 78 6a 9b 7c 72 87 6f 7a 5f 95 a5 6f aa 6c 85 6b 9c 4e 5e 89 94 94 79 88 94 51 73 98 8a 6c 54 87 6a b2 76 7e 7b b3 6d a4 95 6e 61 42 97 7a 7c 8e 6b aa 95 63 c0 45 9d 87 9e 75 a6 7c 99 ab 76 23 87 70 98 56 68 81 78 8d 62 87 96 6e 86 6d 92 89 74 85 9e 7e 87 8d 72 78 80 66 60 75 61 8c 99 81 70 78 a3 8d 89 69 77 7e 6f 82 94 78 83 89 7e 68 85 9a 91 84 81 73 92 98 83 71 69 8a 94 8e 52 93 6d 64 9f 74 9c 67 70 69 a2 a1 62 89 a0 5c 6b 7f 72 8f 7d 7e 92 8c 78 98 6d 67 98 8c 88 6b 75 5e 76 99 9f 74 ab 5f a7 88 8e 82 71 69 9e 94 95 8e 9c 90 73 a6 9f 7a 67 85 9a 7b 91 a6 6f a4 47 67 81 7b 98 9e 87 6d 92 67 63 85 93 8f 9a 74 6f 9c 85 94 7f 68 6b 70 86 6f 76 a2 58 90 85 7a 6c 7e 94 77 95 62 78 8d 76 66 65 8d 7d 89 9b 85 7b 72 6e 8d 5d 78 5f 8d 87 6b 61 91 81 8c 93 96 82 89 8c 74 63 92 70 81 87 6d 94 93 92 70 9f 87 95 6a 97 69 8f 9d 8d 8d 61 7d a0 60 73 73 86 6b 7e 91 8e 7c 65 6b 71 90 90 87 8b 6d 7d 82 8e 8b 96 73 60 8c 74 70 77 a3 8d 6b 77 85 9d 81 6d 85 8d 88 82 7a 98 8a 98 6b 61 86 8a 9d 90 73 85 88 64 6f 9f 80 5a 97 85 5c 88 94 a9 82 86 94 83 8a 8c 86 5f 9b 61 8f 86 a6 6f a6 8c 83 6e 98 72 84 52 78 5d 82 80 7a 97 6a 8c 6e a0 86 7f 74 77 78 87 6e 90 62 ab 5d 81 72 8f 71 96 