8c 3e 4b a7 60 9c 9d 82 ae 64 91 9d 74 6c 6d 5e 69 51 aa 97 83 8c 67 c1 33 5b b1 82 a6 50 97 ad 1b c4 4f 81 cc 00 87 91 27 28 a1 b1 c2 fe 00 a1 81 5d 64 b4 89 50 8d 66 a5 98 8e 87 af 5b 6a 66 8e 65 49 ac 6a 4c 5a a1 9d 20 b5 9a 3a a9 9d a0 4c 59 97 a8 47 90 7c b1 2e 3c c3 81 7c 5d 87 a6 49 61 82 a2 46 3c b3 9a a9 6d c5 95 00 c4 4e ad 4d 8c a1 9d 98 5c 00 7a 7f 68 a3 91 99 73 66 65 00 fe 00 74 82 81 81 6d 80 34 af 8d 76 65 7d 8e 07 b0 43 9a 9c 9d 5f 9d 9c 75 48 a2 33 9c 7c 7b 74 33 ac d5 9d 66 97 5e 4c 57 cc 81 6d 47 4f ac a6 a7 65 a4 47 0c 8a 6e a0 b5 5a 8e 1e 89 72 86 f9 5f 2a 85 7e 9a 86 6a 3b 8d 70 9f 6e 96 a0 97 00 fe 00 88 65 90 86 a8 6b 8d 7e 8c 61 53 9a 97 63 44 bd 98 43 83 80 a2 7f 93 3b bd 7d 8c 7f 76 76 8d 77 5a 00 be 69 a8 b1 3e 87 98 96 83 22 c8 