92 93 8b 69 9b a5 53 8c a3 9f 96 94 ac 76 5f 67 4f 5b 89 ae 89 39 65 86 ae 84 74 8b 69 5a 82 a7 a6 81 66 63 67 57 5b 75 5a 55 46 51 69 b3 61 8e 92 91 93 b1 9b 7e 71 ab 79 54 50 6d 47 73 90 a2 98 9b 53 44 4a 5d a0 a9 80 67 6a 73 98 86 67 4b 73 65 57 62 61 8d 9d 6f 8d 9e ce a5 83 a3 82 89 4f 67 7e b2 9a 7f b4 8e 6e bf 87 96 6f 8b 96 95 5f 55 45 77 a6 68 aa b9 92 5d 50 66 56 55 a5 98 85 76 5f 70 7b 8c 9f 48 87 9a 86 a2 ab 79 81 95 3d 83 9a b0 6b 63 78 52 4b 56 96 ae 90 79 7f 7f b5 ac 5a 45 41 ad 57 40 a7 ae ad 77 95 72 b7 9f 83 9f 91 73 4c 92 a8 87 68 7c 7e 46 46 48 63 6f 