66 93 93 70 76 8d 81 98 75 83 7b 78 6a 7b 75 88 8b 74 68 91 70 90 91 7c 8a 75 82 7c 66 8a 86 6b 75 76 88 83 69 89 6b 93 77 70 85 8a 99 66 69 90 82 6e 8b 80 7b 8a 91 6e 8c 94 88 65 7a 7d 86 76 73 68 89 80 6b 7f 68 7a 5a 7c 6e 69 89 94 97 78 a5 9a 8b a1 9c 86 61 88 7a 8a 60 75 80 8d 8f 95 89 6b 83 90 70 85 78 6c 79 81 6c 95 ad 83 98 6a 76 8b 73 87 97 72 8e 73 86 80 72 90 6c 7f 7f 70 72 8e 90 78 8f 91 64 8a 65 91 6c 70 80 7a 94 64 7b 7d 72 83 8e 81 70 93 86 6f 6b 91 80 94 7f 7c 69 77 95 7e 89 8b 6f 7b 8b 64 87 8e 73 6e 75 82 83 8c 7e 99 76 95 69 95 71 93 8a 94 7d 63 6a 85 66 98 84 8e 79 63 71 65 91 75 7f 67 77 72 94 6b 86 8f 65 79 64 71 8d 8d 8c 6d 83 75 8b 90 8e 79 76 8a 73 89 65 97 74 7c 7f 72 95 82 6f 88 6f 93 71 67 94 64 93 64 83 95 8d 8e 63 7e 96 72 6c 7e 83 98 88 71 81 90 75 79 74 88 88 75 6f 6d 71 82 87 95 68 8d 92 7e 8f 63 92 96 7f 7f 8d 85 6c 8a 7a 66 77 90 93 76 91 97 93 64 78 64 77 6c 84 78 8e 66 97 93 77 7b 8d 64 82 6d 8a 83 74 85 97 84 80 5d 8e 64 73 5c 98 71 71 80 68 9c 91 88 73 71 9e 94 72 7c 86 76 73 7b 9f a4 96 77 7c 81 75 80 70 75 a8 7d 71 7a 72 8f 70 8a 96 88 72 61 69 9e 57 70 89 72 9b 84 94 66 a5 96 72 71 74 6e 8a 88 87 95 5d a8 95 b2 8b 71 a0 8a 80 41 a0 52 8d 7e 5d 93 98 8a 82 4d 73 61 a3 8a a3 86 82 8e 9a 87 97 a3 4a b0 98 67 4a 66 6d 95 55 5a 6e 82 83 54 7c 7e b0 58 6e 58 4c 6e 5c 62 9a 7d 67 7f 67 71 73 97 9b 9c 9c 83 c6 a4 af 9d ae 4e 62 34 5d a0 51 4d a9 39 67 49 65 4e 8e 8e 9d a5 5d 80 63 77 4e 9d 80 74 7b 62 6e 6c 77 56 bc 34 32 b8 6c 75 ab 7d a2 6f 9b 9e 71 87 6f 8e 9f 60 52 92 8c 54 42 95 8d 95 9a 7c c5 57 b9 62 5e 91 3a 9a 1f 72 4e 97 54 76 94 4b 94 31 32 5e 6e 7c 36 74 e3 82 a4 9b 78 5a 9c b9 5a 8d 30 9f 92 80 65 66 ab 61 c0 3e 79 8d 62 96 ac 41 7f b6 c1 59 60 a5 61 6e 43 79 a8 a5 85 60 8a 61 83 b9 b2 63 6f 9f 87 5b 6d af 81 46 96 7e 75 57 49 86 a4 5c 68 68 4c 7a 3a 83 67 61 2b 8f 75 74 8b 94 9b ae 54 3c a1 98 52 5f 6c a1 a4 5e ad c3 42 8b 8c 5d 83 dc 8c 72 96 77 98 99 58 5e 9b 6c a8 93 81 72 56 b3 45 6b 5f 70 8f 62 88 6c 77 54 37 55 81 38 8f 61 5f 5f 70 67 97 72 53 8a 8a 90 62 6f 8b a8 75 70 88 7a 97 96 83 95 ae 86 96 a6 a8 a8 6b 6d 89 a1 9b 5d 9c 65 8d a1 5e 85 82 75 8c 8d 71 8e 75 7d 7a 88 84 59 91 90 6c 61 88 5a 52 ad 74 55 74 7b 4e 96 68 7e 8e 79 52 9d 89 7b 90 75 a6 a3 5a 7d a9 62 5f 6a 75 9b 95 70 64 7f 6a 6f 6b 8e a2 90 74 8d 86 85 80 75 7a 81 93 61 88 90 7e 94 63 72 8c 88 7a 72 62 71 72 7b 81 66 7b 6b 5e 4e 84 7a 72 82 7d 85 7e 8b 79 98 42 8c 55 a3 85 98 8d 8b 8a 73 79 9d 72 82 96 88 80 81 a5 75 8f 70 88 8e 7a 85 7d 67 7d 91 80 89 7e 85 78 42 78 70 5d 98 74 54 71 8c 70 7f 5e 72 8c 97 83 9e 7a 91 96 92 83 82 6f 87 94 7f 7a 78 83 78 69 92 7f 9c 72 86 97 89 6c 8c 95 8c 6d 6a 8b 6f 73 77 91 92 8e 95 87 8d 7d 84 67 75 97 81 8f 8f 93 7f 82 8d 62 6c 88 a1 6f 83 75 7b 79 73 87 81 6d 8a 99 7c 81 85 6f 6f 8c 71 7b 8e 7b 85 9a 97 a1 92 6f 72 99 87 85 92 89 8c 85 9b 9e a0 99 7a a8 7a 8b 83 85 71 a2 6b 82 62 9b 5d 5e 90 79 6d 73 32 6d 8a 9e 71 a0 7f 7f 79 6c 88 90 86 6f 89 83 87 7a 88 6d 7b 7b 72 a3 72 77 59 7c 6d 81 7c 49 75 8d 72 8f 9b 91 7c a2 6a 78 8d 86 81 84 8c 70 97 6c 7f 6a 82 93 61 94 83 87 7f 94 8d 85 77 86 60 7f 8b 7b 88 66 80 8b 97 6c 62 b1 b5 66 93 67 7c 7e 75 a3 8d b3 6c 65 7a 8f b0 74 82 7c 79 69 7c 71 82 80 75 8a 8d 97 a3 6f 4d 62 8c 76 66 6c 7d 7d a2 88 75 a6 92 5a 80 8d 92 73 6c 8a 61 85 5d 68 6d a7 7c a8 61 63 6f 87 7c 8d 83 7f 80 6f 80 81 8d 9b 93 89 86 9e 80 6e 8a 76 89 50 8f 78 a3 8c 87 94 68 71 96 75 6d 76 6a 73 95 78 85 a4 76 63 67 7a a0 71 9f a3 7e 4b 7a 69 7a 7e 8e 6b 5c 75 75 34 8f 5c 96 60 97 65 62 7d 83 86 8a 7e 83 8d 7c b1 67 7d 7f 7e 7e 97 82 7b 75 5d 7b b2 7c 89 75 41 96 94 94 8f b6 8c 98 94 95 7e 7d 7d 8d 7e 9f 87 76 8b 88 40 7b 96 94 73 84 66 6e 87 9d 6f 88 6b 68 98 7f 8c 87 98 46 88 78 8a 7b 87 93 63 73 67 96 9c 94 71 7d 7e 7e 75 ac 99 86 4c aa 64 82 68 a4 89 92 6f 79 75 6f 70 8e a3 86 6d 93 86 58 8f 82 68 7f 78 62 4a 8f 61 84 84 a5 73 8a 7e 5f 9b 6b 78 78 78 79 91 5e 5c 83 93 8b 76 94 89 76 6d 6b 89 5e 95 68 a3 6e 73 a6 94 91 70 a3 88 64 6e 65 6d 89 95 54 91 6a 7a 64 74 7c 9c 87 89 85 6a 80 6d 9c 49 75 6e 6d 97 7f 7c 80 86 ba 88 78 60 8c 7a 94 8b 7d 61 68 7a 7a 79 78 89 9d 8c 7d 59 77 9b 83 8e 84 8b 69 82 65 80 74 a2 84 61 69 90 9b 8b 92 7d 44 69 68 92 80 6c 70 7f 84 8e ac 74 74 77 8d 8d 84 68 6f 94 81 72 91 74 77 73 6e 9c 81 7b 8b 92 87 83 84 86 81 85 7e 94 a1 84 9e 8c 85 7f 6e 7e 89 a7 6d 91 82 97 76 88 79 8c 98 7a 6b 79 8e 5c 8f 5d 8c 80 6f 76 8c 91 8a 5d 74 8b 70 8f 8d 84 93 97 6e 8c 6a 89 67 78 8a 89 80 8e 8a 91 93 8d 66 9a 79 86 6f 90 6b 69 76 7c 97 94 87 76 83 8c 83 81 72 7f 8e 80 8f 8f 91 8a 86 7d 83 6c 6b 8f 87 7b 86 73 72 7f 7c 85 93 93 81 8b 89 96 65 84 80 71 6a 65 7f 8a 95 81 72 84 82 67 87 98 81 7f 94 73 7a 78 6b 67 90 73 93 7d 75 8f 65 64 85 64 76 8e 97 82 7c 86 73 80 8c 6b 75 83 82 68 98 87 64 96 71 8c 6d 76 6b 96 72 74 89 8d 68 7d 63 64 92 63 8c 64 99 88 63 8b 8f 8b 72 64 94 98 6a 8e 94 67 88 71 70 73 97 78 7e 8b 76 78 7d 63 94 86 7e 69 8b 6e 78 90 91 80 8e 93 74 92 96 83 71 6a 8a 86 80 98 88 7d 6f 89 7b 63 78 67 69 84 89 7f 6a 8b 70 93 6d 73 7a 90 8f 74 98 96 8f 66 99 93 92 8a 85 76 8b 84 70 71 99 7b 67 64 64 78 71 7f 93 99 72 6b 6c 6b 63 97 68 95 89 84 65 81 64 7c 65 71 71 93 63 96 68 96 88 90 90 70 73 92 93 79 91 74 97 8d 98 6e 85 7d 87 6d 70 7a 88 65 82 79 7a 91 6c 70 6a 69 65 64 6e 6f 79 92 80 7c 7e 8e 6b 73 8f 94 89 7a 90 8d 94 6e 8a 7c 8f 76 67 68 79 88 94 6d 80 72 6c 81 83 71 8e 67 63 8e 93 8f 6f 7d 99 6f 79 6d 7e 8c 77 90 76 70 72 6b 75 92 82 97 99 65 76 73 95 6e 73 95 88 6b 92 79 99 85 75 95 73 75 82 6a 93 8d 75 85 76 6f 6f 8c 64 8e 86 75 72 82 95 7e 8b 71 84 63 8f 94 79 8f 81 65 94 7f 8d 84 7d 90 76 7f 7b 92 97 7a 7e 95 7e 91 87 7f 88 66 7a 89 72 8c 91 98 6b 94 86 83 8f 6d 8d 94 87 98 74 7f 8f 73 71 7a 75 7f 84 67 97 89 6f 94 87 70 84 94 85 79 7f 6b 81 69 92 80 80 85 86 6d 92 77 8d 82 73 8f 65 89 8b 8c 71 8b 92 79 97 7b 6e 89 88 7f 86 6d 68 85 65 89 7a 88 98 86 80 7b 84 87 8b 7c 7f 6d 8c 73 64 75 97 96 7e 65 63 8f 77 8c 7b 79 83 85 85 89 98 83 65 86 7f 71 95 7c 97 8b 87 85 6a 89 72 6d 83 90 68 83 7d 63 91 89 87 67 75 7a 75 70 86 9a 83 91 94 96 85 76 8a 66 80 74 6c 7e 75 81 64 8a 7f 7b 89 91 70 8c 7c 77 64 89 7d 6d 78 84 73 7e 99 64 8a 80 89 74 91 64 67 83 74 86 74 79 65 92 70 7d 85 7d 71 90 80 82 78 7b 68 7b 7f 76 8f 65 73 96 70 99 82 8e 8d 7d 96 73 72 6f 65 8c 82 88 8e 98 80 7a 89 69 69 6c 95 98 8b 6c 71 76 6d 79 80 8e 9a 77 86 7b 91 82 75 87 69 65 9b 8e 68 84 99 87 8d 6a 87 a6 81 73 7e 7f a2 63 8f a1 68 7d 9e 9b 6d 77 89 97 82 96 8f 6b 8c 8e 8a 72 86 8f 7d 9b 6c 70 8d 6d 9c 7d 93 8d 9b 65 75 8b 79 72 83 7f 5a 6b 91 75 79 86 6f 64 89 7d 7a 88 93 7b 68 77 6b 78 8d 76 8c 96 8b 8f 6e 80 8f 88 82 82 71 89 91 7c 78 9a 6b 80 64 8b 7b 7d 89 84 6d 86 67 66 6c 64 99 8f 92 82 98 8d 8a 87 68 91 7b 93 94 66 7c 99 6b 7f 95 97 83 7b 71 69 6b 93 95 89 7c 8a 72 8f 8b 6a 7b 7a 8e 64 6d 8a 95 78 77 80 86 8f 7b 7f 9a 93 8c 7a 82 8d 7e 92 69 67 87 8f 8a 8d 97 72 96 94 92 86 7f 8d 7a 87 73 67 92 7b 90 8f 7d 91 98 75 7c 93 95 7d 69 6b 8e 94 6a 93 90 8e 8a 92 8d 82 93 78 71 88 84 91 79 7a 8a 77 86 7e 94 94 66 8f 67 7d 81 64 65 7c 65 85 94 82 79 71 77 78 63 77 6a 78 96 7d 98 6a 68 85 85 6a 67 72 6c 89 97 88 5c 78 82 69 6a 65 8b 79 97 88 81 8a 78 96 94 a4 98 76 8b 99 94 95 a3 a3 9c 76 a3 9d 73 93 81 97 84 6c 84 8b 74 97 6b 92 7a 86 7c 94 6c 89 73 77 93 7a 95 60 8d 89 81 8f 8a 6e 86 8e 80 94 a3 9a 79 67 a9 8f a0 8b 89 80 85 6f 6f 9e 79 83 68 a6 47 91 8f 4f 8b 65 a7 86 66 88 9d 99 78 75 a1 8d 95 61 71 76 89 92 20 96 61 54 89 9d 83 5f 5e 95 a5 aa 4f 81 77 58 7b 7f 72 ad 3c 47 6f 9f 4e 46 96 83 84 7a 9c 28 8d 62 45 c9 9b 80 6c a8 ca 54 53 74 bb 88 75 75 6d 67 5e 37 91 9c 0f ad 9e 7d 82 6a 94 8f 83 69 b3 97 37 99 8a 74 7e 32 a5 5b 91 a6 8f 6d 31 87 65 6e 4f 75 98 77 86 1b 8e 80 ad 89 ad b0 98 52 9d 80 7c 00 a7 33 79 b4 85 36 58 8a 7f 4a 70 83 99 5c 42 c8 86 5c 68 91 a7 6f 9f 4f ae 15 5d ae c0 5d 3f 3d 6b 51 9b 7e 2f 9b b0 ad 68 41 a0 51 be 5f 3b 6a 92 a0 8a ab 5c 25 a5 7a 6f ab 84 25 84 77 90 20 ba b2 58 8d aa 8e ac 9c b0 98 a2 70 7a 4e a5 99 53 6b 68 80 4e 2c 63 a7 60 a8 94 8a 8e 5d 54 9b af b0 80 45 8a 51 3e 88 90 72 54 9b ba 92 76 7f c1 96 c1 4e b8 86 9d 75 83 7b 80 8a 76 70 70 13 77 99 8f 85 8f 81 64 9e 71 99 89 8f 76 7c 7d 7b 99 a3 9a 88 74 91 7f 8c 94 7e 74 67 91 88 69 7a 98 5c a4 92 85 8c 83 94 6d 56 65 88 9a 7d 7a 99 8d 83 6c 7b 83 8d 80 8b 5a a1 7e 5d 79 6f 85 92 7e 8d 8a 5b 6e 8a 5d 5e 66 7d 79 78 8c 73 8e 7b 86 75 67 84 75 a3 7c 85 8d 8c 72 6e 8b 58 8f 97 80 68 6f 5e 69 96 6b 91 83 81 78 9e 9c 92 90 7c 79 86 6c 2a 91 7b 8f 83 76 74 70 81 86 5e 56 90 78 a8 91 a0 74 7f 7a 6e 91 74 6c 65 72 97 98 64 8b 88 a2 66 87 95 85 81 88 a9 91 8d 7b 70 72 74 73 68 68 61 9b 80 89 6a 6c 90 69 89 84 6a 96 84 80 83 77 72 63 6d 94 6c 8d 6e 82 65 8a 6c 98 92 7c 6a 87 78 86 8e 89 90 89 6f 83 7d 9e 77 7f 78 75 80 6a 6a 7e 72 7e 68 85 a0 85 71 94 56 76 95 7d 82 6d 6c 73 75 73 6c 8a 79 76 89 71 71 82 63 7f 8e 76 7b 76 a1 8b 5a 86 6e 6e 92 82 8e 58 7c 96 76 5e 62 54 93 7e 88 84 91 82 6e 7e 80 90 7e 77 6a 48 77 87 86 9d 6d 6f 7b 6d 9a 7d 73 8b 6e 73 6f 76 8a 90 65 89 8b 61 80 78 7d 88 83 85 6a 76 6f 88 4d 71 76 86 9a 6b 8b 7b 8c 83 66 81 7c a0 7c 86 90 75 8d 83 8f 84 7a 7e 88 7e 71 5f a1 79 6b 53 87 8d 83 8b 84 75 8c 61 a7 69 84 6d 81 6d 8c 6f 7d 92 79 72 85 85 84 a1 89 72 91 87 7a 7a 9a 82 7d 8b 74 76 a7 85 79 66 6e 7f 75 7a 85 84 68 8c 7a 85 88 67 79 80 8a 77 80 73 6c 8d 79 99 85 97 7f 66 75 8e 9a 8d 7d 71 83 6a 98 76 68 81 8c 7f 6b 6c 8a 72 63 85 7f 83 96 7b 6e 7c 99 97 a0 7f 81 9a 73 6f 82 6e 9c 8d 66 8d 78 5b 60 71 89 7d 5c 9e 81 7e 70 7e 93 a0 84 a3 97 95 64 68 97 9b 6e 70 7e 63 94 9a 95 9e 73 87 9d 86 86 90 7a 80 66 7a 93 84 6c 7a 79 5e 8b 9f 66 84 75 83 9e 71 5a 7e 80 7b aa 8a 56 99 8a 56 6c 87 9a 9d 86 7d 95 83 77 95 ad 9d 63 79 87 78 76 89 6e 87 6b 69 78 84 7d 89 68 8b ab 67 65 86 63 57 40 6e 6f 9b 98 87 8e 6e a1 4b 4c a3 7b 3e 73 7c 98 a9 74 9a 7e 75 90 8c 6a 6e 75 8e 77 8b 7d 77 96 99 77 6d 6c a5 85 a7 63 a2 66 9e 6e 7a 9b a0 ab 70 71 79 98 7f 4b 7e ab 97 25 95 76 7e 55 73 9b 97 ae 94 65 a6 6b 62 6a 61 71 82 7e 5b 90 71 82 8c 5f a3 8d 8c 8f a3 87 53 87 5a 7a 78 80 73 6d 40 58 aa 93 67 91 67 67 99 7e 74 90 68 8b 64 ad 91 32 76 72 72 52 61 ac 7e 08 6d 72 6c 55 82 88 86 99 8c 76 a0 5e 7d 70 8b 83 9c 86 a6 ac 6c 5b 7a 94 8e 6a 95 94 7c 85 76 7d 80 8b 92 7f 81 84 74 92 a2 94 94 87 83 91 a2 78 87 62 89 60 5a 88 9b 5d 96 73 83 83 60 72 63 74 7b 89 84 7f 70 99 8a 80 7a 60 5c 72 84 77 5f 85 77 a3 61 92 75 64 9a 94 76 45 a4 70 60 92 75 8f 75 9d 91 67 99 5a 8f 7b 8d 6e 6f 64 7a 87 88 97 81 65 8a 77 80 6e 83 9c 6e 87 8b 97 7a 72 8d 81 7e 86 69 8f 6e 88 84 82 86 74 63 8c 72 79 9b 6f 8d 5d 74 6f 65 92 72 88 6d 8f 6c 8b 7a 4c 8b 8f 94 95 9a 98 85 77 97 88 88 83 95 85 7a 6e 7a 90 98 84 85 7f 56 82 86 6c 7d 9e 69 73 95 9f 7a 6a 7e 90 98 92 85 83 75 77 78 8b 7d 85 7c 70 86 7c 7f 73 84 78 8c 96 76 9f 87 7e 87 65 8a 83 5e 96 8f 70 81 96 87 77 7e 67 8a 94 78 90 86 65 99 75 7d 7e 75 96 7c 77 61 93 56 7b 74 71 75 76 60 94 5c 8c 95 6e 7f 86 8c 6b 7f 74 91 94 85 89 9b 8f 85 7e 7b 8b 90 7d 76 72 92 99 6c a1 74 54 7f 68 95 6f 6e 74 55 84 70 8e 69 72 6c 86 5a 6e 63 67 8f 6b 9c 8a 83 76 59 54 6a 8e 7c 78 7b 60 84 92 93 7d 71 44 8f a0 7a 6d 96 88 9b 8c 85 66 78 8a 77 96 a1 81 82 87 5a 92 64 60 67 71 83 90 95 84 84 75 6a 85 72 80 92 7b 9a 90 7b 6e 7a 8f 99 82 8c 8b 72 87 7f 72 8c 5b 4a 88 84 82 73 87 6e 7d 78 77 74 81 7c 71 77 82 65 72 95 85 85 76 7f 88 6d 79 71 84 6d 79 82 96 83 8a 90 75 72 83 6c 76 89 7a 7e 90 7b 7f 63 65 7b 9a 70 6b 85 77 7b 78 9b 8a 80 65 75 82 8e 8f 66 7f 6f 91 8d 96 76 96 87 96 8a 80 6c 7e 88 7f 7a 82 8a 76 84 66 65 71 74 71 92 87 84 96 7c 7c 62 61 83 64 95 7b 7d 84 86 70 92 6c 6e 8e 7e 89 81 78 77 77 67 9a 6d 8e 94 6c 6a 91 63 72 96 7e 67 6b 81 73 78 93 6e 97 66 67 65 91 65 67 76 72 7c 6f 69 82 98 6f 89 80 70 78 6e 7a 80 89 88 7c 7f 6b 8c 72 6c 71 86 80 77 70 97 8a 64 6b 74 92 7d 82 7a 78 8a 86 87 80 8d 6d 65 97 71 79 84 88 97 97 66 8c 98 93 7c 8f 84 87 68 77 81 63 90 80 69 99 8a 86 6a 6f 84 83 83 64 90 77 78 99 92 6a 85 93 98 6a 66 8e 8c 84 7d 9a 69 94 80 98 68 99 8a 85 70 90 90 7b 66 64 72 98 66 68 83 91 7f 7c 92 72 8e 6e 7c 79 87 70 8a 95 72 92 71 69 92 84 98 97 6e 95 8f 84 8b 79 88 99 8f 67 83 88 94 8e 64 65 98 87 82 67 7b 75 98 73 80 67 81 76 69 66 97 8f 92 76 89 77 7b 93 82 8e 94 7e 87 89 97 8b 75 67 80 91 8f 91 6f 92 9a 97 82 9a 82 79 72 72 6c 8b 81 75 7c 6e 71 64 95 82 71 8e 89 90 78 65 67 6d 7b 