9a 89 66 73 90 77 90 6d 9e b6 4c 95 72 6b 48 7d b8 3d 36 64 30 4b b8 b0 8e 3f b6 a4 94 03 98 a4 97 6e 5e af 68 87 a3 97 8c 62 39 7e 3c 34 82 6e a1 83 5e 8e a5 d4 2f 7d 97 67 56 98 b7 37 23 9e 5a 66 83 a5 79 6e 5f ac 28 84 68 6a 94 4b 90 7d 44 d0 52 8c 4e 9c 95 a2 a1 98 92 89 43 33 b6 6b 74 70 9a 79 b1 7a 6c 96 76 97 66 86 71 ae 49 6e 8b 52 6e 62 3f a2 a6 a2 5c 48 ba a3 ac 35 a1 a9 a1 22 bb c0 54 65 bd 7d 5b 8c 78 5e -1 d8 1b 7b 52 bd 87 93 7d 90 6f 66 7e 22 40 70 16 b1 67 77 01 b8 15 9b 9d 52 4c 74 4b c1 40 63 5c 94 84 9f 98 85 78 7c a0 71 71 5d 66 90 a1 ab 9e 65 96 61 8d 93 43 d5 77 5d 65 73 3c 83 a9 7a a1 87 a3 ac 76 57 8e a4 66 89 6b 6a 54 24 ab 72 2e 6a 88 6c 59 40 86 89 2c a7 09 71 3b 99 99 81 87 97 62 88 54 2f bd 92 82 7f 77 a4 46 17 a2 8c a3 a0 8d 68 