39 99 c8 4a 6e 4f 3f 43 5c da 98 88 e3 92 65 6f 6b 5c c8 b7 92 76 67 61 c7 5d 2e 89 49 28 4a 9f 88 86 c3 b5 ac 20 4d 47 8e 86 ac 38 0d 3d 31 4c ac 8e a9 ac 30 4a ae ca 87 4f b7 f1 b4 2a 1e a8 94 61 7c 54 50 1b 7a ae b1 71 4e 8d 84 b4 c4 8f 71 51 30 31 8e c0 b0 45 83 9d c5 b4 b7 75 2f 44 c5 b9 a7 3e 45 58 4d 6e 93 ad b2 a7 45 92 a1 1f 88 8e c9 27 18 8c d5 ba 5d 55 8b c8 c0 86 dd cb a3 5b 58 69 d5 e4 db 4d ad cb 32 90 c4 49 57 5e a1 8c ae 15 6c 97 e7 85 61 20 98 cc 99 66 99 bc 96 62 cc a5 a2 e8 a8 50 96 4f 4e 69 eb fc 2b 60 6a 7b 6e 68 26 6e 94 b5 bd 91 bb 6d 43 d1 7c 4f 