81 99 83 89 8d 7d 84 7c 7c 8c 69 5d 6c 94 6c 93 8d 6d 71 5f 6b 58 6e 90 6f 8c 66 9b 62 62 82 81 99 8f 81 98 65 63 8c 9e 6d 7b 8f 61 6f 87 66 63 69 9d 60 92 95 7b 9e 8b 6c 9c 75 7e 91 8b 84 9c 65 99 5e 6f 9b 53 73 5f 5c 5f 69 86 75 aa 80 64 72 aa 4e 88 8c 75 70 a1 89 91 9c 7a 63 7d 69 58 4f 79 94 74 96 ac 96 80 86 90 75 56 65 73 a5 7d 71 8d 7b 88 95 71 7b 6f 83 85 97 98 84 74 7d 86 9d 8b a4 79 56 69 6a 93 9a 72 80 83 6c 7c 74 67 85 6b 89 92 a1 6c 7d 75 67 7f 6d 67 5f 71 67 6c 96 85 91 9a 96 78 85 78 89 9a 90 ae 87 81 95 71 6a 75 68 62 66 62 80 7c 92 8e 87 61 7f 67 45 8b 91 84 a8 7b 68 5d 8b 95 79 9f 9f a5 71 93 8d 9c 69 85 ab 92 66 74 66 8b 76 58 99 69 89 8e 82 89 83 79 81 89 5a 48 82 88 68 97 53 72 71 58 78 7e 71 6e 69 73 76 80 7f 6f 5a 75 76 9c 8c 86 9c 97 7b 98 80 87 67 62 7a 96 9f 63 93 8b 73 93 92 93 6d a5 76 71 5e 72 6c 6c 81 6c 8a 6a 9c 92 73 8c 82 9e 62 71 99 85 a9 98 a5 61 73 73 75 6c 93 8c 9e 79 5d 83 97 a6 86 9b 82 8d 6f 58 85 70 9b 85 71 6f 7b 8c a5 69 66 76 5e 6d 94 aa 85 6b 7f 79 a2 63 91 93 79 9a 6c 6f 5d a2 a8 76 70 a8 72 83 a2 7a 73 9f 6f 8f 7b 6e 8a 8f 8a 85 53 66 80 75 76 8b 8e 5d 4e 96 8f 6e 7c 98 93 93 87 8a 86 a0 84 61 82 61 69 92 91 86 70 91 8c 63 73 67 84 54 5e 6d a7 83 75 9c 9a a1 68 76 83 7d a0 73 67 58 98 74 9a 8d 66 7d 93 70 59 85 89 64 61 62 82 88 98 9e 72 5c 95 76 98 83 81 61 9f 82 6d 71 79 6a 60 8e 72 96 7a 70 84 5a 7d 8f 9a 70 8c 78 69 a2 6f ab 81 5e a7 59 8f 7d 65 75 72 a3 87 6a 7f 8b 80 6d 9a 92 6d 9b 72 97 77 87 7c 8f 6b 7c 7d 9d 68 7e 80 aa 98 8b 73 76 af 8e 93 91 9c 5f 53 62 74 94 51 7a 51 83 7e 81 6e 81 8e 8d 91 8a ad 92 76 78 92 85 8d 6a 68 6e 64 7a 8c 89 56 77 55 9a 8f 5c 8c 90 5f 97 90 89 9b 9e 75 86 82 60 89 ae 6a 82 99 6d 6d 6a 6c 78 90 7a 81 87 57 9d 7e a9 59 6e ae 8f 6a 5e 97 91 66 7a 78 8f 7f 6f 88 80 5a 70 80 74 71 87 70 9e 7b 7d 9e 8a 67 56 7b 7c 99 7f 71 86 99 78 7c 67 74 78 56 54 5e 7b 8a 91 61 66 71 7f 87 73 9e 91 a7 97 79 8c 95 7d 8e 90 80 7b 63 9a 8c 9b 7c 76 6f 74 97 93 8d 9e 98 62 75 6b 65 89 86 75 87 6e ad 67 6f 92 80 7e 9c 6e 7e 8c 97 4f 6f 73 83 64 5d 95 7e 74 67 71 7d 75 6b 69 8b 9e 76 78 7c 94 74 94 7c 86 7b 8a 92 86 99 8b 8e 63 65 7e 80 77 7a 99 97 67 63 72 7b 73 b0 81 7d 92 82 65 5f 8b 9a 87 ae 67 a4 78 86 9d 5c 6d 77 93 79 72 87 71 78 6b 66 73 86 68 99 56 a1 8b 87 72 7e 62 79 b2 8d 6d 8f 64 6f 84 64 7b 71 a3 97 6a 99 72 7e 76 6e 83 6d 7b 6f 85 60 7d 85 96 78 93 8a 76 78 8e 87 94 6e 73 7d 7d 6b a1 65 96 74 6a 84 61 99 7b 84 88 82 6c 8c 99 65 84 7e 73 7b 66 89 60 66 80 9c 81 68 6e 83 7c 65 80 a1 69 93 72 73 73 7e a1 64 91 a9 76 74 84 a1 8c 9b 80 7f 67 97 6e 84 7e 66 76 84 6b 8c 6d 87 6a 81 6a 8d 86 81 55 7d 85 61 80 84 77 6c 91 73 75 74 8f 6e 8f 62 67 8e 84 5c 79 86 64 7b a0 97 8b 77 53 a2 89 7f 87 71 7e 71 7b 76 77 9b 62 95 66 8c 74 74 5d 7b ab 6e 8e 74 75 5e 8b 74 74 93 88 84 78 72 65 7c 82 71 77 7f 77 80 83 85 98 81 6e 62 89 64 93 69 8a 67 98 81 7f 5c 8a 82 63 81 6a 72 7e 5b 79 9a 9e 77 87 7c 86 7a 60 6f 94 73 70 9e 97 91 87 5b 87 93 7f 69 71 99 6c 9a 8b 63 89 72 95 9a ae 8e 70 6a 88 7b 87 8f 84 65 87 76 5c a9 a7 9a 91 94 96 77 9a 6d 89 7d 7f 64 8e 8f 7d 6f 89 7e 80 95 89 80 86 6a 7a 88 81 58 57 99 8f 7e a0 84 90 75 6d 6c 74 61 92 79 61 7a 74 88 85 67 96 73 5f 8f 76 88 78 6d 7d 7c 85 65 86 5e 6f 92 8e 7d 96 78 73 94 9d 89 67 92 55 76 7b 90 73 6d 64 83 86 6d 9d 75 a2 8b 6d 8b 8e 77 8d 60 6e 78 82 72 64 73 6b 67 93 8d 86 67 97 70 93 5b 70 88 77 99 77 6c 84 7a 9b 86 97 6b 96 95 7b 74 6d 76 8b 90 75 8a 67 77 97 74 8f 6c 6e 6e 71 8f 6c 77 94 78 80 87 6d 63 76 91 6e 80 6c 96 78 7c 7b 6d 97 7b 8a 7b 52 7b 95 71 82 7c 6a 7c 8e 7d 7b 68 7e 6f 9a 88 8e 6b 6c 6b 8a 85 98 8a 73 84 7d 83 88 7e 75 58 97 80 83 90 82 83 98 94 7f 95 9a 8d 91 96 91 91 79 7b 99 69 60 65 64 74 5d 91 73 95 51 86 9b 84 7d 6d 7b 6a a0 92 74 67 95 6a 6e 66 7c 6f 72 6f 7b 65 6e 5f 6c 9c a1 90 90 6f 9b aa 77 6d 82 92 a1 98 92 76 92 7f a1 56 93 90 87 99 8d 62 71 a1 88 6a 7c 73 9e 92 64 75 9d 55 87 6f 6a 76 ad 98 7b ab 88 7c 53 78 7c 89 78 84 6d 69 8f 5a 76 51 a2 99 70 7a 7c 8e 7b 76 59 7c ae a0 8a 54 97 b5 8c 63 76 97 87 54 a0 72 88 a2 a1 88 6d 6b 69 9a 65 70 6c 97 7b 71 5d 5f 5e 91 67 93 65 72 78 7e 69 76 70 8b 85 6e 7f 59 8e 86 91 a3 8e 8d 70 6d 6e 8d 5f 8a 86 82 6f 90 72 7c 96 75 74 76 91 8d 7e 75 9a 75 69 74 8b 84 98 69 90 72 7a 70 69 89 83 8c 8e 5e 8c 64 96 89 64 6d 9b 7e 7d 91 94 86 9b 78 78 60 5a 90 8a 9c 8e 62 62 94 6f 71 85 79 7f 8a 5d 81 6f 77 6e 59 84 70 80 9a 8f 92 7f 76 7d 79 a2 74 96 96 7f 76 82 89 73 72 b0 79 69 5f 7f 8f 98 88 62 b8 6f 83 6c 8f a7 69 84 8f 76 69 9c 98 92 73 91 ae 5e 8c 9f 51 ac 9f a2 61 7a 94 88 9e 67 78 7e 89 93 6a 7e 78 93 65 67 9f 8e 88 9f 77 72 7d 79 83 8b 56 7e 74 75 7f 78 7c 7a 91 82 83 70 8d 86 90 74 99 84 71 66 73 65 8d 79 a8 61 70 a7 76 74 79 8c 78 77 9f 6a a7 7f a3 9e 63 60 55 87 60 9b 7e 6b 7a 84 86 8f 9d 85 67 65 6e 7c 98 6b 93 72 80 5c 7d 82 9c 73 80 6f 74 81 6c 99 65 72 92 70 6e 8a 87 71 8b 65 5b 6f 7d 7c 81 82 85 91 6f 9d 69 76 61 6f 97 8d 89 9c 7b 98 85 9b 9c 78 94 59 7b 7c 61 69 68 74 89 7c 76 73 a6 6d 95 a4 75 77 77 82 79 98 89 97 7e 69 91 99 9c 8f 6d 92 7a 66 83 a5 7e 68 5a a3 88 63 70 89 97 73 8f af 7d 78 72 9b 96 5e 7d 77 95 8b 6c 76 8b b4 9f 99 98 80 91 6c 8b 60 96 a1 80 a0 6d 80 74 66 7f 6f 6c 66 77 90 5f 56 5a a7 87 8d 6d 8e 99 70 99 86 5b 89 a0 98 98 60 71 70 aa 88 a6 8f 81 96 65 6d b0 75 62 93 8d 6f 7b 61 77 9a 84 74 76 7b 87 7e 8c 69 7d 6c 5e 9b 6b 62 7e 73 7e 99 9f 58 8e 74 84 70 63 a4 87 75 5c 6a 53 65 71 59 6d 80 91 81 69 66 8e 68 73 62 76 8c 6f 68 6e 65 84 8b 9d 8d 6d 80 98 97 6b 73 94 6f 95 73 a7 79 73 68 7f 63 63 72 a3 69 73 90 82 88 8c 8f 70 78 79 8a 66 9f 84 86 9d 9e 62 74 5c 75 91 8e 8d 70 79 98 86 9f 83 92 6b 94 74 92 78 84 7b 57 76 8f 63 70 82 96 66 8a 89 90 8c 8d 74 6b 99 8b 7f 8e 74 72 81 7b 6d 83 95 70 73 85 80 a8 60 7d 85 87 8b 6e 80 78 68 9a 94 72 9e 87 7b 61 7f 59 6c 5c 5b 84 8d 81 5d 8b 96 80 66 92 59 69 71 9b 98 a4 7a 5f 76 97 72 96 8e a4 92 94 8a 8b 8f 9a 89 91 76 80 96 8d 98 81 87 78 7b 67 5c 72 79 75 92 66 7b 77 5e 67 7d 87 6b 84 8d 80 9e 6c 7a 9d 6d 7b 78 49 a7 6f 60 7a 80 66 69 8f 89 69 97 7f 7b 58 83 9c 63 65 62 99 84 8c 89 91 8e 8f 86 a8 76 78 63 9d a1 75 9e 79 64 67 95 79 91 76 6c 8a 6d 89 60 a7 77 a0 89 83 94 96 74 96 6c 95 8c 95 83 9c 7a 96 82 71 79 6c 77 85 89 6d 9c 74 83 71 ae 6a 87 7c 6a 83 8c a3 8b 9a 86 a2 90 9b 75 8c 8f 71 5b 71 64 8e 9c 67 87 94 83 9b 7f 76 b1 82 80 5f 65 68 6b 96 7b 9a 81 96 a6 5f 84 5f 94 85 94 86 6b 62 63 a6 7b 75 a8 9a 81 94 88 94 6c 78 90 6a 8b 82 89 6a 67 70 7e 66 95 59 65 86 65 6f 6e 63 70 63 7c 7b 96 74 75 5a 9e 94 87 8f 90 79 74 71 68 99 67 99 78 86 92 7e 83 a8 84 92 91 9d 78 90 8f 71 7f 72 7b 6b 69 7a 5a 6a 9c 70 8b 87 96 82 9b 8f 73 68 6c 6b 62 72 6b 85 77 60 74 80 97 73 6f 93 74 8d 7f 87 9b 96 6c 69 86 6d 77 64 6e 7b 97 9d 95 7d 71 69 87 54 72 8f 76 83 60 88 8c 63 96 9c 5c 6c 6c 91 6b 6c 7d 76 64 8a b0 8d b5 75 56 76 73 92 88 64 74 61 87 8e 8b 71 75 7c 65 9c 7b 81 7b 89 8d 87 84 a3 84 a9 7a 72 89 82 ab 6a 6a 7b 7f 99 b3 93 84 6d 4e 5a 68 85 9e 91 79 78 63 83 89 6b a6 80 93 7b 68 94 83 9c 95 7a a3 71 8c 85 75 9e 6e 6e 54 a4 60 8a 97 81 a1 83 72 64 8e 73 a4 5e 81 9b 6a 75 58 83 6a 84 81 7b 73 a5 65 93 5b 7f 7b 75 5e 5f 86 55 81 a4 7b a1 70 95 68 7b 6a 97 93 b2 72 95 61 5c 53 6b 9a 8b 67 6d 71 8a 70 77 85 7d 67 81 96 82 83 8d 8b 9a 7c 84 6b 6a 6d 8f ad 87 7a 9e 94 6d a5 77 7a 9b 98 83 7d 90 78 7a 75 8e 83 62 79 86 83 74 58 8c 90 7f 9b a2 5b 97 56 68 8b 73 a1 73 8d 67 58 8d 5f 7f 8f 9e 4f 94 68 93 73 65 87 97 83 5c 64 6d 5c 71 6a 7f 96 6f 93 9e 85 8c 75 77 75 93 ad 7c 66 73 77 58 67 71 61 94 97 8f 92 7c 88 94 73 94 5d a0 94 71 7d 6e a9 5e 67 6e 68 70 a0 9a 8d 8c 7a 68 74 8e 94 88 84 65 6a 86 99 55 9b 8e 7d 4d 8a 8f 79 75 6b 73 98 88 6d 89 7b 78 5d 75 80 6d 76 7d 9e 90 a3 79 81 66 95 72 6c 5d 9c 6b 5b 9c a7 82 82 66 a2 6a 75 6c 88 60 7d 81 77 5f 73 55 7b 8d 74 9a 94 76 75 61 82 72 96 7b 85 76 72 66 92 81 96 6e 87 7f 8f 7c 99 73 55 80 81 65 62 9c 59 70 8d 95 63 90 77 8e aa 75 6b 6f 5f 7a 8e 9b 8f 7d 7c 8e 8f 7b 6c 63 84 7b 57 a4 7b 93 6a 64 9e 84 8d 69 9a 7e 71 6e 8d a0 95 6d 9c 77 9e 8c 9d 8c 7c 8b 87 68 8a a0 7b 6f 66 73 59 77 86 a7 82 96 73 87 8d 76 6a 59 90 80 83 7a 7d 92 64 6c 86 7e 7d 61 6b 51 7a 81 98 8f 99 80 82 83 7b 93 65 5f 67 79 8e 85 9e 66 8e 91 81 7d 81 5f 91 b0 6d 9d 69 7c a7 7a 7f 79 62 9f 79 56 aa 83 79 93 89 a0 85 62 87 71 6e 64 9a 68 71 56 96 9f 98 8f 63 94 8a 68 7f 7a 9b 73 81 8c 64 56 5f 90 91 9c 70 98 7e 94 a2 87 7b 7d 7e 8d 8d 98 86 8d 70 76 61 62 63 87 8d 90 63 50 7b 84 a2 79 90 7a 6b 5a 97 84 a4 7a 62 71 70 5a 66 70 66 75 9a 9c 98 7a 65 69 7f 66 6d 9f 97 74 7e 79 7c 8e a0 95 af 83 7a 71 8e 65 a7 6c 92 9c 6f 78 94 81 54 8e 90 91 51 6a 91 9b 7d 42 63 63 ac a2 64 6d 94 9a 6a 6f 7c 81 78 89 7a 65 a6 92 8e 62 83 5a 7b 87 7e 90 91 74 73 9f 64 9f 8b 71 65 64 5d 7f 94 81 73 5e 72 6a 9b 9d 95 6c 91 7c 7c 80 59 71 65 9b 99 67 6c 86 97 80 84 68 71 79 60 79 89 68 62 8f 5d 7f 78 ae 88 7e 8c 72 88 8e ae 66 95 8c 71 71 7d 7c 9d 70 98 78 78 8d 6d 5f 69 80 5d 74 8e 6b 90 60 8a 96 79 65 74 81 86 84 73 82 74 61 62 a2 89 71 7a 7d 97 5e 70 85 80 8a 84 8d 88 88 80 6e 95 91 96 83 6a 67 73 85 8a 91 5d 6f 6b 9f 74 6a 9d 76 89 63 92 7d 71 9b 83 96 83 7d 94 7a 82 77 88 78 74 7e 81 85 65 6b 7a 8b 7a 79 92 79 93 63 76 99 91 7d 99 a7 86 94 8b a2 92 68 6b 8f 68 9d 89 64 6f 6f 91 81 7e 8c 7e 90 89 9c 79 78 8b 70 a0 99 6d 67 7d 65 9e 9d a7 7b 6a 90 8a 81 81 7f 65 5c 6b 77 68 98 75 63 5e 94 60 5f 9b 9a 81 63 6f 87 5d 50 92 67 84 7b 68 83 90 8a 91 92 80 80 95 9d 66 9f 5b 6b 78 5f 95 a4 7c 7e 81 97 62 85 60 7b 7b 88 98 82 7f 68 74 97 7b 53 6c 9d 85 86 79 7d 75 63 91 88 7f 83 91 7d 7e 97 75 83 51 9b 99 66 a5 72 88 9a 6b 7b 93 5b a2 83 7b a6 98 9f 6f 73 84 55 81 82 95 88 76 7d 73 6c 99 4e 71 80 a2 61 73 63 5f 92 6e 6c 5e 66 78 95 67 8f 7f 87 9a a2 9a 96 59 8b 5a 67 5f 8e a1 7b 91 77 5d 68 8b 92 69 8c 96 89 70 5a 76 7a 83 6f 8b 94 76 8a 75 81 86 6a 75 8b 64 68 85 71 7e 73 8c 68 67 85 81 83 7e 61 6c 84 97 91 7b 8a 82 79 8a 74 7c 79 8a 6f 87 7b 83 8d 73 95 94 62 7d 93 80 75 7e 7d 74 87 97 8d 94 97 8c 8b 96 69 8b 7b 89 8c 99 7c 79 6a 9c 8e 75 6c 66 98 95 6d 8b 7f 64 97 73 88 57 95 86 78 75 93 3d 62 a1 64 7b 8b a1 93 5a 71 a6 a6 92 8a 94 a9 85 7e a8 98 a9 6b 9a 93 98 8b 72 95 68 83 a2 6b aa 95 a0 65 78 7c 82 7f 68 8b 83 4a 92 9e a5 7c 71 7c a4 a1 8b 7d 8c 52 9b 67 79 91 7d 5f 94 88 7c 83 8a 9f 7b 6f 89 7b 70 78 75 7c 69 6f 7d 8d 8a 9e b6 95 71 6a 81 7a 7b 6b 91 91 8a 86 7d 67 69 7e 9c a0 6d 9d 93 90 5e 8e 87 82 88 9e 67 84 8c 7a 89 91 68 77 80 6d 80 67 6e 9a 86 a6 6b 98 8c 5b 83 7f 79 ab a7 78 7c 7b 89 60 83 4c 96 84 4e 68 78 91 7e 5e 83 6b 90 70 9f 8f 6d 76 60 7c 5d 7b 75 89 6e 89 85 a6 77 9a a7 83 5f 72 70 6d 84 6b 96 6e 97 6e 84 84 99 83 7d 8c 71 6d 9b 7e 78 76 66 78 7f 94 5f 8c 7d 7f 8b 65 63 6f 66 6d 7b a6 93 8c 5b 73 88 99 89 88 93 6f 56 8d 85 a2 9b 91 58 90 72 50 75 83 84 61 86 9a 72 93 a0 6e 90 93 7d 86 95 5e 53 91 79 79 9a 99 73 94 98 71 85 5f 83 67 7e 92 ab 87 66 63 7a 69 7f 7b 95 6b 7e 69 6d 8e 78 7a a4 84 92 73 72 9a a7 82 ac 81 9f 89 9b 7d 65 74 9f 8e 7c a6 73 5d 85 90 6f 6b 84 86 74 90 6a 68 a6 70 79 56 70 5e 7e 87 8a 69 86 68 7d 7b 81 6f 8f 92 84 92 98 7d 81 7f 85 62 82 89 80 a2 6c 97 98 9c 68 7d 8f 84 72 6c 6b 9d 79 9b 9d 9c 90 88 5d 78 4e 6c 7e 67 82 65 82 65 62 7e a1 83 81 93 82 7e 85 63 63 78 76 8b 56 74 92 58 8c 76 68 94 67 7d 5a 6f 8f 6d 9f 68 77 a4 5f 61 8f 92 5e 65 97 92 61 8f 93 73 5b 7e 76 8f 93 5a 73 84 7a 5b 89 69 82 81 94 74 85 58 72 52 9e 7a 6e 60 85 9d 86 69 97 9b 67 69 76 90 5e 7e 7f 94 68 78 8f a3 97 7b 80 72 86 5f 80 76 64 70 9f 9a 9e 93 62 96 7e 7c 6c 62 64 70 60 8b 73 90 9a a3 59 a2 a3 6d 7e 93 a6 94 89 75 88 a1 7e 90 5f 87 62 93 6d 9e 91 8e 96 62 86 94 65 68 a8 81 96 75 61 7d 65 8c 77 96 75 57 77 86 91 61 61 77 8d 86 79 87 68 70 73 a3 93 78 81 65 8a 5e 85 82 7c 8d 81 5d 62 b3 81 8e 56 67 5c 84 b5 79 7b 8c 71 71 72 62 75 7e 9c 8e 92 6d 8c 6a 7e 76 5b 59 90 8d 80 66 7b 76 92 69 6e 9a 88 74 79 8d 6e 84 73 5c 63 76 71 a2 8e 7e 95 8c 7e 87 73 8e 80 7c 9c 9f 61 94 74 72 62 7f 70 8b 7d 8c 8c 87 5b 9b 8b 69 8f 8a 93 94 61 7d 94 77 87 73 93 97 82 6e 60 90 64 88 6c a5 83 7c 6d 9d 72 84 86 5c 7e 74 88 74 9b 95 78 9c 66 76 6a 80 81 79 76 68 92 72 6e 62 50 87 5c 6e 9d 8e 70 68 7b 74 66 85 97 87 7b a8 73 85 6b 76 75 62 8e 9d 8f 63 6d 7e 67 7f 8e 93 79 80 74 71 6b 81 94 5b 74 7c 70 79 73 76 85 8c 94 a0 8f 8e 6e 8d 77 9c 7e 8c 7e 5b a0 6c 7e 8b 9b 7f 7a 9f aa 91 6e 6b 95 8b 84 90 60 89 8f 67 82 87 8d 6a 84 5f 63 6d 