f4 9b 19 44 e2 81 d2 ed 81 1b bb 3c c5 8c 5e 1e d0 31 af 01 ec 2f 09 ea 20 08 d4 07 23 f6 f0 db 0d 1e 1f db 05 02 02 fc 23 21 22 f4 00 3b de 3e 0a c8 eb 30 d2 2b f0 14 40 97 08 5a f5 5a 9f 00 f4 c1 cc 41 3c ae b7 18 10 a9 b6 0b 40 1c 88 0e cc 94 6e f5 91 13 fe 1f 1b 07 1a d4 2f 25 d3 20 96 f4 03 62 f7 1b 05 d5 e4 45 d6 ef f3 e3 cd f6 21 24 c4 40 af a2 4f 42 c6 08 21 3c ff fc f5 f2 