7b 75 66 73 6b bd bc a6 77 85 75 ba 85 81 58 6b 93 64 a9 a3 ac 77 5e 8b 8a 70 68 45 88 97 a7 b2 b6 b3 84 42 94 88 8a 48 65 72 b1 8c 88 88 99 84 68 6e 99 aa af 95 bb b9 8d 6e ad 93 b0 73 ae 69 63 81 74 86 6d 79 82 95 83 90 8e 65 68 6d 6f 81 66 76 77 83 7e 6d 6d 69 70 94 90 6c 8c 88 9a 88 87 73 77 85 98 7a 95 7a 70 6e 7c 95 68 7c 89 80 70 76 6d 74 65 99 8e 65 8b 7e 6e 7f 6d 6a 72 93 62 69 5f 63 6f 94 a0 a8 65 7b 91 a0 6e 9e 75 91 91 97 76 9f 60 7b 67 9b 7f 82 8b 57 92 9b a9 a4 8c a5 6a 36 8d 85 7e 3f 23 7a c9 9f 8c 93 90 87 65 7c 83 95 9a 71 b2 84 92 66 96 8e a7 71 b9 6b 7e 92 34 5b 3a cc b5 9d 4a 90 5c c4 7a 41 68 68 ca 55 9a aa 67 98 79 b0 75 44 7f 44 5d a5 d0 a5 b8 d9 7b 5e 78 6f 5c 9b 66 58 b2 b2 78 5e a8 63 41 92 97 b3 b1 78 c8 d5 c3 76 c5 62 d3 3c d7 65 8e 89 c5 84 bb 6f 39 8e b0 80 9f 53 94 98 83 90 2f 7d 5b 84 97 4b 84 2f 8d ab 8d 9a 66 5e 59 88 59 4b 71 9d 8b 89 8f 76 77 89 6e 56 89 8c 62 8a 93 68 51 87 50 85 4f 4c 48 8b 60 87 65 8e 5d 7c 86 80 43 9d 42 b7 8e b2 50 9e 4a a0 ab ac 40 36 b7 70 b8 75 ac a4 68 a2 7a 65 85 52 63 a3 9f 9e 9f 93 7f 7d 85 82 63 97 84 53 6b 95 7a 8e a1 83 5c 65 a7 92 b2 6b a3 c6 a8 af b3 67 a0 6a 89 67 83 83 91 7f 58 94 72 72 64 a0 43 78 7b 95 61 52 82 6f 95 5b 87 ac 7b 8f 95 67 80 a9 5c aa 7e 74 71 85 77 a7 be 8e 2c 90 a1 65 82 88 86 66 98 88 75 69 97 6b 5e 6a 94 8a 7d 8a 91 97 8b 60 88 7c 71 76 bc 80 94 36 43 83 ac 51 93 37 84 73 8c a3 51 92 53 58 4e 81 82 60 81 a2 63 b7 73 4e 5c 58 4c 47 6d c1 7c 82 75 88 a2 78 7b 89 6c 65 82 74 a8 61 43 5c 43 63 2e 5f 61 50 61 59 55 99 1f 69 80 8c 72 81 6a 8c 72 94 70 84 7c 76 8c 6c 6b 73 7c 83 89 84 75 8a 64 65 72 8f 7f a0 8d 81 7b 8b 93 7b 84 91 8f 5f 73 67 a0 53 70 8b 7f 9e 8f 78 a2 74 90 9b 87 71 7d 6c 72 99 5c 73 8b a0 84 82 60 67 7f 87 80 94 aa 8d 54 92 76 7b 7c 52 68 54 7b 66 a3 57 7b a1 6a 8e 79 66 91 87 96 a1 aa 7a 85 91 76 8e 9a 77 7c a6 83 6b 5e 85 8d 7b a3 7c 77 83 9d 85 86 6c 9e 8a 9c 8a a1 5f 9d 83 a6 71 7b 8f 72 84 55 b2 9b 87 79 91 4a a0 76 96 6c 3f a3 76 c9 74 85 85 7d b0 73 5c 6c 77 a5 b2 9a 5b 98 9b 98 8a a2 71 52 85 8b 66 62 a8 86 81 92 97 53 7f bd 8f 73 68 b1 ae ad 5d a7 66 af 5f c0 85 8f 7c 73 86 94 a3 86 77 74 76 86 88 80 90 84 7d 72 6a 75 af 67 6a 8d 9c 6e 9e 91 5e 6b 92 a9 9f b2 92 6a 4f 8e 8b a9 60 74 96 93 7d 90 89 81 75 87 9a 90 80 6d 91 98 94 97 64 85 87 a5 8a 8a 79 5d 7d a0 78 57 68 6b 8b 75 7b 69 80 76 55 6f 6e 74 85 77 75 9a 7f 72 7b 95 64 63 a5 9b 88 77 76 69 65 68 a5 a9 96 5a 9a 92 7c 75 89 6a 62 92 87 8c 64 96 89 72 85 85 89 8b 90 6f 64 62 71 6a 63 6a 7c 8f af 21 79 6f 6f 6a 8a 0e 62 5f 9a 2e 0b 74 7f c8 4f d0 94 82 65 7c 44 81 83 55 9a 44 60 43 5b 6e be c4 83 1e ab ca 20 3b b4 74 8c 8f 62 8f 68 a4 50 7c 63 72 9e 6e e6 a7 90 67 7c 61 73 83 92 9a 6c 73 67 5b b2 7f 7b 7a 72 69 9b 7e 9c 76 90 4b 62 73 7b 95 67 6d 9c 71 a0 93 46 57 64 7a 7e 89 8e 72 8d 72 a0 96 95 64 6d 76 6b 5f 88 a7 83 66 75 5c 7f 71 82 85 4b 43 7c 8c 8f 4b 7d 79 60 7d 78 98 77 8e 5e 86 82 8c 75 71 9a 91 9e 98 91 83 af 84 6d 66 7a 88 90 8c 69 88 7e 90 79 a3 69 79 5a 7b 6c 76 52 6c 7c 9e 91 65 94 70 88 71 6b 77 aa 8f 6c 83 99 63 85 96 5f 7e 96 9e 8d 66 94 57 5b 54 bc b3 be 5a b2 34 be 8c 81 5c 52 90 58 c7 6a 81 b0 6b 9f 64 4a 6c 6d 73 9a ae 78 a3 99 73 93 a5 94 5a 77 8c 4f 71 a0 8a 87 8d 61 7e 91 a5 a6 8a 63 9c c3 a5 a0 8b 84 ac 57 c3 83 61 6b 4f 7a 42 be 85 8c 68 8f 56 97 a0 75 73 59 ae 62 94 89 68 88 65 a9 77 60 88 82 75 8a 91 82 94 99 7c 7d a9 8a 4f 9a 40 53 87 93 8c 7d 9c 80 72 8e 89 84 9e 72 a9 aa a9 52 af 7d 9f 6c a2 70 8d 83 72 5c 8d 69 6a 6c 84 91 8f 86 95 75 8e 72 63 88 8f 8f 63 67 7e 59 91 89 5e 76 97 5c 61 8f 8d 67 6c 9f 8e 6a 6a 92 81 5f 86 70 72 72 7e 78 97 96 6a 82 95 77 77 82 59 78 7d 6e 72 84 72 78 88 5f 9b 69 67 78 93 6b 8d 7c 8b 72 77 63 96 91 63 84 68 89 78 94 71 85 6f 86 88 7f 6c 96 85 63 86 66 83 91 98 87 77 91 af 5f 7c 80 89 92 96 63 7c 70 8c 72 61 63 7c 84 8d 93 59 84 8e 98 92 71 71 7d 59 66 a4 8d 78 bf 8b 82 8f 9e 7a 8a 7c b3 81 72 7b 86 49 82 98 7e 77 99 8e 61 8a 75 8d 8c c5 8a 63 21 66 87 9b 50 1b af af 6d 87 65 68 7a 84 71 80 9f 90 68 98 8f a6 38 65 93 8f 83 91 90 8d 74 77 68 ba 83 84 a6 aa 5d bd 7c 95 5c a2 b9 71 98 6b 8f 6b 6a 90 72 63 a2 8a 48 93 62 93 c4 9e 94 7f 00 57 6d c2 19 23 b2 a8 5a 66 a3 82 93 74 96 7e bb 83 8f 9b 89 85 50 85 8b 9d 71 7a 86 80 70 7c 80 8e 7b 7e 8b 99 73 8f 8a 70 8f 91 8b 8f 8a 64 7d 87 84 76 9a 68 82 63 81 82 6d 85 88 92 96 65 4e 9c 72 91 66 6d 91 96 86 8b 81 95 94 6c 6e 69 a6 92 8a 78 97 86 67 93 7d 8f 78 72 7e 59 82 6d 6d 64 ac 93 b3 8a a6 76 ae 91 14 89 66 9e 89 86 78 7c 86 82 ab 85 6a 7e 57 98 9b a4 6c ac 9a 7b 76 a2 58 7b 88 53 63 86 92 97 65 86 63 54 6b 74 84 91 94 9b 7a ae 7a 86 85 a5 68 9a 8c 6d 79 8d 70 96 6b 8c 72 8a 95 9f 63 8b 56 9f 92 8d 8d 78 8e 4e 6a 63 72 80 9e 85 a6 8b 84 55 75 99 86 6a 8f 7b 81 82 97 6f 94 88 6c 83 76 95 6d 88 81 5e 74 8b 8c 6c 8c 61 6a 61 80 7a 7e 79 77 67 71 98 75 76 8b 75 8c 58 96 47 91 7a 67 7f 78 7f 67 8d 5d 93 81 92 7b 8d 6f 6f 79 9b 91 9b 61 67 8d 75 b3 a8 6c 59 b6 c1 69 4c aa 8c 5b 91 77 80 8d 95 7e 55 66 81 84 82 99 6c 66 95 8c 71 73 8f 74 78 71 97 8a 98 9c 76 66 93 70 7b 62 88 7b 9a 98 68 66 7e 8e 7c 6a 7b 86 87 78 7d 91 80 70 84 6b 67 95 79 82 85 96 68 8c 65 79 71 85 8c 6c 71 6c 68 93 89 86 8f 6b 7d 77 83 65 8f 7a 85 78 67 95 84 7c 62 8b b4 8b 6d 9d 6a 90 63 4c 81 7f 82 87 a3 98 5c 72 8e ad 72 5c 6c 70 8c 81 96 a4 9c ac 5d 5d 77 8a 78 5e 7f 5b 8f 72 65 89 96 8f 6e 73 a9 93 9c 67 88 a0 a3 6f 79 7f 9b 7a b6 92 88 86 a2 71 89 65 75 a1 7d 85 71 8f 8e 51 71 79 91 89 65 8c 6b 99 66 77 6d 7f 60 96 6e 7d 73 87 6a 91 79 a1 79 89 76 97 9d 8b 50 8f 65 69 94 65 9b 74 89 91 6b 65 95 61 7b 86 8a 82 88 9e 94 88 83 71 76 58 7f 91 c5 a3 71 73 80 a8 95 7e 78 7c 73 73 6f b2 3c 71 80 95 81 94 82 74 88 79 b2 90 96 a7 7f 4c 4b 77 ac 70 55 8c 90 87 76 75 99 85 6e 8d 70 a3 af 99 b8 85 9f 2d 8c 8a 91 73 b1 70 8a 68 90 75 83 9e 80 69 a2 91 97 78 72 47 9d 9d 84 a2 62 87 37 8b 88 64 74 86 8d 86 81 61 7b 7e 74 8b 79 88 77 6f 95 7e 68 96 74 82 7a 6b 6c 6f 90 81 8e 80 69 69 76 62 66 19 7b 87 75 80 88 7d 71 86 82 89 95 66 7d 5c 92 62 7e 56 86 8b 9d a8 5d 75 90 8e 68 7d 83 70 73 74 74 9d 6f 6a 53 7e 9a 7a 78 99 8b 83 88 96 7e 9c 75 73 68 6f 60 7a aa 71 77 86 70 6e 69 5f 50 8d 65 72 5c 80 7e 77 6c 61 99 8d 74 85 88 70 74 81 9c 64 6a 7f 93 81 70 85 7a 8c 79 82 6a 68 80 78 81 9c 60 6c 78 98 6c 6b 6f a0 76 7d 85 85 7d 80 88 93 7e 6f 7e 5c 82 7f 8d 94 82 92 7f 71 76 6a 71 5f 6e 95 70 66 79 7c a4 83 88 98 6f 7f 96 6f 8e 5f 70 77 84 86 7a 8f 7d 74 8b 72 94 8f 7c 83 8d 78 7c 81 5c 63 79 87 96 8c 76 8a 79 88 95 8e 5a 81 66 69 89 56 a6 74 70 81 89 6a 5e 7f 6d 96 7b 75 6b 93 5f 7e 89 8e 6b 67 58 b6 8c b1 4e 83 53 a0 98 94 61 42 86 56 a5 41 89 ad 87 b2 7f 65 92 96 5e b2 9b 6a 8d b5 8c 85 b9 68 52 8d b8 6f 75 ad 7c 78 a1 99 7a 6c a0 a6 83 75 b5 8e b3 76 9d 90 ac 86 b2 89 67 7c 92 8c 58 95 6d 7a 6d 9b 78 71 7c 7b 5d 57 96 8d 9e 7a b9 89 89 8d 6a 77 61 83 a3 a9 8b 58 89 93 7a a9 a4 6e 65 8c bc 6e 7f 94 77 90 7d 8a 9b 6f 7f 8c 63 91 8e 6c 6d c3 84 75 79 70 a4 90 78 62 92 88 4a 8c 74 96 50 8a 79 94 73 74 77 6f 9f 7f 96 72 a0 95 72 97 75 73 69 88 7a b1 90 70 75 88 8e a9 a7 7f 41 9b a7 5a 7c 8a 7f 83 89 56 7d 94 94 7b 8c 75 7f 84 78 ba 99 68 95 7a 96 6e 71 6c 86 8b 79 85 a2 59 8f 91 89 9a 87 7c 70 90 93 96 6d 8b 7a 9b 72 7a 76 7e 90 7f 7e 97 73 9a 74 88 7a 98 96 8a 91 78 77 7a 59 75 97 63 83 91 70 7d 65 6c 9b 6c 72 89 73 93 7d 63 72 99 78 84 90 65 7f 50 7e 79 8b 45 96 69 9c 6d 5d 78 9c 88 6c 90 4b 7a 57 86 6e 81 68 a5 67 80 6a 59 7b 9e 8f 7f 65 5c 65 65 b0 57 48 9b a4 68 6a 6e 66 93 96 82 70 97 93 66 7a 63 6b 0e 73 60 81 73 83 7e 8b 75 98 72 92 7f 91 58 a6 7f 9a 93 7e 9e 8c a6 8e 9a 82 88 85 6f 77 86 98 80 6f 5d 82 8b 79 b1 c2 83 8c 43 6b 70 9d 51 45 a5 b1 76 7e 96 85 9c 73 6e 7c 92 93 69 9a 98 a4 48 8f 8f 99 98 7d 67 96 75 76 88 3b 90 8c 7c 56 71 62 aa 6c 7b 5d 7a 9f 8a b2 75 87 ac 7b 8d 75 71 6e 7c 7f b2 a1 70 7d 9f 85 86 a0 5c 5c 77 9b 53 5c 90 73 a5 a9 76 81 98 84 7d 93 72 9e 88 76 a7 a7 61 98 8b 95 82 61 7f 6d 85 49 a3 88 a5 3d 87 57 ab 7e 8c 67 6d 99 5f 8a 83 74 8e 95 87 63 39 91 5c 67 c4 96 8c af ab 78 74 b0 67 48 80 69 48 9c a1 96 a6 ad 7c 56 73 c3 82 96 69 a9 a0 86 83 9e 8a 8c 54 c6 67 65 6d 91 6f 72 77 8f 77 6f 7d 84 96 84 6f 71 83 80 7a 84 86 8e 7f 7b 78 66 58 6c 8e 67 a7 9c 89 72 86 78 6e 7d 91 55 85 9f 7c a1 a0 71 8c 8d 8a 89 8b a0 65 8d 7d 8d 8f 77 b0 a4 6e 65 8f 87 88 71 6e 77 7c 8c 94 ae 8d 76 76 b0 65 8c 3c 9d ac 9c 93 8b a2 42 5e 74 7b 66 74 79 7b 83 7f 7c b1 90 6b 85 4d 5e 68 a3 59 11 a9 a8 72 6e 79 79 63 65 8e 7f 76 b3 83 8b 82 5d 25 74 78 56 85 73 8d 65 94 61 4d 9e 9f 7e bf 56 ae be 9f 6e 53 60 9f 83 48 40 89 5f 84 91 85 6c 7e 8c 6a 6e bd c5 b8 d5 aa 85 57 5a 71 b6 68 46 87 b0 78 7a 87 9e 65 40 95 b4 b1 93 71 9a b7 af 25 7e 80 a2 3b bf 86 86 84 73 78 65 7d 6c 99 76 a4 79 b1 7c 86 66 4d a7 6d 96 74 af 88 70 93 67 66 91 74 6d 96 98 6d a5 87 90 9b 91 7b 44 9f a4 4b 78 92 7f 98 85 83 68 6f 8b 8f 84 6b 92 a7 a1 a1 a1 60 a0 93 9c 84 5c 75 87 5f a7 55 7d 51 81 58 97 7e 78 a3 ad a6 65 ad 56 78 7b 72 74 7c 66 79 77 96 72 59 82 98 97 79 83 57 56 85 98 6c 81 9b 86 86 6a 5d 64 89 93 7b 56 67 84 6f 6c 5e 85 64 62 83 5e 8e 66 7d 76 7b 8b 6a e8 51 91 ce e2 42 d8 64 93 7b c8 ff 48 a0 71 ec 8a 0d 86 57 85 ea 62 37 6c 5a 7b ee a5 48 6a -1 27 7f ff -1 20 f7 ca 2b 69 51 45 99 be 92 54 a9 7e 93 74 60 73 4b 72 8c 63 ae 84 8f 83 70 9a 77 7f 83 6b 89 73 7e 69 68 4d 89 92 88 7b 90 8d 74 87 94 69 88 70 88 7b 9a 77 9d 92 86 9b 78 71 7d 8e 68 7d 6e 9c 72 6c 6b 7c 5f 68 84 71 65 87 90 76 6c 81 7d 84 96 88 8c 95 99 95 73 6c 91 5f 9d 45 a3 ad 86 6e 9e 5c 96 72 ba 4b 42 87 75 b6 7d c4 7d 84 87 8c 74 70 2a 66 b7 8f 8f 82 87 73 6d 9b 85 61 8b 9f 60 77 9d 7f 79 9c 81 6a 88 bd 8b ac 66 81 a1 74 b3 b3 6b 96 6d a2 94 76 6a 79 65 92 7f 96 6a 78 73 86 83 56 67 90 91 96 9b 89 6d 90 6d 78 a2 75 87 8b 92 8e 84 96 84 91 8e 8d 68 90 94 86 76 65 89 91 97 81 74 89 94 8d 63 86 99 78 8b 9b 86 9c 5d 63 8c 72 74 74 8b 71 72 96 77 8e 94 98 78 8c 95 77 8e 6d 87 93 6d 78 9e 7f 96 83 94 8d 96 7f 6d 7e 7b 6f 79 7e 8b 76 6e 77 8f 94 6d 7d 7f 98 94 77 95 7e 8f 69 65 81 74 7c 73 8e 79 7b 6b 87 8a 8a 77 7f 7a 85 7f 86 69 9b 80 a3 94 6d 8d a5 5b 7a 78 6d 94 6e 90 83 7b 93 8d 9c 79 96 7c 83 9d 64 65 71 83 85 a7 a4 89 8b 42 6b 6c 9f 2a 8e 75 8f 5c 8a 90 86 7b 83 98 95 8c 91 8f 72 9e 8e 8d 9f 87 75 8f 74 75 7b 79 9d 69 8c 74 76 7d 86 8a 6c 83 a1 8a 95 5a 8d 97 9c 80 79 95 6d 9a 6f 90 95 8a 8a 8d a1 92 74 88 88 7b 84 8c 5d 95 76 82 84 92 84 65 95 84 72 71 72 6c 78 69 7f 8c 80 95 97 87 9a 76 8a 8b 89 6e 7d 67 c3 77 ba 92 88 78 99 9e 6e 36 8f a2 68 9d 7f 9f 38 49 82 8e 87 9a 84 7a 75 6e 82 d7 9a 6a 84 12 31 6a da 42 0b b1 b2 70 92 6a 74 7f 6e 79 7c 93 8d 75 78 87 67 07 6a 7c 79 89 8d 77 79 7c 48 66 74 a6 9c ba 6a 6e 94 9c 8a 67 8a 7f 76 83 61 4c 63 75 61 be 7e 70 67 62 61 6c a9 9e 9c b8 7d 41 66 61 87 3d 15 7d d5 74 62 5a 72 74 65 77 b0 92 9e 72 b3 9d c2 2d 85 85 b7 6a a1 66 87 87 59 aa 8d c6 b0 a7 5b a5 81 b6 55 7e 6d 70 aa 62 94 d5 2f 94 77 b3 79 65 78 48 83 93 a8 a1 cc b9 78 1f 90 6f 7f 5d 0e 8a b3 7a 7d 96 97 6e 61 6f 8b 84 ac 63 cd a1 af 1f aa 77 ca 76 dc 82 67 7e 6f 68 90 6d 7b 57 98 67 76 7e 66 7c 94 72 6a 9a 67 9e 83 9c 7b 79 64 94 5f 6d 62 74 6a 88 74 81 79 8a 8d 6f 8e 8b 6a 77 81 79 6e 74 67 84 9f 72 98 96 90 74 7f 81 89 8e 6c 5f 72 92 65 68 7d 76 87 62 6f 98 8f 8f 88 97 93 86 76 73 99 6e 92 8b 88 7c 5c 75 77 7c 82 70 7c 8a 6d 61 8d 66 74 6f 9f 69 7b 6b 8b 88 93 81 69 6f 94 94 77 68 99 62 6d 83 95 7b 85 8d 89 7b 83 8e 60 81 6f 7a 8c 70 60 6c 77 96 ac a9 9a 89 76 b8 7c 70 79 82 8b 89 a5 90 67 6e 86 a5 79 7b 91 4d 78 97 a0 c2 a1 92 94 16 7a 73 99 30 48 8f a0 6c 94 76 72 7e 66 6c 80 95 88 6d 8b 9e ac 4c 9f 72 ac 6b a4 82 64 8b 64 6a 6b 8c a4 bc 5f 7f 61 a7 4e 69 73 5d 90 7e 8d 7b 92 a5 68 a0 6c 75 75 77 6f 90 89 78 93 93 8f 70 7b 66 74 6c 78 70 81 8f 96 a1 98 86 75 62 a5 82 9e 67 9e a0 ae 88 8b 92 86 94 8f 84 6d 94 78 71 96 84 69 62 66 88 81 84 83 98 94 8e 8c 8e 79 88 68 70 87 7c 63 8d 78 72 7a 9b 82 84 80 6c 74 73 96 93 8a 90 9a 71 92 87 69 88 80 86 6b 6b 6c 73 90 73 8d 8d 82 86 73 79 92 92 8f 64 93 8f 68 70 6d 6d a1 63 96 92 76 96 9c 90 8f 89 81 97 8f 99 6e 97 5e 6e 7f 8a 74 9a 64 8e 6a 76 91 66 63 6b a3 60 7b 95 9f 8c 84 90 6d 6c 8b 66 8c 8f 81 75 73 67 72 70 82 73 84 63 59 93 6b 69 6f 94 74 63 6a 74 80 76 87 8e 94 84 6b 59 93 9a 90 6c 7c 60 3e 87 88 6f 76 89 76 a3 7b 6b 63 88 8d 6b 70 85 74 61 81 a3 67 84 80 a3 64 71 81 74 74 86 74 65 90 84 80 6c 5d 21 75 88 65 69 87 98 