94 7d 9d 90 60 65 87 7c 99 65 8b 9f 85 84 72 8e 89 84 69 5e 79 90 74 a4 7c 88 7f 68 6e a4 7c 97 68 5e 88 7c 89 81 86 93 89 89 8a 8c 65 65 77 7d a3 88 69 85 75 70 5a 95 94 74 92 66 9a 84 87 81 9b 45 49 56 65 55 71 b1 c0 7f 9b 55 a8 b5 7c 79 c3 a1 ee b4 bd de 69 a0 45 a2 65 a1 6c 90 4f 59 a5 72 e5 c6 74 2f 5a 8c a2 5b 4d 9f 7d b4 82 4b ae c3 98 88 af b4 44 49 a6 8e 91 80 8e a4 4d 87 0b 6f 8c 56 8e 9e 93 b1 88 e0 59 6e d8 a3 bd 63 a5 60 ba 55 2d 8d a2 a8 3d bf 76 e3 7c 73 4a 95 9f 91 78 7b 6c 5a 74 8a d3 7c 6b a5 67 ab 80 63 b7 aa 8b 64 97 79 99 62 40 9d 75 89 9a a7 90 d2 79 79 86 8a 92 66 82 82 87 8e 65 9f 60 69 81 8f 5a 5d 67 5d 68 51 68 66 67 a1 7a 6e 94 a7 8e 75 6a 98 81 66 75 93 99 90 88 5e 94 98 9a 59 69 9c 66 64 6f 6f 8c 70 a3 9f 6f 79 5b 78 93 6e 94 71 72 93 9a 87 8d 71 82 4e 6f 66 4c 8b 78 82 9b 83 7a 80 7b 72 a5 73 8b 79 9b 8a 86 6f 84 79 96 7d 8f 64 7b 7f 84 94 8f 8f 79 7b 8f 88 8e 6e 7d 6b 69 85 8d 75 6a a5 75 93 94 98 85 7f 5f 92 99 65 6b 61 58 77 74 4d ac 92 8d 78 7c 5c a3 84 b6 64 8e 76 8e 62 b1 be 01 59 82 a2 6f ac 7f c5 60 88 8e 7b a0 83 7e a8 78 af 72 62 6a bc c2 9a 7f 7f 69 6f 9f 4d 9c 71 58 66 70 9e 40 8c 9a 97 95 78 65 75 93 71 76 a2 93 72 a4 7a 85 8c 9a 88 57 61 8b 6b 5a 9a 61 83 61 8a 7c 6c 87 9d 7e 7b 90 74 58 97 82 91 8d 7c 8d 8b 6f 93 7a 5c 84 94 65 7a 82 97 69 79 71 9c 5f 99 66 8b 65 6d 55 8a 78 81 7a 69 7f 66 69 99 73 8f 7a 85 72 76 75 8f 7f 93 8c 80 9d 8e 7b 93 8a 63 88 93 62 9b 95 99 64 74 79 90 83 6d 63 75 66 7f 79 6c 84 65 90 78 75 8d 89 85 85 72 9d 7a 99 9a a0 93 70 80 6b 8f 6b 84 85 60 6e 67 7d 53 6e a6 82 7e 8d 89 9f 73 9f 89 9c 7e 82 8a 8a 8a 50 8e 92 a1 82 b1 64 b7 61 63 84 6e 9f 94 8d 96 5d 84 94 79 6c 8d 92 a0 63 90 80 8d 94 69 97 6c 81 5c 66 79 45 79 a9 8c 7c 8a 72 80 66 99 60 8f 79 8b 5e 8e 95 73 93 71 6f 85 68 6a 7f 8e 65 66 6d 6c b1 99 8c 69 72 77 7b 91 8e 8e 9d 66 9a 50 80 78 7b 8b 87 70 57 6e 85 91 56 73 6d a3 5d 8f 74 7b 80 88 93 78 99 64 77 8f 7e 71 8e 72 73 90 7d 6c 6f 5e 77 91 67 67 70 60 75 82 79 83 6b 6e 6b 8c 82 73 80 65 7a 69 91 77 77 6b 9e 7f 97 6f 89 82 8b 80 76 9d 74 6e 64 83 83 93 8f 7a 6e 93 76 9f 76 90 61 68 86 7c 82 7d 7f 91 7b 71 6c 52 84 75 a0 9f 79 66 a1 82 98 72 86 84 73 6a 75 7a 71 ae 71 79 8b a7 63 92 6e 71 86 6f ab b3 88 90 76 a4 99 8e 95 a1 94 92 62 85 b4 ab 86 69 83 ab 7e 77 70 80 77 76 b2 76 89 a8 97 69 6f 76 63 89 8f 8a 8e 7a 99 4f 7e a2 7b 73 8d 6d b4 94 a3 76 95 55 77 98 62 81 5c 8c 62 79 97 7a 9a 91 48 6e 69 74 8b 6d 86 7a a4 a1 7e 61 8f 71 9d 50 51 77 98 79 7e a2 6c 7c 84 89 92 82 70 99 7c 6a 72 7a b8 80 8d a1 8b 96 81 92 75 95 83 83 93 4b 83 82 b1 66 9a 64 85 7d 7e 5d 5b 65 72 6a 66 92 7d 6e 84 4e aa 5c 8b 5d 9a 67 68 7b 4b 6c 98 66 81 61 8f 83 5b 94 9b 8c 84 71 73 80 8f 92 8c a5 70 b5 70 7e 87 72 94 92 87 6f aa 7f 6c 8f 94 9d 64 98 5a 8e 4e 73 9a 7f 66 80 a6 a1 9d 67 75 a2 8c 65 64 61 6c 7d 87 81 74 90 94 8e b7 64 66 79 77 a0 4f 7f 60 6a 5f 8e 8a 80 89 c9 7a 85 55 67 87 53 ac 6c 97 a7 7d 88 9d 8f 93 72 b5 6b a7 a0 6c 7a 7f 92 82 71 95 92 68 58 61 62 a3 97 90 90 70 76 7f b8 83 a6 7e 91 87 72 69 68 75 95 8e 76 75 90 7a 6a 5a a1 92 6b 9e a2 7c 83 8b 71 7e 9f 7b 7c 73 8b 67 72 88 98 94 89 57 61 83 9f 74 7f 8d 68 77 8a 49 6b 85 88 6f 7f 88 95 6f 89 66 9e 7f 9c 97 87 72 64 a2 80 74 9b 6a 84 a4 7f 80 80 85 92 89 78 9d 91 8e 92 6f 7b 96 64 79 86 8c 97 66 95 94 7f 94 6a 95 71 85 6c 83 67 7a 76 6a 90 9e 79 77 94 73 7a 80 65 98 8d 8a 8a 59 84 6a 7c 78 7c 82 7d 63 6e 88 66 81 69 76 72 8c 78 61 73 9c 9d 7e a0 8c 7f 84 85 5e 8f 85 68 90 75 68 64 7d 77 75 94 8f 94 9c 56 88 a2 8e 81 c0 88 84 ac a0 9a af af 73 6a 8c a5 68 51 5f 72 65 79 4a 9d 72 7c 78 8f 93 84 69 9c 92 95 71 6a 68 8f a5 68 93 a3 8c 6d 6a a6 af 6e aa 75 72 8f 82 6e 62 8d 75 76 80 74 87 98 96 6a b1 7e 82 6d 57 62 a5 80 86 7e 70 99 34 5c a6 a0 6e 58 85 81 80 85 75 75 84 73 87 5d 81 7d 89 6e 7a 95 78 7b b5 88 91 6e 91 8d 4c 93 7b 8a 76 67 9c a2 7e 94 8d 71 6d 69 86 41 7e 6b 73 8a 76 5b 6b 7b ab 6e 6a a5 95 7b 9c 79 98 95 83 93 84 6a 54 86 6f 66 a5 5a a3 89 7d 67 5c 75 7b 69 7e 8e 9a 77 80 53 a2 79 ae 82 9d 7d 76 5a 4b 9b 98 77 63 9b 7b 64 82 91 94 8e 65 75 6a 83 56 5e 58 77 61 6b 8b 7f 7a 92 6e 80 8d 7a 91 97 94 96 8e 61 91 87 83 6e 5d 66 6a 7d 9a 95 78 78 95 79 89 8f 7e 9a 78 8f 93 65 84 73 6e 82 66 78 84 76 8d 87 80 73 88 6a 8a 80 96 8f 91 89 6e 8d 7e 6e 6d 99 89 7d 81 79 73 70 4e 5f a2 9e 74 a6 5e 77 84 89 93 5a 7a 65 64 79 6e 8e 9c 62 76 8d 6a 70 6a 8c 60 a4 93 99 7e 97 74 65 91 92 85 9e 6c 59 8a 7c 86 89 86 66 7d 73 71 a4 85 83 6d 88 51 56 73 77 89 61 64 88 5c 88 8e 76 93 76 64 a2 7a 78 6d 6a 90 6e 8d 79 5f 75 97 5c 78 98 6e 95 80 84 82 9e 76 88 83 8f 68 82 6d a5 6d 7e 79 90 68 7a 6a 8b 95 7d 61 6a 61 84 80 79 78 89 ac 80 85 61 7b 6c 76 82 75 96 60 80 74 8f 81 92 b3 64 2c 53 7e 8c 98 72 96 85 97 5a 67 87 4f 76 87 5f 8a 61 9a 72 6b a7 63 6f 78 7f a4 6d a9 86 80 96 3e 72 aa 88 54 a6 8f 71 92 89 8b 7a 96 8d 9b 83 af a3 67 58 77 a4 b6 66 9a aa 53 ae 7f 96 a2 8b 79 97 57 a5 7a a5 66 71 9e 65 9f 92 89 79 78 62 ab b3 79 be b8 8e 6b 6c 96 af b3 58 7b 7a 50 57 89 99 9a 66 95 7c 8d 80 7e 71 5b 5d 64 58 b2 83 7b 67 77 65 92 a0 7c 6c 8f 6d 5f ad b7 ab b1 7d 7c 75 6a 89 9a 8e 52 72 75 80 7f 77 55 69 81 53 59 7d 63 73 6d 89 8a 51 51 76 99 7d b0 91 65 7f 79 79 99 69 5f a3 62 85 87 6c 71 8e 8b 80 87 94 a6 72 7d 83 94 99 73 7e 5f 5d 57 54 8d a1 9c 8e 65 63 84 82 80 54 99 97 7d 90 60 93 a7 95 8c 90 96 62 6e 5b 67 a5 7d 7f 7a 79 84 88 af 7b 4f 85 77 67 9f 92 64 7b 7d 99 7b 82 92 a0 77 5d 7c 89 4c 89 65 8f 5a 88 82 74 87 63 a4 88 a9 54 84 75 8c 7b 6d 60 7d b5 6c 5f 97 88 a6 6e 73 9a 73 5c 6f 6f 99 85 ab 77 6b 63 84 52 97 7b 57 5f 7e 72 5b a1 59 93 8a 87 9d 8f 8c 67 80 9e 79 6f 81 7c 8f 71 63 7f 70 80 98 83 6e 5c 85 88 85 64 8b 92 79 8c 8e 7a 9a 7f 95 62 84 6c 70 87 94 75 78 7e 6f 8a 7a 6f 58 92 69 87 9b 93 91 9f 83 8c 6e 6c 68 67 70 66 8a 83 8c 7e 8a 77 7d 9d 88 9b 61 a4 92 76 9a 7a a5 a5 4d 74 82 4d c7 70 72 9d 45 7d 8a 8d 9d 8c 83 9c 7c 84 9b 67 77 76 57 72 8c 94 88 78 7a 6e 92 c4 66 96 77 76 81 9b 87 7f 92 81 8d 79 8e 75 6a 75 8e 85 90 9a 60 83 75 74 7d 7d 97 8a 81 86 82 91 70 62 71 66 87 7d 73 a4 a3 7a 66 5d 7a 8d 9a 58 7c 85 74 76 65 8b 67 90 65 81 8f 8f 7c 66 95 81 7d 87 52 8b 8b 9d 99 79 8f 6b 82 86 ab 84 74 93 8b 74 95 72 60 63 6f 84 88 79 68 90 86 69 8a 80 7f 88 a2 73 ba 90 aa 53 68 78 74 9f 53 79 77 a8 90 98 96 8c ad 7c 79 90 95 66 7c 62 8d 97 8b 76 80 57 8d 82 9f 83 84 7c 57 7e a9 75 52 75 84 8b 7c 69 82 7c ab a1 76 7c 82 53 91 66 96 96 6f 5f 98 7b 4d ba 80 56 2b 8d 5f 46 80 76 8a 5a 9b 89 99 7d b3 6f 71 97 93 94 a2 4d 7f 75 9e 92 6e 68 6a ab 84 5e 7a 6f 5b 47 96 9c 37 6e 65 56 30 6e a6 79 80 7d 75 6b 87 87 76 8d 71 78 93 8c 8b 81 9a 67 69 64 91 8a 72 7c 75 81 7f 71 68 73 94 8c 7a 64 6e 8f 64 98 7f 62 64 83 91 66 7a 86 89 92 71 8d 98 88 7e 96 95 74 97 81 68 8b 81 92 9b 9b 70 8f 8a 96 70 8e 6f 85 89 a3 73 7a 5f 8d 73 8b 5e 7d 7f 83 7d 6e 90 6d 71 6a 5b 72 70 86 83 7e 7c 83 6b 7a 8a 82 6f 7d 7a 78 5f 70 85 65 87 8e 65 6e 82 93 7e 76 68 9d 90 85 8c 6c 58 91 76 91 96 8c 94 75 95 a5 85 a4 73 52 6f 82 73 a6 72 64 89 97 6f bb a6 80 69 48 81 68 a1 96 8f 55 8f 57 88 77 b6 5d 8c 7e 77 6a 9d 6c 4f 63 92 82 70 74 76 9f 78 54 7d 91 46 5a 71 73 71 54 59 90 94 62 9a b1 76 96 84 7d 94 92 82 a2 9b 9a 74 7c 86 8d 60 8b 68 97 89 8f 7b 71 69 68 9b 54 84 88 84 7e 6c 88 91 79 90 7a 76 60 80 6a 84 82 7c 77 8c 99 72 78 8a 7d 6c 93 72 82 8e 79 6a 83 73 6a 90 6e 8b 97 75 80 96 8c 92 8a 9c 63 74 8f 71 77 8a 5a 81 64 67 80 61 76 72 7e 86 6f 93 97 60 92 7d 79 7a 7c 65 86 64 9c 7a 7e 68 95 7c 7e 6e 54 63 78 73 6a 67 88 84 7f 95 73 84 91 7c 7d 98 6b 79 89 8e 84 66 7e 70 68 73 77 8a 6d 77 9d 7f 77 69 72 95 6b 8c 78 99 52 94 8f 93 8d 71 87 66 80 76 5e 7d 8a 9a 92 8d 5a 65 7b 92 78 99 83 77 6c 74 7e 82 67 84 80 aa 8e 69 8d 70 7d 9c 8b 84 67 90 9e 67 94 81 81 7a 7e 7b 97 68 ad ab af 56 79 7a 8c 9b 80 88 81 9f 5d 89 81 97 54 84 7e 79 90 76 78 79 a0 89 7c 9c 73 8e 62 5c 86 93 87 7a 82 81 66 66 81 9a 96 94 55 7f 90 99 76 ae 8d 72 71 71 8d 6d 94 75 8a 77 7c 6e 9a 72 5c 73 4c 8f 88 6d 62 96 7f 86 8a 70 9c 6f 6a 78 5a 8c 7f 7c 72 72 66 93 76 99 72 8c 7f 72 92 7d 5f 5d 8e 61 76 91 4f 86 88 65 7c 7f 76 57 54 90 91 8f 6b 83 74 5a 7c 70 86 7c 84 a0 9f 76 76 6e 98 7b 71 72 8d 90 91 47 62 6c 6d 88 9b 65 63 5d 62 97 88 74 85 87 86 9b aa 6d 67 9b 96 93 37 8c 96 5e 63 5a 85 76 75 96 8d 73 63 5b 84 93 87 51 8e 6e 97 63 87 90 6d 96 a5 77 9c 81 79 7b 84 95 8f 7f 75 a1 8f 62 86 5a 6e 8c 88 83 87 81 9a 70 7e 78 76 87 8a 9b 80 82 75 7e 75 70 72 65 71 6f 9c 8f 63 79 46 77 63 60 81 82 92 60 90 87 a2 74 89 af 60 66 8b 78 85 6f 70 80 71 85 8f 6f 90 6c 4e 90 7c 52 9a 79 7d 9c 6d 98 83 6f 7f 8b 7f 95 87 87 85 93 7d 87 68 93 6d 6d 63 87 8f 89 66 96 91 71 8a 77 8e 79 64 69 6b 78 7f 6d a1 6a 7c 6e 92 89 70 6b 74 84 65 7b 75 5a 7f 67 7f 7f 61 54 ba aa 7c 68 6e c6 93 4f 66 a0 ab 56 ae 9a 61 61 a1 8c 8d 63 8f 7e 8d 7b 63 34 92 ad 88 98 47 8a bc 83 88 49 8f 6b b5 6d 62 92 b8 80 8a 77 ba 85 74 a1 af 6e 7e b0 84 71 6a 7e 66 87 7c 6f 7d 7f 79 94 8c 89 83 5e 8a 99 7e 71 72 82 5e 99 80 7d 95 77 63 8c 7c 7a 87 93 57 a2 7e 8c 8a 7f 65 6c 8d 90 7b 89 a2 a6 6f 83 7e 9e 9e 9a 77 5e 8d 6b 7c 45 77 7e 60 93 6c 8e 7c 67 7d 66 5b 8c 69 8b 96 a0 8d 80 8b a6 8c 8a 6d 92 83 a7 67 9c 94 95 78 70 8e 89 90 7c 73 66 77 5c 80 7e cb 74 44 90 a4 7c 9a 92 8d 80 88 96 80 a8 c1 6b 6d 9e 97 3e 6a 8d 52 8b 84 a2 6c 6e 8c 6e ae 64 7c 8d 9f 9c 6e 6b 5f 70 94 54 4a 88 68 81 5d 8b 5c 69 81 87 48 a1 8c 82 69 8a 6c a7 8e 86 75 5d 53 7f 7e a8 88 62 89 7f 4c 49 67 8e 8e 80 4d 6d 9c 76 37 91 9d 71 4d 6b 65 93 63 a0 98 8c 90 72 99 6f 94 8f 5a 8b 90 64 9c 90 7f 93 8b 9d 90 83 90 8a 99 9b 5f 85 6b 69 7a 8e 5b 87 8c 8c 6b 7c 8b 74 8b 98 92 87 6f 5a 63 6a 94 8d 84 82 67 9f 78 94 73 a5 8d 89 79 7c 81 88 87 93 a0 85 47 4d 6f 95 8f b7 76 99 90 95 66 a8 b1 b7 8b 71 66 97 76 b3 f1 a5 5f 82 a8 5d b7 80 a4 68 8e 85 77 a8 91 72 94 63 a1 a7 9a 4c 84 c6 a8 84 83 89 8c e0 7d b8 70 85 56 72 66 90 8d b2 a8 97 ab 69 63 9a 78 65 63 9d 90 6a af 79 71 92 9b 9b 6c aa 5a a1 83 6f 9d 6a 75 49 97 6e 90 8e 69 6b 79 9d 68 a6 69 86 af 6e 8b 9e 77 9b 93 9f 7c 84 8b 74 63 96 61 7e 7d a0 9a 4e a3 8a 80 93 8a 68 88 77 8c 98 89 5f 64 95 5e 73 91 75 8e 7d 5d 67 69 91 76 89 9e 9e 83 73 5c 90 85 80 72 92 84 8c 89 8e 7b 7b 62 74 83 6c 5e 7f 83 8c 88 7d 7a 81 9e 70 84 8b 5c 5e 6e 91 9a 80 99 62 73 66 8a 9a 73 6f 95 8e 82 65 6a 7b 76 a1 79 54 74 6d 86 a7 82 7b 9f 38 8b 77 7a 9f 95 69 98 87 98 75 92 78 6c 58 68 7a 73 8d 66 60 68 8a 58 7f 6d 72 8c 70 81 69 78 a0 7f 74 68 a0 87 5c 92 80 77 79 89 9b 73 88 71 6f 75 6d 60 96 8a 7f 82 7b 7b 6c 7e 95 74 93 91 67 4f a0 8b 98 9f 65 4d 6f 96 75 3f 70 79 8d 74 72 8e 73 86 72 52 87 ab 70 83 60 96 64 60 74 9e 73 5a 9b 9f 88 83 82 66 93 7d 51 8d 97 5c 74 53 bb 86 81 96 36 a0 b4 8d 71 7c 8f b0 a3 64 7a a8 55 4d 6a bf 8c db e3 31 8d 9c 4f 43 9a 64 79 7e 6c f8 ef 4f 87 e9 81 89 76 86 6c 95 94 7a c9 c9 5f 4f b7 b3 3f 6c 53 38 a4 8c 8e 35 7b d7 88 7f 80 6f 73 91 68 74 7e 9d 96 82 8a 9d 8f 72 81 7b 9b 57 94 67 a4 5e a6 97 6f 83 72 6e 93 63 a3 84 a0 a4 82 76 78 78 6f 92 8a 75 90 60 66 80 72 6e 94 81 63 93 82 6e 81 7e 8e 5f 7c 8e 8f 7e 8e 64 8a 71 7a 93 81 68 68 70 6f 83 69 86 7d 96 80 78 7b 94 99 8f 8e 95 75 8b 6f 8a 8c 74 86 8e 70 6a 63 88 92 8c 86 6f 94 6e 6f 7f 83 8d 93 91 8e 65 97 8f 6f 7a 6f 96 8f 72 98 92 66 81 8c 65 7e 8c 9e 9b 6b 7f 86 94 6c 79 8e 70 68 8b 69 6a 8f 73 79 81 7b 81 8b a0 5d 71 76 8a 96 8a 78 6b 60 7b 69 90 96 98 88 72 6e 5c 6f 78 77 7e 67 81 ad 83 82 8e 8d 74 9a 92 76 8c 74 82 7f 7c 89 81 9b 8d 93 86 88 84 51 76 58 51 6a a2 80 62 8c 84 53 b0 22 a0 56 56 64 6a cc 8a 84 62 90 71 86 74 49 95 8b b0 9f 58 78 a3 80 86 9e 9d 7b 8a 89 a5 a0 9e 5d ba 6a aa 55 a7 95 8b 7f 85 52 4a 6d aa a6 80 94 8f 77 9b 6a 52 5d 59 85 b2 6b 6a 4c 64 46 87 99 88 61 6d 8d 79 8e 7c 6a 74 9e 57 80 5b 72 76 75 66 53 a8 89 4b 70 6a a8 61 55 49 8a a9 82 68 7c 99 61 4a 90 af 52 5c 5f 86 71 6e 6c 73 86 60 91 80 77 a0 89 69 65 a4 66 6d 56 85 b2 91 84 ae 9a 78 6c 67 9f 87 7e 83 6e 7c 90 7b 9e 7d b8 87 a3 61 7c 7e 86 59 75 95 67 83 94 4a 64 7e 94 5c 67 76 80 4a 68 71 7e 94 7f 5f 6e 83 8c 79 87 7b 89 76 66 9f 8b a5 98 6a 72 8b 8e 80 7d 8f 99 b8 88 93 98 64 79 86 92 6d 8b 83 77 80 8d 89 90 95 8d ab 85 59 76 84 a0 92 92 a0 87 83 76 6b 92 8f 89 74 84 85 6d 88 9e 6e 8a 60 64 86 6a 80 cb 92 5b 9f 7c 70 5b 80 7f 6e 72 92 7a 8a 84 80 a6 50 b9 63 95 88 76 82 5b 9a 88 6c 66 53 9c 6b bc 73 90 70 7f 46 7f b2 46 86 95 89 67 70 6b 73 a4 56 42 ae 70 51 15 a2 71 40 7a 7c 8d 7d 98 9a 