7f 67 6d 97 92 90 8b 55 a1 6b 63 70 7d a1 8d 65 82 4b 9d 89 62 5e 62 64 63 87 77 50 8e 8d 67 82 61 8c 93 72 7a 96 61 54 91 7c 8c 90 7a a8 89 a5 7f 90 49 74 6e 7c 6c 57 7c 97 90 64 70 81 8c 46 a7 6f a2 99 85 46 79 a3 8e 55 7c 82 50 ae 9f 70 82 79 a8 96 4f 8a 74 55 69 78 70 a1 97 90 74 96 92 82 61 74 76 50 a7 a6 67 7f 7c 75 60 61 54 8c 79 5c 95 5d 6b 96 77 74 71 6c 89 8c 5a 80 8f 9a 9d 84 80 95 87 77 90 71 88 8f 90 92 58 8b 89 6a 85 90 5b 69 86 8e 85 76 8f 7b 71 91 57 62 5e 76 90 66 5a 5e 6b 6b 6f 77 76 9a 87 6a 91 8f 7d a7 50 9c 8f 66 92 7c 5a 62 76 98 6e 86 59 73 66 8c 5e 78 ad 6c 98 28 36 61 93 78 a7 75 8b a4 6c 8d 7d 73 9a 76 a4 88 95 8c 93 77 a6 95 87 95 76 76 70 a3 6b 69 86 65 63 79 7d 6b a0 6d 58 4a 7b 89 8c 72 65 8f 78 85 63 9c 8a 80 76 6f 69 7a 8f 8d 89 64 4a 89 8f 81 62 58 7d 9b 83 9d 48 56 91 60 98 70 8a 60 79 a3 60 95 83 5d 5e 8b 6d 5d 8b 6c 5f 9f 65 83 90 74 93 80 7e 4b 92 97 77 8a 6d 6f a7 6c 98 5f 7f 7b a1 60 a9 79 6f 8a 83 7f 76 73 77 81 6c 95 8d 9d 70 74 74 6b 76 86 87 9f 69 7c 73 76 8c 7e a1 88 96 72 7e 92 83 62 82 83 69 9e 8d 7a 89 77 68 8e 87 97 62 7d 86 79 81 80 61 8e 7d 8b 71 92 7c 44 7f 73 5c 77 8b 8c 8d 6a 45 96 73 8b 7f 8f 84 8b 92 70 4c 55 76 74 6e 84 7a 72 65 8e 81 53 7e 7a 62 82 5b 8b 5e 8e 82 8b 7a 75 69 61 61 78 8a 89 91 8e 82 76 7e 98 5f 65 65 8e 80 67 98 7e 87 8f 5a 69 7e 71 9c 65 97 77 7c 65 55 6d 70 63 61 71 8a 56 77 6b a4 87 9d 64 88 92 85 84 7e 4c 8a 50 85 8f 71 a0 ab 7a 7d 85 8c 75 91 67 5a 8e a0 67 7e a1 99 6e 90 96 9b 99 66 b0 6d 6a 7d 9a 54 7f 6d a1 65 87 79 88 a4 86 6d 5e 8f 7a 5f 79 81 83 7b 82 81 95 6a 89 97 9b 56 5a 76 6e 75 a0 83 8b 9a 82 68 7a 5d 94 7e 8d a9 82 79 88 7c 76 9d 67 80 a3 6a 56 8e 96 99 8e 9a 7b 44 6e 95 8f 78 7a 61 5e 6b 8e 49 9a 82 93 4f 5f 50 95 8a 72 a8 96 7f 8b 7b 86 72 78 6c 65 78 75 94 81 68 7b 97 76 7a 6c 60 96 77 74 91 79 75 a0 87 5b 77 5f 8b 67 6e 8f 61 5c 58 67 81 7e 54 7e 59 94 81 5c 73 74 81 6d 63 73 7e 92 67 84 8e 80 a0 69 78 7c 98 90 7d 86 68 62 5e 80 88 97 56 84 82 80 7f 28 64 96 6c ab a4 97 76 7d 6f 71 90 76 7c 8e 8f 88 63 80 a3 87 92 6b 60 88 9e 77 7f 63 93 63 6e 54 6c 5c 8d 7d 55 7b 7a 8a 63 8c 80 52 64 70 6a 9b 73 68 8f 6a 57 84 6b a5 93 8c 88 7c 97 95 73 9e 78 7f 65 88 90 73 5d 81 91 6d 75 88 92 73 86 8d 87 76 96 5c 5c 68 a3 85 8c 87 99 89 6b 89 84 79 73 64 6a 8b 64 95 92 7e 6b 7e 63 99 87 4f 91 4e 9a 60 a9 81 77 6c 36 89 96 6d 63 85 7d a4 7e 50 7d 84 78 6e 96 80 60 66 81 75 aa 6f 61 91 81 97 48 88 8c 70 7d 5d 5b 64 70 91 73 42 84 4e 9d 9f 9b 88 44 62 71 5a 7d 67 92 65 3b 92 91 86 4d 97 74 7a 8e 7a 80 92 77 73 87 89 5a 56 8a 5c 92 6d 71 75 75 75 74 67 6e 88 8c 85 91 7b 90 97 72 81 82 61 ac 70 94 62 73 92 7b 5e 6b 7a 94 75 82 6b 66 5e 84 9f 90 82 a4 75 7a 63 9e 5b 86 67 92 91 70 8f 6f 85 66 90 91 7f 91 70 83 6a 84 98 86 6d 99 7c 62 73 74 6a 8c 53 81 81 70 7c 89 97 82 6e 5b 64 85 9c 91 6a 94 97 69 51 8e 8b 83 61 62 54 8d 89 7a 84 91 7f 72 96 8a 81 7d a2 65 6e 5d 93 8b 90 72 8f 81 60 8c 78 81 76 72 97 91 73 6d 77 8d 9d 57 7d 60 68 60 a0 98 8f 6d 84 63 92 62 74 79 98 52 83 69 73 99 6d 78 88 6f 5d 6f 50 5d 7d 99 78 7d 6d 89 85 9a 90 5d 6d a9 83 8b 83 9c 79 69 6e 80 95 8a 6d 5b 76 a4 7f 8f 95 91 75 82 7d 41 ae 98 88 84 7d 94 87 76 85 77 77 6a 7e 80 72 87 6f 94 27 a4 88 75 93 a1 85 83 78 5e 87 95 70 81 9d 93 68 a2 9b 96 9b 8b 90 82 8a 80 5b 84 80 68 8e 82 72 95 78 ab 8c 6f 91 6e 6f 69 95 7b 75 98 95 62 8d 95 8c 85 83 99 75 62 8a 74 91 4c 88 7d 87 7d 6e 7d 98 69 97 95 81 82 71 9c 6b 79 61 6b 69 71 8c 7e 8a 69 8a 92 8d 99 61 8f a2 7f 94 97 70 77 90 92 95 6e 92 77 4f 61 a6 72 72 81 9a 5d 85 9e 8c 91 7f 85 75 90 94 88 79 5d 7d 83 78 ac 6b 60 75 85 78 a1 9c 93 77 6a 7b 61 83 83 99 6d 62 83 43 68 78 63 8d 82 74 74 60 65 5e 8a 9d 72 72 5e a1 49 94 6f 8f 78 94 9c 74 9b 76 82 5c 78 78 9a 80 8d 99 61 77 9d 90 6c 8a 64 70 90 75 63 73 8b 66 5e 70 7a 62 87 81 83 8b 94 90 56 8f 83 74 8c 93 6c 91 78 74 83 97 85 8a 93 8e 9b 9b 5c 5f 8a a1 5c 95 77 a4 75 6d 83 7c 71 52 7d 7c 7e 68 50 9d 97 67 72 86 93 78 8f 82 86 9f 84 7c 6b 8d 88 5f 67 92 7b 67 70 98 6b 71 7f 85 97 6d 90 73 43 6c 79 68 5e 9c 70 71 92 96 79 83 99 7b 78 79 78 69 8b 92 47 7c 7c 67 65 65 8d 7b 77 8c 78 77 8b 88 71 7f 69 7f 8c 97 60 78 7c 86 74 86 6c 94 58 65 64 9e 95 8c 94 79 97 6d 73 8b 6c 65 92 4c 99 63 99 7c 74 70 7c 6d 6f 92 90 7c 77 7a 63 96 5a 80 98 8a aa 5b 7e 58 42 9d 6a 99 79 6b 80 89 76 97 89 73 7e 8d 8c 88 a5 7c 97 7f 8c 5c 70 6c 6f 83 6b 74 64 7e 57 5c a9 55 74 76 68 4d 83 75 4d 9a 6b 8e 83 5e 57 99 8c 65 72 53 8d 91 86 75 90 57 9f 89 65 84 8d 76 a0 82 98 9f 9b 8f 89 96 89 7d 7b 89 97 62 8e 89 8e 94 92 83 79 53 8b 83 55 6f 78 63 80 73 7d 74 a5 69 76 82 82 66 81 5c 91 95 5d 82 80 77 77 67 9a 7e a9 9b a3 76 a7 77 44 89 9f 85 64 6a 59 87 85 93 87 51 8d 8d 82 7b 98 39 8e 89 6b 93 a5 91 9c 5f 2f a2 79 80 84 84 84 7e 76 73 92 9d a9 4d 62 84 8d 5e 4f 63 6e 8f 81 64 82 8b 48 6c b1 80 a0 80 92 7d 8d 79 75 66 5f 61 68 93 87 69 80 65 7c 94 97 a0 7f 93 78 82 8c 88 58 79 94 61 7f 68 7f 86 58 9c 7b 47 68 aa 6a 76 72 77 65 63 76 94 5a 78 7b 60 8a 84 85 45 98 63 7b 70 99 71 99 75 6a 81 65 60 74 76 8b 6d 7d 86 62 8a 7c 64 99 8c 65 89 5b 91 5e 84 7b 88 64 7d 91 93 8e 4b 7f 93 64 72 86 99 74 aa 90 64 58 99 83 9c 5a 65 8d 85 63 9e 7a 90 66 93 55 94 57 85 58 95 7e 7c 65 8e 85 65 45 70 6e 8a 79 51 93 77 63 9a 81 96 67 71 6f 94 86 61 71 a9 86 5b 64 a3 58 63 4a 98 7f 96 73 77 5f 75 a2 5b 64 7e 81 84 4f 56 6c 57 9a 8e 7a 91 61 8b 8a 6f 6f 77 84 9f 7e 83 83 7f 82 8a 89 6e 98 a4 5f 71 6a 6a 67 4b 71 71 9d 96 7f 7b 89 9d 6f 79 83 4b 6a 83 7a a7 70 7b 72 95 5f 79 90 91 95 5e 77 5d 60 85 6a 39 94 92 6f 62 93 5a 7c 8d 65 95 8c 75 7b 75 6e 85 8c 93 5c 7e 78 98 96 5d 7a 7c 65 ae 3c 83 7d 71 64 6f 5c 5a 5b 74 6a b1 9b 98 8e a0 6c 71 91 5a 79 81 a1 a2 77 78 74 88 5a 6e 7f 98 3c 64 6e 4e a2 89 83 9f a1 7a 8e 76 8a 87 70 6a 85 b6 8d 63 b2 52 8e c4 5b 8b a5 65 67 8a 92 8c 6e 5e 8c 76 5c 7d 7f 58 81 8b 6f 89 7f 7d 65 88 4a 97 7c 9c 8e 84 80 96 5f 6c 8c 79 6b 75 88 99 7f 83 7f 50 6e 72 6a 8b 96 91 7e 76 74 77 6d 8c 87 72 75 72 7a 83 81 8e 60 9c 8d 97 90 7a 6a 7d 66 98 6f 7d 7a 8d 7b 73 83 64 5c 70 8f 7e 81 7c 90 5c 71 65 71 8b 98 99 88 97 7e 84 67 79 86 7a 7d 81 64 76 8c 72 93 66 7c 62 7a 92 8b 84 80 8a 98 78 57 9a 68 7e 75 90 8d 6a 5c 6e 74 5c 75 6f 99 7b a4 9a 51 9e 66 88 a8 77 8c 85 79 7c aa 99 94 a1 4d 46 9b 7e 6a 73 a4 85 9a 8d 6c 83 57 6f 6c 82 6f 8c 9b 68 66 94 59 88 95 7a 42 6a 5e 66 5b 6c 59 79 72 8c 70 69 93 92 66 84 92 9d 73 97 9e 5a 8e 73 9e 76 78 85 79 79 9a 79 7d a0 78 98 88 8c 83 7b 7a 74 83 58 7f 95 64 61 4c 87 88 74 65 9b 91 93 7e 81 72 6c 6e 8f 56 8c 91 7c 92 86 90 8f 7d 90 7d 86 8b 86 9c 8f a1 65 9f 8f 65 8f 75 9b 6e 92 82 8b 86 5b 9e 3e 6e 93 85 8d 9a 7b 5f 64 53 72 99 8e 7c 60 65 94 6d 61 8f 65 97 9a 91 8e 98 93 94 6a 7f 79 8d 79 60 7c 9a 59 8b 54 95 63 92 75 96 7b 9e 78 78 75 97 6b 7d 7e 8f a1 57 5b 85 56 7c 84 68 76 55 77 a8 74 8c 7a 85 47 8f 98 64 9d 6b 97 5e 7a 7f 80 65 7f a9 68 87 92 70 63 82 88 99 74 78 6f 89 2e 78 92 38 78 7c 81 98 38 5b 9d 97 87 83 7d 99 68 6f 66 7f 8e 8f 82 88 7e 74 71 7d 68 72 a2 a0 6f 60 82 97 8b 77 56 70 94 91 86 94 74 87 61 93 84 75 72 87 9d 85 80 8b 93 81 76 5f 70 87 73 8c 56 71 6a 7a 67 79 7a 82 8a 53 67 70 87 96 81 70 96 6a 72 80 98 61 6c 8f 63 b5 80 90 79 47 77 5d 7a 66 73 4c 6c 65 6c 7b 99 6e 68 ad 55 8f 76 91 5f 58 70 82 81 5b 73 84 92 85 68 81 9d 5d 9a 97 92 74 79 71 6d 87 6d 55 a3 4f 6f 8b 8d 91 84 a9 a1 6c 83 82 7c 6b 86 77 6f 7f 9c 87 57 83 91 70 a2 7c 68 6f 88 61 5e 79 87 92 78 88 a1 7f 81 6a 8f 8a 53 a0 74 6d 84 84 93 77 60 92 62 6f 7e 9a 87 7b 92 6c 4b 6b 92 99 91 70 71 79 7c 76 93 92 6a 6a 6a 9b 64 96 9c 53 69 8d 9d 7a 90 76 72 91 94 7c 8c 84 69 7d 93 58 88 7b 6a 68 7c 6c 7f 78 6e 86 89 8c 88 6e 6d 94 87 78 8b 7b 85 6f 8a 61 64 6a 70 98 54 86 8e 76 84 9d 89 a2 6a 73 94 6e 72 74 7f 77 8c 54 8f 4d 37 78 7a 62 8b 6b 73 6b 5a 80 76 9b 9d 67 6a 75 89 6f 7b 8d 7c 4d 64 9c 72 7f 69 78 96 94 60 6b 95 9a 71 5c 6c 85 84 4d 83 6b 83 a4 82 a6 62 9e b1 77 b1 74 65 6d 9a 4b 83 80 96 86 8a 9a 84 69 94 74 7e 8b 6c 8f 58 89 82 88 71 5a 9d 7a 6b 7d 8b 8d 70 81 72 86 6a 67 62 98 62 8e 91 7c 7e 5d 96 78 9a 55 81 69 6d 68 64 50 70 83 63 90 8b 6a 6a 83 49 87 6f 79 62 96 7b 89 6e 57 75 84 8b 69 78 78 76 79 9a a6 a3 63 51 64 79 7d 7b 46 71 6e 95 7d 77 6c 82 76 59 86 73 a8 72 81 75 6e 90 9a 97 58 77 89 84 8b 79 ae 7a 81 7a 55 8f 79 88 98 65 62 70 5e 74 8e 9d 9e 6b 82 5b 7b 81 67 89 8a 8b a6 82 7c 8f 75 73 79 71 76 71 9b 7c 4a 6c 86 7a 72 6c 97 97 89 95 7a 83 83 79 77 77 8d 8d 8b 6c 8b 7a 75 85 91 93 77 9d 8c 97 6b 9a 72 75 8a 7a 81 52 55 83 79 75 81 7f 60 60 89 9f 62 78 97 78 68 42 a9 7a 4b 8a 5a 70 66 6d 6a 74 6d 57 8b 6f 65 70 8e 7d 7b 5e 67 65 72 57 9d 6b 73 5b 8e 7d 6d 83 8a 82 71 50 66 7f 94 77 7b 6e 81 7c 9e 8e 40 4c 68 6f 90 81 7a 7c 84 94 88 66 89 8c 85 6b 90 89 9b 8f 68 89 55 84 8a 54 8a 8a 81 8a 5b 93 7b 63 8f 92 a0 7c 75 96 62 7e 98 96 a1 76 86 5b a7 74 72 51 8c 8b 50 79 7e 84 81 82 47 97 83 65 81 88 64 8a 8d 7a 5b 9f 75 ab 70 99 66 70 87 8d 46 54 88 6a 86 99 6b 56 7b 70 86 87 7f 71 95 68 5d 7a 8d 7d 84 8a 8c 80 87 8d 7c 5e 9d 63 93 6a 62 6c 99 5c 66 74 67 8e 69 97 a0 7d 90 81 7a 95 68 88 8b 86 58 93 73 a0 84 97 67 86 61 76 64 99 4e aa 65 89 5d 88 49 79 87 69 91 68 60 74 86 7d 59 85 7c 7c a3 88 80 87 92 84 4d a7 8e 7b 49 80 8c 7b 88 91 5a 8f 62 65 83 69 68 7c 7e 8b 89 6d a2 90 5a 83 92 9a 8e 86 7a 70 8c 75 5c 72 68 72 85 76 64 79 8e 79 72 6b 80 47 8e 67 76 99 8c 84 6b a6 a9 5d 95 6a 83 6b a1 69 92 64 72 3d 89 8b 83 19 4e 90 77 97 80 73 88 77 8a 61 44 93 80 61 60 6b 50 83 7c 7c 6f 65 82 8c 75 6f 64 6b 57 94 68 81 7b 8a 7e a4 7f 8d 7c 7a 92 76 8a 8e 8d 6c 85 7c 7c 6c 8e 75 87 6e 60 85 7a 59 81 8c 6e 6e 9c 6f 4e 75 9f 9b 69 71 8c 96 79 68 6f 96 7c 8b 6a 6e 94 83 8b 8c 79 77 6c 90 93 80 76 7d 8e a0 81 79 4e 83 80 72 9b 96 99 6b 8e 6a 66 6e 86 a4 9a 65 60 66 7b 78 5c 7c 9e 7d 8f 92 6d 94 80 93 7a 6d 60 61 64 78 5f 97 5b 78 78 85 9e a5 8f 8a 86 81 8e 6d 89 6f 98 4d 58 8d 72 75 97 7e 9d 8f 64 6b 8b 85 79 7d 88 5e 5f 8b 6a 68 78 6f 82 82 6a 6d 68 70 7f 49 7b 90 84 84 9a 72 9c 71 72 57 98 9a 80 89 8b 7e 7c 9b 68 87 78 6b 6f 90 6f a2 72 83 6e 76 6c 85 84 6c 8e 7d 4f 73 8a 8b 77 5f 88 61 82 69 81 60 9a 77 64 52 80 6e 4f 89 90 83 93 80 86 84 6e 86 5c 77 9c 73 56 62 86 6e 93 6d 87 6c 76 a6 93 88 8c 60 89 86 5c 6c 7b 8b 8f 90 7b 6c 84 96 63 67 6f 78 64 66 76 98 74 84 71 90 84 8a 4e 6f 73 5e 76 70 68 64 8a 71 50 6e 8e 6e 5c 5b 9c 81 8e 63 82 9d 77 75 8c 92 76 7b 83 87 7f 80 a1 95 8d 96 7b 68 77 8c 7a 79 68 77 8d 7a 7f 83 6c 91 7b 98 6a 8f 63 6c 8e 86 a5 69 93 59 4f 6a 9c 4b 80 95 58 8b 92 9b 8c 69 79 7a 5d 6f a0 7a 95 79 82 5c 64 94 63 89 8e 9c 7b 56 62 6c 96 82 91 97 9e 4c 7f 8b 66 78 86 77 7d 63 87 77 96 53 89 77 86 99 52 8e 9c 6f 75 56 65 75 af 85 9c 78 8b 5f 76 70 7e 6e 93 77 94 79 7c 90 78 90 7f 41 96 86 6f 72 95 90 8b 72 8b 99 61 99 8d 86 88 81 47 80 9e 82 75 83 83 83 89 9a 51 98 7b 5f 91 8c a9 8e 39 7d 85 8e 75 5e 71 99 79 7a 97 93 7a 95 76 6e 9f 6f 50 6d 9d 8f 9b 62 6c 86 62 75 6c 67 80 96 69 91 86 69 6a a3 60 73 8b 8d 84 a3 75 96 96 99 7c 90 87 8b 82 8b 71 6b 82 65 80 76 8c 6f 8c 88 77 85 63 75 70 7c 8b 8b a1 71 70 88 74 66 9f 7b 5e 7b 5c 95 8a 66 67 a2 5f 8c 70 60 8e 9a 8f 95 70 8c 9f 81 86 68 83 7d 75 83 80 8c 5c 67 97 64 a3 82 8a 9f 62 7a 8c ac 7a 6c 7b 5c 91 71 82 71 7b 77 58 9e 70 57 7b 5e 93 80 7b 56 93 6b 78 6f 8c 68 8f 8f 6a 57 90 7f 67 75 9b 58 96 94 7d 95 65 66 74 7f 69 7d 5d 89 64 9b a7 68 7d 6d ae 92 77 67 93 8b 94 7c 82 6c 95 77 8f 62 63 81 80 78 55 6e 93 71 8b 82 ad 63 54 7f 6e 93 59 a5 77 69 68 9e 95 68 76 59 65 8f 78 71 92 75 6a a8 64 ab 66 69 a1 8a 94 56 79 94 5c 68 89 63 8d 6c 76 67 63 9c 88 6e 94 92 7c a4 81 82 70 91 78 82 5c 6e 8d 8f 8b 8d 9f 54 84 90 91 8d 72 55 5e 7f 9b 55 64 73 78 99 5b 82 6e 8a 83 92 84 7f 8f 75 68 a4 b5 95 8a b2 54 84 7a 9a 75 78 9b 75 8f 3e 74 8b 89 8d 66 8f 70 68 79 6d 7b 8f 5c ae 92 71 54 95 9a 67 70 a9 2a 85 a0 8a 8a 97 77 65 8a 60 83 6b 6b 92 74 a2 98 57 9e 71 78 76 87 80 99 72 77 82 a9 97 7e 86 6e 9b 53 85 a3 46 99 9e 92 7d 7e 99 7a 9e 8d 78 7b 95 97 8a 94 86 7f 88 8b 72 89 9e 98 96 51 81 64 97 83 7c 86 71 7f 8b 7f 74 90 83 93 9a 60 80 93 87 90 7e 88 58 66 9d 7c 8b 86 68 75 6b 7e 7b 6d 89 73 58 75 87 a2 5f 90 78 79 7c 7e 75 6a 77 a5 73 a2 8d a0 85 9c 78 69 66 6a 85 93 9b 84 87 68 93 9c 6c 80 6d 84 74 81 99 98 75 93 a1 9a 6e 89 67 89 80 73 4f a3 6d 47 57 8f 88 47 81 86 73 5d 5a 90 6f 62 72 a0 77 5a 5a 76 79 5d 8a 4d 99 83 8e 81 79 93 79 6a 7c 64 79 5e 6d 84 83 8a a0 7e 87 