cc f9 13 b8 f3 09 e9 f0 e9 08 07 fc 15 f2 1c d6 1b 03 eb 1b d6 f8 0f 1c d5 eb e3 ff 40 be f8 1c e8 3d ce 21 d0 f1 fd 27 04 f4 09 cf 1c e9 3a fc 20 34 19 e2 e7 f3 02 0d 05 e4 13 16 f7 09 fc e9 f4 04 01 d4 0b e9 dd f0 ee fe 02 19 f4 ce 22 cb 1a 2a 11 01 fb 06 fd 19 c9 f7 00 f9 21 c0 0c fd c3 08 01 c0 12 f8 00 18 e7 11 0c 1f 3e e3 11 0e 40 05 e0 19 e1 f9 fa f9 0d 00 0d fa 3a d2 d0 e6 1d f2 f9 20 fe e7 db dd 13 f9 16 12 03 ec 04 d1 f0 f6 1c ca f6 1b e6 f7 e0 f1 00 ef 26 fd f3 e0 e7 3d a3 ef b9 00 14 f2 0a fd ea 07 32 f6 68 1a dc 55 24 36 d7 ab f2 14 b0 18 df 1e 20 e6 a9 11 df fc 0f f4 21 1a 16 e8 00 ea f7 10 18 17 0f e4 34 f2 10 09 02 fb e1 ec 18 20 00 f0 f7 0b e0 f5 15 cb 34 32 e9 f8 14 e5 03 f3 f7 1a fa 01 c3 18 1c c0 c6 2a 13 4c 0e fa 31 01 11 0a c8 1c 3d 0a 13 04 e7 2d fd 08 f5 f6 e4 09 fd e0 13 e4 22 e1 0c 1c 2d e6 e0 f2 0e 1b 16 df 0c 06 12 15 03 ee 28 5b 97 13 ea e0 02 20 0c fe 05 02 2a 37 26 06 cb 13 f2 01 1e ec 10 0c d1 ec 11 07 db 18 f6 da 03 3a c9 17 fd f8 09 09 01 fd fa 12 06 21 2c 04 f6 2c 27 e2 fb cf ee 11 d1 ee fe 15 f5 17 e9 fa 02 e6 18 ed 0d 0e f0 f4 e9 e1 21 f5 0e 2e fb 3e fb f7 de 01 f2 00 01 15 17 0e 25 df f0 12 17 e7 e1 6a 81 fc d5 01 01 f9 08 03 d3 ce 2f e4 78 a7 c2 36 4f f4 1d b6 fa 14 81 fc e3 fe 4e d2 9b f5 02 f2 0a 04 13 0d fc e0 e7 e1 07 08 eb e4 06 d3 0b 0d 04 0a f6 ed e1 0c e9 f1 d3 0c 28 c3 01 f8 26 ab 7f 31 fb f7 ef 0d fc e1 28 20 e2 c9 8b a6 ea ae a8 34 28 63 1a f3 6f f2 fa ec ca 34 59 22 d1 0a 08 c1 f6 05 09 e9 00 13 1b e1 46 2f 1c 2c 12 2b 12 2c b5 db e1 ee b7 c3 09 05 0c b7 e0 0f 1c f4 fe 0a f5 0a fd 1d 06 e9 ea f4 f4 18 f2 10 02 e6 1a e3 fe eb 00 01 05 11 e4 07 fc e1 1b 10 23 e5 04 3e 16 e8 04 0a ea 02 09 0b d1 bc e0 95 d2 ca e3 d8 42 13 0e e4 14 04 eb 15 d3 54 2c 1c 72 5f 81 76 9c e6 02 ff 11 e7 da ce c1 b9 50 9c 81 be 46 83 63 e1 03 eb fa f2 e1 ef d5 68 19 fc 08 09 f4 17 25 e1 dd 00 f2 08 f2 0f 00 d4 08 ea 07 21 1a fd f6 f3 e1 05 f7 e5 c7 e4 fe d4 0f 12 19 ff f5 fb d9 f5 fa e6 e8 d7 ef e9 fc 0d 1a 3c 20 24 df 09 08 15 e3 18 fe e7 20 e0 0b fb 22 1b 2f e9 1e 18 05 1b f3 e6 ea e5 0b f5 ea 0e d5 01 bc ba 07 c9 49 28 17 f8 18 f0 e2 15 f9 2e 2c 12 e0 e9 26 f3 0f f0 00 dc 0f e0 e3 2e 17 0c e8 fe 14 ec e5 ea 0d 17 18 02 12 f6 ef db 00 07 11 de 04 f2 10 13 14 ff 0f 15 0f e8 f3 3a ed d2 06 0b fa 1e f4 f7 0f ff 05 e6 24 16 ed fa 18 f0 f0 e8 41 fd f5 46 16 f4 0b e7 03 16 ec e5 d6 12 d4 f5 cd ce e2 d9 28 39 ec 11 30 03 e1 f5 cc 27 38 0c f8 f3 1b 13 e6 fa e5 f3 e5 d9 0f 06 e4 ec 08 13 00 0f ed 16 ff 1d f6 f4 0b eb e9 04 1f f5 ea f6 e1 1b f1 f9 09 eb dd 15 06 10 13 2e 0f d9 31 13 ee 12 1c e7 11 1a ea 0b fa 01 14 e2 f8 f0 f1 00 f3 ed f0 f5 11 0b df 1b ec 18 f5 f4 10 f4 11 00 11 f3 15 fa 1b e7 f5 0f f3 fd f5 1e 14 f2 06 f4 f0 eb 14 ce 18 fa 01 f3 fb 1f 14 24 1a d6 f3 fc 19 e4 f8 31 ce 30 f4 18 fc 0a e1 18 fc e0 22 0d 30 04 1d 40 15 ed f8 f1 f8 f3 16 ff eb f6 d3 06 d0 cc d8 08 25 22 10 f7 34 06 f7 e8 e1 32 2a ef 08 27 91 23 ad 0a ef ef 03 d5 e9 fd 06 d4 68 e3 b9 f0 13 ea 1b fa db e0 c9 1e 00 f0 db fb 11 05 e5 09 fb ec ea 1b f6 eb fc fd 06 e3 0f ea f1 f6 17 ef 1c 05 08 f5 19 08 e2 e7 09 0d 15 f2 f1 e1 04 b4 57 03 23 07 08 e6 e2 e6 f8 34 ea 24 b4 1a fb d2 d7 ff 14 2f 15 05 14 e8 07 e9 d3 2c 29 e3 0e 34 ce f5 e1 f8 fb 0f e6 fb f9 0a 0c f7 27 d4 ed 22 1a ad 11 f4 1f 1e 02 d7 d8 ed 08 10 e9 ee f6 34 f1 eb ce f6 ea dd f1 ea f9 e1 0f ca 19 ec 03 ec ef 29 16 eb 0c 19 04 01 d4 ef 13 d2 fc e5 04 f5 2e 00 0d e1 f8 04 08 e5 22 21 f9 27 bc 27 d6 e4 f8 34 f8 30 04 e0 14 13 05 fb cb 26 37 00 34 ee 01 4f 19 e3 02 0c 14 10 ed fb e0 e7 ca d1 c9 dc ef b3 47 1a 12 e7 37 f6 ee f6 cf 3c 3c ef 19 f3 2d eb ec e8 e5 ee e9 e7 00 15 09 16 fd 37 f9 f4 ef 0c df e8 1f 02 e7 00 fd 0d 1a e7 12 15 0a 24 cc 07 de 01 0e ee e3 f9 03 e1 1d d4 33 a3 e0 f1 1e c6 0c fe fc ee e5 ef e0 17 15 11 28 f6 27 0c e8 1b 02 1e 04 eb 07 e0 ed 12 04 ff e0 db 1a 0b f0 f9 12 fe f0 0b 19 0d e4 07 0a e7 23 19 18 e0 0b f2 fd 14 df 0c 09 0b ee 05 06 fe 1c f4 10 24 09 08 fd 13 1c eb 06 08 ea ef ee 1d 15 fb f2 0e f4 c2 22 0f 0f ea df e3 18 f3 1d b3 ff d4 28 14 00 25 b4 01 18 e3 da f5 14 19 3a c5 bc eb eb fe f2 ec 1a e1 06 01 0b 10 f8 20 1a d3 1a ef ed 03 10 01 f2 12 dc df f0 de f3 0b 1c 0b de fb 42 33 c4 67 c9 ec 1e dd f2 fd 28 10 df c7 18 c9 87 c3 11 dc 70 2e 1c fc 37 fb c7 1a b5 54 42 e5 d7 ee 15 ef e3 00 05 20 e9 ed 16 0f fb f7 14 fc 13 00 fd e2 f6 19 08 00 f4 ee db 10 0c ef e8 df 10 47 81 59 be 13 16 f6 05 f1 c2 e8 fd ef 46 cc c5 da 33 cf 5e ef f6 0b fb fb 06 e7 d6 06 fd 18 f5 18 09 15 e9 02 d9 fb dc f4 22 ff f7 0c 0f 20 ff 1f 0f 08 d4 f6 eb e3 11 1a f9 ee 01 0a 15 e8 04 02 fa 1d ff fd dd 06 06 fc 1a 17 07 c1 14 b6 e5 10 23 e7 e9 ee f6 fc fd e3 eb ea 2f 0a 05 ef 1f d1 33 24 07 e8 f3 01 f7 f7 fd 1d c8 ff d8 e5 00 b6 0e 01 36 2f eb f5 37 f3 08 0b e9 30 2e 05 12 06 00 00 f4 0e 1e 08 f9 e9 f0 ea 02 10 0b f6 15 ef 1c e2 ea e3 ed f5 fa 14 ea 1d 1c f6 15 18 00 0c 0b 16 cd 17 f2 ef 04 dd 0d 04 05 23 14 24 f2 06 ff 26 09 1c e2 e2 ff df 26 05 fb 05 19 de 2d fc 14 2e c5 ec 02 eb 06 dd 09 02 d3 2b db 05 b6 8d b6 14 55 4d ee fe 4e 19 11 eb 93 1e 2f 07 ff e8 0d 02 0a eb df e2 dd d7 ff ec 08 27 09 fa 01 f5 07 2f 19 fe 09 fe e4 fd fb dd f5 1a 13 e3 f0 0e f9 f9 0d 00 f8 f6 0a ee 17 1a fe e1 28 f8 fd 1c 11 f4 e9 e3 eb e0 d4 e2 e9 e5 24 e4 12 ec 1b 1b 23 e7 24 ea 01 02 01 10 1d 00 14 bd 10 e5 f3 17 ef e1 0c f4 e4 f5 e6 f8 e9 f2 24 e6 01 0c 05 ec 15 1b eb f2 f8 fe de fd 0b 17 fd 24 dc 28 0c 0c ee 03 08 1a ec e4 07 11 21 0a 0c 1f f6 f2 0d 22 bc 14 e0 e0 d3 0f 03 e5 08 f0 2d e9 2a f8 e0 ff 19 ef 0b ee 03 e5 00 e3 0e e0 ea 04 f2 ef d1 1f ef b7 ed e0 fb d5 0d 1c f6 1b 2d e4 49 d4 26 65 07 06 c7 cb 1b e5 9b 05 e9 f7 50 a4 9d e7 13 04 00 ff fb e2 f5 fc e0 1a e7 06 0b 13 01 e8 e6 18 e3 09 14 e9 e4 19 0c 18 ee 0f 13 f2 f0 15 c3 10 06 bf 0d fb 01 14 15 fd 1a 0e 2f 44 40 23 30 14 ea 24 df dd 19 15 b5 f8 ff ec fd af f2 14 e7 ed 09 12 e9 02 e6 16 05 0a eb 05 ff 02 f2 1a f6 18 e4 1c f0 1d e9 0d 1d f5 f6 e3 ec f6 00 1c 00 f8 0e e8 fa f8 f3 ee e9 0e fa ff d6 c4 1c dc da 12 06 e4 05 00 17 18 09 ff e9 e0 1b fa f5 ed 85 d3 68 81 04 e1 fb 18 f0 08 fa d0 69 06 81 46 66 26 b2 23 81 3a f5 e2 1d 1f 05 ee 6d c1 dd ef 0d bc 5a 32 ba 05 0a ef ed e4 1d d8 bb 11 b5 ef f2 9a b7 47 32 50 fe e1 23 c6 16 f9 e1 1d 54 e3 