05 0c 15 18 f9 e6 e6 f2 e5 e8 12 1a 14 f7 ea 03 fe fd 19 11 e9 fa 04 eb ff 1b ee 07 fb 06 e5 e6 0d f6 f3 e9 0c 10 f2 f8 18 f1 0e 00 e9 e9 e8 e4 e7 ff 00 f9 f9 ee 19 10 ef 00 f8 fb ed ec fe f2 15 12 11 15 fe 17 e8 03 13 e8 e8 fc 06 ee e9 01 1e e2 15 1d 17 10 f4 f9 21 f9 08 0f df 0f 03 03 ff 0d f5 0e 17 09 02 05 04 f9 fe 0a 02 e6 09 e4 16 00 1a 24 08 27 0f ed fd f2 0c eb 0a 00 18 07 e5 f1 f1 e9 ee fe 0e 00 0e f8 00 11 17 08 ff 07 f5 0c fc f3 e5 e6 12 f5 f7 f3 1b f1 e8 03 f8 12 00 0b ea ec 04 0b 12 f4 17 f5 11 07 00 f3 ea 1a f4 f8 f7 0e 14 e8 09 14 f2 1a e4 04 03 03 f3 ec 18 0f e8 e4 08 f9 09 11 0e e7 18 19 f3 0a 0e f0 fe f6 f1 fd 18 02 09 06 0a ff 00 ee ee e7 ea f7 07 11 f5 e7 e4 fe fb 0a 17 f3 f1 0c f6 03 fc ef 0a f6 0c 03 e6 15 15 0d f1 f7 01 fc e9 12 ee 17 e5 f3 f7 fc 0c ea f9 f5 e9 f4 17 ec f3 0f 12 04 ed 15 11 13 18 eb ff 0e 08 f2 e7 e7 06 0c 08 f9 f4 f6 0f ed ef 18 f0 f8 02 e9 13 06 09 ed 09 ff 03 09 fc e7 f6 fe f3 1a f7 10 fd 11 e5 1a 0f e9 0f e7 f8 00 10 eb d2 11 00 f5 dc e8 ec f8 e1 0c ee ec 00 14 23 01 fc 20 15 00 1f 1b 0c 15 e1 09 ee e8 27 f3 f9 0c 1f d4 f0 fc 10 f9 0c f4 fd 21 0b fe 0d 1a 20 13 10 13 f3 15 1a 21 eb eb 15 ff c6 04 0b db 1d cc f9 09 e7 ea 22 0d 00 0a 2a e8 fc 0b 11 0b 18 db 2a d7 06 d7 1b 27 1a f3 fd 11 d4 e1 e0 07 2f f9 e4 21 0a 27 1a 16 1d e2 f4 c4 01 f7 e2 10 e1 f9 0b d4 fb ef ef cc c5 0a da e6 e7 ca c5 c0 1e 06 2c e7 03 a6 1a 32 49 19 11 c9 d2 25 f6 ff 2e cd 26 19 eb fa eb 93 21 15 23 1c d9 ee eb f7 cc 2b fa 2d fd 14 d9 15 2f f3 27 0b da 0b e6 fd 07 d1 eb 12 05 21 e2 f3 cc 1e 0c 06 3d 05 ee d1 31 cf 1f a7 e5 32 21 26 f7 05 2d f4 c4 0d ff d1 d7 ef 05 d3 24 1a c0 fc f8 c3 01 3d 06 25 fe cb 3f 3e 02 e6 11 de f4 fa 28 0a 87 4d ee c5 fd d4 2a d3 fb fa 0f 23 1c f1 e0 43 21 ff 19 f0 b5 0d 0a 00 23 f5 f2 f9 df ef f9 22 e7 14 08 e3 04 e0 46 db e5 0e 12 2d b3 05 e8 24 e6 e3 11 49 06 e2 eb d7 27 eb fe df 3d 33 13 f6 81 fc 10 92 e8 e2 14 c9 1c 24 ed 21 38 fb fd 3d 14 17 3d f5 d1 fd 07 e3 05 ca f8 0d ec 19 16 ed e4 0c c7 04 ee 04 03 06 fb 24 dc 06 ac f7 22 25 fa 04 f9 23 22 16 01 f5 1b 0f e2 ef fd f6 1c ed de 1b f0 0d f8 ff fb e4 ea fc d8 24 12 00 02 31 0d 39 f2 01 e3 06 04 24 18 03 05 ff f3 06 2a 1f f3 f9 f4 06 ef fd 1e 08 0f 06 19 0a df 20 03 0e ef 10 ef 01 03 fb f3 f7 22 12 db fe fd f8 07 1a ed 19 f0 0c 1f f0 f9 ef 02 11 f6 f0 15 ee fe 1c dd 1b fc fe fc 18 00 ea 00 fd 13 c3 ee 0a 0a e2 e2 07 0d 0f e7 ed 15 0a e6 01 26 ed 1d f8 18 0a 01 06 dc 05 03 e7 19 f5 eb 08 e2 fb 2b eb f2 01 fd 01 ff 05 04 0c f6 fb 05 fb 13 f9 eb 12 1b 17 f9 02 fd 02 0b 0d 23 06 13 0d fd 18 0c f2 1e 03 0c ee 1c 00 fd 05 17 07 1e f7 f7 22 f9 0a f8 f9 e7 12 0d 07 0e cc 1d 03 e2 ee e6 f0 f3 f2 fb 05 f5 04 f5 19 ed dd 06 fb fc e1 02 11 15 f8 01 eb d4 ed 0d 1b ea e5 f4 e8 f4 ed e5 dd f6 0a f5 2e f9 fc 10 0d 1e f0 0b e7 04 1f 11 00 0c f9 0b f2 00 04 d4 0a 25 e4 f7 03 f2 12 fc fd 16 f1 f4 01 0b 1e f9 0e 04 1e 11 10 ff f3 fb db f6 03 f7 f9 eb f1 03 09 04 13 08 04 17 e9 e8 e2 17 fa ed f6 0d 0c 07 e5 fd f1 08 21 e9 e5 09 f8 1e f6 16 0b fb f9 0e d9 18 ea 14 15 14 ff 03 00 ee f5 0c 0e 25 06 f5 19 16 fa 0c 0e 00 1e 10 04 03 0f 0c fd 00 1a 00 05 f3 14 0f 25 fd 1e e9 0e 0e 01 f3 d6 e4 0f d7 e4 2c 11 fe 03 df 01 ed dc f3 fb f5 d6 05 f3 13 05 09 f8 1f fb 04 0f 01 ee 1a 10 f9 e8 1e b3 04 03 fe 2a 32 f7 1b 2e 09 fe f6 23 26 e0 14 10 0f 04 ec f1 f1 ea 04 06 fb 19 16 02 f0 19 f0 0b dc 24 ea f5 1a ea ee ef f1 19 14 26 fe 04 06 09 17 15 0d 30 14 04 eb 0b 07 f1 1e e8 e6 f8 06 03 f8 08 ea e0 20 02 01 df ff 0d f4 fe f1 ed 06 fb 10 00 fd 00 fa 18 23 f7 f2 f0 11 e5 f3 0c 0c e5 dc 09 2c 3c 03 f2 f8 1a 01 de d5 e1 1c 17 ec 06 01 03 08 e9 f5 10 c6 1c f6 f4 2d 0d f3 f2 ed d2 04 08 13 03 16 24 01 00 02 f8 22 e3 d8 eb f6 18 01 0d 05 e8 0a cb 1f 15 03 ea 02 08 f0 e9 f6 17 fa 03 07 d0 eb f3 18 05 2a 13 03 e4 0f fa 07 16 15 0f e6 16 28 cd ea d4 11 e8 1c ee 04 14 11 f9 d8 0b 0b d6 02 fc ea de 1f e9 eb fe e9 0c 05 e0 fb 02 fa 04 02 09 fe f7 e5 08 20 08 f7 f5 0b 04 0b 18 d9 f5 f1 e9 03 17 00 2c 08 06 fc 10 e6 0e ea fc 27 1b 0f 26 0a 1f f9 f8 ec f4 05 0b 0b f0 fb f6 f2 f2 eb 0f 0a 05 14 e1 f2 10 03 ed d5 fc e8 0e 13 1f 08 1c f4 f3 17 fb 10 15 e4 f2 e9 16 e0 13 00 17 03 f5 07 ed 0f e6 09 ee fd ec ef fd f5 e0 fb d6 0c 11 de 0b 19 0f dc fd 14 0a fe 1d db 0c 0a 20 f9 fd 09 2e 33 e3 fc f6 01 05 f6 1c 12 0b 0b 26 e4 fc e6 f8 ec f9 f2 e7 f4 eb f2 07 0f e4 05 10 18 17 0c 14 08 20 f6 f3 02 13 16 fc 0a fc 0b 0e f5 f9 07 0a 07 0e fc ff 06 14 01 1e 19 05 f1 07 24 16 1d fa e3 e8 08 f7 15 fa fe f8 11 00 15 f8 17 fd 09 fb 14 e9 f4 0b ff fa 11 1a 09 f2 17 1a 1b 0c ed fa f3 f8 10 14 ee 0d 0a f2 f6 16 12 eb 11 17 0a f5 19 17 14 f6 0e ec f6 03 ef fb 0e 19 11 fb fb f1 1a 14 0b fa 00 f3 01 00 e8 f5 f3 0f e9 e8 1a e5 05 17 12 ee 0b e6 f2 f5 10 18 f8 f7 f6 10 1a f9 0f f3 0b 0b fd e4 fc ee e7 11 18 e6 fc ff ea ef 04 f7 0d f9 e8 e5 ef 0a f7 fb ff ff f7 fb 00 15 e9 f1 02 0b 11 f5 07 15 fe e7 f4 fd f0 e7 fe 15 00 03 1a 16 00 e8 f2 01 10 02 e6 e8 ff fe 15 00 f7 f7 fc f0 f0 fc 07 15 f2 ef 03 0e eb 07 14 1b 1a e9 e5 0a 13 ed 14 0c e7 ef 0f ed fe 0b 08 15 01 fb 16 13 04 16 e6 ef f9 ff 08 00 fb 0a fe 10 ec 0c 0a 0f fa e7 1a fe 0d 02 fa 14 0e eb ee e7 13 f8 0e e8 e5 e7 05 fc 0d f5 17 f7 15 ff 09 f3 ea 08 0c 02 07 13 0d 0c 06 f0 eb fe e5 08 06 04 06 e7 0b f9 f6 e8 17 f9 14 ed e6 fb ef ef 01 0b e8 19 f7 fc fb 10 12 13 f3 09 0f 1a ea f3 0b eb 09 fe 06 17 00 00 e9 10 08 0b f6 ee 0f 12 10 f8 f1 0a e6 fe f4 0c 19 ff fc 12 07 18 f9 15 15 f7 f1 1b 17 07 fe 08 f3 05 fa ff 14 14 f0 01 ee e6 ec f2 16 07 12 fd ec 17 e9 e9 f7 f0 eb 07 fa 19 f8 0d f0 03 fa f5 07 f9 e8 0f f5 14 e4 f1 13 fb e5 04 ec ea 18 02 09 ff f8 f5 14 f1 18 fc fa 09 15 fe 11 fc 02 05 08 f3 f7 13 12 fd 14 f4 f3 19 ed ec 1a 13 ea e7 15 06 0f f6 0b 13 18 1b 07 f0 15 f2 04 fa 0b 1b ec fa 17 e5 03 0d ef e7 ee f4 f1 e6 14 17 12 f4 00 ed e7 03 f9 fb f8 03 fd 09 15 0e e9 f1 e8 08 f9 10 f1 17 f8 e9 01 eb e7 fc 15 fb f5 16 f3 e7 0e f4 ea f3 11 19 13 0a f9 f6 03 0a fb 07 fe 0e fa f6 f5 0d f6 ef 1a 02 fd 17 f6 15 e4 16 fe f3 f8 e9 ee 13 0e f2 ea ee 18 0c 06 f0 ed 00 e5 f7 f7 0f 02 f3 eb 06 02 f7 0d 14 e5 08 19 ff 16 fb 03 09 e6 15 07 00 f4 14 01 06 ff f0 04 12 e6 fe 03 18 fc e9 fa ea fc f2 f2 0c 12 eb eb 05 10 e6 e6 09 18 1a ff 0a 08 e8 e4 f2 e7 ee 17 ea fd 0d 0a f9 ec e7 17 fc 14 f1 11 e7 0a e8 1a eb ed e6 fb f8 13 0a 07 00 f1 ee 02 ef 0b 0a 1a 0b f7 11 0b 12 15 f0 ea 14 1a 05 05 06 00 f7 10 1a 05 19 19 11 ee e9 e5 ef fd ef fb 10 1b f8 00 fa e7 f9 f0 0a 02 00 1d 13 ff 25 ea 22 ee f4 0a 10 fb e4 00 19 ff f6 f5 0b eb 0e 19 f1 ec 10 05 ef 08 13 11 fe 02 f4 13 03 e8 e6 0b f3 03 18 10 e8 eb fa 01 fe 0c 0b ef ff f5 24 f9 f1 fb 0c f6 14 f6 ff 14 0c fb 17 fc f3 e5 ef 0b 01 ed 15 15 15 0a 0d 1a 00 0f 01 e7 ec 11 ee e8 f5 14 ef f5 e5 f7 f9 08 f7 05 fd 06 ed e5 02 ff e7 fd 07 f7 11 fe 18 fd eb ec 15 0f 06 e6 f1 08 fa f2 0c fd 12 0f f3 12 0b ff 0c ea 02 08 07 e9 e5 ed 19 11 03 07 09 f7 01 16 eb f6 06 0c 09 11 e7 f8 ee f1 17 0b 0f 0f 11 e8 0b 10 05 07 f6 02 1a f8 06 ff 02 1a 15 0d fc 09 12 eb e5 0e e7 fb 02 06 f0 e9 f2 ee ea fe f2 f6 0a 1a fc e8 fa 0d 0e fa 02 1a ef 11 04 09 fa 11 ff 07 e7 12 19 eb 05 e6 e9 06 fa 16 fc fd f5 f1 09 10 05 06 05 fa e5 fc 15 f4 08 f8 0e 0c 0d 09 1b 04 1a ea 00 f4 02 fd 18 07 fd 12 fc 07 e4 1a e9 16 f8 04 18 f0 1e f4 f9 f0 08 09 e0 0d 0f 04 f7 0d 1f f6 01 f8 0d 07 e2 16 06 0b 09 e7 f1 09 f6 1a ed 16 e9 e0 05 fd 09 00 ed e9 f3 fc eb 0d ea 1a 1d fa 1d fc 13 e5 0f 1f f1 11 df 05 e4 f6 a6 17 df 16 da 2f ea f0 ec 14 2c 07 ef ff d0 16 13 08 00 0f ef 14 f3 cd 0b 09 17 2f 05 2f fe 0a fb 02 ff 1b e1 07 1a 10 30 e0 0b 0d ef 03 fd dd e7 16 01 cc f1 c9 e4 06 cc d2 f4 f7 da e2 e0 de 29 bd 26 01 16 fc fb f7 3d f0 fe d6 b4 07 e9 c1 fb 4d b9 ed 1c 19 ec d3 f0 16 46 1c 1e 07 ad c1 a5 b3 c3 e9 e2 e4 04 de 23 f0 b1 c1 02 f9 1a f5 4b e0 2e f3 ed 31 c7 17 e8 13 02 1f d3 da 1b 1d 4d ed 1c fa 06 1c f2 03 1c 28 20 37 2b f9 e5 fe 18 16 df 14 ea 3b b6 d1 a2 f6 1e 27 15 41 b5 0c 16 d2 39 c7 cf aa 26 c1 4a b3 4d eb f1 05 f9 0c fa e9 0c ec 28 1b 0d 23 d9 e0 d6 3e d0 da ee c8 1a c6 3c ed f9 da ea ee 30 e1 ea d4 29 d8 0b 30 f5 f4 a7 f5 0a d8 ee fd 32 f7 f0 04 19 f2 dd f9 d7 b0 42 e4 ea 0b f8 39 04 1d ed db 06 ed d7 d0 2a d0 2a 1c c3 4a 15 fd 1f 29 26 fd ff 19 1b 0c 0c f0 0f 08 fe ff 22 15 1a 1a e8 e1 ec fb 13 17 fa 06 1d e0 09 f2 19 f9 ec 1a 0f 07 14 0b cf 16 e4 fc e1 fe ee 01 1f 0d fa 08 fb dd fb 15 06 1f a6 ff 1c 0f fb d0 ea fa dd e3 1f fc 04 1d 1f e1 fe 05 f9 f7 04 06 10 f8 0e f6 f2 0a 03 ec 13 f4 e5 d4 e9 f5 30 f5 17 ec 0e 01 df 00 f7 fc 06 d6 fa 21 1e 13 04 fe 03 20 17 11 0c ee e5 04 df 14 de 26 ef 22 e3 df f0 f8 e3 f9 03 04 0f 1b f3 0b 10 18 12 16 fd f2 12 ff 13 e1 fc eb e8 f0 08 f8 f1 0d f5 07 ef f3 07 0b ee 0a e2 f0 f6 ff 09 0f fd fe e3 14 28 0f 1c 14 0b fd f4 e2 ef 04 01 1a f0 00 e9 17 08 e9 02 09 00 f6 15 e6 fd 08 0a ee f9 0a f9 0f ef f7 01 13 07 e7 05 1f 22 07 ed e3 fa f9 e7 ec 02 f8 ec 02 00 f8 e9 11 fb fc f5 e9 e8 f1 d6 ec 17 e5 fa e5 0e f1 0a 08 0c 13 fd 1b f1 fb fc 29 05 0a ff f7 f8 1a fd 11 05 16 1d fa ee 08 ff 09 f7 19 17 0d f3 0f f3 f8 17 0e f1 f3 e6 dd 1c f9 12 00 05 f7 02 f3 f8 e6 e2 fc e3 18 e6 21 20 df e5 ee 13 1c 03 01 11 03 fe e8 f5 0d f5 23 de 1a 02 f6 fe df ef 13 0c 0e 13 fd 01 fa fb 0d 14 f8 f2 f0 f6 e9 27 f8 f9 05 eb e2 12 f2 ff 0f fc fe 03 e3 16 02 e4 21 fa 07 ee 03 16 ef 01 ee ff ff 1d f6 04 fb 0b 13 15 ef eb f1 10 fe f9 fd 1b d9 0c 03 18 1e e7 f0 f8 0e fd 09 21 ef 18 d6 09 12 13 da 03 0c fe f2 15 17 eb 11 f0 0c 05 01 f4 00 0b ee 08 f3 f2 ed e9 f7 ff f6 f7 0b ea f1 05 f8 ef 19 12 14 1e ff 10 0b fc 15 02 e7 12 ca 07 fb 00 f9 01 ff 14 fd e2 df f4 0d 1a ea 06 f3 20 0d 1a 0e f3 ec 05 0a ee fe f8 fc 0f 16 0b 01 03 e3 0d ec ff f3 0c 39 fc e3 11 f1 ee 04 c1 04 21 19 f7 14 e7 0a e4 00 f9 09 e8 1c 1a 18 15 e3 07 23 00 12 e5 05 0d 1a 1b fb dd 01 04 fa 34 08 0a 0c 0d 19 0b f0 1d 17 1a 08 fe 1d 08 16 0b 2f 0b eb eb 1c da dd d4 f2 03 05 fa 06 e7 18 19 e2 e1 13 0c fc f1 b5 19 e8 fb 13 f6 e1 d8 dc 09 ed 1f d4 1d ec 3b 13 15 db 02 19 e5 e9 06 fe 05 fd 0a e1 f8 fe f2 ef 0f f4 f3 fa ea ed 05 1a 07 fc f9 17 1c 20 d2 fd 0f 11 fc f7 fd 23 0c ce 01 ec 0f e6 e4 e9 f9 11 13 eb 29 03 e8 fc b7 f2 33 e9 10 fd 0d 13 1e ec 1a 09 1a 01 ff f5 ff e4 e0 26 2c ea 14 07 13 02 1a 0a f2 f2 03 ea 2a e4 01 08 ff 15 36 18 15 28 fd ee 09 f2 13 1c 16 eb 05 14 dc d6 08 04 e0 2e ef ec 2a 06 04 e5 ee 27 eb 0b 1a 06 04 db 02 f9 04 11 0f ee f2 f7 1d f6 05 ee 0b 04 0f ee 06 fe 1b ed e0 ea fb 13 23 15 1d 08 f9 0d 07 eb 15 fe e3 ce fe ee dc f4 fe ed fb fe f6 e3 10 1a 05 ea f2 01 14 19 f0 0e f6 fc d8 e4 09 19 e8 fa fe 17 e2 e5 0d 05 fa fe f1 08 0a f8 0a 05 0c 08 e4 f7 e3 e6 19 03 0c fc fc 0f 0c fd 1d 0a f7 07 fa f7 09 f4 18 ea f6 0c fc c5 0b fb 08 1a fd 29 16 f7 06 0b f8 eb ff 02 0f f9 fe 1e ff 02 01 fa f1 0e 22 10 fd 00 fd e9 dd eb fe 03 f5 fc f4 f6 0a 13 fd 14 13 f8 de ff 06 e8 04 fb 05 e1 e7 05 20 04 f0 e3 f9 e2 19 08 13 06 fb 09 12 f3 09 1b 00 dc ec f8 12 0c 14 1b f3 00 f9 07 16 f0 fa 1d f5 08 09 18 ee 14 01 09 dd fb dd 04 fd 07 07 e5 18 f2 0a 01 f7 1d 14 fd 10 f7 fa f0 f6 f1 1c ff f5 0b fe 0b 17 e9 f1 e7 f4 f6 11 16 dd f2 1d e9 0e e7 0b 0f fc d5 08 f4 04 16 03 10 f9 f9 17 08 18 02 08 18 1d 1a 07 1d 1e f4 ed 16 03 f5 fc 16 f4 16 f0 fa f1 19 e7 11 18 fd fb d4 f3 d0 e5 16 18 01 21 ef e0 fe ea 0e e9 0c 0a f3 18 0d f5 1a 1a 10 e9 f9 e3 f8 06 0c da fe 17 19 d3 02 f0 10 e5 dc 1d f1 22 10 f9 13 ed 0f e8 0e e4 0b 13 06 0b fb fc eb 0f f2 e7 ed fe 0e 00 f3 ef f5 f9 0c 00 02 f9 ff 15 13 08 ed 13 e3 f4 08 0c ed 0e f9 05 f0 16 fa 01 e4 eb f0 e4 18 fc 0e 16 03 eb e5 ed 06 0b ed 13 17 ff ff f8 06 f9 02 14 06 f3 05 f4 f6 1e 1d ee 19 ea fe 02 1f fe 0f f2 f0 fb 06 17 05 ff 19 09 ef ed f4 06 11 0d fe f7 f9 ee 0c f6 24 f4 14 f1 f0 08 f7 07 ff f5 c7 0c ea 0e fb 05 fb fd e6 fa 06 01 f3 f0 14 16 11 f0 10 e9 10 e9 f9 fc 1a 12 09 18 0f fb f8 fa 17 0a 19 17 10 e5 e9 f3 02 17 ec 0e 0e 16 fa 1b f7 f0 19 f6 10 10 ee f4 f8 f2 13 12 10 fa ea e7 18 0f 08 0c 07 f4 0b 0f 10 ea f1 09 0f f9 14 fc e8 17 01 01 f8 1b fb 07 19 f0 f4 0b ef 01 fa ea fc f0 02 0a 18 05 10 09 15 f3 fc ee f1 f5 0d ea ed 0d ec eb 05 f1 fa 11 e7 12 11 fb eb e5 ef 0f fb 0b 04 f5 02 fa e8 ea e4 f1 05 ef 02 1b e8 ee 16 01 02 04 e8 e9 1a e6 10 0b 10 11 0e 13 1b 1b f2 0a 15 f3 e5 00 00 e5 0f f9 f9 15 e6 e5 ff 1a eb fb 08 10 fe 08 f6 eb 05 09 02 0e 00 ff ef e5 11 e9 fe 1a f5 fe ee 0a 19 ff e8 10 fd f7 e4 00 17 11 fd 04 06 fe 15 e4 03 f4 fe 13 e8 00 fd 10 eb 01 e7 02 f3 17 13 f9 fa 06 ed e4 e5 fe 0b ec 0a e5 02 0e f1 ea ec 07 e4 f7 ef eb fd eb 07 05 10 ea 16 0b 08 07 ee 04 f0 e5 f4 fc 19 14 