83 9e 8c 89 96 91 76 96 93 74 9b 93 81 67 48 6a 6c 86 1b c5 91 92 7b 7a 79 77 67 98 78 90 47 5c 75 6b 73 7c b0 6b 91 91 a8 56 90 8e 9f c9 6d e2 a5 2a 60 8c 73 8d 91 8c 70 8c 7a 90 65 5f 7a a3 5b 8a 99 71 74 95 61 96 79 74 9e 82 5a 83 8e 83 82 87 7f 6f 86 69 7a 95 6b 91 5f 81 62 6f 85 99 7a 71 79 68 95 62 90 60 8a 6c 87 80 6d 52 8f 51 93 6e 69 a1 80 85 8f 92 85 75 a7 6e 8a 85 68 7c 6e 8c 7a 92 7a 63 91 8a 7e 76 6c 69 6b 8b 97 87 6e 93 99 99 86 99 8d 7a 82 71 68 8d 8c 8e 93 81 73 97 69 6d 98 6c 62 6a 98 89 8b 64 78 92 86 6c 95 65 6b 86 78 91 94 78 77 83 62 86 67 70 77 92 ab 97 97 7c -1 8c 72 78 6f 7d 28 94 3c 89 32 ac 7a b2 89 -1 66 a8 75 8a 89 5e 53 83 72 99 76 a1 92 83 77 69 7e ad 6c 6a 82 7b 83 a7 a2 25 7c 10 b1 3b 5b a0 8d 82 b4 8d 60 7a 9b -1 85 6f 98 71 90 76 80 2d 7c 70 79 8f 71 92 5f 6e 50 7f 51 72 69 60 6d 84 8b 93 65 75 7e 76 5c 9b a3 59 6a 89 82 71 8b 7c 78 7b 87 6e aa 8d 79 5b 34 b9 8e ac 61 86 5f 4b 93 6f 5f 75 95 77 72 61 83 77 3d 6e a0 90 63 7b a0 64 6f 93 7e 9a 83 75 6e 88 62 94 8e 68 8b 78 60 91 7e 97 6c 84 75 78 9a 8b 6c 92 6f 63 68 8c 93 89 7e 62 76 91 6b 53 53 84 78 83 93 86 60 7c 8f 82 76 78 9a 81 87 82 7d 7c 74 8e 92 7c 6e 7d 67 65 86 5e 8b 75 90 81 5c 8f 54 a3 86 7e a9 70 60 8e 82 69 6c 8f 86 8e b0 75 7f 87 6e 63 68 ab 69 a0 55 77 91 8a 75 6d 69 9b 69 85 73 68 76 8b 6a 7d 68 75 6e 55 68 96 90 87 9e 60 80 72 a7 75 8a a7 88 7b 78 8f 6b 94 a7 64 95 93 6c 9b 64 9f 62 82 75 79 76 72 9a 79 5e 5f 81 8f 93 64 7e 67 9d 89 9b 8b 99 88 8a 9e 9f 5e 86 82 98 75 57 99 71 8b 94 9b 71 99 94 94 9b 5f 89 8f 5b 71 72 98 80 78 63 87 98 7a 76 5b a3 7e a9 74 a4 61 ab 8b 90 8b 6f 69 7c 6c 99 7f 8f 80 8d 7b 93 8e 79 b3 74 92 6b 70 82 a0 98 5f 6e 64 8d 64 70 8e 81 65 89 8b 64 56 96 52 7d a9 8c 95 8f 71 a1 6d 8c 81 6a 5a 6f 90 8d 97 78 6d 93 5e 83 8d 8e 68 b3 49 90 67 6e 93 65 6f 70 6b 85 77 8b 8b 71 81 84 9b 5c a6 67 79 51 99 95 8f 7d 3e 73 25 5d 7f 82 58 91 74 87 54 aa 98 7a 59 a6 8a 8b 59 95 95 8a 6d 5c 94 80 81 69 58 59 98 8d 8b a8 90 83 a2 5b 87 90 67 7a 8e 63 80 64 88 65 6a 63 81 81 60 91 56 9b 60 95 86 7b 6c 6c 83 6d 73 83 73 93 73 82 9e 65 7f a3 aa 71 71 a0 55 96 73 6c 91 9a 5a 8e 77 84 65 70 8a 7b 99 94 71 57 6b 84 86 8d 99 86 70 6a 77 71 95 91 64 6b 6b 93 8a 6b 70 7e 70 88 53 91 8e 96 67 63 81 97 7a 72 3a 6c 4a 86 98 6a 93 65 5f 8a 8d 8f 62 89 a0 7a 65 88 7c 69 6a 61 a0 63 40 85 99 83 38 bf 5d 4c 95 28 58 7f b0 -1 9c 96 a8 78 5d 87 95 8a ab 50 98 12 60 77 6c 6a 17 b1 58 97 64 d0 72 7c b6 b8 5b 80 77 a2 60 62 44 83 64 5a 6c 56 63 6c 94 4b 43 6c a2 90 7e 66 65 5d 77 79 70 78 97 7a 63 69 86 1d 91 89 6b ac 81 75 99 85 94 66 8f 58 95 9a 56 a9 72 70 66 7b 77 83 76 75 86 8b 72 72 98 83 a6 8d 96 59 5b 67 86 9e 75 7c 6b 79 6a 80 8e a5 9a 8f 6c 88 6e 7d 7e 75 8f 81 6c 78 87 66 8e a0 73 9a 83 7a 9e 76 7b 6b 69 67 9e 66 61 9b 93 7e 64 85 8a 85 6a 71 5f 97 90 92 64 94 95 95 71 91 7f 74 72 77 73 6a 9b 70 74 74 74 88 83 94 86 a5 6c 7f 95 8c 7b 8c 84 a1 87 85 7c 82 a4 b6 79 46 80 78 a5 96 86 83 a4 88 87 77 87 90 7a 8d 81 8e 90 92 8d 88 8a 7c 69 84 9d 6a 79 2b 8e 7c 00 -1 52 90 46 6a 5b 6e 73 8f 66 8b 95 78 75 75 b1 8f aa 80 8e 89 bd db 6d 14 d6 62 5c 4d 8a 2e d0 7b 7c 38 e7 8a df 80 27 88 74 6f d4 93 89 55 81 5c 63 68 d2 61 8a 63 74 a6 7f 4e 58 25 6c 81 2c 35 -1 77 -1 a1 73 8b ed 7c 61 e5 c9 5b 8c c0 5c a9 6d 69 a2 7c 87 84 82 6e 7f 73 84 8d 79 9c a9 87 65 a6 8e 56 95 75 9a 64 4a 62 7f 91 68 90 8f 55 7a 49 76 8e 8d 74 4b 9d 6b a1 61 a2 6c 74 a2 d1 8d 66 92 a6 8c 78 7b 57 86 ae 90 6e 97 a0 86 52 5c 80 9f 74 75 78 8d 68 73 8a 81 93 71 63 97 89 8b 75 64 8a 7a 71 97 86 79 6b 66 82 81 6f 72 87 6d 95 85 81 70 8c 66 6d 86 78 92 8f 89 70 78 68 8b 8b 6c 6f 94 7e 99 95 8a 75 7d 8c 7f 8b 8a 7b 67 7e 9c 88 64 90 92 8f 8d 69 70 7e 98 6f 93 7c 85 a6 81 5d a8 54 6c 63 65 85 94 79 79 81 99 66 56 87 69 70 7e 8f 57 97 5f 79 66 96 61 7b a8 93 55 63 70 91 6e 6c ac 5e 8a a8 75 7e 78 7d 82 86 77 6b 93 6c 5a 38 69 89 30 92 77 a4 b3 74 36 7c 87 26 76 88 54 b8 8e 6c 8a 65 5d 63 7f 64 62 9d 6a 8d 74 63 67 66 b5 65 7d 84 83 7d b0 75 70 44 84 81 a3 61 8d 6f 64 7c 88 3d 4c 98 5f 38 98 73 ac 68 67 74 8c 7e 7f 59 76 80 7b 78 6a 3e 8b ae 80 8d af a5 a5 ae 44 73 81 6a 98 7a 84 6a 66 75 90 a8 a6 5a 8e 6d 89 82 90 66 76 53 7b 78 69 83 4f 70 56 7f 66 91 5d 8b 77 7a 64 77 7e 99 2c 9b 97 84 97 79 71 6f 8d 92 6b 66 66 68 81 98 98 6d 77 6f 85 91 6c 5d 88 60 7f 8d 79 7c 68 59 98 8e 7a 7b 76 70 63 79 7d 8a 8d 9a 5b 86 7c 8d 77 7c 86 6a 8c 89 83 71 97 79 65 94 96 66 74 73 6d 90 83 9d 8f 74 63 87 9f a6 6d 67 70 85 98 8b 76 66 67 6d 8b 9f 41 91 a7 8a 85 6b 6b 60 90 56 6c ab 82 92 7b 5f 6b 74 97 82 a2 6d 85 8a a3 62 36 13 77 89 79 45 86 87 7b 77 87 7b 56 90 96 5d 87 73 90 69 6a 9a aa d8 3c 49 ae 8e 5b 48 77 38 e8 67 67 6b c2 93 c4 58 2e 69 63 8e d0 7e 9c 90 87 8a 3d 8e d2 7b 68 64 72 6c 8b 61 87 30 66 88 1c 4e 5f 68 53 92 65 6c dd 99 75 de c0 60 f0 af 0a 99 6e 3d af 91 ad 8d af 86 b8 73 91 69 53 a7 b9 73 60 9a 97 71 a7 58 74 6e 5a 77 84 8d 8b 9e 9c 3c 74 44 74 6a 8d 6a 53 b2 45 9a 63 89 51 62 85 c0 0f 7e 21 c3 a4 86 89 61 8b c1 89 4f a7 ae 6f 79 5c 86 c2 a3 8f a6 7e 51 8c 97 71 4e 87 6c 8d 5b 6c 4c 83 6f a9 52 70 8a 94 77 96 65 69 74 8d 85 8e 68 88 83 95 8c 31 a2 8c 6e 68 98 4b 71 8f 9f 97 74 90 9c 43 69 a8 78 6e a3 83 59 8f 97 6c 71 72 6e 94 80 8f 99 83 9e 90 6c 62 72 88 66 6e 99 6f 83 8e 92 7b 68 95 70 7f 8d 97 8f 68 75 80 90 78 9a 8c 66 85 7e 8e 80 98 7c 8f 92 81 76 85 86 88 7f 79 9a 68 8e 84 8f 63 73 7c 7c 6a 78 73 86 77 9f 98 43 ad dc 2b 28 d2 8f 96 23 16 35 e2 65 65 8e b4 6d e0 5c 37 81 88 7d af 6e 7f 68 c6 44 98 4b d6 91 7e 67 67 a9 52 9a 62 52 3d 62 86 8d 24 82 16 d5 9d 88 c6 8b 76 c6 d2 2f b9 c6 16 69 33 8a d1 a1 89 3f a3 80 49 67 6b ad 6e 3c 39 90 87 b4 62 84 70 7b c2 84 89 67 60 71 80 9a 57 8e 76 89 44 82 65 66 ad 68 99 81 69 ba b6 72 9e be 39 88 49 81 8a 6a 48 90 6f 47 5b ac 7c 57 4e 92 81 8f 56 a6 89 a2 7d 5d 97 89 77 74 85 7b 9a 7f 69 63 8a 7a 9d 5e 55 7f 7f 6a 86 87 81 4b 9a 86 88 79 8e 6c 79 62 5f 7d 6f 7e 60 8c 69 72 76 8a 63 71 74 79 a2 72 95 76 5d ab 79 79 a2 93 6c 72 8c 4b 81 95 71 8d 6a 88 68 88 98 83 7f 8b 65 86 75 6f 95 65 67 90 7b 7f 82 8c 78 83 64 7e 9b 82 67 71 6d 66 8e 6d 84 7d 7c 69 64 8c 68 85 8d 9a 98 96 73 86 82 87 92 8a 66 84 7c 92 8c 68 71 90 74 78 8d 64 94 6e b1 87 63 7f 6c 7a 78 90 8e 82 7b 85 97 7a 76 7c 93 8d 66 92 93 7a 67 95 7f 9a 8c 7a 6d 92 6c 63 a8 86 7d 95 8e 59 8c 64 66 5a 3f 65 47 67 84 78 63 64 80 6e 79 75 63 83 95 92 83 9d 90 84 65 81 6f 96 64 6b 67 81 69 68 69 70 69 6b 97 94 5d 77 9e 89 90 83 8a 78 64 70 70 77 64 6a 82 93 73 8b 8f 9a 93 8d 76 5e 76 7b 56 2f 99 77 82 80 68 7e 7f 75 76 71 6a 7c 94 66 93 78 9b 91 85 58 70 9b 86 a3 6c 82 7c 88 63 a5 95 7b 89 7e 77 8d 6f 87 74 78 80 7f 7f 69 65 57 71 a0 74 97 7e 60 78 6f 88 92 82 72 6d 78 7e 86 61 39 6d 7d 79 72 78 8c 61 9c 63 78 8d 96 75 8e 7a 8f 6a 8c 9e 80 8b 7c 7f 68 73 6e 84 98 6e 6e 84 93 78 74 7f 8b 8f a8 4a 7d 7e 90 84 75 8b 73 69 75 89 80 96 6b 63 62 83 74 85 6e 83 56 70 6d 7c 79 39 92 3f 8d a8 7e 88 9c 87 67 71 a7 84 87 69 7c 6e 74 6f 81 8e 70 a0 7a 71 72 87 76 6f 71 85 73 62 72 86 97 91 83 6f 61 64 88 99 5f 92 5a 82 82 97 74 9a 7b 71 99 82 6d 9a 93 62 74 83 72 8c 79 74 6d 61 74 59 70 67 88 61 77 69 73 7e 91 99 75 85 8b 7b 75 89 72 91 62 92 68 72 83 65 6e 7a 67 87 80 71 96 78 91 66 90 68 6f 97 61 76 78 81 6c 71 a5 71 97 70 6a 77 71 70 6e 60 97 7e 7c 70 76 8f 78 6c 99 6b 63 67 82 66 7b 78 6c 64 77 72 99 95 80 75 94 7f 75 9c 9d 9a 88 5e 91 85 98 9f 77 65 97 6d 62 92 8d 9a 70 75 7c 8f 7a 89 9c 73 60 81 7f 96 8e 89 65 85 7c 72 9a 88 98 86 72 7c 89 73 6f 6d 8c 7b 8f 81 8e 87 76 8a 70 5c 8a 72 7c 7f 6e 94 89 6e 4c 97 9b 58 68 8c a8 95 8f 4a 7f 69 56 90 a5 45 9b 8f 72 53 67 51 64 78 82 60 98 89 b9 65 60 72 68 77 74 ab 67 73 7d b3 76 66 7d 99 5f 9e 5f 7f 61 87 b7 6b 28 3a a5 63 4d 9e a2 9e 86 4d 78 82 9c 8f 65 80 81 8c 97 80 86 8e 78 5b 8f 7f 73 94 87 8f 64 77 6a 9b 82 66 75 87 7b 93 70 75 63 6c 90 8b 98 7e 75 7a 92 65 88 ab 9c 6e 5d 78 97 8c 80 92 81 83 74 98 80 7c 9f 64 7e 64 63 91 9e 88 95 59 94 99 60 8f 7f 83 6a 9e 54 66 4e 8c 93 90 66 86 88 62 6a 7d 61 7d 5b 90 81 68 95 a7 67 91 8b 38 a0 94 8a 66 90 74 62 8a 7a 96 68 7a 98 91 77 99 8c 8a 90 8f 7c 8e 85 62 7d 8d 4e 8c 60 7a 70 74 90 82 91 71 75 6a 7b 67 96 82 bf 68 6a aa 5d a4 6c 88 8d 73 5c 93 7c 9f 64 86 6c 7e 74 7d 71 6a 8e 55 98 80 8d 8c 63 b2 a8 61 75 53 a7 84 8e 87 85 64 78 7a 88 5f 85 7a 87 48 8e b1 98 7c a9 76 8c 60 68 76 92 9e 97 95 52 68 63 a1 8e 89 77 5a 6f 44 96 92 66 83 75 74 96 92 a2 87 6b 64 79 27 66 98 60 8d 11 67 6f 3d 5e 03 76 -1 72 c5 87 ce 8a 5d 97 9d 8b ad a2 62 85 99 7e 62 8a 84 48 82 89 6e 93 96 a2 66 4d 5f 79 7b 98 88 99 51 bb 81 8b 8b 66 7e 80 67 5e 76 71 81 99 77 6f 7a 82 b6 5d 8d 62 9a 84 b4 66 8d 93 96 78 63 6c c0 8e 73 79 66 48 47 b3 42 50 76 87 7c 46 6a 61 82 8b 73 a4 a0 8a 67 65 59 6c 85 88 7f 31 7f 8c 98 78 9f 71 74 90 93 77 66 81 89 75 96 4d 83 62 7e 67 a0 83 68 87 8c 87 74 7c 61 80 a9 81 a6 6b 6c 7b 8e 8b 6e a7 8d 66 9c 96 78 94 8e 30 83 96 7c 7f 57 70 b7 68 80 78 4f 66 9e 93 83 97 6f 51 aa 58 9a 81 78 77 8d 8a 73 84 8a 51 64 56 85 7a 64 95 59 95 6a 97 88 a7 82 87 a8 87 9d 83 a2 8e 92 8f 94 64 61 94 a2 7b 90 a2 67 66 6e 38 82 6b 74 8a 86 79 81 7d 7f 6d 74 43 8f 64 60 75 91 76 b0 72 4c 8e 4e 74 7e 61 72 69 8f 68 6c 7d 70 8f 97 79 4e 62 8c 77 89 87 75 66 90 7c 3a 87 5c a2 85 67 a1 7a 94 73 93 71 96 8b 4c 8b 7a 46 8b 65 95 8e ad 86 5d 72 5b 96 74 a6 66 8d 85 68 6f 7f 78 89 80 6b 77 87 82 90 81 68 7b 71 6d 8b 9c 66 79 81 80 6c 9d 91 7a 67 76 8f 8a 76 65 79 89 62 70 84 7c 80 79 63 5e 8e 61 9a a5 6a 8c 9f 7b a1 91 9b 55 38 8a 66 76 71 83 -1 87 8f 7d 69 d0 b1 90 c4 54 6c 7c 94 97 81 90 8a 87 a9 6e 9c 98 86 7b 93 9d 66 a7 55 90 38 67 78 56 3d 42 73 4c 6e ba 6e aa 81 7c a5 90 84 9a 88 1e 96 9d 66 77 70 7c 73 85 5c 4d 6e 87 8d 3c 4d 52 80 7f a9 7c 69 87 65 ab 68 a3 83 59 90 6c 94 9c 3e 6c 7a 6b 66 6a 70 7c a7 66 ae 76 d5 ad 7a aa c8 5b 83 8c 97 93 70 4b 88 8d 4b 40 a9 76 75 7b 81 59 8f 6f 89 86 79 83 91 86 72 76 82 7a 7d 73 89 83 69 84 8d 88 66 76 6e 83 62 8e 6c 68 5f 8d 78 78 96 93 60 69 8d 67 89 89 9a 8a 5d 96 62 a2 76 73 7b 56 6d 64 7a 65 8f 8a 92 8e 77 75 7e 78 9d 77 85 68 90 94 72 83 23 8b 87 78 5e 86 49 7c 58 6a 66 8a 98 95 a3 39 67 a4 6f 87 90 5c 5c 72 73 7e a7 7c 97 95 6c 91 7d 97 4d 72 84 91 6e 74 79 47 5b 73 8d 94 88 85 8f 60 7c 7c 8a 76 7e -1 8c 9f 8f 78 66 9d 7f 61 c0 b0 80 8e 5b 46 70 98 52 84 9c 35 3a a6 2d b1 80 a7 7a 9b 84 6f 65 ac 6a 69 2d 7e 97 98 7b 60 c1 3f b6 69 bf 6b 92 7b a1 b2 6c 9d 7e 91 88 67 3c 72 b0 8e 63 6e 91 8d 66 47 5e c8 75 6f 90 50 66 83 6a 78 93 5b 70 8a 9a 6e 86 7e 83 95 9c 92 64 78 73 a4 6c 76 78 8e 8a 8b 6e 77 62 68 82 aa 6c 9c 94 6f 7b 7b 88 5c 74 92 77 ab 92 72 87 66 90 64 78 87 91 7f 81 6c 80 95 6b 90 76 92 8f 70 6f 90 92 85 90 7b 66 76 72 79 74 73 6e 6c 7f 97 73 62 93 83 81 6c 74 8e 8a 5d 7b 99 66 81 6e 65 92 96 a2 8b 8d 86 6b 71 7b 7a 8f 89 84 7a 62 8e 76 88 89 98 91 5d 96 7e 85 87 98 7f 6a 60 56 8d 81 74 63 81 a1 b1 88 4a 4c 7d 39 6b 81 5c 94 a0 75 84 67 82 6b 93 85 5a aa 85 a3 86 64 84 86 64 65 a9 72 7a 78 81 89 72 79 7e 7a 7d 57 7b 90 72 94 81 46 67 90 58 50 7a 70 ab 64 75 7c a0 7e 6a 53 a2 77 6e 67 88 55 7e 56 5f 3f 9a 7f 9e 4c 38 7a 7c 6a 9c 7e 70 73 9a 62 81 62 9c 6c 60 8c 55 68 91 99 93 95 61 74 8b a1 7f 8b 8e ae 43 77 8e 70 6d 8b 7f 7d a6 b0 57 61 8b 79 78 6a 6a 7c 8d 7a a0 5e 5a 9b 87 8a 67 58 83 64 81 81 66 9a 91 72 70 8a 68 6e 7e 56 7d 89 8a 9b 96 78 8c 92 6b 95 77 8f 71 74 92 88 8c 80 81 69 95 87 61 61 72 8b 71 7f 83 9a 7a 78 75 96 91 47 6a 80 77 79 9e a7 8c 8a 6e 92 73 84 7f 7e 8e 86 6c 96 61 6c 8d 7f 78 68 7f 94 80 8d 7c 9c 71 71 78 8d 7c 78 96 7f 71 7d 8b 60 82 63 65 65 8b 7e 95 7d 7e 61 7f 91 91 86 88 9f 8c 65 90 95 98 52 8c 97 8f 8a 85 69 78 61 9a 74 a8 49 75 a3 71 56 8c 82 91 89 70 8e 7a 8e 6b 84 73 98 6a 88 8d 92 6d 7d 68 75 85 7d 7d 89 69 86 8b 7d 7b 85 9d 81 73 7b 82 76 85 4b 8c 91 73 75 8a 70 43 9a 65 70 61 63 8f 71 68 81 91 92 98 73 8d 6d 92 71 7a 99 7d 63 75 66 82 67 92 8b 68 7e 95 76 63 91 89 6c 72 88 7f 7a 75 8f 83 9b 85 82 7e 7c 68 66 85 9a 7f 97 6b 82 84 7f 65 91 80 7d 97 84 71 95 8f 98 8e 8e 63 7e 7f 72 71 7d 89 96 8b 8b 91 87 8e 7e 8b 89 74 84 6e 7f 75 63 93 8b 77 87 70 7b 8a 70 74 76 93 84 83 86 72 95 68 87 65 8d 80 8b 71 87 75 86 87 79 80 77 75 72 71 72 89 93 8f 6a 95 79 8d 3a a6 d0 34 6a 90 91 87 4e 90 5f 7f bc 78 a1 e3 a0 91 b1 1d 79 78 6c c1 8b 87 87 7b 80 91 ba dd 81 7c 68 b4 65 a2 49 90 07 66 7b 07 -1 0e 79 1c 79 77 78 76 7e 65 b8 98 8e c8 a2 0c b4 a1 75 85 