33 88 53 6d 61 5b 72 79 8c 67 96 68 75 5d 72 8e 82 63 8f 88 83 70 86 92 6b 8b 87 5d 71 98 77 9c 86 92 90 70 78 9a 8c a5 86 8a 74 88 70 86 87 88 85 a6 9b 79 79 5b 6f 7a 73 9d 73 ac 71 87 82 68 87 65 a4 91 6c 6e 7b 79 8a 64 6c 83 64 6a 88 7f 90 66 9d 6e 68 88 79 8a 8d 9c 8a a4 98 8b 88 86 7b 74 98 85 78 8c 6c 5c a1 72 95 64 84 75 6b 8f 89 7c 56 6c 9f 80 85 78 67 9a 7e 90 51 9b 75 76 71 64 69 6e 75 a0 53 7b 77 90 72 5e 67 80 77 6b 66 87 8b 76 6c 74 8f 7f 6a 66 8c 8a 89 69 92 92 5d 94 71 9e 84 85 86 8d 6c 9c 8a 71 8c 81 84 6b 7e 8b 94 77 90 76 84 7c 54 92 7d 69 6c 86 9c 87 62 8a 92 7d 91 81 73 5a 83 6a 76 87 95 8c 8f 85 94 77 71 7c 7f 92 90 99 7d 91 a0 90 94 9d 6d 62 85 93 95 7e 85 7a 91 87 a0 74 ad 86 7d 94 71 5b 99 82 8c 50 7b 6e 94 7f 7d 91 94 9b 86 6e 7b 76 75 80 73 6b 7d 9a 49 71 66 94 83 5a 74 99 94 7b 95 86 94 77 83 97 73 8b 73 96 6b 97 6a 87 7d 91 92 88 68 87 69 7d 6b 96 5c 99 64 7b 6e 5e 74 6e 88 a0 97 66 72 75 5d 87 87 76 91 92 7a 7e 77 8f 8d 9d 70 65 7c 86 85 93 81 79 8c 7b 86 82 90 6c 91 84 97 82 5e 7b 64 60 a7 6b 56 95 a1 79 5c 5c 91 73 7f 82 8b 69 64 60 6b 8b 68 6e 6a 92 7d 6a 7b 7e 8a 8a 7e 8e 84 9c 9b 6e a1 90 9a 89 94 5b 94 91 5d 65 65 6a 76 6e 9a 8e 87 79 62 70 8b 6c 6c 6d 94 7b 7e 9c 75 65 67 83 70 73 8a a8 a1 75 78 71 8d 54 70 7a 9f 93 8e 85 80 80 96 62 90 92 73 89 78 6e 7d 92 88 88 7a a5 6b 8f 79 7b 87 7c 73 89 95 89 82 9c 73 9e 88 7d 69 9f 93 98 82 8d 64 9b 8c 7d 67 65 6d 6c 64 8a 7a 76 65 86 96 87 87 86 76 68 77 79 98 5c 7f 8c 72 9a 83 9d 5e 76 9d 63 8e 47 86 85 70 7e 91 69 9e 81 81 80 9d 9b 86 87 50 7e 71 83 53 76 65 75 9a 6b 9b 74 95 74 68 82 6e 70 65 9f 67 75 90 7c 7e 7c 9f 84 90 7f 86 98 99 6c 90 9d 5d 5d 63 6f 90 94 5d 50 7e 6d 7c 84 6f 64 5d 8f 5e 8d 85 93 71 8a 73 7d 72 88 9d 54 89 7f 8e 77 9d 62 64 8a 81 91 97 9b 89 7b 75 6c 76 66 5a 68 72 8f 9d 77 84 93 88 82 5e 85 8d 7c 8b 8a 8f 9c 75 79 95 99 61 6b 6a 78 74 97 72 67 7b 76 7a 90 a0 8c 71 6e 98 93 86 8e 7f 85 6a 64 7b 64 8f 8a 7f 58 76 9f 6b 81 86 8c 62 86 8f 6f 8b 67 71 92 9e 65 76 56 6c 6d 67 89 82 64 71 65 6f 7e 85 81 73 8e 79 6e 7b 5d 8d a1 7c 74 83 96 7f 88 ad 81 b0 6f 63 94 72 89 60 6c 63 83 74 5c 9d 5f 69 78 63 8c 80 57 88 81 84 6b 5d 8f 98 9c 60 76 9b 76 61 73 90 61 59 93 66 7a 83 7e 83 95 7c 77 76 7b 7f 7e 65 8d 8a 5d 84 92 a1 5f 60 73 91 6c 78 79 86 76 8e 7a 79 8e 85 5d 58 58 98 9c 8a 86 a8 6f 7d 85 98 82 67 68 90 51 84 9e 6a 92 6f 71 62 9d 89 90 59 68 80 5f a0 90 6a 8a 69 99 93 72 82 93 81 b2 76 82 7c 6e 7e 6d 65 83 98 7b 7e 87 83 99 76 7d a0 6c 57 89 9a 91 99 63 9e 91 7a 84 84 85 7f 61 7f 69 85 84 82 8e 9e 82 83 7e 84 80 61 8f 5f 7f 75 92 7c 79 4a 9a 83 93 65 92 4e 84 a9 7d 81 66 7b 5b 72 97 91 66 6d 70 71 67 61 89 83 9f 6a a4 81 95 7e 9a a9 8e 8d 80 87 5f 57 58 5e 76 61 69 73 9c 93 81 74 79 69 a0 9a 92 90 87 9d 6b 91 8f 8c 59 7c 86 74 92 7a 91 64 86 9e 69 69 66 63 69 74 62 79 7b 8b 7c 54 66 6b 7c 79 65 69 8d 86 5f 92 7e 92 82 96 71 55 9f 7c 60 79 7d 99 92 5b 90 67 63 99 93 8e 82 81 84 7f 73 74 54 7e 97 8b 5f 6d 61 83 93 8e 7a 9a 5d 6c 93 6b 8b 7d 8d 86 82 7a a7 48 7a 67 6d 6e 6b 59 7d 94 9d a4 86 76 8f 8b b5 6e 99 70 87 77 84 97 95 72 8a 85 78 8f 89 9b 6e 61 85 6d 94 81 6b 88 93 7f 85 57 6d 83 90 99 75 98 6e 70 5d 7b 7d 96 78 7e 51 9b 6b 71 51 5e 6d 64 8b 88 68 83 89 74 94 76 89 66 7b 8c 71 64 9c 8a 7c 68 7d 79 91 69 67 76 91 78 8b 99 89 9e 90 6c 86 7c 7a 5e 87 88 78 76 7b 8d 75 91 94 7a 87 83 88 78 8e 65 93 a4 6f 64 6e 7d 73 93 9d 8d 75 88 90 7f 7e 7b 86 6f 70 86 69 7c 6b 83 91 93 72 64 8a 66 84 87 9f 5d 70 66 7e 7b 6c 5e 88 94 99 92 7b 62 a1 8a 80 8d 9e 6f 6a 82 57 8d 86 8e 71 a0 54 95 79 6e 9a 92 91 55 61 75 96 90 7d 74 5d 79 76 58 7d 7d 77 6c 83 6b 68 70 a1 6d 5e 85 8e 88 8b 72 7f 6a 96 64 7f 86 9c 9d 5f 89 79 6e 79 77 90 79 65 8f 7e 7d 64 7b 8c 95 82 7b 99 a3 92 6e 75 8d 88 83 67 6c 67 64 86 95 7d 9a 7e 9c 88 7f a1 6b 91 84 98 57 67 97 38 8d 96 60 5d 60 6e 91 7b a1 3f 6b 83 93 7d 84 66 72 79 9d 67 7e 93 95 90 95 6b 82 69 8d a0 91 95 7a 91 ab 92 a3 5a 7e 7c 7c 8b 67 7b 80 7a 8c 7f 7e 95 5b a5 99 81 a0 7b 85 6e 74 7f 94 78 9b 69 a5 6c 7f 8a a6 68 78 78 9c 9b 76 93 5f 8d 92 95 6b 6b 9c 70 a5 6d 54 83 7d 6b 80 86 87 97 91 71 6f 9b 89 65 a8 6f 5b 78 64 71 76 75 69 8b 6c 94 71 87 9e 85 8e 97 98 66 91 8c 67 85 79 90 7f 7a 64 5f 72 6d 6a 84 76 6d 8b 81 7d 7a 9b 75 76 98 82 91 72 9f 71 7e 85 8c 8b 76 9e 63 78 63 7a 6f 8d 89 8d 7f 99 71 7a 6b 1c a6 89 7f 66 9c 7d 7c 71 65 85 85 7b 86 74 7b 73 a2 6b 7f 63 67 6e 80 96 8f 9b 7e 70 7e 9f b0 94 8b 76 6d 79 69 6a 8c 41 9e 68 7c 95 9d 89 8c 71 8d 71 59 7c 90 90 6a 8f 91 76 8f 84 72 7c 71 84 5b 85 8f 96 5d 74 8b 75 92 80 8c 81 6a 87 6e 5a 8c 81 8f 68 61 79 61 8b 9f 6e 7c 65 75 8a 8a 65 75 72 94 68 6f 7a 8e 94 70 7f 9a 84 76 85 8a 68 73 9a 6c 7d 98 8d a4 90 97 66 99 74 73 78 78 76 85 83 8a 5b 74 87 a0 8a 7b 61 7c 9e 8e 84 89 5a 92 83 73 68 78 58 8b 67 82 71 73 7b 55 90 86 92 93 7a 6c 47 99 8d 9b 71 6e 8f 7c 8a 81 86 7a 87 6c 81 94 96 75 97 7a 7c 6b 70 69 95 82 7a 66 78 79 9a 87 92 82 82 59 8a 8d 7d 7d a1 9f 60 84 8b 51 7f 8e 6a 7f 80 8a 60 71 88 88 a3 74 7d 9a 9b 90 57 5b 98 89 98 61 7c 84 82 86 68 80 78 97 79 77 74 65 60 90 95 b1 90 8c 90 90 96 90 9e 80 72 6a 74 91 82 91 50 7b 83 78 80 8d 88 6b 7f 85 72 74 70 6d 89 78 79 9a 71 70 8c 96 8a 95 9e 86 99 89 9e 5c 5e 85 a0 62 68 8d 87 8a 8d 5d 8f 88 7f 85 83 75 64 59 7a 84 6e 85 76 97 71 8b 7d 83 78 7d 9d 8f 77 71 64 80 9c 8a 8d 67 86 8b 80 86 9b 8f 88 65 8c 96 5e 98 5f 6e 82 54 77 88 8c 57 7b 71 6d 68 6a 7e 8c 9e 8a 73 46 89 6a 83 6c 67 7d 84 72 7e 66 8e 89 5d 64 86 93 66 76 7f 6f 82 77 5d 7e 7d 8f 92 94 99 6c 7d 80 70 8f 83 57 80 78 84 a1 88 6a 92 75 7b 48 8c 69 a0 78 77 82 75 87 74 ab 78 6e 81 63 7a 70 7f 9b 79 9d 7b 74 69 8c 92 94 a2 67 88 7d 8e 7a 7a 7a 90 73 95 84 8a 7b 98 80 94 65 62 6b 99 80 88 99 66 6e 94 73 90 94 6e 94 6b a5 75 8e 98 81 95 78 9a 7a 90 6c 62 8e 59 72 84 6a 6d 74 8d 89 95 83 76 97 71 99 8f 78 5d 85 98 91 7c 72 81 7e 8a 67 90 91 8e 8b 72 81 65 94 8b 85 88 95 7a 96 82 88 97 57 95 7d 9e 90 69 76 6e 6e 93 8e 8f 9c 83 7a 9c 6d 78 66 6b 93 55 90 89 6c a6 9b 5b 97 68 8f 9f a5 86 6b 94 5e 8e 6c 98 96 7b 72 59 71 7f 81 7b 6e 73 8a 55 6d 63 6f 91 94 69 72 9e 67 8c 93 88 63 71 68 89 79 77 6c 90 7c 92 8c 95 53 87 89 59 60 92 9d 63 91 59 8f 76 8b 5f 99 82 6d 83 b2 70 7e 85 68 71 70 89 9e 70 80 a0 95 76 58 89 5a 67 65 69 80 90 81 5a 8d 68 9d 86 8f 6c 62 8a 87 77 7d 91 75 7a 94 5b 76 5b 89 93 6b 6d 57 8c 7e 97 79 64 72 71 6e 68 81 52 85 65 68 78 6e 6d 97 76 6b 94 8b 76 72 99 80 7c 90 69 82 96 78 85 70 88 5f 6a 94 83 56 71 77 80 6a 79 86 9b 82 6a 99 6d 5e 86 5c 9c 7c 8c 9e 5d 95 99 7d 6c 49 9f 76 8e 78 5f 72 94 6e 91 51 62 59 61 70 97 6f 93 82 7e 78 87 93 6e a3 8c a2 7c 9d 7d 7e 87 74 86 78 88 75 8b 86 8a a3 6a 7e 7e 88 85 6c 97 7d af 9c 6a 7d 8a 89 6f 68 88 5d 67 93 84 5b 95 7f 9a 7b 63 93 6e 8a 7e 5b 92 77 79 69 9d 8e ad 6b 5b 6b 62 71 6d 74 80 80 7d 70 64 71 75 a0 7d 71 78 5a 63 60 66 81 7e 88 94 67 87 8b 6c a0 8d 98 7c 77 8e 8e 82 75 92 a7 61 75 92 9a 87 77 81 98 97 90 86 97 5c 8f 8e 9c 61 72 93 8f 6f 92 6d 86 86 64 8f 74 8d 6d 97 8b 8f 83 75 91 83 6d 7e 96 99 97 50 5b 93 61 6d 6b 59 8e 7b 5f 6b 5a 74 64 87 83 7a 7c 69 8a 93 66 61 8f 96 58 82 7c 73 93 7e 8f 69 6f 92 6b 84 8c 4a a2 9b 87 8a 6e 6d 5b 5b 64 81 87 83 9f 66 58 79 90 68 97 7c 95 89 70 73 88 5f 7d 97 63 84 85 9a 84 6f 7c a3 92 82 89 6e 9f 80 87 65 40 5f 8c 96 90 61 90 62 8a 99 7a 7b 77 6a 62 67 61 82 86 78 8e 5d 84 87 92 a4 8e ae 94 9a 6a 89 66 90 69 5d 9a 62 73 77 8d 8e 92 84 9b 61 81 64 6e 9d 74 92 a2 75 6f 63 8e 75 72 82 94 77 7d 71 a4 79 7f 72 90 84 7c 73 5b 73 7d 93 66 57 5f 61 6c 93 91 6b a1 56 67 84 96 4c 6b 70 90 74 92 60 89 70 67 89 7b 66 74 9b 78 63 6e 88 85 73 73 70 8f 7e 3c 66 89 89 6f 85 93 90 8f 95 83 72 90 80 75 91 61 5c 9e 7b 83 94 9b 7f 63 63 8f 95 75 78 a3 6a 6e 88 5c 57 80 56 98 70 69 77 8d 58 79 7e 9d 92 8e 91 71 9c 98 7e 84 69 81 88 67 5f 56 70 79 a2 87 81 73 54 72 68 4b 5f 74 70 69 9a 7b 82 8c 76 7c 74 8f 6f 7d 8b 68 93 7a 89 94 87 96 70 75 69 88 79 6f 73 52 9e 8e 5e 71 7f a9 8a 8a 90 69 78 98 6a 89 57 7f 6d 6d 90 97 70 7e 60 60 8e 93 7f 7f 61 6f 6c 8f 8a 93 61 88 9d a1 8d 8d 86 92 71 90 90 9b 89 9a 6c 82 79 5c 7e 6a 73 98 7b 7b 67 8b 95 75 82 89 8b 84 83 5e 74 6b 6b 86 84 7b 89 a8 63 55 59 79 92 83 91 62 98 83 79 ad 6f 99 87 7f 85 82 97 72 8d 5b 91 78 93 87 67 79 7c 83 67 8d 9c a4 7a 65 76 89 9e 83 85 7f 6f 8b 8d 73 86 76 7e 60 85 75 96 67 89 a0 81 89 75 8d 76 66 6a 8e 64 85 74 7f 7c 8f 61 84 7c 8f 7b 82 8f 90 a3 64 89 9b 92 7a 9f 6d 99 6a 96 65 7b 8f 77 7a 92 a3 76 8d 70 97 5e 86 85 81 86 63 81 8b 58 94 83 82 84 8a 97 6e 90 89 63 8b 89 90 83 71 63 a3 92 79 64 79 8c 86 85 a0 7b 75 76 86 72 97 68 7c 92 53 9b 8d 70 92 8b 6d 6f 99 86 67 7e 8d 82 99 70 5e a4 6c 6d 98 81 71 5a 6a 6f 73 75 92 8f 69 6c 6f 5e 56 59 99 7a 9b 8a 80 7e 75 63 80 8d 6a 62 94 4b 75 8a 92 9b 92 54 9d 8b 83 82 82 5b 7c 60 93 82 79 93 85 82 87 6d 71 8c 5c 62 7a 88 98 86 92 79 9b 72 68 82 8c 86 80 75 84 60 8d 57 98 70 6b 9c 71 a0 88 61 7b 73 a9 96 71 68 69 9f 7c 82 6b aa 7e 86 83 9a 87 91 a1 75 76 78 94 81 66 60 58 76 97 59 93 94 74 6a 81 8a 61 7f 6a 7a 59 8f 76 83 a8 96 a1 7d 77 73 74 6e 93 7d 97 7a 82 58 7f 76 88 7b 76 70 83 9e 84 73 9f 78 71 62 89 83 9a 90 83 80 61 96 64 8b 7f 68 89 9f 71 65 6f 81 5e 67 5e 6f 62 9a 48 91 8e 96 9c 7d 7c 69 8b 65 4b 52 79 9a 6b 98 98 63 6d 82 6c 78 81 68 8f a3 73 7b a1 72 75 77 7e 81 7a 7f 73 94 7c 7b 8d 79 80 8d 67 6f a6 77 69 71 5f 6f 79 6f 5c 87 6d 90 93 81 90 74 56 8e 90 6f 76 93 5c 7d 7e 89 57 7b 6a 7c 5d 4d a2 87 79 7e 81 76 64 55 77 4f 6f 65 56 9a 83 72 83 8e 8b 80 9b 86 66 7f 69 5e 98 98 7b 8b 5f 74 8f 6c 8f 94 77 79 69 a1 9e 73 7e 7c 8a 8d 76 60 97 78 6c 9b 8c 63 8a 56 87 6d 70 9d 61 94 70 98 6f a1 70 61 86 80 6b 95 89 87 7f 9e 78 92 86 53 a3 7c 54 8c 82 7d 5d 97 83 58 91 7c 5d 4e 7b 71 54 84 85 76 5b 6b 6d 86 8c 5e 72 78 6f 8c 65 6a 92 88 95 6b 8d 75 92 8b 94 74 8e 76 8b 91 6b 8d 61 90 9a 70 79 96 8c 6c 9b 89 66 71 76 91 6f 6e 6a 78 76 89 7e 7d 59 99 64 94 89 79 91 82 57 85 66 97 90 42 71 61 a8 6a 60 84 7e 74 75 77 9a 72 58 79 6f 72 7a 7a 74 7e 9c 7e 85 87 70 76 83 8d 62 7e 8d 74 89 87 8e 70 8a 60 7c 94 82 a8 5c 7b 85 73 7b 86 70 76 6e 68 7a 9e 59 a3 94 90 72 87 85 6a 72 99 95 94 75 80 50 6d 90 7b a6 69 5e 90 80 8f 8e 88 71 4f 9d 83 6a 9c 96 6a 7c 81 77 80 58 7a 80 7c 54 9e 61 7e 8a 88 78 7f 7b 5f 5c 90 76 52 5b 60 6b 4f 77 79 88 67 9c 93 62 74 8d 76 60 8b 6e 71 73 92 9a 84 76 92 8a 5d 86 5f 99 9f 88 87 76 4e 81 69 7d 88 68 84 87 70 68 7f 80 3d 68 91 4c 67 97 66 96 6c 8b 81 91 74 92 58 70 96 99 52 74 90 8d 77 5c 53 8b 71 5d 75 67 97 87 66 79 85 89 9f 8c 59 8a 90 79 86 99 8c 65 82 85 9c 7f 71 9c 73 94 80 9a 62 72 5f 5a 6b 73 89 ac 5e 9d 92 77 9d 81 90 93 65 88 91 67 71 96 86 89 7a 77 97 80 81 61 7e 97 9f 83 82 65 7c 84 93 78 84 5b 8a 9a 84 98 92 66 a0 82 81 5f 84 76 98 6c 87 91 70 9e 6b 82 86 80 78 6a 60 a7 9c a3 7c 6f a3 8f 79 74 97 77 86 67 4f 67 4b 6d 78 82 55 9c 79 90 76 93 6e 66 8e 8c 8b 77 70 62 8e 75 62 88 53 95 8f 85 6b 70 83 88 74 89 73 61 6e 89 8f 8f 6d 82 90 50 72 85 68 69 7a 8f 6e 55 a0 73 84 5f 9c 71 8e 9b 82 4f 87 82 96 91 a1 6d 90 92 8a 71 83 6e ad 79 85 5f ab 5a 6f 8c 71 70 92 81 6f 5e 78 96 8e 7e 55 a6 70 8b 5c 85 a2 97 9a 87 98 69 58 8a 76 9f 93 8b 8b 94 51 8d 82 92 92 99 80 91 6d 78 9a 6e 6a 82 80 64 89 6e 91 8e 8b 64 6f 87 90 80 8d 69 66 92 61 6e 76 85 4b 56 93 89 82 6d 90 7a 6f 6a 7a 8e 91 94 8a 88 7c 48 9d 9c 59 7e 6a 67 93 73 72 68 6b 60 98 67 66 72 7c 6f 95 92 3f 70 89 7b 94 77 69 76 9b 7c 59 68 8d 72 97 67 80 73 6b 90 97 9d 88 96 8a 99 90 80 82 7e 7b 98 94 79 7d 81 83 73 76 84 72 73 89 63 7a 95 88 9f 60 74 6a a4 97 7f 59 4d 84 65 94 71 a4 71 80 85 79 6d 73 8d 90 98 7d 8b 81 9a 77 97 81 6d 82 94 5a 76 86 76 82 4f 84 7d a4 69 4d 6e 93 8d 74 6e 91 71 6a 81 56 a7 79 81 6f 6f 97 92 9b 4a 6b 9e 90 7b 85 6e 6a 8f 8b 71 78 55 90 74 7b 86 8f 7f 6d 8b 67 60 78 7f 6d 70 9c 83 6d 8e 70 77 5d a0 98 96 3f 85 88 84 3d 72 99 98 60 75 70 94 a6 74 83 70 81 79 7f 6d 8d 85 8a 69 90 6e 56 80 96 97 77 9b 8e 77 93 80 79 8b 78 8d 78 93 77 60 5b 7c 5d 7d 73 75 a2 80 6f 76 75 81 8c 65 97 6e 68 6e 6f 71 7b 81 87 3f 69 87 9c 6d a1 7a 75 88 74 aa 9c 7c 84 7d 8f 99 86 9b 97 8f 71 89 5e 68 5d 8a 82 85 59 82 77 83 81 77 83 9e 7c 83 7a 93 6e 67 7c 80 84 6b 70 91 83 8f 63 63 8d 80 74 69 96 86 8f a3 6f 8d 91 62 8d 81 90 71 9c 9e 98 85 66 7f 92 8a 74 9c 84 95 95 86 86 9b 7e 90 6c 88 76 76 66 9c 5e 65 8e 95 92 76 a9 83 95 9a 7a 53 58 8d 8d 7e 6e 8a 99 6b 94 70 80 95 7e 8d 74 76 6b 6a 94 