c9 eb e0 ee f1 10 e4 12 02 35 ff 16 c8 cd 1a 16 e7 0c 01 ea 16 13 ed f3 12 0c f8 0c 13 25 14 00 0e 05 d1 2e 17 da f0 06 16 cd c4 07 dd f4 ed d3 13 fb 3c 41 32 f2 da 2b 3a 07 e6 11 ed e8 46 13 e1 f8 bb 9a 48 ce e8 09 d5 6a 05 fe 18 cb cd a3 0f f2 75 d4 01 2e 30 cc 36 0f c7 12 1c 3b 49 fc ff 21 9f 4e 5e cf f7 05 13 dd d2 1d bc dd e1 f0 65 f8 43 f4 39 c4 c2 4d 47 09 05 db 15 d6 c0 12 e0 d0 e1 fb f7 dd 0e d7 e6 a4 1b 0d 99 fc 08 27 e3 1d e7 cb 4f 47 35 d8 4d 48 d9 fc 35 58 c9 f6 4c a6 ad 45 4c 1c 96 0f 21 00 e7 07 f5 03 e9 b6 13 f5 16 21 15 cf f0 40 f9 81 04 cc eb da e8 0e f9 02 0c f9 02 f3 f1 db 19 fa 1d e7 2e e3 ea ef 16 24 38 e0 ec e4 00 f1 2c f9 f9 e5 f9 13 e6 e2 e8 ed f5 10 1c 18 16 ed 02 f4 f9 b8 1b f0 f3 0f 1b e8 0b d1 0c 0a f3 f4 07 e8 f8 00 0e ed 13 de f1 11 01 11 11 07 fd f5 e1 f5 f7 f0 e8 18 e0 00 04 e8 d8 00 e2 ed f4 09 e8 03 13 ff e5 f4 0d fe f9 13 01 05 f6 f8 03 e8 0d 04 1f 0a f1 17 02 0e ff fe f4 08 11 f6 14 f1 ee 0b ec 02 de 08 0d d4 04 cf db df 24 f0 fd ae 0b f0 f1 d5 ee cf 01 13 fb 0d 00 00 d1 13 f9 e0 1c 21 f1 ec 26 1d f5 fa 2d e3 f4 0f 22 fa ec f9 f2 f3 e4 f4 ce 12 c9 03 43 f5 1b c1 20 ce de 3a 1e fc eb db f2 07 e3 17 0a 01 f7 1e 07 ff 0a 14 0d e9 01 10 fc 0b 01 08 f8 f8 e3 fa f9 09 fe f8 ef e7 ee e5 00 fd 0f e5 e0 fa 1a 18 ce f8 f7 e9 e1 0e 19 03 f3 f5 1a 03 e8 f5 03 1a ed 17 04 ed 04 e6 ee f6 ee 09 c4 db c6 d6 fe b4 1e ab da 2d 1d f7 f4 f7 20 09 2b c7 e6 ed 12 e7 c4 18 04 f2 1d 0a ec 03 0d 06 20 ef 0a 0a dc f9 0e e0 28 e5 ee 04 da 36 d6 f2 ec 06 13 14 05 0a 08 f0 00 ff ff fc 07 c4 0f 17 04 16 07 1c fd 07 05 03 07 02 11 06 eb 19 1a 03 0f 0f 11 f1 f2 05 17 ed f0 fd 00 0e 08 18 f6 e6 00 f3 f9 1c 0a f6 f2 14 04 fe 02 f2 fc f4 e8 f3 06 07 f4 17 1a fa e9 ed f6 f9 f1 fa f4 ff 0f f8 fa ff c4 d1 de 07 b2 f8 04 10 1b eb 16 2b 16 09 c2 1c ee 12 53 e2 16 da 1c f9 28 49 d3 10 d1 2b fc 17 38 aa e3 3e 19 5f a4 19 f6 d7 ee c6 0c ec 10 b7 3a f3 0f c1 d9 e7 ed 19 a4 a8 eb 38 f3 f2 2a f7 f7 0f 16 32 e2 fe fd 24 f1 11 1e d6 d3 18 fb f6 ff f1 0e 0b 04 ea f7 16 fe ea f7 0a 16 ee 0a ed e9 f0 fb f3 fe ec e2 fd cd f6 15 04 17 0c 21 12 f2 f2 e7 1c fb fc 2a e8 ef 0f ee e5 f2 0a da ff 02 f9 0e 14 f8 01 f8 f4 fa 19 f2 05 e6 0a e9 e5 00 f9 ed 15 ed 05 e9 08 dd e3 14 e0 f6 e6 df ed f7 23 0c e4 ee 12 ff ef 01 0e 22 18 23 19 1d 1e ed e6 02 ef 01 20 f6 ee f3 1a e6 10 0b fb db 12 f6 20 1a fa fc f3 12 14 07 0b 13 f5 1f eb 1a cd e2 ca fc 13 f4 22 f6 f7 e6 0a ee fe ff df fe e3 f2 02 ed ef ce e0 11 dd 09 0f 11 1c 04 81 e5 0a db ea ef 0f ea 0e 0d 01 09 19 f1 e2 e3 1b df 0b 23 29 22 09 fd 00 f6 f7 1b 9f d2 07 20 1d e9 0c f4 22 ed 1d 1e f9 e3 0a 20 d4 12 0e 21 11 24 18 13 07 0d e1 f7 0a 2c 05 dd 2b f2 f2 fe df 2c 0c 98 15 ee db d5 12 25 ea eb 4b eb ef 0a 01 07 d2 ff f7 00 04 f9 03 eb 05 f0 11 1b ff f8 16 0a 2b f9 0f f3 f1 f8 fd d6 0c f6 fb 13 11 15 17 12 15 fe 27 26 0b f7 0d 0d eb ef 02 11 03 04 0c fa f9 f8 e8 f4 12 ed 1d 06 ea f7 14 1a 01 15 13 09 eb 00 e7 e8 db ee d4 f4 14 e5 19 00 18 0e ec f4 15 ed 16 00 e4 19 fa 14 e3 26 1b f0 03 df 0e e6 e9 20 ee 09 fc 1b fa e4 02 08 07 f2 ef fc 07 0e 0e 24 12 0d f5 fc f6 09 05 01 de 0c 10 f4 05 fd e6 f1 07 df e7 09 03 dd ff 1d 0c 40 e8 f2 f9 03 f9 12 05 03 03 dd 26 e7 e5 1c e2 0c e1 c6 01 34 12 34 0f fe ea 2e ea 38 e2 03 02 13 37 f1 10 fb 09 12 e9 0b 06 1a ea fb fe 1e d9 f3 f2 f1 fa e8 11 1a 13 14 fb 04 f3 f0 24 fe f5 e3 fe eb fe f4 0d 00 cd 0d 19 0d ea fa 08 eb f8 1f fa 14 f0 0d 16 fb 23 26 e9 0e e4 f4 0a f6 fd 21 0b 02 07 ef 0f 0f ec 12 fd fb 14 19 0d f4 ea 1a ad 0c 19 f0 01 15 e8 14 fa e0 27 f3 c0 02 f2 0d f4 19 23 f3 01 e0 0c 04 14 f9 e1 1a 29 ea 0b 08 ff 28 08 1b fe 13 05 e9 13 fc 15 02 0d 04 cc fc f0 0a ec 16 00 31 f1 04 da e9 05 1e f4 f2 12 ea e0 df 02 03 0b c6 d3 c2 b7 fd d4 11 eb 29 a3 11 fd 81 da 5d 06 e9 05 cd d3 dc 24 16 e3 3b 0e eb 0e 06 39 3e ed 45 00 26 35 20 e1 ec e9 14 05 c9 48 d2 fc e3 ff 4b fc 34 01 29 e9 e2 11 40 1e e6 f2 0b ee e8 45 21 01 10 04 ec da 01 0b 2d e5 ec 0b 1a fb fd e2 12 e7 f3 f6 f8 d1 f2 f1 e9 0d 09 e6 18 fa 14 04 d6 20 0c 09 12 01 0d e6 e8 fa 12 16 1b f8 04 08 e9 0a 11 1d 05 20 0c fe 12 fd ef ff fe 13 c6 12 de f6 18 e2 15 a3 02 d4 fe f1 ee 07 fd d1 2c eb 15 1b 18 ff eb f9 e9 d0 22 0b 01 14 f9 0d 4a fb eb 14 fe e4 23 e5 53 18 02 d7 d5 be d1 f9 09 e0 30 ff 27 b2 ef 0e e5 0c 2c 0e fb 09 f1 f2 fb f1 00 f5 fd 15 f8 b5 05 f2 1b 18 1c 04 05 0d 11 1f 16 17 08 0a 29 df f3 f3 fa 01 27 e2 16 e9 ee ed 11 f7 04 d8 ec 0e 00 03 0c 07 1a f9 fa d6 fe 12 e6 01 0d 15 fe 26 f9 e4 0b f9 f1 e4 fc 03 bf 04 d0 22 e1 08 0c d6 fe 2f fd 01 f6 e9 ec f9 e4 2c e9 e5 01 ef 27 2e 07 07 17 0a 0c fb e0 11 25 e0 01 25 0b 15 3b d0 42 f8 f7 f6 11 f3 e1 f1 db 18 27 04 24 06 2d f0 fb 10 2a e2 05 f8 15 01 db f6 f2 e3 e0 0b e5 f4 15 1c cb ed 02 e2 c8 0d 0b ef f7 2e ea f6 1b 1c 1a d8 25 ec fc 03 07 1e dd f2 15 00 08 f2 28 0b 05 e8 01 ea f6 1c e7 2a d9 00 f3 fe fa 28 21 ee 04 06 0f c8 e8 af 03 f0 db cd f1 de cd e2 18 dc 01 0d d7 cd 10 0c fd f3 e8 0e f4 d9 27 d2 47 16 1b da 39 eb f6 e3 ef 0e 3c ee fd f6 ea 16 f0 db 17 29 e8 c2 e9 2d db 00 d2 f2 86 ed 1b 2e 2a d9 f4 0b ff ac ef 3e 0e d8 fe e4 f8 db e5 ce 25 2b fd e0 15 0d 23 fe c5 ec 55 fa ee 3e 10 0e e2 ec 12 f1 24 24 0a f9 fa 0e e4 13 34 e8 d0 e6 29 f8 16 eb ed 26 ef b6 19 2d f1 0f fd e5 19 19 fd f1 09 0f 02 11 11 e8 eb f7 49 32 e2 22 e4 1d 05 f9 00 23 06 eb f2 20 15 fa f6 ee ee 1a 1d 16 03 cf f6 02 26 12 09 fc cf f0 29 f0 04 e5 19 12 e3 2b ea 1f e7 ee f9 cb 07 ca 1f 18 04 f3 1e 1a e1 fa df 15 ef e3 19 17 e5 09 23 29 29 15 0e 2e e3 e7 ff f2 e2 14 e7 05 1f 0e 0e dc 08 26 e8 fa f2 0c 02 00 de 0e 09 0e 23 ee 0f 01 e1 e4 0b 07 e2 1c 07 ec fa 0c 03 e9 18 fb 1c 13 18 00 10 04 e5 fa 1f dc ed ea f2 b9 03 11 eb 01 0d 2b 0e fe 28 e9 ed ea fc f4 f3 ef 2e 23 d7 d6 04 ef 22 1f 11 f4 fe 22 f8 f7 f4 10 fc f9 43 ff 19 18 02 0f 27 e4 3c e8 f6 19 fe f6 0e d5 ec 06 f5 ea 17 ea 09 0e f0 f0 05 e7 01 f5 03 13 07 02 06 12 1f 01 01 f4 ee fc 03 1d 26 08 0d 08 22 21 ef 0d ef 10 f6 fa f4 ee e2 18 03 de fc f7 f6 09 03 f7 ef f8 07 01 03 f6 e1 1a 1a ec fb f6 0f 16 08 f0 f6 09 f9 14 08 0c 16 de 11 eb df 09 be 17 fa ed e2 14 f0 fb 27 10 0b f8 25 ef f0 d0 b1 f1 fc ec 07 08 2f 30 f6 da 02 e7 0b 10 f5 2a f8 01 fd 0d 24 0c 37 c8 33 08 0b cb 03 1c eb 2a eb e9 cb 18 13 39 24 eb ec 06 27 ce 01 e8 e5 0d ac 9c 19 fc cd cf 00 0e f6 37 fa 3d e1 e8 11 f5 ad 21 16 fd 06 f7 01 15 1e f8 27 1e c7 e7 de 0d e6 01 fd fb df 23 34 f3 d8 23 fb 0e 07 01 e7 0e e5 39 fa f6 03 e0 ee fd 03 05 fc d3 f5 00 0b 12 de 05 ad c2 b1 ce 39 9a f2 12 fd 54 1d 50 aa c6 f8 27 10 f5 ef ae f4 1d 3b e3 0b 23 f1 f0 ec f1 b6 13 42 1c be 33 02 03 1e 13 1d 92 c1 29 d6 98 fa c5 21 14 24 f6 15 e8 e8 44 0f 9f fa ed 00 c5 b5 2d f1 02 da fc 1a dd d7 17 ce 02 f0 1f c6 f2 28 e7 03 f4 be db 08 3b f9 e9 0a e6 e6 f7 e3 1c e2 00 1f 20 12 0c 2c da 2a 00 e2 fc de 20 cd ea e9 0e 02 f0 06 0b 1b e6 f7 00 0f 2a f1 ec ee eb 00 fa 0f 04 34 2a e2 8a 19 a8 1e 1a 19 db 34 07 17 03 f4 ef 34 0c fb 0d e3 14 0a f9 08 eb 1b 24 06 0c 09 04 0f e4 34 05 f5 0f db 05 15 9b 21 e0 ed 12 18 11 dd d3 00 1d 20 f4 e0 d4 eb d3 ec f8 dc 1f fe 03 1e 13 d9 28 e4 24 dd e0 1a 0e db 03 00 fc ee 12 db 13 18 04 fe 0e 02 0c 07 fd d7 17 f6 ea 0c 13 02 fc ef 21 c9 ed f4 0a f7 ff 22 28 fc f3 ef 07 e8 19 ee 1c 14 fc ed 00 f4 f7 07 14 38 d5 14 fd e4 06 f9 25 15 f8 ef 0c ec dd d3 10 d1 0a f5 ee dd 1c f7 01 ec f1 0f f7 fc e8 dd 10 fb ed 15 1d 19 11 3b fc 13 dd dc 1b 15 05 e9 11 e9 21 05 f6 fc 0b 0b 0d 02 fa 34 1a e8 fd e9 06 f2 d9 07 19 f4 fb 1c 0c 08 05 f7 ce f9 1c 1b e3 01 15 0e e2 ee ec 3a 2b 0d f5 fd 0b fd 13 e1 1d cd 0b 2f 20 ed fd 0e 12 28 f4 de f6 fa 43 0d f1 09 17 e5 eb fb fe 0e ef e9 10 fc ca 10 3a 11 df 0b da 1d fd 19 fd 10 e2 e3 e2 ef fa 01 fa fe f5 f9 10 03 e3 d7 07 e3 0c ff 0e 15 ec 09 0c fd f1 1d fc e4 29 f9 f1 de 05 26 f1 df 22 ea f6 f3 f7 17 f6 f1 15 0a e6 e2 18 1e de 18 01 ea dc e2 07 04 12 e8 11 e2 f7 2b cd fe 1a fd 13 15 05 c1 de 00 28 05 06 19 0f 04 02 21 07 16 2d 0c f6 f3 0c f7 f6 0a c4 ff 08 11 f0 16 0e 07 01 f2 0b 0e 2a fa f3 00 f8 16 07 0e fa f0 23 de 2b 09 e6 0b 06 d7 01 23 28 fe fb f1 fe 0f e9 1b 03 0e f3 1f 1a 1f 1a f1 10 11 18 0b 04 e3 ea 03 fb 0b 12 0d e7 f9 fb e8 e3 0f db f3 02 fe f0 02 20 fa d7 15 e1 19 13 1e fd e2 e2 f1 06 18 10 e1 10 f9 e7 0a f1 ea 08 f7 eb fc fa 04 37 e9 fc 1f a1 db 10 ea ed 95 c8 df 08 05 f6 d6 e9 1d 08 0e 10 06 00 cc 02 2f 0a 25 f1 f5 24 0a 0b fe 1f 08 da e2 0f 11 f6 d6 f5 11 09 fc 0e ef d9 03 1b f4 f8 13 ff 00 0a 22 a3 f8 00 0b 29 03 9d 09 22 ea 05 1c e1 dd 1b 14 0c e3 d8 c0 07 14 ce e6 19 c3 de 01 fa d3 c1 a3 14 eb f8 f4 08 f6 fe ff 1a f2 14 19 08 1e c8 ff 1e 01 ff db e1 e6 1d 05 fe e4 2c fd 97 09 07 81 0b 04 15 20 f5 08 fd f5 04 d7 0a 17 fc 14 ff ef f3 1a f3 f4 0e 18 0b 0c 27 dc 0c 13 f7 f9 09 d4 f2 e4 0e 00 01 0a f9 fc 04 0f de 23 26 09 10 f3 08 db f1 f2 f4 ee f3 17 1e 19 00 ee fd ed fa dc ef 0e 02 16 f8 f8 17 fb 19 18 f0 16 f7 11 10 eb ea f2 e6 fc 08 0b 0f 19 eb 02 14 0b 06 fa 11 17 08 f4 fa 0c 1c 04 00 0c fd e8 f0 ea fb ea e9 03 eb 0d f5 06 02 fe f8 ec f1 fe f0 e8 fa 18 fb e4 14 00 bc 0b b8 f5 ec fa 00 ed 3e f2 26 08 08 2b 1a 0e 91 15 d4 ed 2f fc fe f8 2a e3 12 1f 29 ff ea 2b b0 ed fc cf 3b b3 29 eb 1e 0e 26 2b c2 d6 dd 2d e4 09 15 e8 ff 08 ea 05 fe fd d9 ed 11 77 4a c1 cd b0 f2 20 ba 02 08 0d 13 4a 47 e6 ae bd 1b e6 e2 de eb 1d 45 1e f3 c0 fe df f8 ca ff 2a ff ff 02 bc 24 d8 d0 37 0a 2c d6 c8 3d ce fa ed e3 dd 01 2c 30 12 d6 bb 3f 11 cd f6 0f 12 ca f4 d1 07 ff ec f8 05 f0 15 09 eb c4 cb e6 e5 10 ff f2 e8 ef f2 17 db ed 06 09 1a fa 01 f6 f3 11 2f ed fd ec 11 ee 0f 0a fb 19 01 fd 1a cd e9 dc 09 f7 09 f2 00 07 09 0d 18 00 12 11 e6 f2 14 f1 10 ee d4 cd fc d7 21 d7 f5 e9 1d cd aa 1e 52 ca 2b cd e9 01 36 d2 ea 1a 18 de 37 23 cb 04 0d 2a f3 0d 21 d6 f9 ff 0b c6 fe 1f 15 af fa 9b ff ea d3 d1 14 f6 22 e0 25 f7 e3 34 d5 cd f9 f9 01 d6 f7 ed 1f de e2 07 05 e3 05 02 d2 d6 fe 03 f1 ed 25 01 14 dc 92 eb fc 0c 16 e0 25 e9 02 fb e0 1c f8 0c 16 0e 08 ea eb f7 f4 1c 08 17 f5 fc de 0a ea 0e 04 e3 fc f4 10 e2 f0 0f 25 fc 0f 09 0e e3 d2 07 0d 19 08 fc f7 fe f2 c5 0c 1a db f5 1c 10 0e 0f dc f9 2b f5 f3 e2 19 fa 06 16 f0 e9 2a 1d 10 0b e4 ec e5 16 1b 03 fd e8 ed f4 07 f1 1a 01 1a 0e 19 e2 e3 97 08 25 fc 01 f2 17 e7 e4 03 12 1c 1a f2 06 04 fd 13 1e e2 ea fc 05 dc f7 e1 f0 d3 e7 f9 cc d4 ee f6 1b 1a 14 03 05 f9 0a e8 22 29 ee 0a fa 00 0f ee 0b 03 0b 03 fb 13 d8 18 25 e6 19 ee fc e3 ff e5 03 1a 0b f6 00 e6 13 0e 0e ea eb 0a e8 eb 0d ff ec 04 c2 e5 fb cc 1b e5 dc 17 18 de 14 fc cd 1c 02 e9 e6 29 1f cb f4 1d 29 15 04 44 f3 ea ed 10 ce e5 ea 06 e4 f4 02 f3 b3 0a 02 25 0f 01 f1 06 00 fa 2d e6 c4 0a b7 fe 06 18 25 ea c4 e6 c9 1a f6 16 06 00 00 df 0d 36 ec 28 db 0f 0c 5e dd 2c 18 35 e6 46 53 db ec f2 3c ef 05 39 b6 ca 35 47 21 c9 1f 1c 0f fe cf fe 29 cd ba 11 00 2d e6 2e ee ed 32 ff f4 09 dd fe e2 ef fe cd aa ef bb 1f b3 f2 fc f2 27 3a 16 fe de d6 08 05 00 01 c0 fb 0f 1f eb eb 1f c5 0f 0a 1a 81 17 e1 b9 e3 11 21 d6 dc e6 2c 01 c1 50 cf c1 d7 da 20 e8 39 02 46 f2 c3 27 3c e0 03 ee 05 ce 04 2a 19 09 1e 19 f0 1f 1a 09 ff 31 08 ec d1 f6 09 fc e6 dc f8 10 e3 0d 10 07 f1 0b 08 03 e4 0c f9 ec f8 11 f1 f6 13 fe f7 e6 ec 0a 24 e8 fe 09 15 04 18 ea ea e7 12 11 0a 00 e5 f5 ee 0e 04 00 f6 fb f1 d0 e7 f4 01 1a f7 cf 2f b7 e6 2f 21 d3 ed 05 12 08 fd f5 05 21 1b 0a df 10 13 ea c7 0a f2 0b 2d de f6 25 20 0c f6 1e f7 0b e4 29 ef 08 dc cd f2 09 13 06 22 eb 06 0e 06 f8 ee 06 0b ee b9 d1 04 ea 02 07 08 07 fb dd f3 b6 c9 03 13 06 da 29 ec f1 13 ec f9 fd 06 d5 38 10 05 ec 13 33 fe f8 0e db 00 14 fc 0a fd fd ff e1 09 ea e9 02 fd d6 f3 eb 27 0a 21 e2 f3 28 06 1f ee 22 f1 dc 22 bb fa fa 0d cc 2e ea f4 f2 cf f5 ec d7 f3 f6 f8 f9 fa 0d 0e 0a 05 0d 1e d4 f3 ec 09 e5 fd 20 38 e2 12 ef 0b 0f 02 07 1a 1e e0 07 04 eb 08 2a f1 15 fd ed f6 de 03 fa 04 0d ef e6 19 17 f9 04 2e e4 c8 e9 d9 e1 30 e9 e0 f2 e4 1a 27 e5 21 ce 02 0e 08 42 4a 07 12 1d 17 e9 56 ec 14 ea e8 31 5f e9 07 1c c3 16 04 d0 26 fa ec db e6 fd d3 95 ec 02 0e 17 07 e5 14 ce dd 32 09 01 0d 15 e1 f9 dd 32 da b8 ba e3 1d 0e 23 4e d4 d9 a8 38 26 b3 19 c4 15 c5 fa d6 32 53 1a ef 04 26 cd f3 b2 f0 ea fd 27 fa eb 26 cc 1d f1 22 1b b9 c9 49 d4 1f e5 c8 e0 00 1c 35 2b c6 d7 15 37 ea 10 30 f7 ba e6 2e 02 fd f6 01 19 27 ff 0c e8 f5 f1 03 e3 04 e6 e1 de d6 ec 0a e1 10 35 25 06 12 12 0c d8 1e 01 fa 25 17 02 f5 f1 13 00 f0 0a 11 f2 04 16 1d f4 17 1a f6 01 e0 0c f3 13 0c 17 17 16 f0 ea 10 f7 d2 1e 0b f3 18 1b 0a 21 e2 0a 08 e0 01 18 f5 d2 be d9 0f 03 05 da 0f fd 00 17 f5 d8 e1 0f 0e 01 fa ea eb 1a 17 f7 05 1b 26 fa 1b e8 10 ef e8 e1 f0 03 10 13 e4 19 f2 1a 16 ee f5 03 03 e9 07 fc f0 