50 79 b5 7f 79 6a 9e 61 58 45 8b 7f a3 99 8c b0 80 9d 88 69 7b 8b 79 8e 51 66 88 76 9c 83 7b a1 66 75 64 49 6a 86 c1 a2 73 8d 5d 96 34 af 6e 80 87 a2 a2 b4 82 5d 9e 41 60 68 7d 80 96 78 4e 87 5c b2 94 94 62 93 65 96 80 65 ab 98 82 74 a0 8d 76 6e 83 80 68 70 6d 9c 67 68 71 96 8d 61 92 95 9e 6b 81 75 ab 98 67 73 5a 8b 7b 5f c4 77 72 8c 74 64 82 85 7e 87 aa 58 7f 8c 7a 8e 7b ad 93 94 98 85 76 7a 6e 8e 83 90 71 7f 56 60 85 52 88 66 6b a4 8a 75 92 9c 94 74 60 71 8b 83 47 82 74 69 7c 82 aa a2 93 84 92 69 96 89 71 86 8e 70 66 99 85 87 6e 8d 7f 7b 77 93 a4 90 55 8c 65 6b 83 90 73 a0 87 52 77 95 a2 66 60 68 82 7c 8f b3 91 83 57 a9 95 b3 b4 63 8b 87 69 64 81 44 79 86 9e 90 a4 7a 72 c0 b1 7a 68 99 67 77 92 72 8e 78 6a 65 5e 89 66 95 78 8c a0 77 61 6d 77 ad 75 95 99 85 9b 70 96 5d 62 8e 74 7f 86 a4 6e 63 6d 9f 8b 99 95 57 67 94 77 91 89 5e 99 91 65 72 62 6a 8d 65 9a 57 8b 80 7c 86 62 80 a9 74 82 82 7f 47 7e 79 76 75 5a 95 89 69 9b 7f 84 76 31 7d 71 7c 83 67 8e 6d 71 a2 71 90 95 94 97 95 5d 77 a3 94 7c 84 82 8c 9d 93 9b 94 8f a1 93 70 88 81 61 8c 5f 71 95 88 79 6e 6c 5f 75 97 69 70 6e 7d 77 82 66 54 5d 93 75 65 7a 88 69 83 94 93 90 98 8f 66 79 7c 66 90 a1 53 4c 79 76 9a 5c 46 7f 98 89 ae a9 5c 85 9c 56 a9 3c 5b cf 80 57 85 90 56 81 9a 95 c8 7a ad 85 5f 4c 84 a2 70 72 66 68 c4 6c 71 7b 2f b2 94 7e 87 89 91 9f 43 75 94 84 32 6a 89 6b 63 6f 96 8f 76 a6 9b 8f 83 8d 8e 80 8a 6c 90 72 86 98 5f 9a 6c a4 74 65 8a 7b 9d 72 8b 7d 66 7d 93 55 87 6a 6a 90 8c 5f 78 66 82 74 9e 7c 94 96 91 9b 85 9b 96 a1 98 a5 74 66 7d 8c 75 79 6f 96 8e 82 a0 8a 9c 65 92 5d a3 68 72 8a 76 70 88 92 70 8a 5c 93 b3 8e 79 80 a2 56 63 7f 5c 9d 76 b3 8c 86 79 81 97 89 b1 6e 4e 72 7f 8f 9e b8 6f 80 0d a3 7b 68 a2 7e 9c a4 62 68 6a aa 73 6d 9d 6a 8a 61 71 8a 7c 92 a6 a8 aa 47 55 79 89 d3 4c ad cd a8 98 85 aa 98 4a 7e 8a 58 76 a9 92 9d 58 9c ad c8 ad b0 4d 93 8e bb 7d 5c 8a 73 72 7c 94 8e 93 98 64 7c a9 b2 90 aa 88 6a 74 7c aa 80 9e 73 7a 6b 94 7e 63 68 8a 7a 71 9c 78 98 93 4b 77 9c 87 9b 77 76 9d 78 82 97 7d a4 76 8d 62 6f 79 86 65 8f 46 8c 6d 78 7b 9e 71 a3 65 9a 58 87 88 6e 77 95 6e 80 80 78 7f 66 71 a5 92 48 3d 91 6d 82 76 7a 77 68 88 b1 7a a7 7d 7e 8f 78 a1 8d ab 87 86 79 72 a0 a4 a3 87 83 ae 96 88 a1 85 74 78 5f 70 ae 98 71 49 80 8a 78 7c 75 61 6a 83 7b 97 91 b8 98 88 7a 90 83 77 95 89 73 6e ac 7a 74 64 a0 70 81 61 9c 83 9e 6e 9d 87 6a 6f 6e 78 8c 83 62 91 69 90 97 7d 82 9b 83 83 71 8b 60 84 88 6a 6a 7d 68 7e 82 7a 80 65 8d 6e 6b 7b 91 85 66 82 66 83 81 7e 95 64 93 69 7a 96 72 67 6f 6d 7a 7b 5c 90 81 8e aa 97 87 5b 74 85 89 93 79 9e ac 75 67 6d 88 68 70 8a 90 90 8b 72 7a 76 68 b8 73 84 7f 71 63 9f 6f 63 7f 6b 81 6c 6e 6f 76 82 75 6c 88 8d a0 96 81 7b 71 89 5e 92 7b 72 8d 67 7d 64 68 aa 99 79 a9 7d 6c 76 79 92 71 6b a4 94 67 7e 70 b9 8c 8a 87 55 8d 69 7e b5 8c 6f 86 72 9c 68 a4 8f 79 6d 6f 7c 8b 94 8f 82 64 61 60 56 88 9d 75 7a 96 7f 89 a4 92 95 95 7a 79 8c 9f 83 65 5b 6c 97 99 8b 6d 58 76 73 9d 77 83 7d 82 85 a8 a6 67 62 66 83 a1 87 6a 73 8d 6b 87 75 69 c1 81 90 92 99 85 8f 83 74 88 9e 72 9c 59 6e 94 69 9d 60 67 81 6a 78 a9 67 9f 9a 7b 79 88 66 94 a8 82 8d 79 69 80 77 0b a8 9a 38 8f 5e 7c 8e 62 6c 78 6d 75 b8 6f 80 66 99 5a af 61 69 af b2 57 6c 85 64 65 68 9f 80 56 8c 79 76 71 7d a3 6f 92 54 4b 7d 7c 4e a4 a2 84 4f 8f 62 7e 8f a2 81 4f 45 7f 69 9b 8b 76 a3 56 95 8f 6b 8f 90 7e 85 5c 8a a5 6a 84 63 6d 79 90 5f 77 7d 8b 65 58 89 76 7c 67 6c 7b 7e 75 75 77 72 99 89 8e 95 71 7f 7e 76 90 b5 8a 74 94 75 7d 98 af 79 8d 6d 68 84 9b 7b 94 77 5a 84 7a 8d 8c 45 70 90 78 75 9a 76 a2 77 95 41 6c 90 79 76 70 95 7e 55 82 77 78 64 9c 6c 91 88 75 91 91 8e 9b 8a 77 a6 86 80 64 67 73 73 8f 9b 6c 7b 94 8e 7e 7d 9b 89 9a 86 62 79 65 6c 8f 75 7b 68 74 7f 65 50 7f 7a 74 a4 95 66 95 98 84 6c 97 8b 7a a8 85 8b 73 7e 88 84 7f 69 7c 93 91 6f 70 8f 79 88 8b 84 5f 83 78 9d 5b 71 63 7a 47 aa 70 4d 83 88 7d 79 83 a5 86 79 6f 85 5e 63 6b 74 53 5d 88 a1 56 81 77 6e 95 9e 86 5e 9a 7a 90 86 77 69 83 9f 85 82 87 74 9f 72 80 7b 9a 54 68 58 8e 97 94 74 9a 88 79 87 7b 9a 82 77 6e ab 7d 7b 76 60 a4 7b 94 6d a0 6f 95 67 61 80 65 78 8b 71 76 96 6b 63 a1 58 90 83 6d 5e 96 6a 71 9a 90 73 69 a4 73 9b 68 6e 6e 99 9d a3 86 67 7f 9f 8a 80 67 a0 88 86 98 45 88 75 a5 b4 53 8a 83 86 7e be 93 71 6e 95 ad 94 6e 54 77 76 74 72 83 83 77 56 6e 6f 90 97 63 a4 89 86 67 8a 89 7c 8c 95 97 5f 73 7f a3 48 a3 72 4f 63 73 72 71 94 71 94 6f 7a 9e 6a 93 94 91 76 91 7b 45 63 88 93 7e 7c 99 7f 76 99 85 6e 78 90 80 a1 89 89 7c 7c 94 70 6f 75 84 97 75 76 51 61 87 75 78 95 5e 8d 74 79 85 8a ab 6b 8d 70 83 96 50 93 7e 75 8b 79 81 93 7a 7b 62 81 8d 6b 78 81 89 99 80 88 87 94 7f 8e 63 a8 78 40 92 8f 7b 97 79 97 82 81 87 6d 63 63 6f 74 83 86 60 9c b9 83 62 75 9e 77 62 5e 7a b2 ac cd 73 56 97 96 a1 93 40 70 bc 7b 64 77 9b a5 98 9e 99 9c 58 99 40 99 79 9b 79 af 62 8a 59 a0 a3 3e 89 86 b5 84 76 87 89 8c a6 7d 63 98 b4 92 78 a8 8d 79 74 56 a2 87 78 96 92 7d 6a 4c 7c 7e a4 a5 8d 90 68 98 a8 a2 7d 8d 7e 8c 64 65 8b 68 97 24 91 ab aa 70 53 70 78 94 8c 9d 60 80 6a 8f 56 ad 9d 98 76 73 6a a5 a2 81 91 85 61 72 37 79 7d 7e 51 7a 7c 58 87 52 93 62 67 4e 85 96 77 80 87 9e 4e 75 73 a4 64 7f 99 99 7a 84 7a 67 8b 8b 9c 99 80 88 62 9c 57 7b 62 54 a5 65 91 78 77 67 7c 5d 71 86 56 a7 a6 7d 9d 62 73 9d 75 83 8e 92 64 73 51 95 91 87 6f 6d 7f 8b 8e 7c 92 81 9f 85 39 6c ae 75 b3 6f 76 7c 85 9a 81 74 89 91 84 76 63 72 69 81 80 46 74 8b 90 8c 88 60 b4 8f 92 4d a2 6a 80 15 75 82 5e 81 92 81 63 97 8f 79 78 87 8d 9e bb 63 b3 44 95 8b 8a 68 5d 5f a6 bc 56 5b 78 7e 68 9c 5b 86 59 53 97 8d 5c 67 9c af 5c 78 65 3b 70 48 78 73 8f 87 85 50 61 63 a2 87 85 56 89 11 6c 88 58 a5 ad 52 4f 63 38 8d a7 77 5d 81 70 6a a0 90 48 d8 c1 77 59 b1 a7 c5 60 4f 79 c1 ba 54 b4 77 89 a0 88 b6 9d 42 c0 c5 42 4b b0 3b 7b e1 a8 a5 75 cf 6b 4e 6d 9f b8 59 44 95 63 a4 74 -1 60 3e cf 58 89 98 c1 a2 ab 51 5c 79 c8 96 78 a7 5d 43 96 9e 6f 70 7e 72 94 76 94 9b 7d 88 91 88 90 5b 76 69 92 84 79 8b 68 5d 95 98 8d 8f 7f 86 68 7b 78 5c 6c 8c 6d 96 89 85 8b 5d a0 99 69 7b 81 98 9b 82 81 85 8e 84 6d 74 98 6d 7e 64 74 90 98 85 8a 63 6d 94 80 8e 78 9e 7f 89 7d 95 8c 68 8f 96 82 86 9c 77 76 90 86 8a 80 8c 71 6f 74 93 8d 93 75 6c 84 64 76 6d 89 6c 93 75 82 73 6f 8b 6e 5e a1 90 6b 7f 7a 8d 80 66 71 66 89 97 78 68 8c 7d 6e 95 6e 8c 87 7f be 79 80 89 97 9b 4e e8 71 83 b0 b9 b1 b1 5e 79 71 64 91 73 93 82 83 58 91 75 5e 50 73 a5 8b 9b 7b a0 6e 7f 5d 92 73 6f 69 8a 76 6a 77 4f 92 a3 7f 7e 7b 65 3b bb 87 a5 91 71 8c 5a 78 9c 68 7b 48 89 96 6a 82 62 b1 75 8c 78 84 6e 84 96 c8 87 5d 90 63 7f 95 8c 73 aa 78 64 66 af 8c 89 83 76 7f 3b 77 99 86 95 6e 68 95 93 86 7d 78 50 61 8e 6c 9f 8c 64 ab a6 87 a4 9f d1 7d 51 88 78 7e 7b 96 7c 78 92 77 5d 7f 68 7f b4 66 9c 85 86 7f 8d 83 8f 6d 6e 8b 7f a1 9a 6b 8d 85 85 76 55 72 74 9f 89 66 63 6c 8b 80 8e 83 71 60 76 a2 58 74 88 48 a3 7d 6f 97 bb 6a 63 68 82 98 7a 91 86 97 66 6c 8b 87 79 87 82 7a 7c 6f 61 7e 82 75 7c 92 84 7c 60 6f 8e 89 68 82 62 74 80 7f 73 6f 93 92 94 96 93 83 7c 92 98 8b 94 74 92 8b 9b 77 77 81 94 93 8e 99 6e 6c 80 6c 91 8f 6c 90 5c a9 99 8c 9b 73 85 8a 98 87 83 ab 5a 7e af 79 95 a6 62 86 73 8f 8e a4 96 84 a0 6c ab 83 83 7d 9f 8f 50 76 7f 93 8a 82 74 7a 7f 76 69 91 a0 75 70 85 62 93 7f 64 80 9f 78 81 66 6e 58 8f 7e 7a b0 9b 4d 77 70 99 84 62 7b 7b 90 ac be 74 62 6a 81 80 a9 58 95 86 a1 8e 66 a4 8c 8e 9a 99 7f 9f ad 61 b1 9c 7a 6d 96 7f 71 87 8d 9b 2f 6a a0 8c 75 84 71 73 8e 76 79 5f 74 86 8d 9a 82 84 ad 70 70 64 6f 55 6a 79 91 71 71 78 68 8e 58 7e 85 6d 56 74 72 70 98 94 9c 76 74 8e 8b 7f 89 7a 87 96 99 99 ad 88 67 6c 46 7b 7d 76 91 73 82 6a 7a 57 ab 78 8b 54 73 89 89 7f 83 8f 9a 70 92 8a 96 69 7e 9f 5e 74 9d 79 77 8e 7d 94 81 63 93 9f 69 94 61 78 74 75 74 7d 77 71 69 79 6f 7c 65 94 8b 53 6d 97 af 92 91 53 77 84 71 7b ae 88 70 67 8a 72 85 81 90 5c 8c 8d 7c 92 68 76 65 63 65 9e 71 83 6f 92 73 90 7a 96 73 80 82 92 a2 80 7c 74 9d 62 87 91 75 52 95 88 79 87 88 8f 8d 73 98 7e 96 82 8c 77 8d 6e 73 73 73 7d 68 7d 7e 7b 64 6f a3 5e 74 68 8c 6f 90 90 93 7f 97 90 a3 8b 8d 77 95 93 70 9f a4 79 91 8d 69 6a 73 89 86 99 91 5e 70 7b 92 83 63 8b 97 6c 8b 75 73 6d 95 85 78 7a 93 96 86 96 7a 81 71 95 7d 93 67 8d 88 64 69 88 91 69 88 9d 6f 6f 73 8a 85 99 80 96 8b 79 7d 7d 96 46 c5 49 52 92 8b 77 b3 5d 4f 8c ad ed 4b 94 4a bb 74 89 90 5c 52 b9 2a 41 49 a9 6f 8b 8a a4 c1 98 7d 8a 9d a7 ba a5 72 70 8a 78 99 b5 a2 96 62 b2 82 6b b0 c5 a7 b9 55 46 70 50 55 6d 91 6d 6c 9c 73 57 87 88 80 74 79 7f 93 77 9a 8c 56 5c 76 74 a9 83 81 92 95 76 62 96 73 6c 84 9e 6e 5c 84 85 7d 78 61 74 65 95 b5 98 88 77 6d 81 8e 74 92 7f 8c 8d 70 6b 72 6c 99 99 64 6a 79 84 95 67 71 8a 8d 5c a9 4f 91 83 98 8a 83 78 84 84 5b 76 7d 9f 8c 6f 90 7d 93 8c 87 a4 91 69 75 5c 7d 65 72 73 6f 79 7c 66 79 76 94 79 6f 75 75 64 75 88 6f 75 82 87 6d 86 83 80 95 85 90 8e 71 7c 7c 90 6f 77 79 6b 8e 8f 75 9a 5b 5e 89 7d 76 89 a5 76 9c 71 84 53 6d 5a 7f 85 72 9f a2 67 50 80 73 7c 70 72 66 4c 76 95 81 99 8d a9 8c 7b 79 50 85 6a 83 64 76 87 69 91 8e 6d 87 95 7e 52 8d 79 9d 85 7c 6a a7 b7 79 5f 9a 78 b4 6a 86 aa 8b b4 57 b3 a4 a2 5a 8e 96 73 76 6f c8 6a 78 a1 66 5f a2 98 86 a0 88 a3 a0 47 b7 68 5c 84 8f 72 6c 8b 6f 74 5b 95 52 67 77 7b a7 ac 77 63 81 b9 80 6e 76 8e 66 6c 9c 99 7d 80 af be a5 6e 52 84 a8 8c 9d 68 ac 86 9e 9d a4 b4 6f 97 b2 79 6a 8f 87 7c 41 a9 a9 95 62 b9 7d 6b b8 7c b8 6a 76 54 90 a3 9b 77 66 74 7d 74 8b 66 93 bd 5a 7b 94 71 d6 87 84 9a 6d 6c 5c 58 87 81 9b ab 93 93 76 9f 87 74 99 85 db c4 a5 ab 7a aa 6a 46 7e a0 a5 8d 89 4f 81 95 88 a7 41 a7 73 6b 8f bf 6d a9 79 7e 48 a3 48 63 7c 79 5a 32 85 a9 97 6b 84 83 7b 79 68 6e 84 d3 96 a9 31 72 6a 7a 6a 6d 5d 82 90 6b 51 56 75 7a 57 a9 67 62 55 42 93 3c 82 ae 89 6f 90 86 88 81 6f 59 49 64 93 89 45 5f 83 98 8a a2 60 7e 75 6d 6e 4b ab 6b 61 6c 59 4d ac 8d 74 6f 7a 6c a0 9d 8c 99 67 78 7f 58 65 65 91 6e 79 67 8b 69 66 95 7b 78 86 82 7e 95 93 80 8e a2 6f 8e 99 87 96 93 6f 9f 98 7b 70 62 80 8c 77 94 72 9b 78 7e 65 7a 7d 74 87 9d 8c 89 89 87 9b 85 73 7a 7d 69 7a 8e 6b 87 81 6a 6e 7b 74 77 80 8e 66 91 6a 62 62 8c 53 9a 7c 9c 9c 5b 6e 70 5c 78 8a 89 98 91 60 88 99 80 4c 98 77 91 7b 81 87 6d 65 83 68 98 82 78 9e a2 77 6d 8c 76 89 8e 75 8e 70 92 8a 86 84 72 70 84 a1 5d 8f 7a 75 76 7d 8e 75 90 93 90 81 8c 67 9e 5c 91 61 69 69 70 8c 88 92 8e 7a a1 a1 85 91 9b 6c 7e 9a 8b a1 7d 82 a4 6d 82 76 ae 63 88 a0 80 75 79 84 a0 6a 98 71 7d 89 73 68 68 9a a3 66 70 62 6a 7e 56 6a 5e 68 74 98 6a 7e 8d 93 74 79 99 6c 69 88 99 80 75 91 98 94 8c 6a 79 99 6c 85 84 8c 89 80 90 94 79 6a a0 6c 8b 92 76 86 76 66 72 84 91 6f 65 62 91 91 6f 73 93 8c 64 93 93 8a 85 93 95 75 94 8e 83 8f 94 89 90 9e 7b 30 65 63 92 85 71 68 71 62 5a 7f 77 7d 63 8f 72 87 ae 6f 6d 7d 77 78 86 91 64 9b 78 66 93 72 92 9d 80 b6 82 64 7a 8a 8a 99 7e 70 69 86 67 74 78 9a 83 85 9c 99 87 76 8c 92 6d 85 83 7b 6a 6a 73 8c 8d 79 84 8c 82 6e 71 70 89 85 6e 75 91 7f 8b 66 7d 8c 80 74 9e 9e 6c 78 65 89 98 7d 74 87 93 9a 75 75 8a 8d 73 6d 70 83 8c 78 70 94 92 82 7f 68 8b 77 91 6e 79 8a 5f 5c 8f 61 7b 9c 6e 7c 79 95 7b 6e 7c a3 6c 78 78 a3 75 9c 8c 78 66 8f 6a 74 87 66 6b 6e 6c 7d 7a 64 73 84 9c 7f 7e a0 52 7d 5f 6b 91 76 9c 90 6e 6c 7d 6e 77 83 74 77 79 65 76 87 76 8e 4c 70 85 5a 85 6c 87 9a 86 83 52 71 76 70 73 9a 53 88 99 a4 7c 72 a5 ac 61 4a 48 93 61 74 39 70 70 82 7b 79 7c 9d 99 74 a6 85 7e 8b 61 5a 63 8e 7d 64 71 8b 6d 90 7d 94 48 71 7b 92 88 86 90 75 91 74 85 6f 75 7b 7b 9c 98 79 6c 69 93 58 82 68 79 96 53 92 75 6f 8f 9e 87 80 98 6b 64 89 73 80 6f 86 99 9a 71 70 96 90 86 73 7f 9b 64 70 98 89 79 8c 7d 84 69 9d 80 79 82 70 7f 87 86 65 5d 8c 82 80 5f be a6 90 75 50 ae 95 7a -1 c6 af a5 68 ca 97 90 4e 80 b3 57 6a 8f 7d 4a 9d 91 a4 85 9c af 8e 7c 9f 65 74 7c 6c 7d 63 84 8c 8e 7c 92 69 4f 9d c2 84 82 58 67 77 ad 76 84 79 85 7e 6f 9c 96 6b 6d 8b 75 97 98 72 84 70 48 5f 76 67 80 6b 65 91 2b 6b 6d 79 63 69 6c 53 8e 58 8f 75 65 3c 64 a9 8f 7a 6e 8e 6f 75 7c 98 8f 9c 97 8f 99 93 7f 8b 88 8e 8a 7b 67 6a 58 72 95 85 7f 5f 54 7b 94 55 83 6d 79 99 8d 76 8e 9f 77 93 7d 6a 8d 58 6a 80 55 65 7a a2 6f 6c af 7e 9d 97 98 a8 48 aa 93 75 6d 97 4d 7b 64 95 54 7a 96 b9 a5 9d 91 67 6e 84 70 a1 a7 60 62 7e b7 7f 95 a0 68 7e a1 7b 9e 7d 7b 89 6c 65 86 80 76 87 99 6f 5c 70 6c 87 8c 63 94 a2 81 65 81 74 88 68 99 89 74 7f 79 7f 86 97 89 62 8a 7c 77 67 75 80 8c 89 8d 98 55 98 98 79 6a 79 76 74 75 72 88 89 6e 72 79 89 53 63 9c 75 80 84 8c 77 65 54 ae 71 6f 93 89 9d 9b 7d 7e 78 93 50 79 9e 7c 8d 72 67 8a 91 82 9b a3 82 96 68 a2 b1 8b 66 6c 79 56 83 74 7f 90 70 8f 60 70 a4 85 66 85 57 40 7c 7a 66 7f 85 78 7b 