bf 1f ba 66 ae 47 8d 96 60 81 84 91 9b 26 9e 9d 96 74 6c 66 92 89 60 78 9f 7e 87 94 6a 63 6a 93 0b b6 46 65 4b 8e 99 9e 69 9b 81 a7 78 27 97 63 ce 2f 66 ab ae 23 a2 9a 82 9c 86 7f 7f 89 48 e2 34 9d 9d 9c 18 45 bb 92 6d 53 a9 8b 64 79 60 8a 1d 30 93 78 97 97 5e 99 a0 a5 aa 98 8d 6f b2 84 4d 4f ae 8a 8f a0 69 8f 04 37 af b1 a6 46 ab 92 52 52 82 82 73 79 78 a8 9f 4d 27 62 86 8f 65 8d 9c 80 74 a9 90 71 5b 9b 95 73 69 97 74 89 a1 60 76 6f 9f a7 0e dc 0a 97 59 8e 8c a6 91 72 3e 9f 82 7b 79 61 6d 6f 6e b5 a0 92 94 6d 73 9f 7c 6a 92 9d 69 76 bb 4c 73 5f 2d 51 8b 83 a8 65 2e d7 98 63 1b 82 9e 99 55 a6 52 c7 b6 8a 8d be 29 a2 9f 38 59 7c 2a a6 8b d0 56 7b a9 90 b5 a2 28 92 c5 22 7c 77 9c 97 4e 6a 70 5b 7a a5 -1 f1 1f 88 a2 5a 5b 6f 28 -1 96 9f 9a 5b 1d 9d 4b 8f a2 71 