be 85 1c 83 9d 96 6a 4f 48 59 b1 51 8e 82 a7 99 00 d2 00 68 6c ce 58 66 71 98 10 94 46 b3 1e a1 68 35 8c 8a c6 3f 65 b8 8f 99 6f 50 5f 3b b3 b2 90 57 96 c2 86 59 75 70 85 7f 89 74 87 52 52 92 89 63 60 bb 89 79 a9 bd 7c 7e 8e 77 ae 15 65 86 53 ef 00 93 26 ac 97 c1 8b 74 6c 56 85 80 96 a3 3d 97 b4 e9 72 49 0a be 10 3f e0 8e 27 aa 47 95 30 2b d9 72 e5 17 1b 9d 75 8e a1 8d 17 2d 95 67 