71 81 7f 6d 8d 70 62 99 86 90 74 8e 9a 79 7e 88 70 6a 86 6a 56 5f 6a 6a 51 6c 51 61 3d 93 91 98 5d 72 83 88 7d 83 6a 7c 5c 83 76 82 7f a1 94 77 72 a9 b2 89 6b 78 79 72 7b 7a 8e 83 7e 89 8f a9 5e 67 78 89 80 66 79 69 90 97 81 83 78 71 86 8f 71 80 90 9a 70 9b 96 97 7f 71 a2 68 69 99 82 7b 7d 86 79 94 90 85 67 6f 8a 7c 93 76 83 99 95 88 70 72 6e 95 95 79 68 57 70 98 99 82 62 5e 83 83 82 6e 84 8d 85 7d 87 b0 8d 4c a1 67 54 92 92 91 9e 87 7b 99 a1 7d 31 75 83 a8 65 67 ad 9f 74 6d 4c 7f 77 84 71 6b 75 63 94 87 9a 77 7d 5e 8d 78 a2 72 ae 88 7c 8a 78 7e 9d 70 8b 97 86 72 72 8c 2f a5 aa 82 b3 ae 6a 2a 93 cd b8 99 97 9e ac af 55 9f 7b 77 37 a8 6c b4 84 b0 d4 47 5f 5d 2b a8 42 85 4f 49 93 a9 b5 74 61 9d 3a 29 7f aa 6d a4 8a b7 5e 80 75 5b 80 29 7a 62 9d 26 -1 53 78 4e 6d 88 70 84 6f 61 67 85 9b 7c 7b 8a 7a 70 84 92 73 68 7f 99 86 8a 6a 74 6c 84 63 98 75 85 91 6c 69 8e 76 8b 80 6f 75 64 71 93 7a 98 84 5f 6d 83 6d 6a 81 75 9a a1 8e 67 6b 7b 84 93 54 79 94 8a 9c 4a 4e 96 53 58 70 b1 74 60 5e 63 60 57 58 76 9c 4d 69 5c 8e 8e 78 5c 79 68 8c 99 9e b2 9c 68 9e 9f 7b 9c 74 5e 4d 90 bd 47 a9 a4 77 4e 76 7e 6d 42 ac 7f b8 8c 6f 7c 88 64 66 b0 6d 39 7a 61 63 99 a2 7c a7 ac 70 8d 5a 86 8c 9e b5 92 9b b5 4e 9a b4 64 44 89 7a 6e 4e 5d 76 61 62 7b 69 8c 33 5f 49 62 64 7d 97 65 6d 9f 77 56 79 9b a0 6a 67 91 b2 65 5c a2 a8 84 96 b3 a1 52 bc 59 aa 9b 86 8e 6e 83 a6 7b 88 9e 65 6a 73 74 94 74 98 7f 71 88 82 8b 80 77 75 ab 48 6d 69 55 62 71 86 6d 8f 5f 8f 82 56 7a 7a 71 75 a5 7a 8c 7e 9a 92 47 7f 96 9b 86 86 61 65 66 6b 93 91 8d 6a 8a 7d 9f 83 87 54 70 7d 80 6f 91 90 68 66 82 67 94 80 89 80 9d 78 85 a4 59 9f 8a 73 6f 5d 6e 7b 6d 82 55 97 69 90 69 8f 79 7e 88 46 83 8f 84 90 69 81 6f 77 77 74 91 7e 70 93 86 92 9e 77 9d 79 b0 7e 79 64 95 81 68 91 6d 65 77 7e 5c 7b 86 7d 95 96 74 76 98 a4 89 9d 85 70 5b 66 85 b6 5e 9b 84 5f 53 7e 6d 8a 92 8a 97 8a 6e 86 63 89 71 71 84 6b 6e 8f 8f 7d 86 60 78 7e 82 7a 85 7c 94 7a 97 48 53 66 83 9b 65 68 85 8d 77 9d 81 66 91 72 90 76 6c 7f 7d 6d 62 8b 7c 71 5a 73 85 6f 6d 6d 97 78 6c 94 93 87 79 93 72 89 62 5b 91 93 75 76 90 82 86 76 7a 99 68 81 73 94 96 6b 6d 99 98 89 94 8c 77 6e 9f 84 63 9d 7f 7c 74 8f 66 98 69 a3 93 6a 8d 63 87 8b 66 75 9b 59 97 6d 6a c3 31 52 6c 66 8c 4d 6e 6d 81 5d b3 91 85 50 6e 93 87 7a 78 95 7d 94 94 95 75 80 5d 83 6e 71 a1 9a 6c 5a 75 6c 46 21 7a 87 87 6d 77 74 54 76 6c b6 82 81 8e ba 9e 7e 93 a4 81 c8 43 50 a3 53 88 5d 39 b5 67 4d 8e 5b 6a 7b 63 70 73 a3 8a 49 a1 59 4b 8f 91 b8 a4 9e 83 51 6a 59 72 aa 94 7f af 99 84 12 65 95 58 67 7f 8a 77 92 8b 89 79 8a 36 95 6b 7e 73 9a 76 87 71 99 9f 99 52 94 90 71 86 3e 92 8c 99 7b 5a 8e 81 96 6f 9d 71 9a 83 6f 8d 70 96 82 94 67 95 78 66 6e 75 77 68 77 77 6c 93 7e 8f 66 7b 7e 76 7d 8e 91 8d 97 8a 95 57 7c 94 94 91 98 82 ae 6f 8b 8e 8d 6f 79 91 91 c6 7e 7b 91 7e 69 8c 62 82 8b 7c 85 6f 6b 91 ac 82 91 6d 89 6b 60 6e 6a 99 52 78 7e 6e 78 80 a3 56 68 69 92 5f 77 98 66 a0 9a 7b aa 64 75 a2 6a 5b 6b 65 9f 70 a7 85 7f 94 72 91 98 90 74 73 68 8a 85 9d 5a a9 9e 65 72 af 54 7d 72 8f 70 98 74 60 7f 7e 90 5d 79 8b ad 63 a4 a1 97 69 72 ab a3 af 63 96 86 91 05 90 74 6a a9 83 6d 6a 9b 70 75 c5 64 4d 67 92 a5 92 7d 8e 7b ac 88 7e 67 7f 89 7c 63 52 69 62 53 70 98 94 7a 75 63 5c 5e 91 7a 64 29 ab 98 7a 89 7c 72 44 ab 7b c7 74 79 67 7c 80 9e 81 aa 7e 60 a7 94 7e 76 6c 68 62 a4 94 69 7c 7d 84 82 a5 79 aa 72 ab 7b a5 85 5d 8c 98 a8 9c 5a 88 8c 59 6c 86 87 8b 8a 7e 8f 4c 77 9b 9e 5f 79 a2 83 72 6b 9a 9b 5f 97 61 a7 7f 83 9c 80 6f 8e 88 a5 87 b1 62 9a 6a 66 63 99 63 80 67 93 7c 68 7d 77 65 70 8a 7a 8e 77 5b 6d 6f 63 96 92 9a 96 88 93 78 6c 9d 83 9c 7c 70 81 8a 7d 92 8b 69 5f 91 8d 75 66 87 7a 6c 64 4b 5d 63 7d 86 87 6a 67 6f 8d 67 9d 7d 79 6f 88 94 76 76 89 84 63 88 8a 88 8a 61 8b 8c 74 96 77 8e 6f 92 96 3f 5f 6b 5e 66 41 7d 94 a1 87 80 5a 6a 9a 7e 7f 7f 85 67 56 8e 8e 9e 71 8a 8e 7b 83 93 88 7b 7a 70 8f 96 7e 67 75 81 5e 92 6a 75 9a 9b a4 96 a9 7a 6b a2 77 64 b3 7b b0 97 a7 a7 77 7e 87 91 9d 84 93 72 89 7a 9a 65 aa 7f 85 a7 5e 6c 7b 6e 74 5e 8f 6a 7b 74 8e 66 92 58 9a 58 9b 92 99 8b 77 88 78 bf 69 80 92 78 4e 53 85 9a a2 67 6b 8d 67 92 72 6b 8b 73 68 68 90 7c 8d 92 6a 88 94 6e 7f 8f 88 95 5c 88 6e 89 8f 9a 78 77 7e 9c 7c 94 71 81 75 61 8e 70 97 6d 76 78 97 8a 67 84 81 84 98 72 66 69 5f 85 9a 76 7a 70 62 8d 69 68 8b 67 7f 8d 89 61 91 93 7e 93 68 5f 8a 7d a6 74 6c 96 6c 71 76 5b 8f 75 7d b0 7e 70 7e 5c 94 89 8a 90 89 86 7f 8a 89 8a 86 98 7e 86 5d b3 63 7b 5b 70 9b 7a 87 91 6e 7b 5b 83 89 8b 54 74 87 5e 81 81 7b 69 7b 82 9c 9d 6d 82 68 69 69 86 9e 8a a1 61 94 70 81 8b 6a 6c 88 7c 74 8a 8c 6c 8c 6c 93 98 6d 64 86 84 75 98 91 86 75 8f 71 66 7b 74 8e 79 83 87 6c 99 8e 97 6c 6c a2 8a 93 69 7f 7d 89 92 7c b7 8c 8e 50 52 af 9e 62 7a c9 94 7b 81 a7 b0 b0 31 8a c2 99 3e -1 d3 52 53 89 bc 7a 62 87 63 57 58 88 84 a8 9e 74 70 90 a9 89 57 f1 74 9f 73 60 8d b6 d3 b3 9f 84 85 42 6a af be 1c 7b 8d 8a 68 78 66 64 69 6e 6d 6f 8f 72 80 66 a0 8d 7f 9b 7e 83 a2 92 8a 8e 9e a0 6d 6f 80 92 ac 7f 70 77 75 70 95 7c 8b 78 8c 8d 7d 7e 6c 96 99 8f 61 8b 99 6f 9b 97 93 91 8c 98 3d 87 95 90 88 65 7a 72 95 83 68 92 74 8a 72 92 75 80 64 6b 8c 6f 87 8c 93 86 8b 70 72 8b 87 97 79 8d 77 66 66 95 68 87 7e 83 77 67 72 92 6a 84 74 6c 8b 66 86 79 6e 79 67 77 6a 72 77 85 7b 68 6c 76 6c 7d 52 8b 5f 7d 86 75 81 8d 84 6b 8a 85 8d 97 96 77 a0 99 76 82 9c 55 54 55 95 90 57 6b 99 90 a1 53 2e 98 73 8c 7b 62 7c 74 73 89 73 a0 70 60 86 66 5f 8e aa 79 6a 69 8e ad 88 92 8a a7 63 5d b5 a8 -1 6c 79 86 8c 58 65 93 8d 99 47 5d 5a 93 4b 81 8b 5f 7b 70 2e 79 -1 96 9c ac 82 5c 45 88 b0 90 6e 7a a3 93 ae 32 55 75 49 66 9a a5 6d 7a 76 88 c7 7b 72 6a a7 4c 81 6a 7d 82 96 90 b0 99 51 3b 1f a2 83 86 71 a6 75 8e 5b 93 a8 b0 83 72 89 80 75 93 9d a3 34 7a 9a 53 94 99 54 96 99 65 89 99 93 8a 81 7b 61 64 98 7f 4b b0 6d 6b 87 99 85 7b 53 a1 7d 63 6a 92 8d ba 76 73 31 9b 59 3f 7e a7 ad 4f 60 8e 66 59 92 91 97 24 62 40 67 6e 71 80 a0 87 68 40 36 33 af 75 6c b6 2a 42 9a 88 a6 a8 78 a8 85 aa 9f bd 56 7f 83 5a 7d a8 87 68 6d a7 7a 5a 93 95 8f 51 5a -1 7f 5a 7c 9d 99 93 90 68 68 68 65 7c 82 6e 66 93 84 87 7e 68 99 79 80 73 67 74 75 87 66 95 68 66 67 91 95 99 6c 92 7e 71 6d 84 7c 73 90 89 65 66 99 6a 86 89 92 7a 86 76 7c 91 72 86 8d 81 9a 66 8d 86 8f 85 75 80 89 67 4d b7 9c 6e c0 82 7f 6a 62 ae a4 92 a0 9f a4 ad 66 aa 8d 87 82 30 92 89 50 96 38 31 99 6f 5d 62 63 5e 7c 8e 8b ae 99 81 41 9d 5a 7b 95 a2 b5 8b a0 a0 84 64 7f 2c 9e 62 76 75 dd 54 4d a9 53 4e 91 59 7e 6b 5d 84 80 85 92 82 86 58 6e 70 64 59 92 5c 7d 71 90 93 61 5f 75 5b 8c 8f 8c a8 ab 75 72 93 79 76 9e 7d 7c 8c 94 66 9a 89 61 6a 5c 77 72 7b 66 5e 9f 86 64 6e 5e 6d 7f 94 9a 67 67 8d 96 87 78 70 90 75 7a 9a 63 30 76 8e 9b 7b 84 ac 8f b6 a9 a0 a3 71 b5 51 7a 87 8b 4f 73 65 64 82 9b 6c 80 81 7b 65 84 71 50 9d 72 6b 7d 9a ae 8b b8 98 91 80 60 8a 85 83 93 93 99 88 81 97 87 66 77 80 77 7a af a0 91 a8 68 45 9c 8b 85 a0 90 ae 72 89 ab aa 8e 88 a4 ab 90 7a 7c 49 74 77 86 a4 a0 64 5f 7f 79 3f 82 8f 7f a1 6a 5b 78 6f ac 62 a7 88 75 61 7e 76 a6 b9 94 9c ae 8c 59 af 86 aa 88 93 99 8b 78 8a 69 5e 81 83 7d 70 9a 86 72 6d 91 96 7a 74 47 6d 78 79 82 ac 95 a8 6d 90 6f 97 7d 8e 9b 96 a4 5e 77 8a 93 5d 75 93 73 8e 8b 84 98 74 58 8d 92 86 90 6f 8f 5f 53 95 86 6e 74 88 8a 87 6c 8a 6d 88 61 88 a3 6d 62 62 5e 94 85 6e 81 8f 8a 62 77 7a 82 9b 8a 89 77 7a 5b 98 96 8a 75 8e a2 8c 8c 5a 63 82 9b 6b 8c 6c 92 6b 73 84 63 5d 84 69 97 8b 95 75 83 76 74 8f 86 78 75 75 6d 8f 6c 86 83 87 86 85 76 75 97 75 6d a3 7c 7d 9d 76 7e 42 63 59 50 6f 4f 6d 7e 75 72 9c 96 97 8b a5 a0 85 88 6e 62 63 86 77 7f a0 7e 83 7c 6e 34 8b 91 6d a2 68 6b 6f 85 94 67 7f 6a 97 8f 96 4c 8c 90 69 90 82 6d 66 77 9f ab 96 79 5b 8c 91 7f ae ba 7e 79 68 41 9f 88 a0 4e 59 9b 59 69 82 ab 76 5d 55 73 6a 87 88 59 9d 82 53 61 64 89 7e 8a 8b 73 71 5c 90 7a a1 6d ab 8c 7d 9b 97 61 75 6a a4 89 87 8d 7d 83 97 7e 90 9e a7 8d 6f 9e 81 7a 82 85 9c b8 84 4d a1 81 71 97 9a 74 7a 5c 36 65 82 6c 91 7c 62 95 95 8d 95 70 6f 8c 94 99 7d 70 95 77 75 78 b1 98 b4 7d 77 85 68 87 6f 83 64 c4 46 8f 70 7b 45 65 5e bd 94 74 3d 5e 5a 86 6c ad 88 6d 6b 3a 66 89 42 5d 8f 88 7f 6f 96 92 59 7b a0 a9 9d 95 95 77 6d 83 32 78 94 71 33 6f c4 6d 5c 5b 80 ac 5b 65 5f 88 6d 4f 6e 4f 79 71 5f 6d 7c 92 74 61 8d 79 80 68 9a 93 78 6d 80 8c 6c 7d 6b 66 7f 9a 40 3f 98 69 86 2a 87 8a 81 a2 74 7c 9d 7f 8c 8a 92 98 93 8b 68 97 9a 84 7e 64 68 7e 67 74 93 88 8e 81 88 8c 7d 76 8c 49 98 82 78 77 9d a5 64 ab 89 83 66 6d 41 aa b9 81 5f 7f 57 77 97 79 a3 8e b8 79 86 83 78 b0 9f 49 5f 56 4c 2a 7c 5c 85 72 9f 9b 78 8d 86 81 84 8a 99 7a 76 6d a3 9a 85 66 af 94 a7 60 67 67 7b 31 71 5d 7f 0a 62 55 6f 65 5c 8a 98 ab 86 57 57 62 98 87 68 8b 5b 5c 65 5c 82 64 9a 8d c1 46 53 74 ad 89 7c 7b 8c 87 a0 7e 62 7f 7c 38 58 84 7e 7f 6e 83 85 d7 6a 8d 65 8a 56 60 87 85 60 8e b0 69 82 95 6e 94 83 90 6b 87 85 92 99 93 81 9b 8e 8d 83 88 7f a3 75 74 84 7f 6b 6b 67 43 91 62 70 73 6e 9f 85 58 73 92 8f 73 73 7c 67 84 83 9d 8d 6d 77 7b 96 71 92 9f 89 7e 6c 64 8d 6d 99 7e 99 51 96 8d 87 ae a8 31 8e a3 ad 88 72 69 52 95 a6 99 ad 74 99 5b ae 7f 90 94 d3 95 7c 6b 7c ab 31 77 56 65 85 57 74 7c 71 61 84 a3 86 6f 81 57 46 7f c2 92 7b 83 a1 8d 6c 7a 74 b6 8c 87 a7 a8 5d ae 49 87 7c 9b 92 81 87 69 a0 89 6d 69 98 84 83 97 8d 4e 73 83 95 78 7d 65 63 6e 66 6b 6f 66 96 88 7a 6c a7 82 a0 7d 8b 78 8d 86 8c 5e 5c 98 87 71 89 a3 7c 97 94 6d 7f 71 8d 97 8f 6c 7d 89 7b 54 a1 82 6a 6b 97 bd 7c ab 92 8a 63 5c 34 85 c6 8d 95 ce be 47 a2 76 db 8f a7 77 f4 65 7a 87 9f 9b 65 6d ac a2 5b 6a 4e 74 68 93 7a a9 b3 6b 73 63 96 c5 7d a8 74 8d 7f 68 b3 b5 c0 79 9c 74 5f b5 -1 b2 b7 57 7d 7a 6f 67 5e 6f 92 89 92 87 6f 81 80 81 4a 9f 62 8b 4b 53 74 23 9d 73 94 76 49 5a 82 7c ad 5d 77 84 79 9d ac 8c 71 4d 90 91 7b 90 83 4b 96 42 83 61 6d a0 53 91 67 69 70 85 6b 28 9c 87 65 90 66 88 78 71 68 88 87 80 7d 6d 8a 68 7b 7e 64 95 7b 7a 92 98 98 95 81 87 6d 80 91 7c 64 7c 89 76 77 7f 96 8d 80 80 67 8a 95 6d 8a 64 69 89 71 7e 7d 72 7e 8e 71 96 97 8c 6b 83 76 9a 64 7c 6a 8d 83 7d 74 6c a4 6d 79 61 72 71 99 6b 89 8c 9a 6b 88 8c 8d 5d 7a a1 6b 63 67 92 b1 6e 65 96 9f 92 8d 81 84 5c 2f 92 8d 54 9c 64 82 7d a9 9a 59 79 5e b9 73 85 b4 b3 b8 85 92 7e 6b c4 43 c6 aa 7b 92 7c 89 7d 84 8d 8b 74 70 8d 6e 76 ae 80 b7 79 79 75 77 7a 57 74 b6 66 8b 58 78 8c 7c a1 7a 75 93 6b 88 87 a8 78 91 79 83 81 6a 87 66 ad 92 8d 8c a6 69 7a ad ad 7e 73 97 bf a2 75 69 96 86 3c 90 66 6a 6d 8c 98 88 94 5c 97 70 83 7c 40 94 8a 7a 9a 6a 49 bb 74 6a 91 92 ba 9a 69 75 8b 9d b7 72 81 7c a1 18 93 98 53 91 95 59 6f 8c 87 85 68 91 8f 7f 8c 86 8b aa 72 a3 48 69 b8 54 77 9b 84 6b 90 9a ae 7d 81 85 6a 04 8e 5d 88 c1 ad a1 87 70 83 75 7b 65 75 3a 7e 3d 3b 4d a5 69 80 aa 7c 64 5d 81 47 e8 65 6b 3c be 77 b3 7d 95 7c 44 b4 82 90 68 6b 3c 73 5e 69 b4 a5 86 0a 61 ba 78 bc bb a6 84 b1 a4 86 6b 7c b3 88 9a aa 73 91 5a 7e aa 80 b9 89 bf 66 5f 8d 72 95 cd 62 7b 62 80 9b 66 87 82 59 a4 85 90 84 a7 50 64 8c a9 6c 88 6c 85 78 7d 5d 9b 87 a1 64 6d 8c 80 5a 59 9f a3 a5 91 5c 93 91 92 76 a3 8c 75 7e 74 7b 8e 5d 9d 87 83 98 8b 7c a3 9b 4f 65 8c 97 7b a4 88 86 95 5e 79 8c 88 89 7c 72 6f a8 6d 99 78 81 4a a5 7a a6 82 9c 6b 79 7d 59 93 76 97 a3 95 8d 3e 99 6a a7 63 80 66 6a 70 63 57 88 7b 89 71 7b 97 7d 98 89 99 7f 67 70 89 a3 56 70 86 7b 7f 91 74 73 5f 6e 96 81 a0 9c 8a 96 62 99 69 79 78 69 66 ac b5 79 8b 72 70 84 70 86 7c 74 82 7f 67 7e 53 8d 6d 6e c3 b1 8a 9c 9f 80 32 7d c2 a4 ba 90 a2 89 75 87 c9 97 39 56 90 41 b8 8a de 53 49 61 5e 4c 77 a5 78 81 85 aa 90 af 7e 78 b0 57 62 90 96 83 d0 62 ba 35 6f 76 4b 5d 41 67 88 7e 5f 58 a2 34 5b 50 63 87 68 6f 7d 62 63 76 65 67 8d 85 79 79 61 91 73 89 76 73 76 8f 5b 8d 97 79 7e 8e 8b 79 68 a3 a0 9d 75 6a 79 7a 75 83 65 92 9f 85 8b 5c a0 85 88 82 8b a1 9d 5d 66 8a 7e 7a 86 6b 87 82 83 72 70 8e 67 8f 77 7a 80 8d 89 9c 69 7a 6a a0 5a a4 88 5b 92 7a 68 78 80 88 9e 61 7d 8d 8e 8d 6e 6a 7c 90 7e 92 96 72 84 6c 92 94 96 6d 7b 7b 86 a3 7e 65 85 6d 96 81 83 84 60 75 6d 30 93 84 9c 8f 89 8a 94 5e 8d 8c 9a 75 a7 72 88 87 7a 8d 8e a7 8b 6f 76 85 85 6c 71 8d aa 78 af 91 81 9a 7b 65 6f 8e 96 9e 6d 7f 67 95 7d 8c 80 7c 7e 83 9c 8d 60 81 68 a3 7a 5c 91 60 7e 50 76 8a 8e 81 9b 6a a0 b4 81 7d a0 96 6b 5b 89 71 79 98 aa 67 90 7d 8c 9e 97 59 77 79 6a 93 9d 80 78 3b 7f 61 a6 94 72 61 89 87 68 7e 84 7b 6f 5c 65 7a 9e ad 9e 90 9b 76 62 64 9c 89 9f 98 8b 75 6b 91 67 85 6f 68 75 72 6a 7f 77 6b 5d 90 6b 96 89 68 9c 65 9a 6e 99 80 67 7e 87 8f 5a 8e 7d 86 54 a1 72 8f 8d 9e 93 70 83 83 84 86 7d 5b 9c 8a 90 84 67 7d 6a 7f 70 80 67 77 7b 69 6a 61 8c 80 88 74 4c 6b 62 