97 95 7d 8a 9f 9f 66 96 ba b8 68 b7 b5 a6 9b 70 a4 b7 88 75 93 46 66 65 86 50 73 a0 4e 99 75 8e 2a 7e 78 cb 94 8a 93 78 8b bf 2d b4 a1 91 8f 76 63 54 4b 61 6b 2b 5d 80 83 c2 73 a1 4c 7f da 78 6f 73 8f 91 7b 9b 96 70 40 86 83 94 72 9e 67 9c 8a 8f 6b 61 80 a1 95 87 81 9f 96 75 7b 64 50 91 6e 85 77 6e 92 66 62 70 7f 77 78 88 8e 6b 6b 88 9a 94 6f 97 65 7b 76 77 76 72 67 78 87 97 72 74 7b 99 6c 61 87 7c 64 52 6c 7e 8b 6b 88 ae 89 7f 79 6b 77 66 7e 78 77 71 6e 87 73 63 6b 76 6d 5d 60 6b 9c 80 96 7a 6d b1 44 68 57 6c 88 81 63 89 98 80 6b 68 8a 91 90 92 84 72 86 5d 8d 7a 49 9c 6a 71 4e 62 5e 8d 73 60 8a 9e a5 6a 66 71 7d 86 82 8c 84 78 75 78 80 5c 6a 6d 8c 89 96 67 98 6c 86 8d 5c 67 80 a8 87 8c 8b 57 6c 65 66 71 6c 92 5d 80 9e 88 5a 8c 93 98 95 8b 78 87 5b 6d 8a 92 5e 5b 9b 65 76 ab 83 72 5f 46 a4 92 8b 62 54 86 89 6d 77 7a 80 88 9d 60 94 9f 99 5d 70 70 40 84 7f 81 6a 88 9b 85 2c 52 85 9d 62 7c 72 7f 83 9d 74 75 90 93 96 82 85 8f 6e 7d 90 76 8f 7e 6d 69 90 74 7b 62 7f 70 90 7c 88 55 8c 60 68 5d 77 8c 84 8a 7b 78 7a 87 80 90 5f 70 7f 70 66 59 87 78 8a 7b 66 6b 68 6a 5f 81 81 85 67 8c 6f 63 86 7e 84 65 98 69 5e 85 85 80 7a 68 7f 82 76 76 8c 6d 74 0c ad 7b 0e a5 d7 82 66 a6 6b 85 7b 77 98 65 3c 65 6e 6c 7a 5a 6f 63 94 ba 71 94 ce 7f 64 5f 30 77 bd 71 16 d3 c2 88 6a 42 5e 52 b6 87 75 30 cb b5 a8 85 aa a1 4f 52 d7 b2 8d ac 2a 7b 00 be 7f 6e 88 82 92 8b 9b 77 9f 4f 87 8a 6f 88 75 9f 69 80 6c 5c 80 89 8e 93 8b 62 83 96 7a 7c 5f 98 99 99 81 82 6f a0 81 81 83 9b 81 5b 98 92 6c 78 7e 8c 7a 8e 96 a0 93 7b 68 7a 74 91 74 73 87 6a 65 6e 9c 63 5d 80 95 96 59 76 a1 64 90 9b 80 6e 63 6a 7a 73 65 a1 96 85 63 91 71 7d 95 7d 73 7e 6c 85 90 5b 83 85 75 93 65 56 6c 64 8b 71 70 8d 8e 7d 92 9a 7f 81 8a 75 a4 75 6d 6e 6d 6d 73 9e 6f a0 77 73 c6 57 71 32 69 67 60 3b 87 b2 89 c5 65 bf 74 92 75 91 69 56 97 4f af 68 53 79 7a 70 40 58 99 88 63 b1 5e 67 4c 5a 8b c5 6d 78 8e 80 98 8a 6b 82 74 52 7b a5 b8 aa 88 a4 54 85 81 75 4f 78 88 70 74 97 7b 9e 79 77 b3 30 79 77 57 56 bf 45 64 69 7d b4 59 54 97 55 7a 6d 51 61 8b 8b 8d b4 48 6c 84 36 33 6e 4b 58 64 58 51 81 66 bf 47 82 a5 95 66 91 9c d8 6b 71 7d 57 56 88 77 61 b0 7a b0 8f 56 85 71 78 72 5e 4d a4 ae 7a 89 97 7b 4a 60 7a 72 59 6f 88 78 85 6f d1 9c a1 6d 92 36 44 b7 99 75 53 86 85 a5 b7 ac 92 8c ad 73 b4 82 8e 5d 69 b5 49 7c 98 84 65 6a b5 8f 6f 94 a2 91 ac 5e 77 bc 5f 60 95 91 96 65 5d 72 68 a4 5c 84 73 71 81 99 6a 42 b8 8c 57 17 54 53 7e b5 87 06 85 83 b4 9c 8c 85 6e 90 55 8a 45 78 46 8c 5d 55 5a 5b 7b 55 92 6f 70 68 78 7d 6c 53 7a 95 7c 93 9f 8c 92 76 5d 7d 56 34 a8 62 8f 72 99 bb 65 93 49 90 93 7a 7a 51 9b 85 79 8a 85 5d 98 8e 1c 97 73 99 a9 94 53 ae 7f b3 9c ae 57 94 7e 78 c5 86 79 5b 63 a0 7e 94 93 6b 5f 74 80 92 7e ab 75 94 8a 55 78 9d 78 85 8a 81 67 70 79 67 88 6b 6a 88 97 81 6e 92 84 56 b1 66 6c 98 8d 69 93 88 86 06 75 7a 8c a1 55 5e 80 88 9f 52 8e 67 55 85 66 90 91 99 79 72 6f 86 aa 60 6a 62 63 b5 74 86 4c 8d 9b 86 74 79 7c 81 61 84 1b 91 93 93 69 75 63 7c 7a 7a 8e 75 97 92 8c 7e 70 7b 88 6b a0 91 9d 79 77 6f 6a 81 69 61 69 58 98 85 7d 9a 87 6b 71 6e 82 89 8f 7b 72 9b 6e 52 67 6b 65 a6 75 6b 77 98 8e 7e 7d cb 45 85 b0 7b 9e 5e 85 82 84 a8 b6 56 47 72 78 78 63 3d 9f 8d 59 30 bf 76 ab 70 8c 4c 41 9c a4 8c 76 b6 a6 84 af 8d 8d b2 b1 81 65 af 62 72 54 7f 4b 24 98 bb a3 91 84 8b 74 bc a1 85 bf 79 84 57 80 6e 59 70 ac 71 ad b5 9a b0 b9 8e 79 88 6e 96 5d 3d a8 72 58 54 98 7a ae 5e 48 a2 73 94 a4 75 5b 80 cb 8d b1 a8 54 9f af 8b 85 58 5b 51 70 85 47 89 77 7e 77 86 94 8b 72 97 a6 6d 96 50 8f 7f 6f 6c 36 85 72 94 6b 9a a3 8d 7b 67 92 72 6f 83 90 a1 87 70 8c 95 7f 7e 68 75 95 89 83 8a 77 75 7f 68 8a 6b 64 61 8d 23 3d 8d 72 9d 6a 9c 97 82 8a 63 8f 77 81 7d 86 6c 77 71 81 95 7f 8e 7e 87 8f a5 9c 76 6d 9b 67 4c 64 71 67 8f 72 6d 8d 62 77 8a 95 78 7c 1e 9d 98 98 9c 7b 74 96 6a 8e 75 66 98 51 8f 8d 93 65 9a 67 8b 9d 7c 70 7b 82 77 8b 9b 84 59 4e 7f 4d ac 81 96 49 a4 79 78 8a 7e 7f 51 71 55 97 9d 9b a8 82 73 60 a3 3c 66 77 77 6e 82 8c 6e 7f 39 76 7e 8d a5 98 65 a2 91 a2 96 6b 87 78 7a 6c 96 69 7c 8a 8a 82 77 7d 70 66 82 6d 76 55 81 a1 77 7a 76 85 84 81 9f 8d 8e 72 90 64 5f 5c 7c a1 5b 8c 7e 78 ad 85 75 74 66 79 8f 7d 86 83 74 88 73 98 7c 6c 68 a2 88 59 7a a5 93 63 a3 74 82 98 a2 6d 9c 87 6f 73 a4 92 80 72 aa 5b 50 a2 91 7d 7d 9f 82 6d 85 9e 76 87 89 99 77 97 64 71 6f 8b 70 8c 81 82 76 6e 97 65 84 67 82 8a 99 66 86 88 91 6e 69 80 84 77 99 8e 9d 9b 7a 91 8f 6f 99 6f 95 79 77 96 8e 89 8c 9a 8d 67 83 69 88 79 8b 6a 89 7e 86 92 90 66 be 8c 90 93 c7 79 4d 5e 8a a2 55 73 b2 8a 98 a9 5a 8b 72 6a 84 57 6a 8d 8d 67 91 82 92 9d 78 80 a4 82 9c 9f a2 35 74 ae d3 ab 99 7f 93 6c 80 5b a7 79 7a 66 9c 6d 66 a6 bc ac 89 b4 89 8f c6 6d 78 94 72 90 bd 66 3d 69 99 8f 7e ca ab b6 9c 75 86 95 65 74 9a 4f 48 a4 8c a2 7c 77 59 89 7e 8f 7a 75 9e aa b5 57 8d 62 77 9c 5c 60 9c 75 80 a2 79 5d 6d 4e 84 7b 78 70 a1 8b 72 a5 5e 8b b4 93 89 8c 81 64 82 76 7a 68 73 59 83 96 82 6e 8d 96 79 55 71 72 89 88 91 b4 6d 6b 8e 66 95 8d 73 8b 8c 95 7d 7c 9a 98 68 78 50 75 86 a0 97 a2 69 6f 5a 81 79 95 79 71 8c 97 9a 58 88 97 81 63 a5 86 4e 7a 70 78 87 88 9a 6c 8c 8a 9d 52 63 83 60 73 93 b9 7b 83 8e 97 a0 53 70 86 89 3f 85 63 86 9e 81 98 6d 3f 65 7b 9e 65 6f 4a 3d 65 4a 6a 8e 52 5f 6f 9b 89 2d 93 7a 6f 93 52 87 68 5a 6f 76 6b 66 7b 8a 76 a0 76 80 78 8b 73 a6 88 7f a2 7b 71 8b 93 63 6e 83 a1 7e 56 7c 62 58 5e 7d 90 86 98 76 7f 91 87 67 90 8f 81 63 73 8f 84 a3 94 64 6a 89 9d 8f 80 7a a7 8b 6c 85 71 66 81 92 62 89 60 7f 92 74 7e 97 63 86 46 61 61 88 59 6f 6d 8a 7f 95 5b 67 60 7a 82 8c 5a 95 89 90 54 7c 94 91 8c 34 83 5c 9e 98 76 ae 84 9c 54 a3 3b 87 92 6a 59 78 5d 77 a1 98 a9 a0 af 8b 8c 82 85 84 6b b2 5c a0 61 8c 76 7b 7b a9 56 8d 6d 7c ab 92 91 69 8a 7b ab 64 83 8e 74 52 84 84 af 65 8d 96 b6 90 a3 5b 82 a6 8e 5e bb 87 74 75 51 9d 80 8e 99 94 35 6b 85 5e 8a b7 8c 63 45 c4 a9 6c 87 64 83 8d 9b 92 7c 67 80 64 8f 87 7d 88 82 a1 7d 68 68 75 72 9b 2d 88 81 6f a4 96 84 80 77 18 9b 7c 7b 87 5e 81 84 72 81 77 8a 4a 74 7f 93 74 b2 7f 8a 7f 9e 80 9b 96 81 76 83 9e 36 57 57 6a 6a 8b 60 79 7b 7e 75 55 91 7a 8b 6f 52 84 89 98 6c 96 88 6e 76 85 66 71 7d 79 90 60 65 78 90 65 78 7d 84 8f 44 64 99 6a 71 87 82 77 6c 71 8c 70 89 87 66 78 88 92 8e 5f 74 70 7b 96 85 7f 77 6a 6c 7b 74 9b 77 84 8f 7e 63 a3 7e 95 a2 7e 7c 7e 52 77 90 7e 83 87 6e 7a 6b 5a 97 6c 60 65 5b 4e 7b 76 56 a8 60 87 75 68 99 7d 71 91 8e 7a 8d 7f 9f 7d 72 5f 90 7c 7e 98 93 88 a0 81 43 97 80 77 70 69 65 a0 60 74 88 55 8d 7a 88 90 77 72 91 86 8a 82 6c 5e 71 94 77 5f 73 81 9c 89 73 70 9d 60 68 8c 61 7e 73 8e 91 61 56 88 9f 83 8b 73 83 7d 71 67 5f 95 88 9d 73 96 92 60 8e 7e 77 8c 95 66 7c 68 8e 7e 71 94 4f b9 6a 81 8f 7a 82 82 95 6f a1 86 87 97 77 78 47 7b 6b 78 76 97 92 7a 6a 86 a9 81 9c 70 82 97 75 7d 9d 79 8a 8e 98 5e 85 8a 5a ad 81 88 55 83 9a 93 77 94 74 7d 7b 60 7a 89 8c 85 90 7e 8d 99 98 6b 72 8a 6b 65 83 8b 73 a8 99 72 66 7a 93 9f 94 8f 7d 83 8b 92 65 6a 9c 68 95 7c 5d 8d 83 57 7f 72 71 97 6e 62 67 6f 91 75 8a 6a 78 75 78 5b 87 8c 7f 80 83 7c 8e 6a a0 5f 75 96 7a 9c 52 5d 78 5d 82 b3 7d c1 9b 89 88 c0 33 3e 41 4a 6c 63 7d 63 6d 66 bb 88 58 78 8a 0b 47 93 48 c0 a5 1a a6 77 46 59 c7 6c 61 83 49 5a cc 4d 51 8e 00 62 b5 cd bf 3e c6 83 00 51 36 85 61 74 91 73 4a 99 91 77 78 56 86 95 78 6c 85 82 89 63 76 8c 6d 8f 3c 83 90 95 7c 7d 88 69 7a 8c 95 a8 81 91 57 4e 96 98 a5 8b 98 9a 84 7c 6c 9d 96 77 7f 6e 98 61 8e 76 86 94 6c 72 6d 76 6a 7f 6a 61 8f 75 80 86 62 91 7c 9a 6f a0 73 a0 62 6f 89 79 6a 5f 91 8b 84 67 82 6d 7e 87 67 78 8b 82 94 ac 88 64 9a 71 7e ad 8b 6d 81 7f 81 85 79 98 75 85 8d 7a 64 86 8b 6a 6a 8e 7f 89 b1 84 81 6b 87 84 7f 97 3a c7 72 be 71 04 80 7d 58 56 72 54 df c7 cb bf e7 38 86 7a 94 91 40 5a 8f 76 b6 ab ad 9b d1 22 96 a4 2e 9a 9b 89 87 b1 b2 b5 cb bb a9 fc 8a 96 c4 cb 6b 45 67 bc 5a 51 d8 35 d5 8b a5 fe 84 70 cf 95 75 6f 79 b1 5a 65 7d 51 74 5f 99 a8 aa 7c eb 45 68 8c 81 71 64 64 7c 7a 56 69 9c b2 9e 46 d7 40 49 82 83 5f ac a4 89 77 be ab 58 b3 96 68 89 a6 80 75 8d ad 4d 3e b5 91 6f 72 ad 86 65 b9 72 92 70 65 90 ab 72 a0 89 5a de 51 96 a9 bf a7 7f 58 71 77 93 86 5f 5d 93 84 87 6d b5 90 82 51 5f 56 6d d8 bb 7b 8e a3 b1 94 83 b4 91 9e aa 70 63 93 81 71 65 a2 6c 50 6c d9 c7 69 9b 3b 98 80 c8 ae 32 c3 7f 3b 9c a0 83 33 7d 57 ac 97 6b 6f 5a 6f 36 96 66 74 64 4e 7c 89 9d 98 8d b4 8f 81 4b 89 53 a5 ac 66 ce 92 77 76 85 b8 7c a7 7d 6e 61 ae 9e 7f 7b 88 8d 5e 79 77 8b 65 b7 7f 6a 2b 8c 9b 9b 96 75 5a 91 62 99 1e a2 6c 79 74 6e 6e 80 9c 31 72 7e 89 6b 87 74 8a 71 92 98 70 87 97 61 5f 75 84 99 7a 53 79 63 86 82 ab 67 7f 8d 67 af 6c 64 7e 84 9c 89 86 9e 83 73 8e 6d 7e 93 79 8e 97 7f 8b 91 a0 80 95 77 87 85 6a a0 95 a6 64 7b 47 68 6e 91 81 72 91 a0 66 a5 85 b9 a2 c8 5e 8b 5b 51 a7 c4 6b 87 89 ae 87 b5 b8 60 a6 89 77 72 a4 8b 78 81 b1 62 40 c3 94 b9 6a 7b a5 69 d7 52 66 8e 82 87 94 88 80 7d 86 3c 7e 68 6e 7e 71 7e 96 62 7e 6a 69 9e af 9d 86 8d 6c 80 6f 64 a2 8e 64 9c 4d 8a 89 70 5a 58 56 6d 2c a6 81 82 7b 8e 6a 7f 7b 91 6c 96 82 53 6c 9d 6c 72 63 86 85 73 82 a6 64 80 87 89 8d 2b 61 91 77 5b a0 92 b1 a8 75 1e 61 7e 6d 6a 6f 7a 71 89 70 7a 61 94 8d 8b 52 62 97 8b 6f 74 95 9f 84 a8 73 8f 92 8c 63 7e 76 8a 7c 8e 8f 62 89 5a 98 98 65 a1 79 6a 7c 90 7c 68 c2 94 8a 7f 7b 78 95 8f 73 ac 9e 76 9e d2 6b 88 92 92 67 77 37 88 85 65 54 97 a7 75 54 89 8f 6c 7f 8f 7d 7e 7d 87 4e 89 71 65 72 a5 95 96 8f 8c 7f a4 82 75 7b b2 64 99 7d 9a 8e 86 90 91 7a 69 a3 72 8f 8c 7a 97 85 6a 7c 7f 86 8d 65 6a 81 82 7c 61 64 85 a3 60 8a 73 8b 7e 72 8b 8d 81 9c 94 6c 6f 6d 7c 73 99 8f 7e 6b 71 6f 72 6b 7f 9a 8e 9e 85 6e 92 89 43 9e 9e 5f a2 4b 63 6b 81 7e 8f 8b 6f aa 6d 83 80 81 52 8b 69 71 85 6c 8e 77 72 74 88 66 91 90 50 80 74 98 8e 86 93 71 94 3b a1 62 9b 73 98 76 93 9d 68 ab 6a 6d 95 88 75 7f 88 74 8b 80 71 84 ae 67 9a 73 81 5d 67 ab 3b 70 77 5a 5e 78 94 7b 75 77 79 78 4e 75 8d 6c 70 84 98 75 8f 7c 9a 95 64 7c 84 91 63 8a 6e 7d a2 b6 a1 73 73 69 90 46 59 87 78 67 8c 72 57 6f 62 61 65 97 60 4c 87 78 98 7a 66 90 87 72 80 7a 7a ac 9d 8a 6d 83 58 8f 72 63 7b 5a 8c 91 6b 90 75 69 7e 6d 83 67 72 9b 9a 70 5c a5 75 74 8d a8 79 72 80 8f 8d 9b 88 af 75 8b 80 c1 72 b6 8c 93 93 74 5f 57 79 88 76 67 82 7a 9a 7e a9 6c 65 81 84 b2 5f 78 64 80 78 9c 74 74 73 65 79 88 74 9e 9b 74 6b 7d 68 78 6c 5b 96 83 75 9e 95 99 a3 87 69 57 66 74 a7 7c ac 88 75 82 8a 89 5e 91 85 87 7b 8e 71 7e 7b 90 7c 75 a2 9b 81 7d 7a 28 6e 6b 93 62 80 95 80 93 8f 9b 59 9c 8c 93 9b 80 7d 9a 78 8d 7b 5f 87 89 6c 6a 5c 8f 98 63 64 98 60 92 63 4d 79 85 61 8a 6d 9f 70 85 5b 4d 52 8b 85 81 77 9b 64 9b 8a 8f 71 95 49 98 89 73 96 6d 65 78 89 88 8e a7 6a 6b 6f 6b ac 8a 88 58 ad 93 9d a9 75 76 a0 7d 84 7c 76 61 8d 71 72 6a 8a 8a 88 6e 56 4c 57 9e 8d 9c 85 9b a0 4f 96 a5 88 85 95 82 c6 94 5f 76 7a 94 74 60 5d 77 81 65 9e a3 96 58 a3 92 7e 69 67 57 7c 73 99 4a a3 9a a2 83 53 67 81 97 44 82 6f 8c 86 af 7a 6e 7d c0 ac 8d 9b 38 ac 7d 8b 91 83 85 57 52 89 b1 a2 84 4e 8a 84 6d 96 9e 9a 8a 82 87 72 8d ca 7f 79 6c 86 97 7d 5c 9b 99 62 a5 64 95 96 a7 9c 57 80 8e 64 60 7b 8e 7b 87 a3 7e 76 73 78 6a 62 73 86 7a a8 b3 81 76 53 97 7f 96 76 84 9d 8d 78 5c 8f 91 47 6a 91 7f 4c 9b 8f 63 7d 8e 62 86 6e 6c 5d 75 6d 7b 70 60 6f 8b 7b aa 7e 85 8d 93 92 44 8f 8d 95 99 8a 7a 86 66 66 83 5f 69 a1 85 74 64 75 70 66 94 8f 7f 97 72 97 76 95 8a 80 90 73 7e 70 84 82 87 85 7f 7e a7 9e 81 96 9d 7e 85 52 94 7a 7f a1 58 83 74 94 69 58 68 73 7c 8b 71 8a 75 64 78 92 64 6c 7a 91 87 82 67 89 80 8a 99 86 6b 6a 6d 66 63 82 76 84 7c 9b 8d 7a 6c a7 7f 5d 52 69 83 93 68 73 77 8a 71 a6 ac 91 7e 8a 91 66 a4 8b 92 67 60 87 72 93 96 97 5f 97 4a 72 59 6e 87 87 73 a1 a3 98 9c a5 7a 81 6f 76 6f 72 a3 9b 6d 47 62 9a 54 72 7a 88 a6 66 b0 56 81 69 79 67 9e ae a0 aa 74 8d 74 aa 52 90 7e 7e 83 6e 66 84 6f 5d 8f 83 d7 69 49 d2 87 a0 70 86 74 96 8d 7d 5a 83 6f 84 97 95 94 76 88 62 88 6d 65 99 67 88 78 7d a7 93 77 87 70 5c 58 87 79 82 8a 6a 6b 7e b4 97 a3 61 6c 63 66 a2 5f 70 88 81 7e 5b 8f a1 6a 82 91 89 8c 77 83 82 68 6a 6a 69 59 82 79 5f 41 a4 95 8e 8e 62 93 79 90 7c 87 69 6c 9e 63 8b 8a 99 98 5e 93 74 6b 77 8f 87 8c 79 80 95 87 75 64 87 7b 5f 6a 75 66 8c 7e 97 91 66 85 80 73 8c 6c 87 62 7f 90 66 63 a7 85 6b 9d 6e b9 94 9b 5d b0 ae 70 41 86 a8 86 76 6b b0 85 90 6b 4f 63 48 7a aa 4c 8e 91 a6 a8 91 02 5e b6 80 46 a4 9e 76 70 6f 97 c8 8d a8 72 39 8d 74 57 80 84 7b 72 3d a3 a9 7a 93 67 74 ac 48 83 6a 7c 82 8d 8a 9c 79 60 74 73 85 7e 9a af 62 70 8a 89 91 64 9b 5b 97 8a 60 8e 8d 76 95 8c 40 83 91 a0 92 a1 5d 9d 64 62 8c 9a b8 83 ae 8d 81 72 81 74 96 9d 90 92 88 4f 65 76 88 be 6c 89 79 