0e e9 07 04 e7 ef e5 11 ff f0 08 eb fd 0a 13 f0 13 ef 02 13 ed ee 13 0d fa 0c 0e 13 18 ef 11 10 01 12 05 12 0d f8 ed 03 fb e4 0f 0b ec ea 13 e5 10 f1 f5 1a f3 f9 10 0c 12 15 f4 f5 17 ee 0e e5 f5 1e e6 19 eb e8 c2 fa 15 ff e3 20 0a 14 ed f6 0d ed 1e f2 f8 0c 20 fc de 25 f8 f0 00 e8 f5 ed 0a fc fc e1 ee f7 f4 ea 1b e4 01 ec 11 00 fe 1b ef e6 04 f6 00 e0 20 f2 e9 14 fa 1d ee 11 16 01 13 04 d9 fd 21 0c f2 e6 ee 22 eb 25 1b 09 ed ff 04 f6 08 ba 0b df 13 fe 07 e3 ee fa ec 00 05 07 28 12 eb e8 05 02 f8 14 25 f7 f8 ed 0f 06 f2 d4 0b ea 0e db e3 13 f7 d4 20 1c ee cf ae 15 f1 cc 02 f4 d9 fd 23 0d dc f2 18 1b e0 0b 03 0f 14 14 ec 02 17 2b 08 f7 eb 1a 09 03 0b 09 0d 0e 0a 19 e7 05 0d 10 05 e6 1c ff f0 ee f0 0a 12 0c 09 ff 11 e8 1c ef c6 05 0f 01 dd 1d 14 d6 c7 f3 f5 c7 02 07 f9 03 cc 34 ca f5 db 0e ed e1 09 16 c1 fc 0d d6 f2 4f fc f9 2e 1e 01 dd de f1 e6 1a b7 22 49 f7 ed eb fa 03 09 ea 16 f8 e7 d3 17 20 d6 c5 d7 eb 11 f4 fa 11 cb 04 0c 02 1f 3b b0 dc ee 1d 18 0d 10 f9 e1 fd 05 0a fe fa e4 e7 20 00 ec 08 f5 05 01 0b ea da fc fe 08 01 ef d9 e3 0a 12 03 e0 c2 f5 f4 23 e5 12 13 cf f6 e1 ee 27 f3 e8 fe fd ee 03 16 15 07 f3 15 fe ce f2 ea 17 07 fa 0c fe 21 0a 3b 58 eb da f9 05 2d 02 58 02 17 06 15 0d 2e 0a 1d 2b 1c fe 12 0c 25 e9 34 03 16 de f1 eb 01 12 05 dd ec 0a 40 0f 15 01 d0 e0 0a 10 ec 19 c6 e8 fc e0 1a 1c b8 2c e1 de 20 cf ed 0a 05 ee 07 e2 f8 07 05 f3 d9 14 11 f2 ef fc 00 11 ed 11 c4 fd f2 01 fb 34 0d f7 ea fe 0a ee 19 eb e6 27 f6 c1 e4 fa 04 21 f2 0a fa df 0a 11 0b 03 f8 f1 15 04 1c 19 f5 ee f9 e0 08 2c 14 d3 14 02 24 f8 b0 e3 f8 bb b7 b3 28 13 f9 f9 9d eb 1b 29 0b 04 f9 d4 ed 10 fc fe 31 1b ef 19 e1 02 c5 ee e2 f2 cf e3 0e ec 09 19 c8 f3 f6 00 fe 1f 27 07 cc 19 33 24 13 21 dd ee 2a 0f 06 4d f8 fd d0 02 13 16 0e 0c fe 09 e2 ea ed ef f6 17 08 13 f2 f4 f2 e9 00 02 11 f2 08 11 ed 18 fe fc 02 0d 03 f9 18 01 e0 15 fa 11 15 f4 fc 15 e3 03 17 f6 14 f2 0c f3 ea 0c f6 1b e6 16 17 fa e8 0f f8 f1 e5 f4 08 17 f1 8e fa 3d 07 f7 ca de ef 08 fd f8 19 e7 fc f7 20 26 05 01 e4 15 39 37 f5 e7 31 fc 21 dc ec 0b fc ba f9 ea ed 25 16 1a 14 d8 ed 26 25 ec e4 1b 1b 0e f5 e9 18 e4 f7 20 31 1f 0b be ec ea ef 21 13 d6 df 01 02 03 ea d0 1c f9 c7 f3 10 fb 08 f6 13 fc 4a 1c d5 2e 0a 09 ee e5 0a f5 30 dd e2 09 1a e9 f4 0e 02 0f fe f1 f6 d8 de fb 43 ff 07 10 de 07 f3 e1 08 07 01 f7 ed 28 da f8 1d ea 09 e7 f5 01 e9 f4 0f f1 00 dc 03 fb fb ef f5 04 10 08 f3 19 f8 1a 0b e5 19 f4 17 f9 11 0f f6 14 15 e8 05 08 16 e9 f3 ee f4 f3 e8 eb 16 f7 f0 12 ee 03 02 ed 03 f2 f1 ee 11 10 ef f5 f4 16 09 0b 19 0c 1d e9 ed fb 13 0a 02 1b f3 fa 09 f8 09 1d f7 f5 11 13 05 0a 20 e7 fd 04 0a 01 02 11 e4 05 18 fd 0f ed da 12 f3 e5 d9 f8 f8 1c 0b 13 e9 15 29 e2 07 e8 19 e5 e0 05 00 f1 e7 e2 f8 13 29 1f f5 58 e5 d9 fd 02 2f 15 e3 f9 ee 07 c6 38 1e c6 37 ef f0 d6 fd 1f e3 12 47 16 f9 c0 49 df 35 f2 1a 3f 23 e5 09 4a f7 45 f7 b6 0c cd cb 56 0a d8 08 0d de 4c dd e5 44 c0 c6 d7 26 07 21 d2 cc c4 4c 07 09 f7 fa 02 0d ce 06 ef 1d ff 13 ec 07 fd fa ea fa ff 24 02 05 f8 00 15 1a 0e 15 f5 0e 0b fc ad e2 0d 06 f3 f7 0d fc 05 f3 08 05 e6 fb 09 0e d5 e2 d8 11 d4 0b e9 01 f6 fe 01 f9 25 1e 0e fa f0 ff f3 20 16 19 df 10 09 16 e3 e6 0c 1c eb 00 ee 25 ea 18 01 12 df 10 f5 28 06 df fd d1 0d 05 fe 09 ff 0e f9 eb 14 15 26 12 25 1d e2 13 fe ec ff df d7 0c dc 03 0c 19 05 0c d9 ae f5 13 fa d1 2d 1a f2 db d3 1e f1 f0 f6 d6 0c e0 1a e8 b9 0c f3 d1 bd 01 ea d6 dc 08 09 e9 ad f6 c3 18 e0 28 4c 5b f6 fa 31 fd 34 eb 03 e2 c7 b0 55 5c c9 03 e4 04 21 9d d5 6e bd a2 d7 b6 05 cc d5 d0 e3 24 21 ff 1e d1 f1 fc 09 1a 03 fc 02 0b ed 06 f8 1f f9 07 f4 d6 20 14 1d f5 2b 29 ff fe 1e 31 fd d2 2f 19 ff 00 dd 03 23 db ca 03 f4 21 fa fc 0b cc 0f 1c 1a 23 14 0e 09 20 fc 1d 08 2e dc fd f3 1b fe f9 ed 10 22 f4 fc 05 07 12 f8 f4 f9 0b 14 18 e4 25 fb f7 09 13 d0 14 04 26 12 1c fc f0 0b 01 e2 f5 f4 ec 15 e5 17 2c e5 0c 02 00 f0 02 00 0a 0e d0 fd 11 e3 fa f6 02 16 ee f3 f8 19 03 1d b6 15 f0 e0 3d ed f2 e5 16 1e 25 fc d0 fa ff 17 2c ec db 03 00 18 17 1c f2 e2 f7 fe 12 04 12 06 cc 0a 0f 00 e1 1d f2 21 17 03 e8 0e fa 15 f4 f2 de e5 19 27 ec 37 18 18 0a f7 f2 10 0c 1b f7 f5 20 18 e6 07 19 00 f1 fd e5 f5 f8 f5 f2 f7 10 fc f5 e2 fc 06 0f f5 ef c5 19 20 20 f7 0b 0b 18 fd e4 28 04 00 12 dd f2 fe f8 e1 ef e7 09 e8 ea 1f b3 08 0e f2 21 fe 02 f3 14 ea 22 18 02 db e2 f7 23 35 f2 ba d4 2d 0a 26 df f8 f6 0c 03 2c 00 fc 31 fc 1f 0a 00 16 fc fe 19 1e e6 ee 1f ec fb 01 2b 1b f7 ce 0a 2a 09 30 2f 1d 04 d7 e9 02 f1 d9 3a 24 e7 20 e1 db 2e e9 ed e3 12 19 d8 f2 06 e2 f6 fb f7 18 04 d3 e5 db 1f e6 1a e9 f4 f9 0f fc cd fd fd 43 de ec f4 da 0a 11 e9 1b f9 eb fa 03 08 f7 0d 16 08 c3 e9 ed f5 19 07 f5 d5 f9 09 ff 16 db 04 de 28 03 0a d8 be 1c 01 12 d2 02 ac f5 09 ef 16 1d fd f3 d9 e3 1c 03 0c f7 13 01 e6 06 08 01 02 15 fc e8 23 d3 e7 10 2a 13 e7 fb 06 07 1d f3 2b 04 fc f8 f4 f9 f1 ea 12 fb 02 fe f6 f2 06 15 fd 18 1b 04 0b 1c 1f 11 df e4 fb 08 0a 22 fe 1d f1 12 22 ef f2 d9 18 05 cf e7 fa fb e5 ff 21 e7 f9 f4 b9 16 16 10 ef ff ce 10 11 25 17 1b 1a fe 0d 21 0a f5 00 1c 19 02 09 17 22 f3 1c fc 11 dd 0e 0a 10 12 0d 15 0a 10 e2 1b 01 fc 0a f7 25 e3 c8 b7 cc c9 d9 e0 19 03 f6 ef b9 d3 f6 32 ec 05 ec ec 0b 1b 22 ca f1 e4 f8 0f ef 14 e9 30 ad e6 cc 2d fc c0 f4 e2 e0 bb e6 09 29 d9 de 18 fb c8 42 f6 43 3f d9 16 f9 3a 11 f3 1f fe f6 0e f5 0d 10 fe 06 bf 2d 0a d9 ef 17 ed d3 22 0a d8 1e f4 fe d9 00 fc f3 22 fd ec f2 fd 10 e3 e7 f2 1e 16 81 09 f5 27 f5 0f e7 0d fe 0f f0 16 d1 f2 16 f5 36 0f fc e9 23 e4 eb 03 10 32 03 f5 f5 f1 30 f3 1e ff fc d7 19 e8 21 18 c3 f3 00 f6 e1 15 00 0a bc 31 03 1e 04 c7 ed 0a ea e8 dd 3f d5 04 e1 d3 fc 24 13 05 0f f4 ec c4 f6 2d 28 d7 ca 0d ff 04 f9 0e 28 f4 fc 14 1a 02 04 08 fe 2a 01 13 dc 1a c6 1e 0a f7 02 e0 eb d6 2a 17 c7 11 fa d2 d7 e8 25 99 fd fe ee 2a 0c ea dc 08 1d cf 2b 07 01 e3 bd bb f1 0a e7 00 18 d5 06 dd 01 07 d2 f6 13 f7 31 13 01 1b f6 ee 03 ee 14 2e 19 e5 f1 07 f6 fd 19 1b 07 04 dd e8 05 ec f4 0c 1b 07 f6 eb 1f f2 3b b1 27 1f 09 eb 12 06 2c d6 16 f5 1c 98 18 0b 34 f0 07 35 fd 2f 1b 12 ee ef f0 23 1b e2 0c 0e f1 0e f9 c5 04 f2 06 12 f9 01 e0 eb 0a db 1e ef f1 cc 09 fa d0 08 09 1e e7 f9 d8 ad ff 27 f6 f7 d2 32 46 09 34 e6 fb 17 1d 24 e4 10 15 fd a9 fa fa ff e3 a9 07 ec ed d6 11 0f 26 e6 f4 14 ba ee 38 f1 3f 65 dd 07 2c 19 a9 1f 1f f4 1d 11 42 12 07 e8 0a ef 13 14 0c 14 1c df ed fa 06 ec f2 f7 ea 1b ec e4 ec e0 02 10 0c f9 0d 1e 02 fb 03 08 e5 06 f1 e9 e8 f0 dc ee dc 1c 1f 11 e2 11 03 0b 26 01 0b e6 17 01 ea 14 eb ea de 02 01 e5 fa 0f 18 29 15 12 e5 f6 ef c7 00 f3 fd 11 ea e3 22 f7 13 fb 01 08 06 f0 f1 ee eb 17 f3 e1 07 d4 16 0e 44 10 0b 0b fd 1d f9 e2 ee f2 ce 15 05 dd 06 10 d2 3f 07 fa 06 01 f9 e6 e1 09 fb 02 1a f7 10 e5 eb f9 07 fe c9 ec 1c 0a 00 ee f2 01 fa 1d ea e2 1c 06 f5 e6 ff c8 e4 0f fe 05 e7 02 f3 fc 0e ec 18 0b e3 0f ef de fe ed fe 10 18 f4 03 09 f1 f1 e1 fc 0b e4 00 ff 10 11 e9 03 e6 1c fe 0b da ec fc fe 03 1e f8 29 d4 d9 1a f4 f0 13 f4 07 06 10 24 ef 2d fd e2 f7 14 09 ea cd 0a ec fe d8 26 24 3c fd eb 1f f6 1e 0e 2c e9 ee db 17 31 db 98 1a eb 1f d9 ea 34 d6 01 06 11 f9 b3 f3 cb eb 3d 0a ff 1c de 33 ee 04 fa e0 f1 f5 d9 f6 19 02 f8 f4 10 29 0c 12 f0 09 26 fe f1 fb 1f ea 06 e0 eb 0f d3 fb 05 09 02 10 0c fe f3 e3 ea 06 cb e4 06 03 fc 2a f8 ea 11 e2 09 03 09 22 ec 20 15 e5 0c 35 e3 a6 f5 ec f6 ef 00 f1 3b f4 fa 2c 38 fe 15 f3 f0 cd f3 28 01 df 35 00 e0 f3 39 e3 f9 fc 12 e6 0c f9 f1 2c fe 18 39 42 ed 06 c6 ff 04 07 e4 2c 2f 31 ea 12 0f fe d4 f0 d7 3b ec 1c cb ee 1c 0a 1c f2 ba f4 08 17 16 18 ef df f2 04 ea 16 09 04 b2 13 03 ee 19 e9 e9 e1 d2 e7 d5 2a fc f8 0b 10 e6 e4 0f 0f 14 17 e2 05 0e 1c 21 f4 0a 06 12 f0 20 e7 02 37 e9 2c f9 cc 02 1c fb 28 2c 0c 1d e8 d7 f9 f7 2d 11 1c 0f f8 0e 07 c3 fe 1a 04 07 0b 22 d9 e7 10 ee 0b 1d 05 1a 1a 23 02 ec 09 01 e2 dd fd 12 fd fd f5 28 11 0b 1d 16 0d da 09 fb 2e 09 03 0f 1e f6 ea 14 07 f6 ed dd 1b d3 e6 f6 32 00 f0 09 08 3e eb a9 c1 0b fd 3c 4c 02 e0 1e 08 19 ec c1 06 c7 43 2d 25 20 c1 22 d2 34 c4 1e e2 e2 15 e9 05 f5 21 0f 21 00 be bd 3c 30 c1 1e 0d c5 2a cd bd 3b eb bb f2 ef fa da df dd eb f2 1f 14 01 e2 ea 17 0f 00 fd 0c e9 be 18 13 f2 06 ec ed 0d f3 14 ec bb 12 0f 0e e9 1b fd 07 a5 ff f8 f9 06 f1 f8 04 26 f6 3a 10 dd f7 1c 2a 12 f0 0a 38 38 cd 2c 1e dc cc f7 36 13 27 fb ec e9 26 f5 13 ef 0b 15 0e e8 16 1d f5 0c 03 06 de 07 f0 0b 03 f4 f6 07 0a 18 f4 03 19 fc fd 17 1c ec fb e0 05 10 e6 0a 09 f7 14 06 fe 13 13 e9 0d 01 fb fc d5 f4 f6 12 09 0d 0c 0b f5 d0 15 11 08 19 f8 02 f4 9c fd fe cf 18 f5 fc 0d 05 1c fa 14 ef d7 dd fd ef f8 03 19 0c 08 fd f0 16 21 fe 03 22 0a eb 01 d7 05 ff 00 d5 2f 12 02 ec 17 e4 f0 f6 0a 14 f5 fa f2 0c ec f3 17 08 15 e8 03 ec 0d 08 c8 e6 fd 2f da e6 cd 0c 20 32 c6 e4 fb 08 d4 12 ef 0a f3 17 fb d9 10 ac 02 fd e8 1c cf 1c dc 15 01 ff 2d fd ea 03 e5 ed d5 ed f3 fc ef fb ee 2f 12 f4 07 f8 e0 ec f3 1c da d9 d6 f9 25 1a f7 07 fa d6 fd d8 15 e8 e7 01 e9 fa 0d f9 0d f0 e8 1c d6 02 ce 1b 14 0d 20 d3 f3 2c df 0f fb 12 f7 18 f0 ed d4 0b 08 1b f7 d2 12 f5 ff 17 f5 04 ba fe 0d dd 17 e9 ed 06 f3 13 15 e9 12 39 1c fd 12 10 fc ea f9 1f dc 01 f0 10 fb 0d f3 10 06 12 ed 16 09 0a 08 12 f7 e4 1f e8 cc db 0a 0d e8 16 15 17 15 eb 08 fe fe 16 07 eb 00 d3 f8 12 04 e9 e5 22 14 10 10 11 ee 2b 10 07 11 11 dd db e5 12 ea 09 ce f2 f5 11 17 1e 1e 0f 08 f7 f1 0b 05 f2 f3 04 0b 11 f5 f8 e2 0f 1c 06 e8 fd ff 0c f6 05 f2 f6 0f d9 e6 03 fd e3 0a e1 01 14 e9 13 ff fc f9 15 20 2a 01 ee 16 1b 09 18 fd 06 0f eb 08 19 09 1d d9 ef 18 d1 0d 1f 2b 00 19 27 17 eb 49 fb d4 1a 07 0b 22 17 fd cb 23 05 f6 dd fc 05 f8 25 e3 15 0b 29 dd 24 0d 0a f3 ef 17 e8 04 17 1a df 05 2c 90 09 bd e6 f9 cd 1f 0e 03 f1 fe c1 eb ef ff 26 cc 00 e0 bd 45 3c 1d b8 f8 f3 22 ee e4 01 13 0a 0a f5 1e 0f 26 1a f3 2b 20 0a fc 15 18 0f 02 3b e8 ec 00 f1 e3 ac fc f9 21 47 fd fa f1 21 14 fc e2 44 19 ed 13 03 12 21 f9 fc d9 0e f2 0d c3 ee de 38 c6 e3 fd 31 9d 1e e5 e4 38 1c 04 20 46 c2 31 f1 e9 e5 c7 1a bf bd 30 5d da ff 25 c2 56 0d 36 e9 14 f1 fe 14 fb 12 04 eb 06 ec ff 20 2b f0 a6 36 55 5b f5 4c f6 a4 d4 22 ec 31 4d c3 bd ed 09 16 fa 1b 0f e3 e8 da 02 fd 09 0b fa 02 03 21 01 ea ea fb 02 11 14 be 05 01 07 1a f3 f5 11 cb fc d6 3d f3 f8 05 07 29 09 f9 e4 e3 04 0f 32 ed 0b f0 15 2a 17 03 ea 08 e2 27 00 31 28 07 f7 e2 23 f9 d3 05 06 10 d4 23 f1 28 df f1 0e 02 f4 05 e6 eb f1 f3 05 fc 07 ca fc e0 d6 05 0b 1a 05 eb e8 09 19 12 fd 0f 0c f3 e5 c8 fa fe 01 06 04 17 0c f2 f7 0e 03 20 de f4 ee 08 0a d7 18 15 0f 19 09 0d 22 f9 06 de fa f3 0d 16 e2 f3 2a 09 db 12 14 f1 eb f9 d4 11 19 04 f7 e6 d1 1b fb 0a ee 02 f9 fc 0e 23 e3 ef 04 14 e5 0b 07 f8 02 f8 0d 24 19 da 12 19 ff fa cc fb 21 ed 05 35 17 1d 23 12 d1 1c 08 dc 34 19 ff aa e0 f1 2a 10 da 07 26 cb 24 ed 1f e6 d9 39 c5 b0 2b 2a ff eb 27 01 20 e8 2e da 09 e7 f3 12 0a 10 11 f6 12 11 db 21 1a e3 db 10 25 2b 08 19 18 f0 ef fc eb 3b 21 02 09 da 09 01 fb f7 1c f8 bb d1 fb bf 39 06 c8 04 0d d4 18 10 33 d8 05 18 ec f1 15 21 e4 ec fd dc 0c d7 2b 24 14 d8 f9 1c 0a 0f fc 4b 1b dd be f9 01 fb 0e f8 1e 11 f1 fa 01 d8 da fe ef 2f e7 cc e0 f7 1e 1f e9 c5 09 0a 0b fc e3 f4 11 10 00 09 08 14 fa fb 28 28 e6 0a fc 08 0c 1d 21 eb 01 1f fa ff 17 17 d9 1e fe 11 f0 f8 10 16 f4 13 05 fd 0d ee b0 f6 f9 d8 da e4 ee 12 09 ff e9 f0 f3 f6 c8 0e f5 0e 06 d7 fa e9 f7 20 e4 e5 20 19 d8 f8 30 cd fd 0f fd c0 b6 08 d8 e8 31 39 f9 fe 16 ec dc fd fb e3 f6 09 05 f3 01 32 05 ff 13 ca c8 17 0b e2 ce 10 1c fc fb 3f 23 07 cf 17 f4 23 12 bc f2 f2 0c 0a 00 00 fe ff 04 d9 07 f2 fe fe e2 e4 04 10 0f f2 e1 0b 0c 15 fa f4 f1 e4 e9 f0 e0 0d 1a ff ee d8 fe 2e f6 e5 00 17 0a f7 f6 00 0b 18 17 14 fe 06 1b fd e6 25 15 1a 14 01 e1 f3 ee 15 e9 08 0d f7 14 e3 0c 15 ff 0b c7 c5 26 00 b1 3a 16 ea f0 e8 fd c9 39 fa d9 d7 28 2e 00 0e 25 ef df 92 41 ec 58 f5 0e 1c ff 17 09 41 0e eb ba 28 3a da 15 ff 2f 2e ec 1a 34 d0 d5 01 08 04 bd fc ea e7 28 2d b4 f4 fd 4f f2 de ce e9 07 06 f3 e9 13 0d 1a 0c 2c ed be 13 da d7 46 2f 2b f2 28 fc f9 0e fb bf 2a e1 0f d0 ea 12 ff 23 1e f4 fc fb 10 e8 16 24 3b 09 f1 13 10 fc 0a 1a 1c 2f 25 07 f2 fd 13 e4 c1 02 f0 f8 e9 15 f8 e2 e2 db de 12 09 e6 dd ed eb f7 cb 10 f7 0c 14 fc ed 0a e8 f2 25 36 de 28 fa 15 f3 12 f4 ff ca 16 f5 23 fb f4 11 ea f9 2e 06 18 07 0b eb 1b 1b e5 ed ff fa fe 0a 11 f2 1d d2 05 10 26 eb 89 e1 dc 18 f4 07 f5 22 10 f2 e3 29 19 e9 17 04 f2 25 0b 3a fa 1f db 08 0f f6 19 2f f9 fe ea f1 0c f5 16 05 d1 f7 00 19 05 e2 f1 0c 12 f4 d4 17 f7 07 18 05 e0 f1 c6 0f e3 e3 e4 fd ef d4 1f ce 3c fa 01 01 0a fa ea e6 cd c8 03 16 d1 12 fb 04 02 16 17 f6 eb fa 17 dc 0a fa 02 33 09 07 1b f0 29 f8 02 fa e4 ee 0a fa 0f 10 09 00 2b da 01 06 fc 05 23 e7 37 0e e5 e9 e3 0b 