81 71 81 1c 26 1f ee 1c a5 1b cb 42 3d cf 9c 1b 17 f3 22 ee e1 d9 18 21 3a 95 37 2a 34 18 05 26 e5 1f d1 f2 e9 e7 08 1f df ab 29 19 f8 9e dc 42 a0 4a 8b f8 09 51 9d 1e 34 81 9e dd 27 20 31 fc a5 8c 51 1f 15 29 23 09 4c 08 1a 02 30 60 a9 47 c6 92 4f f4 06 e0 eb 31 f4 c3 15 11 8e 00 fd 03 f7 19 1d 58 34 cd 9c 1b ec f6 d1 ff 0c ce 33 19 20 31 ea 08 fd e4 c6 00 ab 2e 0d 2f 0f ff c9 5f 