90 1a d6 12 0d 04 4a 11 fb 14 22 2f 1b b3 0f f5 17 d9 06 14 12 28 16 f3 f4 15 04 f8 ec 0d e7 01 ec 14 f1 00 fc 0f ea fd 03 05 01 00 07 f8 15 14 09 09 13 f0 ed 0f 08 e1 02 0b 16 1e 0d 01 1e f4 22 41 df 5e f4 dc 11 18 f6 ee ea 56 1b 05 23 f0 b3 10 ed f8 9f 26 e2 82 c8 53 48 d7 1b 39 e4 2f a8 06 b9 43 0e f7 3b 2f fc f5 d5 2e b0 03 62 05 da 17 df f1 d1 2b 00 df b5 34 ea 06 15 02 da 00 17 3a 13 41 14 dd 02 3a fc b6 f6 e7 24 fd 2b 02 f2 e0 0f 23 e1 0c e0 bf c4 42 10 db 26 2a eb 3c 13 d7 09 df 1b 11 29 e9 f7 1f 01 f7 41 03 da fa 0c fa fc 42 f2 f8 12 23 01 ee bb 12 de f1 1e e1 f1 ec 31 bc e9 0d d7 e7 e2 14 25 ef 2a 90 dd e0 2c 08 fe 32 41 d2 0d 35 26 bc fb 25 fe e6 3b db 81 d7 d3 d3 09 5d 54 c3 09 20 5d 1b bd 97 13 ed 6b ee f6 1a 7d 06 4b 51 31 e1 c8 30 eb bf 1a c9 81 b3 81 f5 0c 34 7a e5 17 27 48 70 9a c3 2c f2 5a 10 12 e2 6b f0 6b 5c 28 e7 ce 19 ba c7 30 f1 f8 ee fd fa e4 03 29 0e f4 f7 0d 17 c2 fd e9 f1 e3 df e7 f0 e1 20 f4 eb e9 18 1a 00 14 f2 ec 20 35 f1 3c 9d 09 e6 d5 db fa 03 fe eb ad 2e 97 e4 f8 ea fd df 1e a4 0f 0e 23 c5 bb 0b e5 01 37 ea 0b 14 12 f6 e6 10 fe 0c 0a 1b fb fe d6 02 c8 0c 25 ea 24 47 15 f8 14 31 0d c2 dc 0a f4 08 05 ec e4 e1 e8 23 12 ee 09 1f 0b e3 eb 44 13 e8 3c ea b4 f5 0b 13 c7 2a d8 f6 0c 31 26 19 26 ef db 27 44 f3 2d b9 0c 1c dc f7 e1 fa 09 b7 a7 2e 84 e2 f9 e7 ef cc f5 c0 fe 39 25 b0 e2 fd e2 d4 52 ef 30 28 16 c4 db 03 e8 d7 e3 e0 1e d3 20 15 ae 0f dd 19 31 f5 e1 f2 f7 08 10 df 08 d7 01 12 48 df 81 08 d4 33 d5 14 36 24 08 13 13 28 a1 d7 37 ff 25 f7 fa 2e 17 10 09 fc d7 23 04 13 11 05 cc 1e 20 df 15 d7 f4 2c d0 cd fe 10 28 de ea 24 8d f7 15 04 16 b5 11 f9 27 31 30 aa cb 2c f2 f3 42 d4 3d 01 2d ac e8 d7 a1 03 17 f2 d3 f7 c1 0f b4 10 21 ff ca 09 e8 cf f4 f8 03 89 1a cc 15 08 1d 2b fb e5 f5 03 10 1d 24 12 f4 22 f3 0e e1 09 0b 19 e2 fe e1 f0 e7 f6 fd e8 f9 21 dd fa 19 01 01 19 fc 2b 01 f3 db 0b e8 29 0c ec f0 0f 00 10 f5 f6 00 fd 25 de 13 33 08 f2 ed f6 0b 03 0f 07 11 1f 0a f6 ea 0a 01 ef 16 f4 03 e6 f0 08 01 f0 25 e9 e6 17 c3 c6 fd e7 e0 0d ed 14 12 f6 11 e1 17 02 22 ea 37 b9 eb 09 d1 14 0b df dc c1 1a 10 c4 ed bd 15 48 f4 ff 1f e1 07 f4 d7 16 d1 15 2a f1 ee 81 cd ba 0f 08 24 4e dc 0d 2b 0c 08 ca 15 01 f0 26 f5 fb 1b 1d 0a 29 4e fa ec a0 1d e1 d1 0d ff 27 02 1c 14 0c fd f9 33 eb c1 a9 ea 28 3a 24 0a d0 0e 10 fc 94 0a b5 0f c3 0a 1a eb 29 29 db 39 81 d0 81 08 e8 13 2f e8 0d 22 43 74 ab d0 28 f7 59 e4 06 9e 5c 39 41 26 fb f6 e1 34 e6 ed de 0a af de dd bb f6 0b 57 05 e7 39 09 34 fe f1 e1 0b 3b 0c f9 2a 0b 2f 3c 31 01 d8 ca 04 f6 d5 f8 f2 08 1b f9 15 13 0e 39 10 e0 e7 f2 15 24 fc 16 ed 02 e5 06 f2 09 1c 1a 0b fc f0 ee f3 0a 10 11 05 ef df f9 06 e2 f5 1d f9 0e e8 e5 17 14 01 e3 f4 f9 e4 1b fb 05 e5 f7 ef f7 fc 03 e0 1d f6 03 13 be d1 ac 2b db 2d 2a 06 ff 10 4f 15 af d2 3e e0 4d 16 fe d6 4b f8 12 f6 3f 0e ac 62 ff c6 e5 14 23 0d ee 10 ec e3 1f eb 0a d9 e2 0e d0 05 03 14 09 1c d4 f3 fd 0f f8 0c 15 02 ee dd 14 e7 10 ec fe 0d 14 29 e4 e7 0a ee ed f2 fb 00 07 c1 22 02 13 e0 e1 c7 0b 1e ec d9 fc 11 0b ec 18 fd fd 10 10 f4 fb 22 03 0f e0 05 e6 f8 12 de ea f8 06 19 f7 e1 fc f2 f6 fa 1d cd f6 00 f7 16 f2 02 ff fd 1b 1c fb 00 dd e1 dc 0e de 12 20 1b d6 e6 06 f4 03 06 12 f0 fe 31 24 df e1 ea 15 f4 ed 0c f0 01 9d dc da 01 f5 0a 22 04 11 1d 34 22 12 2c 09 e3 27 da 15 16 20 dd 36 2f 25 12 e6 3e f7 e6 1b e0 16 16 e0 e2 eb 0f fc f8 f6 24 26 ed ef 07 d8 18 14 fc f8 1e 22 f4 09 28 0e f6 ee 19 e5 15 13 1b ec fc fb 27 e9 11 18 f4 13 1a e4 fe e9 b8 16 ee f5 e1 f3 df f7 ef 0e f1 fd 1a f4 df 10 23 fe 18 ee f0 e5 1f f0 f7 fb 20 e0 0f fa 20 ce ea 16 f5 17 18 00 07 d7 18 23 16 fc e8 e3 f8 f4 1f e0 27 cb 20 f5 29 ea 09 2b f4 eb 25 11 dd 00 f9 f9 03 d8 17 ef 16 e3 0a 10 00 22 f4 10 15 e9 16 14 ea ff 03 ed 00 fe e8 0b fd 00 10 1c fe e8 e6 1c e9 f9 0f 10 fb 1b 1b 05 0c 14 1d db 12 f6 19 1b 23 3f f6 2f e5 fa db c8 08 ed ed 0b e1 d0 05 1e e1 e2 0d ee dc 19 f8 e9 07 12 02 26 07 31 c8 18 ff f5 0c 22 13 f3 09 f9 14 ea f8 18 e9 ed 04 1d f4 de 04 f4 c6 f1 f6 12 ea f7 21 15 15 1b 24 f5 0a 31 08 79 a7 ee ec 81 f5 0c d9 e8 81 5d fc 9f fc c0 00 25 1d e4 ae c1 fe 13 9e 3f e1 26 16 7f 06 f7 13 1e 05 ff e7 16 e7 16 fc ec 1b 00 e5 17 f0 1b 17 1d 04 0a 00 12 0a 0d e2 06 dc 10 fb f9 08 22 f0 14 11 11 13 00 1e e1 e3 e9 13 13 1f 17 f3 0f e7 13 c2 e9 f9 e8 d7 00 e5 fd 1f 11 15 10 00 fd 2b 17 fb e4 05 ff 1a 19 df f1 05 ea 05 18 e7 18 fb 09 2a 10 29 09 0a 0b e8 fb 0b f4 04 0d 04 fa e4 e0 f8 e7 3b 3a cc ed 1b 17 02 dd 38 df 13 21 19 f0 1a 3a dd 31 36 14 fa d4 3c d8 cc 41 e3 0c ff 24 e3 07 f2 f8 06 e4 ed e7 e3 ff e6 0b 03 f8 ed 0c 1d f2 e7 04 ed e4 fb 07 04 06 ff 10 0c 17 0c d8 24 df 25 ef fb 09 08 15 1c df e7 db e9 f1 14 dc de 01 14 eb ed e4 e3 0b 00 12 ef fb f9 f2 fe 10 2b f9 0f f1 f1 eb 07 0c ef fe ca e0 e6 e5 fa f1 05 14 11 19 03 25 0f 13 ec f9 f8 0f fe d9 f0 19 26 dc f5 1c 0c e7 1d 24 1f 23 00 f0 08 20 14 f1 31 2f ec f2 0d 11 fe 08 07 1c 16 fb 04 0d 1e de 1d 07 07 03 20 10 0a dd 04 d1 0c 14 eb d9 e7 ce e3 01 18 ed 0d 07 22 15 23 18 15 eb 02 ea 19 e2 eb 11 f4 17 f1 ee 08 d9 13 07 08 19 ef f8 ff 14 0e ce 08 18 2c 04 27 f4 12 02 00 ff f9 20 f0 12 0b ef f7 fd 23 17 0f 22 00 e7 e5 09 02 ed 16 ee a2 00 ef fb df 04 f9 10 f4 0a fc 02 16 84 d0 e5 db 0d 1f 04 b7 0a 42 52 07 dd 02 10 f8 60 ec f7 2d 6c e4 45 69 22 bd cb 3a b5 b5 23 c9 14 f9 14 f0 dd 17 16 0a e9 04 f0 f7 f1 d6 e7 fd 01 f8 f5 d8 f9 03 ea ed 17 20 0b d9 1e 10 f6 24 a5 02 bb 10 ec 16 1e 05 e8 f6 01 2d ed f0 fd 0e 30 0d fc 16 01 16 f5 12 03 1a e3 0a d9 eb 02 ea fb ef f8 ea 00 03 d9 0d e1 fe 36 1b 14 df 0b ef 35 f7 0a c4 3b 05 1c ef 0f ec de 26 18 cf 26 0b 13 1a 36 e5 ee 0c cf fd ed 09 0c df 13 f1 bb 15 2f d9 3f 14 17 01 0f 22 10 e1 e2 12 08 ec 07 03 c8 fb 1a 40 e5 0a cc 0e e6 e9 db f4 f9 fd eb ff 0e 0f 38 17 06 2f d9 bf d9 1c 35 12 f1 53 c1 4d 64 a8 5c ac eb 16 cf db fc 08 a2 a2 2f 0e c5 e9 15 ea 0e 02 c7 b6 fb 4d 46 a8 fc a4 fb a4 2e c0 02 20 e7 0a f2 07 ed 15 f2 04 e5 11 04 da 04 e7 f8 fd ff d2 f2 13 13 15 10 1f 1e eb 17 23 f7 fd eb 07 0b 0a e2 ec f9 f6 ec 14 1a fc 0c 0b 01 1a 1b e6 e5 fd 31 f3 1c 1b 23 ec d4 16 1c dc 28 e0 05 0c 3f e4 e0 21 cf d8 f9 03 0e df 15 11 bb ea 16 fd f1 ec fc db 16 ee 20 ef f7 2b 19 05 2f 03 43 fb 4c d0 02 02 eb e2 ff 03 f7 ad 77 fe bf 10 02 e1 fb 2e ec a7 e1 2f 3d c8 e6 fd 1d cc 5a d9 