95 93 91 5d 6d 92 62 97 6e 75 7b 4d 7c 6f 6c 7e a3 74 99 6e 81 85 6f 7f 91 5e 5d 84 6c 97 85 79 74 6d 62 92 a0 76 8b 5f 76 8e 62 70 80 4b a5 6b 5e 6d 92 86 aa 73 62 88 71 84 a6 7f 82 71 a1 aa 69 6d 5f 6b 68 98 5b 78 47 85 62 76 82 70 80 96 88 90 5d 55 56 47 5f 76 73 69 7a aa 41 7c 85 7e b8 69 80 55 a5 97 72 88 7d 8a 78 82 a0 65 92 72 31 6d 98 7d 92 7a 91 90 75 6c 8d 60 77 43 60 a5 47 aa 70 7c a9 5d 99 88 8d 7e 95 39 6e 8d 65 49 47 79 7e a9 a0 7b a0 a7 91 95 9b 9a 9e 49 bf 83 42 72 93 a1 7c 81 70 b6 84 85 9c 83 57 99 9d 90 96 89 85 9b 8d 95 6e 9b c3 93 82 71 7b 3f 5c 7e 45 9e 86 60 b3 84 ae 96 66 79 b6 94 8e 7b 8d 63 56 5f 9d 80 ae 81 ab 8e 8b a0 5c 7c 9d 48 a9 80 3a 7e 6d 90 73 67 4a 8d a7 7f b5 85 8c 99 7c 94 ad 8e 65 7f 6c 97 6f 87 b3 7a 7a 7d 65 77 61 57 c2 91 c4 7f 9e 6a 8f a8 40 84 a7 0e c3 c5 a7 9a 93 aa c4 6c 95 77 a9 b7 8c b8 69 3d 9c b8 96 74 0c 8b a0 7c 4f 84 ab 9a a8 89 94 83 4b c5 a1 75 11 78 4f 76 3e 86 6e 95 a8 98 85 7e 83 5a bb c2 43 91 84 79 8b 7d 86 70 b2 3c 81 9e 5c 86 9c 59 70 6e 64 74 92 a7 80 5d 97 86 99 a0 b0 30 9d 83 b5 5d 6d 7f 9b 8f 37 a3 6b 60 74 79 7a 72 3e 99 cf 6e 81 7a ae a0 8a 85 87 83 69 78 86 c1 5b 39 7b 5d 6d 89 8c 82 86 5e 52 76 91 8e 58 75 77 81 95 72 9a 6f 9e 8a 6f 92 79 70 8a 81 77 97 8b 5d 68 78 8b 92 9a 6c 95 66 a1 85 93 54 62 75 ac 86 1f 63 74 7f 81 69 7a 8d 82 81 77 92 70 45 84 9b 97 8a 93 91 86 6e 94 88 95 32 7e 9d ae 83 82 70 95 9d 8c a4 92 9b 96 a6 83 8c 53 5b 7d 5f 86 66 7e 8b 85 8f 57 70 79 a0 76 70 9e 9b 7e 7f 2d 8e 88 61 57 87 00 8e 92 74 7f 8e 5c 8c 8b 9c 90 72 85 87 9a 8b a6 44 b0 92 6f b7 bb 94 92 9c ab 7b 7c 5d 9e 96 c2 9d c9 a0 c0 c5 84 50 aa 56 95 7d 86 6b 88 86 4c 6e 63 ac 9f 6a ca 8c 84 b3 4b b4 83 80 3c 8b 33 97 70 a9 bf ac 78 80 85 91 9a 84 80 93 82 86 6d 91 6c 96 75 80 6f 83 69 69 7a 8f 6c 88 6f 79 6c 77 64 6f 7b 95 93 95 70 8e 8c 66 5d 91 75 77 84 7b 90 7b 93 94 75 71 75 78 71 8c 74 7a 95 77 76 65 77 a2 6c 97 87 87 91 9f 6f 79 93 84 ae 8b 9b 77 82 aa 41 6a 97 00 a2 9d 82 80 96 89 b0 56 93 6b 7f 9a 7e 90 88 79 87 94 8d 79 00 81 81 99 6d 86 ac 72 74 82 94 a4 5c ae 8f 73 39 6f 69 85 6e 8f 90 77 82 6d 83 83 8f 00 8c ae 6c 73 6b 93 65 92 77 78 73 8d 7e 60 80 77 8d 69 7b 91 7e 95 76 6f 8c 88 5e 89 64 96 65 68 8e 6e 7c 8b 78 82 8a 84 96 4f 81 75 5e 8d 42 9b 92 64 57 95 9a 71 90 7c 7d 65 78 5a 98 70 8a a3 92 7e e6 8a e1 8a 68 5f 76 e9 a9 fe 82 61 ce a8 c7 ac cf b9 cd b9 74 a3 99 c3 b1 8e 84 01 8b cc 4c 6b 5c 7d 66 9d 00 68 aa 7f 83 61 65 a5 6e 5b 66 74 6d 8b 1b 6c 00 a3 88 c5 6d 92 4b 88 72 8f f3 99 5e 97 75 63 96 5a 7f 93 9c 71 9e d1 5d a5 77 7d 60 5e a0 a9 75 b2 9a a8 86 92 40 83 a5 70 af 7c 7f 72 ad 96 3a 6f 81 9f 9e 71 9d 53 5b 78 78 b8 96 88 47 a5 62 b4 89 6b a2 9e 65 7f 72 a6 6f 65 61 88 54 72 94 92 75 80 81 77 98 71 94 78 93 8e 87 8c 65 6f 81 72 a0 69 75 90 95 a0 90 92 8e 80 7d 8e 8d 76 a9 a1 79 7e 76 75 98 94 6d 9c 9d 60 7a 60 85 8e ab 81 80 83 9a 83 b9 6f 81 57 80 8e 97 92 7f 93 82 83 8a 6c 86 8a 93 60 9b 84 9f 99 98 9a 7f 6d 79 8e 94 71 6f 87 80 8e 77 69 6a 86 8f 7d 76 68 87 79 92 72 71 7f 6a 73 6e 96 91 93 8a 91 9f 94 79 7a 8c 72 96 74 7a 92 87 8b 8c 6b 94 87 79 87 79 62 6c 76 63 83 91 79 90 8c 6a 89 66 72 70 79 7a 81 87 69 8f 7f 88 66 79 8a 7d 77 6a 98 8f 82 74 87 8b 86 83 71 79 65 6f 6f 63 94 6b 8b 69 78 72 89 7e 75 6f 8f 98 6f 79 93 87 74 63 98 53 87 9e 85 9b 7d 8f 93 9b a4 98 7b 88 4e 63 7c 96 8b b9 a4 ae 8a 84 81 98 72 9b 55 97 65 96 94 74 82 6f 73 3a ae a2 79 b4 77 a5 97 65 ac ac 61 66 9c 60 8a 96 84 a0 a7 63 7a 82 8e 8d 61 66 98 90 81 bd 45 96 a1 5c 71 c3 a6 9b 85 97 77 55 81 a8 a3 99 87 c3 b4 9a c5 5e 4d ab 86 83 87 2f 8c aa ab 43 76 56 a7 9a 6b 95 84 86 bf 6d b6 82 6e 48 8d 2a a8 75 aa a9 94 4d 69 7d 58 84 6e 95 6f a9 8e ba 92 ab a0 1b 84 b4 0a ce b5 89 a4 8f ba a7 5f ae 79 a2 a0 70 89 37 22 55 a3 88 7e 39 66 b0 a2 57 8d ad 56 87 66 aa b5 71 cf 7b 93 07 8a 6d 7b 3c 71 6b 82 96 5b 8e 73 8f 22 9b 9a c6 77 b4 7c 7e 6c a0 be 3a bb a9 88 c6 99 6e a8 98 d8 c7 9e 9b 72 ab 8a 63 8e 9b 00 73 ae 6b 94 12 75 a7 90 19 69 a6 6d a6 61 8f c3 6c a4 76 90 6c 5c 47 93 00 82 92 7c b3 60 9b 95 76 68 ba 73 76 7b 6b 94 90 72 68 96 80 7d 8b 88 81 92 66 7f 85 81 93 6f 83 69 86 95 70 81 6c 6e 80 87 60 7e 9a 90 7b 8c 9a 95 90 84 79 5d 85 7b 86 83 70 71 6b 93 80 59 7c 84 7a 86 7f 8b 76 78 7a 6b 76 79 74 95 87 68 70 8c 7b 99 67 7c 5b 6a 9b 84 8b 75 85 7e aa 77 73 8f 78 88 61 55 65 52 95 6e 75 65 6f 68 89 96 69 7a 90 96 79 60 67 90 78 7d 76 7f 9e 6c 7a 5f 52 8e 8a 4d 5f 90 96 89 69 8f 9a 83 64 86 8e 8a a8 50 c8 c4 46 b9 d5 40 a8 9b 81 5f 84 a1 c9 b1 ae 9c c9 ab a5 9a 27 17 85 68 a0 8c 0d 6a b5 bd 00 40 68 b6 dd 80 d2 92 66 c8 66 cf 9b 6c 29 ac 12 ad 77 c1 b4 bc 6c 66 6c 6b 89 5c 5d bc 76 72 95 43 9f 82 74 ae c7 33 7b 98 92 5e 5c 62 bf bd a8 94 a3 82 a9 a4 6d 3e b2 4f b6 81 71 81 8d b1 42 3e 84 98 b3 5f a9 7c 4b c8 6a aa 7c 7e 53 c7 76 8e 77 b7 af b7 55 6a 90 6e 66 81 84 7a 92 76 7a 8b 70 71 35 66 7b 3d 73 79 7e 6f 83 73 83 5b 80 68 6a 6e 8d 9b 77 98 89 a2 81 6c 44 86 67 a3 80 6c 96 62 6a 7b 94 96 7c 7e 74 6b 43 68 6a 9a a1 79 62 83 76 59 a3 77 7b 44 96 96 46 b5 81 88 9a 64 8b 72 8f 94 8f 62 9a 7b 93 6b 3d 8c a1 b4 a7 c0 8b 96 9e ad 6c 52 89 50 8f 74 97 75 9c 98 77 93 6c c1 76 5a 7e 7b 82 91 a8 b2 8a 5f 82 7d 81 b6 65 99 85 b6 91 76 68 a6 66 47 45 89 5d 8b 6c 84 72 59 96 1b 83 7e 84 7c 65 59 7c 5a 73 97 78 8d 6f 77 82 75 8d ac 89 25 61 82 9f 78 69 76 a0 7e 6c a0 80 88 7c 51 77 85 7b 4f bd 66 93 78 c0 6e 65 57 77 74 89 6e 72 7d 4c 63 49 8c 79 71 a2 8c 82 71 91 9f 92 73 71 7c aa 76 85 88 7f 79 97 79 a4 72 7a a8 8a 88 91 81 8d 6a 95 62 85 64 af a4 95 8a 8e 91 90 73 83 8e b0 76 9a 8c a1 8d 9c 97 7a 7e 7e 7a 95 8f 76 7f 41 7f 7d 97 92 63 84 73 85 7f 8a af 7f b3 7b 8e 92 a1 67 61 7e 7a 7f 83 91 6f 73 86 8d a8 8d 83 95 65 af 81 96 88 70 a3 8e 80 80 8f 87 75 ac 8a ad 97 9e 82 68 87 95 73 76 84 9f 91 6f 93 93 af 76 67 ad ab c3 96 66 3f be ce 62 fe 61 2e b4 da 94 9b 80 b2 e6 c1 79 9e 76 b9 b1 93 49 00 90 b2 8a 8a 2a 90 bc c8 00 67 98 bb d1 92 5e bf 66 85 7c c1 52 72 00 97 00 b9 72 99 68 80 5e 94 91 61 d4 80 9c 63 9d 6f 5a 70 63 81 6f 74 52 79 8f 7c 68 a8 86 73 71 62 52 5e 62 74 65 67 58 7a 70 a3 63 84 71 60 8c 7d 98 a7 89 59 91 8e 5c 94 9a 46 9a 68 81 8c 84 80 a9 78 6f 6d 72 69 8b 62 7e 72 79 a2 25 a5 65 72 87 98 8f 5d 92 91 7a a3 7d 7d 6f 56 47 70 7f 77 8a 97 67 7e 92 6c b3 d2 94 55 85 6f b1 8d 6a 77 95 9f 5b a6 88 7b 8a 53 5d 7a 90 a4 ac 8f 86 84 a7 80 6e 7c 6a 79 6b 68 68 a0 69 6a a5 8b b9 72 93 73 93 b8 90 8f 8f a8 9e 98 9b 9a 96 96 84 9a 97 8c 86 7f 88 87 1d 37 9a 62 8d 85 68 83 8d a3 19 68 74 77 a7 7a 7a 9c b2 86 73 a6 8b 62 24 83 08 83 7e 74 70 9e 64 64 8d 92 ae 8b 98 85 7c 89 8e 97 77 87 83 77 70 76 84 8c 75 96 85 89 94 a1 88 79 8f 7d 6e 88 7e 97 78 9b 66 6f 95 66 97 96 73 89 8b 7b 8d 85 6d 72 53 7e 8c 95 6a 80 94 8f 97 7e 90 68 8b 96 97 5a 7e 86 86 70 89 8b 7f 6f 6a 7f 88 7e 74 5c 64 96 71 7f 80 a2 8c 8f 9c 93 69 89 75 84 84 8c 75 75 94 7f 78 83 95 79 99 7d 8c 8e 6d 73 7a 57 8e 70 88 5c 64 7b 82 73 5d 7c 91 6a 82 8a 6d 7d 8a 66 7c 8a 98 8d 54 8d 76 6d aa 80 94 73 8e b8 c6 5a 76 6f 83 70 4a 61 74 a2 aa 9e a8 73 87 8a a4 9b 7e 72 8a 74 5e 91 83 94 7f 71 51 6e 85 7b b1 35 4d bd 7d ae 5e 85 9d a3 c3 a1 77 7f a0 84 6e 7b 68 64 36 60 69 a6 74 67 a4 7b 79 a6 6d 96 a7 7a 8c 7a 69 8c 80 80 9f 8f 9a 78 aa 7d 8d 7b 7d 5e 8e 89 a3 92 80 81 ac 79 80 77 71 9c 97 7e ae 7e 70 91 68 9a 5f 98 8f b3 95 7c 69 9f 8e a4 6d 9a 80 6f 5a 83 0d a8 48 8c 5b 83 50 4f ec 72 57 f8 74 5a 73 35 2e 48 4a a6 4f a8 45 47 44 37 59 ae 8a 16 5d 94 e3 92 68 65 ce 78 25 b5 51 80 58 3a aa 6c 7c c6 c5 8e 88 52 d9 7b 6b 2f 4a 9b 75 7c 63 d6 38 05 98 5f 95 6d 95 a0 62 7d 8f 9f 6d 91 78 7e 6e 65 8a 88 6c 7f 83 85 66 73 75 61 6a 95 6a 8c 77 68 90 96 57 67 7d 95 a0 6c 7a 60 7b 9f 86 8c 8f 80 8d 90 96 93 a2 60 62 76 76 85 9f 7f 5c 89 8e 9c a6 65 a3 5e 80 87 83 83 9e 99 78 70 a5 90 9e 91 a3 86 9b 9e 88 9a 68 76 6b 6c 39 60 82 9f 93 6e 80 6f 7d 6b 4f 93 a6 a1 82 6d 92 9f 79 8c 90 7e 6f 80 64 39 6a 68 7b 77 90 7a 88 78 93 77 b5 84 17 97 6a 67 8b b4 83 68 cb 5b 99 a0 86 49 a1 0a 55 6f 47 8f 64 c4 62 5f 6b 86 8a bf 82 00 56 63 db 92 52 7e b6 8b 21 c2 49 76 76 61 9c 5c 57 61 dc 69 cd 87 b6 8e 75 78 7d 85 89 84 79 b3 34 2e 7f 9f 71 6f 8b 59 85 6a 69 5b b5 84 66 70 7f 88 7d 84 8a 92 9d 91 a0 83 90 a8 7c 63 b0 79 ab 76 8b 66 78 73 7f 76 76 90 aa 6a 84 6a 7b b2 61 91 63 84 5a 95 75 a0 66 b1 87 9e 6c 93 98 75 7c 7b 89 89 81 7d 8b 7a ac a5 7c 87 7a a1 7d 7c 58 87 8e 72 b5 80 8e a4 98 a0 a6 98 71 66 95 71 7e 61 62 69 ac 89 5c 63 65 8c 87 78 95 7e 90 82 5d 9d 99 83 3f 9e 00 ad 64 a3 a3 b7 3a 8f 6c 69 82 72 7e a5 8b 75 8b 8b 9b 80 9a 3b 7c a0 9c a3 9b 99 62 86 a1 7e 94 8f 79 7c 75 7f ab 49 74 62 6a 64 99 6c 9f 79 61 82 7a aa 98 8f a3 78 78 9b 98 8d 8e 7f 70 80 50 8f 78 97 71 90 63 7b 5e b1 96 68 49 af 54 80 86 80 4f 64 d8 91 77 da 8e 5e 94 6f 57 6c 5b a4 8f 98 7c 92 87 74 57 99 91 46 8b 90 d6 6e 85 65 87 6f 3d 90 7c 63 84 6b 9e 81 76 99 d3 6f 6e 43 c8 91 71 6b 8e ad 72 72 94 ba 49 45 4a 86 79 6a 97 77 6e 67 a3 5b 92 82 86 72 64 5d 5e 6f 87 a2 8c 78 81 8a 78 74 9e a9 7a 3e 71 67 a4 8d 7d 76 67 6e 5f 82 87 78 75 92 6c 88 9b 96 da 7e 7b 6b 8a 93 89 84 8b 87 8b 7a 7c 93 54 5a b1 45 c4 82 80 82 8a 98 2e 81 99 8c bf 8a 9a bd a3 b2 9e 42 9b 53 a0 8e 57 62 6f 36 4f d4 8b 60 22 91 76 9f 61 74 c1 48 7a 80 8f b0 a0 af 9d 68 6a 83 72 63 00 5c 7d 54 ae 62 8f 7f 6c 2e c2 bc 7e 82 9f 79 95 50 b0 95 8e 7e a6 86 a0 bf 7e 69 66 a2 b9 aa 97 af b3 b2 ac ab 55 25 95 6e a0 7b 51 7c bd a6 1d 4b 62 b1 be 84 9d 80 6f b9 31 bd 7b 68 29 a1 0a 8e 74 8b b6 9d 4a 72 85 a1 75 73 9e 77 b2 86 71 7a 78 ab 86 9a 74 2f a8 9b b9 a9 ab 99 90 6f 7e 6a 62 72 87 77 ac 3c 91 be 87 7c 46 94 82 6b 63 a0 86 89 7a 7e 73 bd 78 82 91 8c 70 66 6e 68 3b 63 71 7d 5a 6e 87 70 65 76 a2 8e 6b 85 67 7e 94 62 9c 66 82 4c a8 86 60 96 a4 5a 5f 76 78 a2 98 8a a7 94 90 8d 6e 87 77 66 8b 6c 8b 66 9c 90 8b 8d 5f a7 78 54 8c 59 9b 9b 70 8d a6 8e 83 7e 6f 9e 6e 9c 91 92 5d 82 69 a4 53 76 7f 95 a4 7e 81 74 6b a0 7a 5d 7c 9e 85 9c 98 7d 92 8c 8b 9e 60 97 82 89 80 78 63 46 69 93 7c 8a 9e 8f 7e 99 59 86 8f 87 6c 7c 7e a1 99 6e 57 98 7e 6f 75 83 3a 85 70 6d 5d 83 7c 82 78 78 a7 79 a0 64 89 8c 6d 9b 80 85 5f 72 54 5f 76 77 8a 90 95 56 67 79 60 6a 71 98 6c 6b 77 a6 5b 7b 47 88 94 5f 8a 68 99 95 8f 85 76 72 55 74 57 5a 93 63 59 87 8f 80 9b 85 7d 60 6a 6e 8d 71 79 67 83 7e 40 87 74 63 b3 4f a3 97 5c 34 b8 99 68 9b 6b 51 47 6f 89 95 92 7d bd 72 aa a1 4e 82 7b 63 ae 6c 53 8e 88 84 77 71 5a 9b 85 72 96 70 74 99 77 92 9f 8e 7b 7e 6e 89 86 a0 81 b6 6f 7f 89 6b 6d 37 1e 9a 34 7e 58 83 71 3b bf 44 65 9f 42 57 4e 38 1a 26 67 b4 61 ba 65 88 95 57 92 bf 96 1c 50 81 ac 8b 5a 7f ab 7f 39 c3 85 59 6e 06 81 72 65 b5 c5 79 a0 a2 c8 be 6a 5c 75 aa 3b 86 7b b8 33 3d 3f 9c 86 78 a3 84 8d 92 84 88 98 6a 8e 75 50 7f 7d 88 71 ac 82 6a 89 91 82 84 9f 71 a5 56 79 7c 78 83 97 92 99 71 78 91 7a 76 a0 7f 65 a7 6b 89 ad 76 8f a1 7b a7 7d 91 a6 a8 67 80 64 84 45 49 8d 8d 91 77 66 86 68 8f 72 86 6b 80 92 82 86 96 8f 87 95 8a 79 96 6e 92 a0 54 84 a6 6a a2 5e 83 9d 67 64 90 6e 73 98 77 92 5b 65 6c 8f 58 7d 5d 65 6b 74 6c 85 8a 90 88 8c 6d ad 6b 67 72 95 7f 9d 90 8f 6f 5b 9a 83 8e 8f 60 80 8b 64 7e 65 81 9b 8c 84 64 55 6e 5e 68 88 72 7e 7a 8a 9e 6c 6f 85 8d 7a 66 8c 98 91 72 6f 67 70 91 6a 4a 73 69 5f 7d 92 8c 78 62 7c 6b 65 7f 6f 8e 79 81 9c a0 8b 65 73 5f 65 8f 7f 67 a1 99 44 75 66 77 85 72 7d 5e 67 6c 69 8b 74 63 6d 88 89 a4 73 7b 67 5f ad 6b 75 93 93 85 70 82 80 66 65 76 60 53 9f 79 61 5e 93 6a 88 87 7b 6c 53 66 9e 97 60 79 6d 96 49 8f 44 8f 7e 97 66 5e c4 78 75 9d 58 77 65 54 75 4a 55 78 66 7c 8d 5b 72 92 84 8f 75 41 8c 90 c8 71 51 7a ba 95 55 a0 3e 77 8b 7d 67 67 82 5e 9c 61 b6 a9 b8 8d 84 78 88 81 7d 79 6c a3 3b 53 9a 6a 77 79 6d 92 95 79 6d a2 6e 60 77 93 76 7b 97 8c 7e 68 80 71 66 87 65 86 6d 82 a1 8c 79 66 7d 92 8a 84 70 6a 72 83 73 61 61 7a 83 8b 97 94 5e 6d 88 68 9d 71 6e 60 6f 6d 97 63 60 72 84 8a 7a 99 a7 75 93 6e 85 77 67 84 80 88 98 9d 87 72 92 93 a6 a9 8b 9a 82 91 99 65 7d 34 a6 8b 75 80 57 61 79 9f 53 6b 7a 87 75 63 9a 7b 8f 82 42 99 87 74 51 6f 3c 94 69 81 99 a0 6c 82 6f 99 84 91 5c 62 8f 7a 9c 87 7c 9e 6a 8b 8e 51 8e 91 86 86 94 a4 8a 83 a1 73 8a 97 70 79 a5 85 50 60 7e 7c 64 62 81 82 7c a0 7f 67 94 63 98 bc 84 a2 87 6f ab 71 82 81 7c 77 85 70 9d 68 a7 75 62 7f 81 45 ae b8 f5 74 d7 23 e5 fe 22 71 ea 3b c4 fe 75 77 4a a2 f5 ce f1 d4 ec d8 fe f5 76 0a dc 88 e2 8d 00 8d fe fb 02 1d 83 ac ea 7a db 86 8d c4 58 e1 73 95 00 7e 00 c0 87 fe e9 da 00 81 88 37 b7 4a 