18 17 ed e5 02 18 13 fd 0f 06 0b fc 01 f9 ef fe 13 f5 e7 f2 fc 07 09 10 f4 f6 f1 13 fd eb f2 f6 07 0e fb fc 0a f3 12 f3 15 0c 11 02 f8 1a e7 f1 0b fe fa ff 15 f5 ff fd f7 ea f5 05 f3 05 14 e7 f4 f1 09 1d 16 09 f2 18 09 0a 10 20 ff f3 ef 00 f7 13 12 1e fc f1 16 22 e7 f3 13 17 07 e5 f4 1a fb ed e6 ed fe 14 19 00 e7 fa 15 e3 0c 04 ef f0 14 f7 e9 f5 e4 0e f7 f2 1b f8 03 fb 1c 0c 19 06 f7 e8 f8 f0 e6 ed 11 f4 e6 11 14 0c 18 e9 1a 0a e9 0b 05 f9 0b e8 fd 19 f5 f2 08 18 f0 fd 04 06 18 f7 0f 1b f4 f3 05 f9 00 eb 0e ec 16 fc 0c e5 12 02 06 0c 00 0b 0e f7 0a 11 0f 08 11 08 ed 03 11 08 f5 e7 e6 e5 0c 10 fd 0d 0a 04 03 ed f0 f0 ee f8 0d 10 00 17 f3 04 03 19 f9 04 fc 10 0f 13 07 18 fa f8 eb 04 17 f7 f6 18 04 eb 08 0b 02 00 e8 ea e8 f8 18 f4 e8 e4 e9 11 e5 02 08 e9 19 1a f1 0a 17 06 ef f2 17 e7 f5 ff fb 17 ed 0f 01 fc 15 fa 19 e9 19 15 07 02 e9 1a 14 0d 17 f3 12 05 0b 11 ed fe f9 07 fd ec ed 15 02 08 e9 fe ea ec 00 18 11 0b e6 18 04 fc 00 f3 01 01 f7 fb 0f ec 02 18 04 05 19 14 09 15 07 12 0f 1d ef ff fe f5 0c 01 fd f5 19 f9 18 f4 fc f0 06 0c ea 16 f7 21 e3 08 10 f3 f2 05 1e 02 12 12 e9 05 0a 1c fb 0d 23 e1 07 11 0d 0e 12 11 18 10 ff 09 00 16 e6 11 14 ea 1c 04 c4 df d0 df f5 1b 00 2a e0 2b fb e2 df 18 0d 0e d1 20 1b 1a e2 0a 1a f8 18 28 e1 01 2a f5 23 03 11 1f 17 d4 25 29 f3 10 e6 f6 03 fe f5 0a fa cd 11 f8 1c 14 fa d7 02 e3 ec ea 20 02 e1 e8 04 c7 d1 09 04 e9 f4 05 e3 20 f8 31 d7 f1 fc 1f 04 23 1c 37 d3 f1 0c 17 17 e9 26 2f fd b6 09 2a 3b cb f5 e5 ce c5 2a 2b f4 ea ee ef 4f 18 f5 15 e6 cf 0a 2d 3b 22 25 d8 02 28 d6 d2 f4 ed b0 ab 09 c4 16 ec f3 14 1f f6 0b d8 ea 0b f1 39 b5 f0 45 af 25 eb e8 2b 08 09 09 fd 12 fa 0d 3b fb f2 22 3c 26 12 ea e4 0d 2b 0b 0b a8 11 1b b8 ec d1 98 44 0a f6 1d 35 0c e6 ad 07 1f 17 a8 f5 c2 15 e7 f5 ee d1 e8 16 24 0d 0b d9 04 16 01 38 d5 04 2e f2 0a 00 f5 fc 25 de e4 d0 fc eb 25 04 df 45 48 4e b8 e3 13 d7 f5 d2 e0 e6 b3 df 1a e0 16 0c 1f fd ea d9 d1 1a 06 0a f3 fd 1e 3e db 0b d1 f6 dc 10 00 06 ed 13 01 04 f1 f1 ff 01 29 1c c7 ff 11 b3 01 eb 2e fc 33 e8 17 e7 af d3 0b ed f6 25 f4 36 ea f1 f8 e7 f8 e8 fd 05 ef 05 16 d1 12 f2 1b 33 d8 e1 0c 29 25 1a 06 f0 11 05 d9 15 f8 2a dd 0e f5 f2 2f 06 06 02 f8 ee 0c f5 f1 26 ff 13 07 01 0d 0d 1c f3 b4 f6 cd f3 d9 fb ef db fb 21 11 10 00 fd eb ef f5 f3 1b e6 f3 02 0e de cb fd 1b 10 04 04 16 f6 0e c6 ec 21 11 fb de 32 12 fa dd 12 e4 0c 1d 02 02 f9 0d 0f e4 ff 18 06 07 d6 0b 01 fe f6 16 17 bd 15 11 eb e8 f2 e4 f0 ed fa 10 fc 11 f7 f4 11 f7 d9 d0 fa f7 10 f4 fb f1 01 05 12 0f f2 0c 12 f8 1a d8 18 f9 0f fa 09 0b 24 e6 f1 21 0f c6 22 06 08 0b 07 e7 13 e5 0c f8 07 1e f6 06 fa 13 03 dd e9 e8 21 0b ea e3 e0 09 1f e8 0b 0a 00 f4 0b 09 1d 03 12 ec 1d fe ff ef 0d 16 ec fd fa ec fc ff ff 18 fa 1d 01 04 e7 f2 ee fb fe 13 13 1b 0e fe f3 f1 11 0a 1c f3 e1 0a e1 0d 0a f1 08 18 0f df eb 03 12 da 1c f2 fc 0d 31 f5 09 ee ff f3 0f 11 cc 26 eb 08 d6 1c fe e7 1b 14 10 10 fb fd 13 17 05 04 dd 07 06 0c f6 37 e0 e3 1e f2 19 03 12 ea e9 f6 f6 fa fb 11 f0 25 ed eb 0f 0b ed 03 fe f2 fe e2 13 f7 05 de ff fb dd 0a f8 06 f5 f5 09 00 e1 fd 0d 07 f5 e7 03 f5 e4 e5 f8 fb f7 14 0b 10 16 e2 fe 16 fc f2 eb 0b fb f5 ea 1b 07 16 f9 e3 15 1c 38 ea fd f9 f2 23 25 de 0a f7 f5 c0 e6 1a ff 0c 11 f9 f1 f1 28 fb f5 fe 1e 01 13 0f 1d 0e 07 cc f4 fb fd e1 09 29 fd c9 f4 f5 e7 e8 09 19 19 24 fb 06 09 28 f3 0e 02 0c 11 20 fa ed 05 f5 1a d2 05 f3 17 f0 0b dd 04 01 f6 f4 10 fe 13 11 f2 e3 fb ed f3 05 02 eb 18 ee fa 08 00 0e 15 1d 08 23 f1 d9 23 0f 21 17 30 11 15 f8 0b fe 18 e4 fb e2 ec 1c 04 17 d4 d7 ec ec f9 f7 05 0b 08 17 f9 e2 fd 00 1c fa f6 f7 ff e5 fa 0d 1e ed f5 09 16 3f f3 fc 0d fe f6 fb 18 ca 23 ec f0 06 0a 0f 07 08 0b 10 fd ea e8 00 db f7 e3 05 f6 ec 0a 13 fa 49 17 09 0e 10 30 18 ff f6 19 f3 0f f3 24 13 15 f8 09 f8 f7 e2 14 0e d8 08 da eb 19 fe 26 f8 1e 0a 1a 1c f6 0c 19 0d e9 e5 07 0d f3 ef f5 1e fd ee 09 fc f0 21 0b f1 1b ef 0c 19 e8 0f 25 ee 18 ef e5 08 15 e3 db f0 fa e5 ed 2c ee d2 f5 fe 02 fd 15 fa f5 0d f2 ed 16 1e 07 f2 02 06 1f f8 15 04 15 db fd 17 fa 04 01 16 11 f5 fd 18 fb ed 1a c9 e9 ef 1f 19 22 db fb 11 f0 f8 05 da 06 f4 0c f3 1c 00 f8 00 f8 f5 d8 08 08 fc 11 27 f3 00 ff 13 00 e9 f4 e1 f5 07 04 f8 0b e1 0b e8 fe 15 fc cb 0f 14 0a 1c ea f9 ed fe ff 09 ef 0c f6 f5 f8 06 03 f1 ef 11 00 f0 38 f4 f4 01 0d f7 fa fb dd 19 1a e7 f7 e8 0e 21 f4 f3 17 25 ec f0 20 1a 16 f3 ea 0a e4 21 ec 02 f2 15 18 f9 0b ed 09 f7 ef e1 0d fe f7 18 07 0e 02 0a 0c eb fa fa 1b e8 ff e5 0f ff 13 0a 04 1e e8 ec fd 03 e0 ee 0a fb 10 e7 13 f8 fb fb 03 02 03 ef 01 01 fd 15 fa ff 12 fc 07 fc 07 15 f7 f2 fe 0c 00 07 0b 0a fa 09 e9 f5 f7 ed 08 0c ed 1b 16 fe f9 ff fe e6 03 16 10 01 03 e7 17 0e f6 16 07 12 02 f4 13 11 f4 0a 02 f4 12 02 07 03 ed f7 00 ff ea 0f 12 0a f1 01 00 0f 18 06 f2 15 12 f3 f4 02 19 e9 f7 f6 14 10 11 0f 06 e5 f6 16 10 16 01 13 06 fc 13 ed 06 fd 02 01 0f f2 00 ff 04 09 01 03 06 19 14 06 01 01 fa 04 04 ff f8 11 f9 f4 f5 13 fb 15 12 e4 f8 04 12 e7 09 18 f5 e5 ea fd f6 03 ee ea ef fa f7 11 ea 0b f5 07 f0 f1 e5 0a 06 ea 07 12 09 e6 07 e6 1a f5 16 01 f9 16 05 ed 14 0d ef 04 f4 16 14 11 06 e6 fb f9 0a 06 ed f7 12 e8 02 0e 01 f1 f7 f6 f9 fd 09 05 f3 03 eb ed eb 11 13 e7 0b eb f0 0c 18 fb 16 ef f9 0e fe e7 f5 ec 1b e5 0b e6 0f 11 12 fa ef e4 07 e9 f2 0d 17 fd f9 f7 17 ef fb ea ff 05 e5 f5 04 ec f6 e5 f3 02 e7 16 f9 f1 11 13 0f 07 e5 ed e6 ff 1b e8 f0 14 00 fa 05 e4 19 e9 ee 07 fb f9 f3 14 f4 08 f1 0b fd 0f eb 0e 03 f5 14 e7 0d 08 ff ee 0f f2 1a 11 fb e8 1b 09 f5 11 fb eb eb f6 f8 fd fd 0f f7 f6 1b f1 f9 f3 09 e4 04 19 07 0f 01 0b 08 f2 f5 17 11 e9 e4 fe eb 1b f1 02 f6 f0 e5 19 0b f2 e8 fe 0c 15 f3 fd 17 e7 f2 13 0f 09 0c e5 19 15 16 f0 f4 f8 00 f3 13 f3 fc 18 0f f4 19 f7 e8 f4 13 10 e8 f0 f6 e6 02 1a 1a 19 1b 0e 17 0d 03 fa 19 19 18 02 f0 ff 1a f9 09 01 09 10 e8 0f f1 ea 07 16 01 10 06 eb 07 0a fa 0c 12 15 ee 1b 0c 0e e9 08 0c f4 ef f4 10 0f eb 1a ff 11 0a e9 e8 f2 e8 ea 15 13 e7 e9 0a 08 ee e8 18 01 f9 f5 f3 e4 e9 e8 e8 f2 17 ee fe e7 03 15 07 fe ec 14 eb 0e f1 f4 e8 fa fc ee f6 ef 04 18 0e 0a ff f6 ee 13 0b ff f9 03 0f 11 0f 0e f0 15 e4 02 10 18 01 f5 18 04 1b 09 ec e5 f0 f2 03 05 e9 e6 01 14 00 e5 13 fc 06 f1 f1 09 13 f8 f2 04 fb f7 eb e5 ef ed 02 f4 ff 12 0b 0a ff f3 11 0e e6 fd e8 05 f5 f5 0a 17 0c fa e6 08 14 15 07 15 f8 f5 f3 fe 11 1b f2 10 09 05 03 17 03 0c 0a 0d e8 1b 04 12 ea 02 f5 04 f2 e8 fa 00 06 e6 e7 05 10 16 00 06 04 1a ef 16 f8 ed 18 0f e5 01 19 06 01 f1 f4 0e 0e f2 17 ee 0d 04 03 19 0e fe ed 10 12 02 e4 12 0c 09 11 02 21 0a 0f 1d 19 16 18 11 f6 11 01 18 f6 2c e5 08 f3 ef eb fe f2 15 01 f9 1a f8 06 0a 00 fb e8 e9 04 06 03 19 0d 05 f2 ec e8 16 0c f0 0a 17 12 e9 09 07 f1 f9 f4 14 10 f1 f9 f0 0f 16 18 fc e6 03 0b f6 fd 11 eb 03 e9 f9 eb 0f 04 fe f6 f6 ed 0f ef 11 f9 02 f2 e5 e7 07 06 0c 02 f2 03 05 01 f3 03 e4 10 0c f7 fc fc 19 fc 03 f4 f1 0c 04 fa 02 e6 f8 e9 0e 0e 0f 1b 14 01 09 fb 15 f5 fe ed 13 f3 11 ea e9 19 ed e6 f1 ee 12 0b f7 05 0f e7 17 07 07 04 15 f4 e7 e6 e7 f1 f4 1a 04 ef f3 02 13 00 1b ee 15 f8 1a 0d 08 f8 08 04 07 ee fd 1b 15 06 17 ed f0 10 f8 f0 f6 eb 06 eb ee 0b 12 eb 07 ff f4 06 0b 05 1a 12 fb 0d ec f4 19 f5 e7 0b fb 19 f7 18 0e 1a ee e8 ee f1 fd 13 f4 f5 e8 0a ee 0f f1 0d 17 f0 ec f5 03 ea ef ed fc 02 eb 08 10 03 19 f3 f1 fd 16 0d fd 17 ee 01 f7 f9 0d 00 14 0f 24 f3 ff fd 0d 12 05 16 ed f3 fb 04 1b 01 f3 22 ee 14 09 ec f1 11 12 03 f9 06 fd fc f0 f3 0a d8 ed fc ed ff ec 14 f7 ff 00 08 00 f1 07 fa f5 fc f1 11 f0 f0 fe f0 13 07 fe f5 f8 ee 0a 10 fc e4 db fd ea d5 d5 e8 cb 0e ea 21 e5 f3 12 fe ed f1 fb 28 e9 ef ce 2a 24 03 04 28 d6 fb 2c 0a 06 1b 17 29 fb e3 1f 1e f6 f6 17 05 17 dc d8 25 13 dd 23 23 19 0e e4 f6 f6 bc e0 dc f3 f2 fd 1f 43 0e 03 de 0a e0 d0 a2 46 ac f0 f5 03 ed 00 b4 bb 0c 1d e4 f3 c5 06 0c 0a 44 f9 e3 2d 4c 2b 00 01 f2 1e 33 4d 2c 18 e4 f6 05 01 50 df 2d 14 21 07 1c 26 fc e7 cc f2 f5 ff 42 0d 11 e4 f7 e9 f2 1a f4 13 10 ec ff fb bc d0 cd fd 2b 24 09 ea b5 eb f8 e5 01 d4 bd 11 22 e7 04 b0 15 f7 00 42 06 b2 40 87 c6 1e 32 18 e6 10 e9 22 1b d9 b3 d5 c5 3f 32 33 4b 1c 12 ac 48 d2 ea c7 b4 22 e3 cd 34 3b 23 f2 ac 13 f6 c2 b9 29 be 14 ec bc fe 33 0b dc 02 45 f7 ed 02 ed ef f8 29 34 ea 31 4d 0c e9 0a 1d f6 9a 1d 2b 1d 06 e4 19 0a 11 bc 2f 27 ee 35 e2 0c 03 04 eb f7 0a d3 05 1d 2f a0 00 f8 15 0a df ee 0a 12 19 18 fe e7 e2 ef e9 ef ea ed 0a f7 0d d5 09 0f e0 d2 12 08 2d d5 0d 0e 22 0d e6 16 04 fe d7 e4 fa fa fc 06 fe ed 0c 09 0f f5 0b 11 e9 00 e9 06 e2 ed f2 10 17 13 10 0d 0c 0a e8 0b 04 0d 29 fa 15 e2 0b e8 e1 f2 08 f2 1c fe 13 05 03 ec 0f de f7 f4 03 ed 08 ab fe f1 e6 0f df 10 f2 14 ff 0e fd f3 fa 15 f3 04 21 10 fd 13 cd 18 fe f2 17 dd e1 07 17 f6 10 12 0b dc 2c f6 f0 e5 ed 10 0b fd 0c 1a 03 05 01 06 e9 1a fb 0e 0e 05 e7 fc fd 0e 03 f7 fd f9 01 12 0f 01 06 f1 0a 02 ef 0f 21 1a e8 00 00 db ec 00 e3 f5 0a 07 e8 f6 f5 ee 0c ed 0e 17 ef 0c 09 fb f0 e7 07 10 f6 19 13 f7 05 06 fc 14 f1 f8 fb f5 ef 07 0a 0c 12 e7 ff 10 fa fb fe 0c 08 0e f7 06 02 fe 0b f8 f4 f6 0a 0f f4 dd fd e3 f7 df fe 0c e3 07 f9 09 ee 1a f6 fe 03 05 1e f6 0f 00 0f ee f8 f7 ec fc e7 0e 09 0a f2 d3 02 07 0e d7 14 12 0f 12 19 0b fe ff ec 1a 11 00 fb ac 13 d3 ef 01 de 17 10 f5 06 0f 00 f3 ee d9 f5 09 0b af f5 ee e8 07 ec e7 d5 16 f9 f3 fe ef e6 e8 1b e3 e6 0d 04 fa fd 0f 1f 11 f3 17 0c 0e f0 0b e5 16 e8 00 07 fc 0e 07 03 e2 f7 ff fe ee 0d fe 05 10 10 ef 0f f2 00 f6 14 f4 14 04 f1 1a f8 fe f2 0c e6 11 f7 eb 06 16 db ef 17 eb 08 0f 16 fc ec 0c f4 f8 00 f0 07 f1 f9 f3 11 fc e7 06 e9 ff f1 f9 dc 0f f5 e4 f4 f9 f2 11 e6 0c f4 03 fb f8 0c fc ea 02 ff 20 01 f2 fc fa f7 09 01 1f 06 08 08 1a 0f f9 f6 fc 00 1b ee f9 f4 07 17 ee 0e ee 05 07 01 fd 0a 06 fa 10 eb 24 08 0b f0 18 fd 01 ec fa f9 fa da f2 f3 07 11 e7 10 01 00 23 03 c5 f4 17 0c 06 fa 22 fe fc 0d 01 de 03 f3 00 1d e4 0a 1f f2 1e 07 d9 28 20 0e 1d 1c 17 de 0f de 0f 24 03 18 07 20 09 ec f4 24 0b f8 f6 03 e2 11 0a 0f 19 e4 fe 01 14 0a 1b 1c 23 02 c8 f6 ca d0 20 00 fd 16 f5 08 f3 05 21 ef f0 2a 0a ef 04 27 08 14 f6 fe 0c 0b 19 f1 f0 f1 d5 25 2d 00 ee e9 d0 e1 e0 f8 dd dd 0e 0c eb 21 f1 29 0a dd 0d e3 ee ff 25 15 f9 ff 01 fa f9 03 f4 25 34 04 e6 f9 13 01 cd e2 29 06 02 27 0f eb e7 1e 9d e8 29 24 0d 19 cb 11 f4 04 f1 ce 01 ea 00 f6 fb 05 fe f0 fe e2 db 06 f9 ee 12 ff 16 1e 07 05 02 12 dd 09 f0 f0 1e db e3 fd 17 04 e3 01 db 08 d0 f0 e8 2f 25 ef c6 06 f5 03 18 fa 16 fa df f3 a1 e1 f3 ed 11 ee ea e5 01 f3 f1 22 f0 e1 09 eb e3 f8 e6 e8 1a 16 e2 15 0e 03 eb 18 ff 0a eb d2 09 24 f1 e3 05 06 08 00 f0 e9 05 f0 fd 07 14 df cb ee f2 00 fb 0e e7 16 cf 19 ee 05 e8 ed 0c f5 e6 d4 0b eb e9 0c ee 18 1c 13 04 11 18 e1 07 17 12 02 12 0f 05 11 f7 04 f7 09 10 17 08 e8 05 e8 f4 e5 17 fd 03 f6 e2 15 00 0c 16 00 fa ee 06 0d 23 07 11 f6 08 04 03 09 f5 02 f3 0d f2 e9 fd f9 0c 05 05 02 ea 18 14 f9 24 03 14 f6 fa 03 02 18 05 e2 fc f0 f5 f6 07 f1 f5 ec 06 04 0b e8 1c 04 fe d1 1d fa ff 05 f0 09 fe ff 18 ee 03 f0 ec d6 08 f7 07 e9 02 f4 01 01 09 f5 04 06 fc f4 14 ea 02 18 f2 0a 07 08 cb e5 11 1e 06 04 f4 0a 06 12 11 08 0f f2 e9 f9 0b f4 16 07 12 ef ff 06 0b e5 fc e4 f7 ee 00 f9 ff 00 f5 ef 0c 07 07 ff f4 11 f5 ea 02 0a f3 ec de f8 fb 00 f2 ed ea 14 ff f3 04 f8 ef 14 15 fc e8 f6 15 0a fc 06 0b fe f3 07 e2 13 fd 05 f1 25 f3 0f f9 06 df e0 15 cb f9 0c f8 01 dc f8 18 1d fd ec f8 e0 06 0a 04 e5 ea f1 f9 17 ec 0c a9 f6 f4 11 09 04 07 10 07 06 11 e1 19 0e e6 1f ec ee c5 05 18 e5 e9 06 ee db fc f2 06 08 1d 14 0f ff 14 07 fc 03 04 e2 ed 1c 11 f5 ef 10 01 ea f2 f8 16 0e 0a fe 1f f5 f8 f6 12 e7 eb 10 fd e5 01 fb f4 f0 f8 16 f2 f7 17 01 fe 21 ec ee 0d 0e f6 f4 21 e6 11 e9 0c 08 06 fc 08 ee f0 0e 13 ed f9 eb e3 fb 04 11 fc 07 0d 0a f7 fc fb f0 07 fb f9 fd 16 01 0b 02 dc ec fc 0a f7 f3 00 16 0c f2 f1 fa 0f f5 05 f2 05 0a 16 fb 03 ea 28 0c ee 0e 14 f7 2d fb 19 ff 04 08 ef f4 13 0c 1b 00 02 ee f9 12 03 d8 14 ef 1e 06 ec 19 e5 0c ea ee 18 1b fe 01 1a f5 f5 17 f9 eb f8 07 fa 00 1b 11 10 f7 0d f3 fa ed 1a e8 f5 0c f8 f6 fa f5 04 17 f4 06 f7 12 fa 07 09 0b fe 06 e7 e9 f6 e6 fe 14 10 05 0f f0 f2 ff 0f fd ec fc ff 09 e5 f7 0c fc 10 e7 f7 f2 e5 e4 f5 07 e6 fa 0e 08 f3 e8 eb ea 00 04 ea fa ef e4 ed 12 f1 0a ff 0d eb 0b 16 00 fe e4 ec 0e 04 07 02 1b f3 16 00 01 f0 f8 13 0a 03 09 e5 13 02 10 f8 f6 07 ec ff 09 18 06 ea 0e f0 01 e8 08 18 10 e6 f9 01 13 ed 0a 17 05 ee e5 f3 13 1b 02 ed fe e9 f8 e8 f6 fb 06 f4 ea ec ed 19 f4 f5 f6 13 06 ff fe e8 1a e7 0e 0e ed fa e8 02 19 1a f5 ee f1 e7 17 f4 18 14 03 05 02 0f f9 fc 09 10 f1 f0 15 12 ef 11 ff ef 10 e5 fb eb ef 1a e6 04 17 f8 15 ff ef 18 16 00 07 ff 15 fe 16 ff f6 10 f7 ee 19 ec 08 04 09 f7 00 e6 e5 0f 10 16 18 f6 ea e5 01 f9 f4 ee e6 