4c 8a 6f 73 8a 79 a4 90 91 88 80 81 87 73 79 96 5c ab 6e 73 0c 93 90 6a 67 7d b0 5b 8c 8a 73 9e 73 63 86 64 83 7e a3 7c aa 6c 6b 6d 8f 75 74 7a 7d 87 a1 67 7e a5 79 9b a2 72 6a 9f 83 6c 55 72 90 9a 4d 83 3e 6b 6d 77 78 89 6b a5 95 53 7b 8e 86 82 8d 96 3a 93 8d 6f 6d 8a 9c 68 aa 9b 98 7a 8a 76 5f 7d 83 85 99 66 78 9d 7e 6e 89 7a 83 9b 7f 70 74 67 89 65 6f 7b 99 84 7b 73 62 96 9a 70 33 73 66 92 c8 9e c0 8c 81 54 7a 60 75 a3 86 75 50 7c 9c 22 9d e9 73 9b bc 1c 79 c4 9d 08 71 bb 86 8e 76 65 80 75 61 69 7a 9e 7b 65 8a 67 5f 8c 7d 8f 88 98 a7 8e 65 78 68 8a 9d 8e 8d 92 84 67 8c 6e 79 9d 83 7b 71 82 80 96 50 54 94 68 7c 70 91 71 63 a0 68 77 82 67 78 a0 9f 6e 69 89 6f 8b b2 8c a0 70 4e 68 52 53 9a b9 71 50 76 57 60 82 a2 90 84 af 7e 49 6d 8b 6b a3 70 66 4d 97 7a 81 36 8d 83 6a b3 a0 8f ce 34 b0 9a 35 60 81 9a 61 bb 56 82 94 c0 7c 9a 80 34 41 44 ae 54 3c 73 53 54 6d 97 7b ad 40 d7 0d 8e 73 5d 99 69 66 79 6d 34 84 55 3c 9e c2 6a 7f b5 38 79 b9 93 34 71 9f a3 5d 7f 62 95 83 4e 6f 7e 9b 6c 72 a2 9a 65 68 91 78 67 99 95 78 98 66 72 8e 57 8e 83 b1 98 65 51 83 4d 96 8b 2e 5e 21 a6 64 82 a7 83 73 73 7b 70 91 6d 58 b0 93 7e 97 9b 6a b8 72 bb 4c 8c ce 82 95 7b 69 93 3e 6c 7e 70 a5 64 8a a8 96 71 94 70 8a 73 76 aa a5 66 61 8e 9f 80 74 a1 56 82 89 5f 69 61 71 88 8f 9a 99 8c 5e 55 a9 a0 91 5e 88 6d a6 75 72 91 92 66 8a 9c 6a a6 8c ae 5d 80 b5 90 99 96 6f 88 76 aa 7a 72 89 97 89 9b 70 5f 97 60 87 70 86 71 98 62 65 93 72 7d 93 5d 41 79 6a 87 85 62 6b 6e 88 7e 61 94 a3 6a 71 a3 6d 71 66 8f 9d 77 57 82 6d 78 6b 97 95 50 6f 76 4d 82 98 99 62 6f 86 7e 56 8f 5a 68 90 80 60 80 7f 67 6e 8d 73 5b 73 a9 9a 60 64 6f 73 76 8b 7f 87 91 69 54 8d 27 88 e6 9a 76 cb 78 2f 88 a9 4c 59 78 5f 58 7a 58 3a 91 b1 96 78 c1 46 56 ae a7 44 62 88 94 80 8e 85 78 8d 70 89 7b 63 8f 8e 68 9a 7a 60 8f 69 79 8c 7a 8d 7a 6c 8c 66 89 65 80 8b 5f 83 7c 9c 86 69 99 83 6b 98 86 6f 79 75 89 97 80 65 6d 75 76 81 94 9b 74 75 74 74 8e 8e 82 89 61 71 8f 9c 63 88 6a 67 88 8e 95 6e 86 95 78 83 8e 67 6f 6a 7d 97 87 7e 97 6e 87 79 75 78 72 78 79 83 a4 68 8b 66 67 81 5e 8e 91 a1 93 8e 8e 71 71 67 8f 70 7b 90 80 74 6d 68 8e 76 54 97 54 7c 5a 55 a3 5f 8b 5d b7 99 64 9b 1b 9c 7b 34 67 6e 72 97 a1 62 6c 85 99 8a 70 6b 62 a9 29 6e 1c 9f 74 2e 50 85 65 9a ae 70 a0 7c 91 6a 8d a1 68 5f 8d 78 58 89 99 5f 62 b0 5d 65 9a 49 92 a7 8f 37 95 96 7f 84 92 6f 7c 84 6a 81 6e 98 8e 98 66 8e 98 6f 6b 77 6c 7f 77 9e 94 74 63 8a 85 85 6e 71 7b 95 79 6b 47 8c a9 58 56 71 63 74 6d 65 aa 93 87 8e 8f 8a 7d 9b 81 61 80 6c 88 79 89 86 8c a9 83 82 bb 7c 90 5b 6d b1 2b 66 5d be 6e 48 9a a1 96 80 c5 48 7c cb 62 11 92 98 11 bc 47 6d 1f c8 79 5a 62 59 91 77 31 6f 92 98 9b 96 6e 8e ae 4f 5f 79 a4 a1 7a 92 35 6e 98 7d 96 91 ab 4f 9b 6d 75 c5 76 8b 80 97 65 7c 5a 5e 74 9b 63 68 90 76 92 80 75 81 88 8e 92 6d 5c 80 78 74 8e 7e 58 8b 65 98 87 72 89 9b 8d 93 a4 76 84 69 78 92 8f 92 79 8a 79 9d 7d 7c 69 9c 6d 73 87 7e 85 85 93 88 76 7a 83 80 a8 7d 8a 7f a1 75 67 8e 7d 40 5f 9e 78 65 91 65 74 9e 78 8e 9d 97 93 76 8b 6c 4c a5 61 70 49 72 6d 5b 71 6a a0 7e 8e 75 6c 4c 7c 5e 88 85 6c 84 82 78 58 70 90 6c 88 6d 5e 6b 4b 4e a2 79 83 6e 50 79 bd 61 5e a0 3b 42 8f 2b 30 a4 62 7d 69 63 65 2b df ab 8b 9a 9b 8a 6a a6 32 34 7a 1b 84 60 93 6e 7e 92 78 6a 7e 6b 6a 7b 7e 8c 69 89 93 7b 8a 8a 8e 6a 66 73 a0 a1 6d 6e 5e 9d 62 59 65 6f 6f 86 7b 64 85 2f 99 76 63 a4 82 5c 8c 74 79 a6 76 87 90 85 90 61 88 7a a3 a3 82 6b 7f b5 5d 68 6b 73 8b 79 93 7d 97 84 6e 7a 7c 6e 81 7b 6d 6f 98 9a 00 a4 75 7e 79 78 9e 96 8e a1 77 7a 9d 84 89 8a 92 9a 8d 96 80 84 6b 9e a3 7c 7d 60 8c 88 8b 8b 74 9a 7d 66 9b 90 96 98 66 82 67 6d 66 92 39 9d 1f 6a 76 35 73 a7 5b 97 8e a1 5d 95 78 8e 8d a4 43 76 68 51 7f 9a 90 24 7f 98 60 8b 77 57 62 9e b1 88 c3 76 4b 57 86 85 85 95 81 61 68 88 69 6f 6b ae 92 8c a0 72 8f c4 9c 5c 84 9d ab 89 76 9c 8c 7a 75 5a 8c 7f 8a 98 a9 5a 84 90 84 97 8a 83 88 67 90 7f 84 62 93 99 78 94 5f 91 74 69 ac 7a 59 4c 33 4f a4 9e 8b 9c b3 94 70 6c 7c 73 6b 9c 61 7c 87 7d 32 97 ab 32 80 93 9c 88 8e 72 4a 94 58 5c 7a 55 95 7b 99 8e b9 8b 6b 65 8e 8a 6b 82 91 93 7e 87 92 5b c7 7b a3 54 74 b2 3c 68 62 8a 9a b5 83 96 88 60 66 8f 79 a6 62 73 71 8d 6e 85 00 a6 84 74 92 4d 99 6a 82 60 87 a6 6e 8a 65 9b 0e 26 69 4b d5 a4 92 72 d0 aa 95 83 85 91 6b b6 22 81 8d 60 8e 8f 92 35 97 74 7f 73 6c 80 43 6e 8f 79 af 86 79 52 6a b8 80 8b 67 7c 7f 97 71 57 6d 97 77 6c 85 41 ce 88 b1 5e 88 98 a5 83 5d 81 67 86 b1 8c 79 99 5d 95 8d 65 68 79 7e 7d 91 84 73 9d 6c 9e 68 8a 89 6c 8a 5b 85 8c 90 7a 7a 66 77 9d 73 71 8e 84 73 7e 6c 67 68 64 8b 79 87 93 6f 7f 85 8e 86 94 80 63 6c 6e 67 91 82 75 ba 5e cf 99 9c 96 61 65 57 5c 54 83 82 69 5c 70 74 54 d3 ae 81 7c 9a 6c 7b c7 59 58 90 59 92 74 40 81 43 a5 51 82 61 8f 7a a0 88 86 93 71 66 83 5e a8 7f 7e 7e 8b 5b 90 9e 49 a5 7c 79 8e 77 66 51 80 5e 96 71 70 6d 9c 7e 7c 9c 60 68 5b 7f 6d 79 71 87 6f 84 8d 68 9e 69 92 8e 83 86 89 8b 65 5d 7b 83 8e 56 94 86 aa 79 80 7d 6c 86 62 a7 87 6f 90 86 64 75 7c 97 9e 55 72 72 8e 88 88 96 5b 7c 66 6c 69 75 8d 71 6e 4f 94 8e 6c 6b 64 77 89 8c 71 85 a4 6d 5c 69 88 62 69 6e 8f 6d 7d 97 66 83 7c 7b a9 93 9d 91 8d 58 8d 7a 8e 7a 76 7d 8e 61 6c 4c 71 72 91 69 5d 7d a1 97 6b 75 94 8b 7e 6a 6d 7f ac 80 af 53 9b 82 6f 8f 6c 77 79 a3 74 75 85 62 58 6b 81 88 97 8c 89 62 9d 5f 79 9b 7b 9b 65 91 64 5e 85 63 8d 82 84 7c 8e 92 7d 8b 9f 78 7a 9a 76 7e 83 82 75 70 7e 71 9c 63 68 c4 9a 8b 87 00 08 20 00 be fb 83 9e e0 5b 64 62 b7 ac 8c fe 17 2f 80 71 52 fe 97 00 8d ed 66 9b 63 73 9e 86 1d 92 97 83 b3 9d 64 ba 94 88 75 8b 5f b7 7b a1 57 9b 70 9c 90 7e d2 1a c0 68 6b cb 6c 8f 9a 84 70 72 58 91 a3 85 6a af bf 75 7f 72 66 8a 77 9a a2 99 5f 9e 71 7b b6 4a ba 5a 89 7f 75 77 89 6a 93 82 66 71 83 7b 61 91 91 6a 91 7f 7e 65 91 9a 62 6a 61 6f 95 77 69 8f 6a 72 88 84 6f 77 7a 6e 71 9e 77 96 a6 a1 63 7a 7b 90 74 60 65 9d 81 5f 88 85 5e 6f 68 88 7f 5b 88 3f 94 7d 2b 6a ab 95 00 a2 3e 55 e8 9d 74 ec c7 58 76 92 5f ef 65 9f 3c 78 7c 94 a2 9d f3 29 fe 77 7b fe 6a 6c 86 96 6a 86 87 86 7a 92 7c 63 79 66 74 8b 88 86 86 7f 87 6f 7c 64 60 67 72 7c 89 9b 7e 87 4f 67 a9 9f af 7e 8c a9 cf 48 98 a4 78 9a 7a 67 35 8e 75 13 87 cf 63 9f ae 4b 9a 98 7e 05 8a a1 73 75 73 7d aa 2f 80 74 a9 43 97 94 75 6f 69 65 2c a7 62 2a 74 ad 90 70 b8 4e b5 8a ad 03 71 ad 