68 63 6b 8e 79 95 96 88 77 66 79 6d 79 73 81 8f 7a 7b 63 84 74 6a 73 88 76 7e 83 8b 69 6d 92 86 98 6e 85 8b 69 71 67 90 7c 8a 79 6c 8b 6f 75 6d 7a 88 98 77 6c 7d 8a 72 74 71 69 91 7f 91 84 75 86 7b 8f 98 63 72 96 98 96 66 7b 8f 8e 6d 94 7f 65 99 73 71 73 8f 86 91 83 63 82 83 97 81 67 71 67 8d 76 6e 83 7f 86 94 68 7a 95 7e 95 7e 91 69 66 66 64 79 90 77 86 87 80 76 72 86 6a 94 66 90 7d 8a 92 98 94 95 77 86 66 93 6f 78 93 7b 80 64 7a 92 91 76 5f 6c 72 94 74 7f 92 74 94 9d 91 89 7a 75 92 95 6a 71 74 8d 64 91 6f 7a 75 66 8f 93 7d 83 67 72 72 8c 78 66 8f 8a 67 7f 9d 73 6c 8d 75 8b 82 68 96 7a 91 70 90 70 95 7a 72 81 75 7c 68 77 6b 87 60 6b 68 6e 79 78 71 8e 75 7d 89 5f 7b 6c 80 68 75 83 93 87 72 77 8e 77 77 78 89 93 87 99 92 68 8a 7f 8b 8f 91 a6 83 9b 7f 72 73 72 6c 60 5e 67 69 96 82 99 90 6a 89 91 64 91 81 82 8b 9b 6f 86 5d 90 88 81 94 65 78 87 94 8f 6c 88 93 7f 95 84 66 7c 7c 9e 72 8b 94 8e 74 91 68 8a 7e 77 84 8b 78 7b 83 74 91 8c 61 9b 9a 7d 7d 89 6c 69 72 91 67 69 71 68 63 64 78 87 7c 84 79 6b 7b 8f 7a 8a 71 6e 81 93 8e 6d 74 64 74 79 96 89 79 87 80 86 8f 64 84 8e 93 6d 80 65 63 75 60 73 73 71 9a 61 6e 76 78 87 8b 96 8b 74 96 71 81 7c a2 93 68 93 4d 95 88 8a 81 79 60 6d 65 98 60 8b 79 6a 92 61 76 80 55 6a 9c 73 67 60 50 59 8d 7c 7c 98 5b 7c 5e 89 90 88 7d 6b 6a 5f 8c 9b 7f 79 7c 5b 96 87 51 7c 87 6b 6f 88 55 5a 63 7c 81 6a 8e 8d 85 6c 7c 84 b4 73 8b 68 81 66 7f 9b b4 7e a9 9b 7a 97 96 43 5f 8f ad 83 97 9f 8f 2b 6a 9c 7a a9 86 86 88 90 b2 3e 86 67 87 9c 7f 97 66 75 5e 60 54 48 83 93 8e 00 9f 5f 6c 9d 6d a5 63 86 72 7a 83 53 8c 9d 2a 65 78 76 70 68 80 7d 77 8a 8c 97 80 87 3d 93 38 9e a0 6a 81 83 7c 6e 61 7c 80 7c ac 52 27 87 67 46 91 75 72 83 41 97 73 b7 61 83 42 91 9f 8d 70 7a b5 60 a6 58 ae 42 7d 6b 65 6e 6e a9 62 89 20 84 67 8c 78 78 7f 9e 8b 95 9f aa 67 97 b0 bd 86 9e 8e 7a 74 7f 78 4f 86 5a 97 94 7c 94 b0 63 7c 68 84 65 95 aa ba 73 6f 68 8a 60 63 be 82 61 85 cb 98 60 ab a7 37 b6 69 95 9a 9f 88 94 6c 85 54 9f 6e 89 8a 71 63 95 a5 70 89 4e 7b 7c 7c 87 90 81 9f 8f 82 89 7c 50 33 4f 6c 96 b2 93 b1 8d 74 94 8b 98 8d 50 85 9b 69 70 a8 8c 61 a4 8c 65 84 a8 bb 84 90 8e 73 8a 77 85 80 94 6c a0 5e 92 67 61 70 91 9d 75 6d 83 84 77 79 66 6c 5c a2 79 a2 73 95 6f 8b 88 7a 61 59 62 b7 94 96 b5 86 94 96 73 72 67 48 6e 88 71 96 8c 76 82 71 7e 67 5a 6d aa 80 75 70 83 76 8a 7c 75 95 8c 6c 82 78 87 67 7f 7c 76 89 97 7c 95 78 6d 76 91 72 79 ab 78 5e 99 7b 7a 67 91 74 80 62 81 9d 8e 95 5b 78 94 55 3d 67 79 ae 6c 8d 91 78 9c 7a 67 70 8c 75 74 8d 82 75 65 6f 94 84 9d 84 87 6c 84 65 8f 7e 6e 7b 7e 74 8e 8f 67 6e 82 9a 9b 97 7b 66 6f 85 8d 66 8d 75 66 7a 97 83 72 74 8d 99 81 7e 71 87 82 53 73 6c 6f af 74 85 82 77 79 6d 6d 7a 89 79 6f 92 6a 6d 6d 7e 5a 64 86 7f 96 65 74 95 64 98 7c 7a 75 89 6b 64 8c 88 73 63 8b 71 8e 7d 80 7b 6f 66 7a 99 70 79 7b 8d 75 94 66 8e 95 72 75 8d 7e 81 85 71 98 96 85 94 7e 6a 77 69 85 86 67 91 70 92 77 8b 8a 67 6f 75 6d 7c 66 98 86 6c 71 89 87 91 89 80 6e 6c 96 99 6d 76 79 84 71 7d 69 82 80 6b 77 6a 6c 90 69 6e 8e 8d 84 8e 78 76 98 72 67 7e 75 70 94 7e 72 73 81 8e 76 78 7c 75 78 68 94 6e 8a 94 97 84 6a 91 8e 98 88 68 6f 8a 85 68 7f 92 97 77 91 96 7f 86 8e 83 9a 93 97 7a 92 83 7b 8e 7c 84 75 8e 6a 6f 7e 7c 90 8d 83 68 66 69 8d 97 69 70 66 7e 91 76 7b 6e 74 8b 7b 7e 63 81 97 84 87 91 6d 83 92 84 7a 64 80 67 8d 7c 94 70 69 8d 75 83 98 68 7d 6b 75 6e 79 81 95 7a 88 8f 82 66 97 90 87 8b 8e 7f 8a 8f 70 8b 96 8d 84 93 8b 8d 6b 8d 75 77 8e 6d 81 69 6f 90 8c 77 6b 7e 64 89 78 82 71 69 96 8c 8e 97 69 98 79 7c 8e 71 6c 70 78 80 76 7b 8e 96 64 7a 79 8d 67 70 7f 99 85 64 8e 65 71 98 7a 8a 86 79 72 66 7b 6e 8c 6c 71 91 89 6d 7c 7d 74 95 7a 8f 69 83 98 84 94 97 72 8b 7c 8b 69 97 7e 89 99 83 98 93 92 6a 8b 77 7b 7d 88 8d 8d 7e 85 98 71 72 97 97 80 75 95 7d 66 6c 89 90 7d 95 68 8a 95 8f 63 6c 68 6f 7d 70 6d 73 93 69 6b 7c 6a 95 6c 95 82 93 97 70 82 8a 63 7a 80 86 77 77 94 81 8b 96 6f 96 77 92 76 97 72 67 68 87 8a 7c 8d 88 95 90 91 6b 97 88 73 6a 8f 93 92 66 66 6a 8b 95 75 91 63 7c 88 8e 6b 67 88 88 6e 8f 78 83 73 98 8e 6a 85 7b 79 83 80 64 7e 71 8d 6d 6a 64 78 7f 98 98 7d 85 76 67 69 7a 93 67 98 6e 9a 73 7e 95 75 72 78 95 8c 65 7e 92 8b 6e 87 86 95 85 6d 71 78 8c 96 87 64 68 8c 97 96 8d 92 85 7c 7c 8e 6b 77 97 97 65 8d 88 81 69 75 84 75 8d 96 95 65 64 68 8c 91 95 6e 6b 7c 6a 79 90 68 73 69 67 8d 7d 76 71 82 6b 80 75 8d 74 8b 76 8b 71 8d 8a 8b 91 8f 6d 9a 84 7e 7f 89 68 6d 82 76 6d 7f 66 6f 90 6c 93 84 6c 7f 96 6c 71 66 96 75 81 8a 84 6a 66 8c 64 8b 69 7a 87 8c 67 92 70 6e 89 8c 78 77 77 93 99 79 72 92 8b 63 7a 77 84 72 89 97 96 97 8d 99 7f 77 75 89 8d 98 8d 75 82 89 91 70 7d 69 8c 99 72 64 79 77 80 7a 84 89 67 96 7f 78 6e 72 6b 8c 93 77 71 66 66 67 67 90 7e 66 7a 8d 85 74 86 7b 63 91 98 70 92 88 76 63 8d 7a 81 83 71 96 72 6e 89 7c 72 8b 7d 70 68 90 82 6a 94 87 7e 7d 90 96 7d 81 8f 8d 81 78 83 8e 92 8b 8c 8b 89 81 6c 8d 74 90 95 71 88 7d 74 90 67 7d 8e 8e 83 97 75 6c 70 92 95 72 85 70 91 69 8b 9a 69 8c 91 7b 91 8e 79 96 66 88 68 94 7e 88 92 95 73 73 98 81 75 81 73 73 74 71 75 78 6c 8a 7e 7f 90 86 8a 95 8f 87 81 71 94 86 83 82 75 8b 83 7b 92 98 74 8b 84 7b 7c 6f 79 82 92 85 93 74 84 87 90 93 71 97 77 67 9a 75 93 70 7b 70 66 89 80 63 83 99 82 83 75 91 90 7d 97 8c 86 80 69 74 69 8c 6c 81 76 85 96 8b 90 69 87 8d 82 92 73 93 68 7d 8d 85 95 8d 6f 76 83 64 8e 73 66 78 85 93 7b 7a 8f 8c 70 77 79 95 86 99 8a 93 74 74 86 83 98 81 68 87 75 70 96 84 8d 74 79 68 6d 94 88 6f 8b 70 7f 65 7e 89 7b 87 70 96 7d 86 87 7d 7f 6a 6b 89 8c 71 7f 78 98 8d 8a 7c 83 75 70 94 72 91 95 96 7a 67 8d 96 78 6b 6a 98 6a 96 87 7c 88 7c 71 8f 8d 84 95 7a 6b 7d 82 74 82 65 96 86 7d 78 8f 8c 81 90 91 95 69 91 66 96 96 94 67 6b 7b 72 71 69 7f 90 8e 78 81 7e 87 8d 65 9a 6b 83 85 7a 87 7d 7f 6b 8f 76 85 8b 6d 97 67 8e 8f 96 94 83 6d 6b 80 6c 7d 82 86 74 6b 93 83 94 7a 96 66 8e 8d 66 8d 71 70 97 97 7f 89 7b 76 92 98 8f 73 92 83 91 7b 80 65 81 76 75 98 87 88 64 93 89 97 94 98 94 72 98 88 7f 8c 8e 84 87 74 91 8b 76 7f 7d 75 86 99 72 68 6f 67 96 81 96 68 97 80 6a 65 6c 64 8a 64 7f 69 73 7b 90 7a 82 69 6b 64 73 7a 71 6b 7b 93 8f 80 81 77 64 7f 8b 88 70 7b 85 87 67 6e 6d 8c 69 7f 8b 67 65 70 7f 87 6d 76 83 68 94 76 81 8a 67 91 69 69 81 98 94 6d 8e 69 69 6f 68 85 65 8a 97 75 73 74 8c 77 8e 6b 8a 8e 7e 82 8a 84 98 7b 74 70 72 66 67 82 7a 68 99 6f 7e 84 9a 77 96 82 8d 8e 98 7b 88 64 66 98 8f 6a 8b 7c 64 90 6e 64 89 79 72 84 89 74 6a 90 9a 67 8f 75 76 7e 65 67 7a 8b 71 8b 67 9a 6a 85 6a 6d 63 82 68 73 99 8b 85 6d 8c 6e 81 95 80 88 8e 79 6b 6e 6e 6e 98 84 79 8d 93 6c 65 8e 78 70 90 74 84 98 65 79 6a 96 7e 8f 88 6e 99 92 7c 8e 6d 68 6c 70 75 98 84 82 83 98 8a 7e 80 90 84 84 63 91 66 7f 67 76 90 79 80 87 65 6a 8d 77 8d 82 84 68 a4 81 81 97 8c 69 73 67 6b 70 7c 6d 84 6f 85 82 9d 89 7f 73 73 94 80 92 71 94 86 72 81 91 87 98 68 65 8c 96 75 6a 70 86 76 90 78 88 7b 6a 6d 8e 66 8f 6f 94 85 82 75 7d 69 74 5f 8e 81 64 81 96 70 74 87 8b 99 6e 73 7e 89 94 89 69 81 9b 8d 71 80 6f 89 64 8b 8b 70 82 92 84 69 8e 7b 7e 7c 89 95 71 8a 7b 67 80 7d 8b 72 8e 84 7d 92 98 8c 8b 64 79 6d 86 74 78 6f 97 89 95 77 67 93 5f 94 82 a0 8f 6f 79 91 7d 89 71 8a 8f 73 93 96 7e 7d 7d 8e 8a 91 7a 80 7d 94 65 65 65 8d 88 8a 73 69 6f 6b 74 93 9d 97 66 88 83 83 8c 6b 77 85 78 64 63 89 9a 60 9c 80 6b 64 66 78 69 81 79 78 7e 84 6a 92 8b 95 90 8d 72 84 87 71 9b 7e 8a 6f 6f 8a 87 90 8d 88 8a 82 7f 93 73 8b 8d 74 89 67 97 8e 98 8d 94 8d 8d 7a 91 a4 95 81 69 79 91 78 81 81 6f 6c 47 72 8b 95 70 64 4e 6f 65 6f 7a a0 6c 58 74 71 8b 8c 88 49 9f 6c 6b 7b 9d a6 8f 97 6e 68 52 4d 7f 96 67 93 a1 48 46 8d 7b 93 6c 7b 72 87 a1 77 8c a6 5f 8a 7f 63 87 4f 6e 91 7a 86 94 55 5e 96 a4 59 83 b9 8c 77 94 82 66 a4 84 84 6a 70 7d 59 82 9e 94 4f 89 6a 8b 52 50 86 70 8b 62 53 80 6a 76 86 57 6d 9d a9 7c 79 60 81 62 76 7f 85 9d 61 91 65 69 9e 88 5d 97 7b 49 6c 63 4f 97 b6 6c 79 9d 63 8f 42 69 83 79 76 74 8e 73 ac a5 6c 86 52 7c 58 64 9e 77 8b 81 7d 5c 90 9a 80 35 93 40 9c 76 a2 96 79 84 9f 92 4e 54 a8 80 58 30 61 7f 90 03 a6 66 6b 6a 99 46 67 43 6d 69 3b 78 69 7e 94 99 88 7a 09 70 71 a3 69 69 68 5f 68 0d 8c 7e 58 7a 58 a2 35 b0 8d 67 d0 6a 8c 2f 9d 86 45 a3 57 7e 6d b5 61 5e a8 78 98 a8 63 6c 7f ab a9 a5 9d b1 5e 5c 52 5b 39 40 92 8b 7d 73 9c 6a bc 63 a2 8d 7c 7b 8f 75 90 a1 77 8f 7e 63 6f af 7c 78 90 8b b1 90 6d 76 7b 72 a0 5b 7f bb a9 b4 5f 8a 56 75 5f 8a 82 96 82 6b a9 af 85 79 68 aa 96 85 b0 b9 8b ab 83 63 74 0f 9d 88 67 7e 84 95 b4 64 9f 7d 63 83 70 78 89 9c 87 6a 8c b4 66 a4 85 85 5c 85 5f 94 60 4b 72 6e a0 a7 8d ac 86 6f 5f 99 61 ae 68 91 75 7e 75 77 be 7b 76 76 a3 7c 98 86 72 9d 80 3a 60 84 73 a1 a9 96 9c 67 a4 a8 98 7f 93 8e 7a 81 71 93 6f 92 7c 95 8b 9e 8e 94 74 86 6d 7f 44 7d 77 83 93 77 8a 5b 9f 97 7f 72 74 72 70 90 58 9d 8c 67 8e 7b 87 83 7c 6d a4 7e 9b 4e 77 a0 73 6b 75 69 74 8c 79 76 8d 86 7a 74 8f 68 96 8e 82 7b 94 6e 7b 8b 93 6c 6e 88 9c 7a 89 8d 6e 79 5f 82 78 62 6e 65 88 82 69 7e 71 89 6c 6c 76 95 98 9e 79 7a 96 77 9c 71 88 6c 85 88 78 6d 81 8d 71 7d 78 5c 79 8d 8c 86 87 64 7f 98 7a 71 79 8c 80 93 63 75 8b 9a 7c 7b 8e 9a 87 70 8a 8a 92 99 63 7a 87 81 8a 8a 6f 88 93 74 90 6d 66 93 64 65 91 7c 71 98 73 76 90 6b 81 7f 67 7f 93 8a 7a 94 94 78 70 6c 8c 6d 99 76 68 69 96 7d 87 72 75 97 93 6e 6b 77 74 96 89 89 93 75 86 8b 75 6b 98 84 92 68 86 97 84 80 63 72 8c 85 95 68 67 89 84 6b 72 78 97 99 7e 91 8f 90 7d 7b 70 75 71 70 80 74 64 6c 89 6c 73 6d 6c 6e 90 8b 79 7e 93 6c 72 65 66 6e 95 73 8f 67 80 88 8d 74 89 82 66 6c 73 70 69 92 7a 6b 69 86 8e 83 78 8a 8b 8f 7b 66 97 94 9a 78 96 8f 84 6b 75 93 99 88 82 82 6b 8f 7e 77 6b 66 71 8c 92 77 73 83 79 68 90 64 85 9a 88 7e 8e 87 94 82 6a 75 6f 7c 6f 87 9a 76 6d 96 97 6c 73 92 6a 95 68 7a 94 70 68 66 6f 7a 67 71 90 82 6d 86 6e 8b 77 69 6a 81 67 8d 88 92 6f 6a 90 71 6f 8b 73 93 8d 7c 7a 88 9a 8e 73 98 81 88 80 8b 6f 64 8e 86 93 6e 69 86 7d 6c 8b 67 96 6e 8d 7d 6c 6d 66 7d 9a 64 92 6c 81 8d 93 85 70 80 76 82 6e 78 72 6f 77 76 8f 70 8a 88 8d 7b 7c 92 81 8b 85 71 7c 88 68 85 88 80 6a 99 9a 8b 76 79 98 96 7c 65 65 63 75 8d 63 7f 74 86 66 6f 7d 74 94 79 81 70 88 7c 8b 93 8b 89 93 64 71 7a 90 8c 90 6c 80 9a 6d 74 72 95 9a 6b 93 78 64 6f 8f 8a 82 76 98 93 81 80 99 87 7e 7e 90 86 91 86 98 93 71 67 88 96 87 98 7b 72 65 8d 86 64 96 7a 77 7f 7d 90 6e 8a 8d 8e 8e 86 7b 87 91 63 65 8e 8a 85 86 6b 65 88 86 6f 90 7c 79 81 8b 67 8a 98 73 6f 68 8e 69 89 6b 94 86 92 74 96 75 75 83 8e 98 69 92 94 74 94 71 6a 85 93 78 98 8e 99 6e 90 7b 99 84 6e 88 86 86 97 83 66 6d 87 99 88 90 97 85 83 68 85 96 85 63 64 92 6f 93 93 6e 98 71 7a 80 96 7d 72 88 64 8e 88 8e 93 76 67 82 69 98 91 93 94 68 94 6a 75 79 86 7d 8d 8d 6d 6a 71 83 98 6e 95 71 71 8c 7a 92 8b 97 94 7e 69 7e 8e 68 64 89 74 90 65 93 67 88 7b 88 79 8e 6b 80 79 97 96 7d 99 73 89 8e 7d 66 80 84 73 89 8a 7a 83 94 88 98 8d 76 6b 63 8f 67 71 71 99 6d 75 75 75 97 92 7a 64 78 94 8f 8d 72 74 74 66 69 89 63 90 69 63 65 6f 7e 90 68 79 6e 92 75 6c 92 6a 86 88 9a 95 93 76 6c 7d 96 83 8c 94 76 77 64 90 94 87 8e 86 6d 8a 88 78 6d 6e 86 6e 8b 79 75 94 96 99 6d 78 97 95 82 65 70 89 85 7f 83 92 78 72 78 80 8c 81 6a 92 78 69 83 90 6c 85 69 74 84 6b 7b 8c 67 77 99 7b 80 81 76 96 6a 7f 71 76 80 7a 71 71 7e 89 90 95 64 90 9a 66 92 7e 76 6e 6f 6d 82 94 97 89 8a 82 99 8f 70 99 76 6e 7a 70 83 82 6d 91 97 8e 68 87 7f 64 87 99 94 95 82 6b 91 86 8a 8d 7b 65 82 95 91 7f 65 78 68 7e 6f 82 6c 94 90 80 8b 70 80 94 7d 95 94 98 94 78 7b 67 8f 8d 65 8b 64 73 6c 85 77 7e 97 6d 7f 72 72 64 8c 95 70 85 64 89 82 8f 84 7e 79 67 64 92 6e 96 88 76 73 90 70 91 8f 71 77 91 76 84 87 6f 63 63 85 79 8d 72 73 87 90 8c 70 91 66 96 70 77 6f 8e 7b 67 8f 86 88 90 81 9a 7c 90 8c 97 6e 85 86 98 97 72 94 80 8a 71 7a 88 89 88 8f 9a 6e 95 8e 6a 98 84 72 71 83 95 7a 7f 7f 7e 73 74 8d 85 66 94 6a 95 82 66 86 88 85 97 7f 66 8f 8d 78 68 8f 7f 67 70 8b 70 7e 65 86 6b 8b 8d 71 8b 8a 89 8c 92 97 63 8f 93 67 92 8f 82 81 81 89 99 72 9a 6a 8e 63 97 67 69 82 77 74 83 85 87 6f 90 64 78 80 69 99 8f 7f 71 6d 6f 96 8a 84 89 70 64 92 85 67 6f 85 74 8c 65 97 93 83 75 8f 75 6e 89 7d 8e 88 91 8e 91 73 6d 80 80 88 8c 65 89 86 99 76 86 97 6e 70 64 96 69 95 8c 89 7e 92 6f 95 88 84 87 6c 75 71 6b 69 92 91 6d 95 92 8c 85 71 7e 6c 7a 7f 6f 8f 74 97 79 78 65 81 97 86 80 98 67 87 76 86 97 77 7b 7f 6b 8f 8c 86 89 80 91 8e 70 98 80 8d 96 77 98 69 87 8a 96 98 84 66 75 6d 83 81 76 7e 97 75 88 79 69 91 82 71 7e 84 9a 8a 88 69 6f 72 99 97 83 6e 8a 93 8a 8c 79 94 8c 83 94 8d 7b 77 85 6d 7a 66 6f 81 7e 6b 85 97 6b 8a 85 7d 68 89 97 6e 72 6a 7b 86 76 6c 72 8c 84 67 8b 74 7d 90 7c 8a 88 66 98 80 