95 77 7d 9e 63 a2 32 71 a0 79 7d 8b 3c 8c 7b 6f 58 65 3a a7 54 6c a3 6d aa a0 58 73 8a 95 88 8e b8 44 77 a2 61 ac 40 96 9f 73 82 86 50 7e 70 84 75 80 7c 60 a2 54 8f 5b 7e 61 86 63 63 46 57 28 33 af 8b 8e 7f 98 7d a5 54 95 73 9c 82 70 5f 5d 84 4d 89 96 74 8f 79 88 93 7d 82 69 89 84 8e 48 91 9a 9f 7d 68 6a 6f a4 6d 59 6a 8a 92 a7 6e 66 84 9f 7f 2e 71 68 77 75 8d 9c 92 81 65 97 9d a0 69 a7 b0 8b 3e ab 3e 5d 74 81 4a 5c 71 75 a1 49 52 95 88 71 7a 7f 7e 7d b8 b8 88 41 60 46 82 6c a8 6d 8c 8f 72 8a 5c 5b b1 62 a1 a3 69 7a 92 74 6c 6d 7b 5e b2 66 b8 59 b9 7f 81 46 45 6f 4d 7b 73 7a 9e 77 8b aa 7e 84 56 6e 5d 81 67 64 92 8a 8b 67 59 8e 77 6b 84 65 6e 88 81 66 77 60 6b 77 89 6b 7f 8f 5a 9b 92 87 84 81 8b 7d 57 94 68 55 66 7c 93 78 8c 6d 9c 78 6a 8b 77 7c 64 95 6f 69 97 9b 62 66 81 a9 77 88 41 5e 94 8b 7c 9e 5d 8e 75 7b 70 84 95 8e 7a 68 78 86 9c 9c 7c 7b 7b 31 75 74 66 87 9f 5e 56 84 8d 91 58 9e 73 a7 71 73 a8 71 91 6a 86 93 b5 83 a6 69 70 9b a5 a5 6f 82 a1 8c 4f 54 aa 87 92 79 52 59 7d 84 9c 8d 84 69 79 6d 9f 52 36 9c 70 68 7b 7b bb a3 4c 9d 85 8f 71 8d 8a 4f 75 7a 81 6e 60 8a 74 54 b0 7b 68 a3 8a 94 69 40 5f a3 7a 82 61 a4 5d 86 5d 8c 52 a0 a7 6e 5b 32 aa 94 36 58 c5 56 83 3f 55 7b 86 59 bc e6 a0 7d 68 99 79 8b 46 3e a4 9b 39 8d 71 a9 6d 4f 59 b5 84 5c 8c 60 4b 5e 55 5e 9f 69 7d b0 a5 a2 45 93 90 66 6f 7b 66 6c 8c 84 75 81 96 b2 7b 93 7b 8c 6c 6b 97 8f 65 73 8b 66 86 8f 7d 7e 9d 97 69 68 6d 91 89 7c 8c 97 8a 70 6c 9b 93 7e 8a 7d 67 70 92 8e 79 82 84 74 83 78 71 66 7a 96 7c 70 84 6b 7c 84 97 83 6e 68 7b 8e 84 68 92 71 70 6b 71 85 9d 60 68 99 7f 9d 69 61 78 98 51 6c 9a 5c 7b 7f 7e 89 87 75 6c 81 89 72 65 7b 9a 81 77 78 8c 73 8c 64 83 9a 79 4c 69 67 7c 73 a4 91 59 5f 62 7d 97 63 66 81 59 96 87 98 91 55 8a 7a 7a 8d 82 6e 8c 85 74 76 ad 97 88 79 8e 8a 6d 55 a2 5e 66 75 83 79 97 83 86 76 9a 97 92 89 9c 8e 96 93 9c 69 69 4c 7b 8f 7b 6e 70 75 82 96 8e 85 9c 60 81 89 55 8c 80 92 81 88 6f 9d 7e 49 6f 72 93 86 6f 9e 75 82 6e 93 7a 94 6a 89 9f 76 2d 3f 5f 9e 82 73 7a 74 94 91 4d 87 89 7f 98 a7 5a a1 77 85 9f 83 4b af 9a 6b 97 99 75 9f 90 59 75 5b a2 7e a0 a2 5d 88 a3 79 94 92 82 92 8a 68 79 93 b2 5f 41 94 a0 47 9a 76 7a 5d 7a 61 70 5b 8d 9b 82 a8 82 6f 73 94 4a 81 79 6e 81 85 7d 69 6d 9d 5d 90 5b 8b 9f 9d 8d 82 76 a4 73 73 8f 72 a0 8c a9 97 5c 48 88 a8 9e 9f 4f 87 69 95 79 81 a7 89 63 4c aa 82 5f 86 69 85 8a a9 5d 96 9d 76 5f 6f 56 81 7c a0 6b 56 8f 97 93 a3 62 78 a3 72 8b 7d 9d 75 6b 66 5f 91 71 68 a9 8c a7 88 7b 56 44 a1 a5 60 86 a4 78 55 88 6b 96 77 7b 4d 7c 99 1a 89 56 54 79 80 9b 6b 7f b1 80 93 96 a6 6a 7e 52 6e 93 55 86 69 72 7c 93 64 94 76 6f 7f 77 9e 76 8b 80 7f 70 6c 89 66 83 8f 60 96 83 6c 74 85 77 57 90 6e 60 66 4c 87 6d 81 a3 95 81 99 5a 6f 8d 7d 7b 42 8a a0 7f 7b aa 88 66 b1 a4 76 82 99 72 64 9f 6e 88 58 9a 83 87 8a 61 82 5f 96 74 a2 8a 71 70 65 86 8f 8f 95 7f 8b 94 71 85 a1 8e 9f 80 86 68 91 72 4e a5 8f 74 9f 9f 86 9b a2 8a 7d 9b 94 7c 67 62 66 8a 7c 64 a3 a0 99 71 6f 92 8f 97 6b 90 99 5f 5e 65 84 62 8b 59 6c 5d a1 70 9b 6b c6 70 8e 91 73 b1 7a b2 77 5b 5a 6b 71 84 7d 62 3c 63 95 93 bb 79 aa 70 81 a5 ab 66 9c 42 38 a9 8a 4a 5e 97 79 90 79 89 71 8d ab 67 81 70 73 a1 5a 90 4f 7c 7f 55 7e 8a 7a 93 88 67 80 8d 82 a0 6c 89 a9 ad 97 75 5a 6a a7 71 80 80 6a 82 5b 8a 63 8a 69 a6 81 6a 97 90 79 8b a5 91 9d 76 8c 99 a1 69 7c 66 95 62 96 a2 83 6b 96 5a 24 79 76 7f 49 75 96 97 80 70 82 81 7e 7d 8c 87 7d 89 7e 82 89 a2 96 6e a8 5d a7 6a 6b a3 9d 91 81 78 90 87 70 78 73 88 86 8f 60 89 48 82 71 8c 86 8a 77 7d 8c ad 5f 96 70 88 4c 7e 93 62 70 c5 99 4d 7b b6 90 a2 87 5f 7f 6c 72 64 6f 93 8c 73 27 9b 87 99 30 73 92 a4 76 82 ad 84 6d 82 ba 71 78 54 a0 ca 76 a0 8d 93 80 68 56 4f 95 a6 5c 7d 73 5a 8c 80 50 7e 7b 72 80 67 a1 6d 89 8c 53 97 69 61 5c 75 a5 95 82 61 72 78 66 a0 72 72 6b 61 7d 92 5b 84 64 84 87 7d 8f 9a 76 6a 74 97 7c 7d 75 75 59 97 71 5f 92 89 67 92 83 75 89 79 67 81 74 97 9a 95 63 6f 77 81 72 67 8b 7b 70 6b 7b 7b 8d 76 5a 71 92 7b 7e 4c 81 a4 66 82 79 90 6a 94 79 6c 73 70 4c a0 63 53 66 73 74 71 75 8d 8d 62 8e 60 77 89 73 6c 66 78 73 63 82 6c 78 7d 60 89 98 95 9b 62 7a 61 33 6f 8d 8d 6c 84 bd 89 b5 83 6d 86 64 65 85 81 65 b3 80 5e 93 89 90 71 90 71 be 91 55 7e 73 8d 6d 71 8f 9e 90 82 9a 7d 35 73 61 8a 76 8d 79 78 89 93 6e 69 6d 3f 9e 8e 94 71 89 70 70 6e 93 77 97 69 85 8d 6e b2 96 7f 5d 8e 66 64 89 50 a9 87 a6 9c 6e ab 88 8d 90 5f 7f 5b 83 88 76 2a a5 8c 81 7a af 75 8a 86 8b 74 9b 90 86 a7 7a 54 a9 88 8d 69 73 41 81 63 96 84 9b 6d 68 50 78 78 a9 90 9b 60 70 9f a0 80 56 63 4a 80 65 64 89 5a 83 a1 99 87 6d 94 a4 53 78 4e 6d 94 76 62 69 5d 72 7c 66 67 7f 7e 86 8d 84 69 70 99 6a 8a 9d 70 82 81 a0 61 67 47 a9 83 9e 60 8e 7e 7d 85 9c 4c 91 d1 51 87 8b a8 69 5b 4e 37 9d 9c 96 85 76 89 6a 3a c3 17 5a 72 a0 6e 6c 92 73 78 99 aa 7d be 68 82 54 59 4c 91 5d a2 44 97 7b 8d 9d 9a 8d 7b 98 a7 ae 78 92 70 8d 60 89 67 89 6b 73 97 8c 75 76 a3 6c 95 6e 75 a0 96 67 9b 6f 5c 35 59 5e 58 89 a3 99 68 9e 7e 7a ac 91 a7 a9 7d 77 71 3d ab 92 85 6c 92 bc 83 9c 7a 44 a5 4d 99 9f 62 4e 99 71 55 5f 85 98 85 7d a2 3c 70 62 9b 4d 99 68 a9 7e 7e 8f 55 8c 8c 53 67 86 32 6a 61 38 92 8c 77 8b 65 86 82 5a 96 9c 53 77 64 90 76 af 69 8a 83 75 7d 6f 72 a5 98 6a 7b ae 69 9f 8c a2 6b 68 71 5d a9 a1 7a 7d 5c 9b a3 96 99 69 53 66 7a 9b 8a a0 a9 8e 7b 94 76 68 a1 60 6b 5b 63 77 59 99 8b 8f 6a 99 2b 7f 7b 8d 82 77 68 84 94 89 8c 6f 8b 88 77 5d 7f 66 ad 6e 7e 6f 92 7e 7e 85 8f 89 76 83 8b 7c 7a ad 5e 91 8e 9f 1f 7e 5c a0 8d 69 7a 79 8d 89 7a 61 d2 46 53 8b 3d bb a4 96 a3 d0 69 7b c8 55 56 5b ab ca 4f 82 47 60 95 e9 a4 7c a3 41 6b 9b da 0b d2 52 88 fe 4d 3f 8c 63 d2 b7 3a 84 7b 82 58 6c 70 c5 3c ca 67 ef 56 ee 98 84 50 cd 7c 6b 67 79 84 70 73 70 2f 62 8b 49 7f 86 81 90 6b 8b 90 6d 77 65 75 90 ab 92 7c 86 80 70 77 72 96 52 61 9e 8d 87 75 6f 6b 7c 61 99 91 8c 92 69 7d 76 9b 81 89 8a 73 84 7d 73 7c 61 7c 8d 83 7d 76 81 67 99 7f 57 6d 73 68 63 72 7d 75 9a 9f 71 73 83 8c 74 80 a5 4c 65 87 74 5d 90 69 a0 88 6c 59 90 8b 84 7a 7a 89 8a 76 48 51 77 88 86 5b 81 7a 86 69 90 77 91 72 90 4c a6 6b 5e 8a 93 6a 89 a8 34 90 80 95 74 94 23 5a 6b 54 9b 4b 83 80 9e 6d b0 2b 7d d7 70 70 65 97 79 73 65 84 44 5b 3d 89 81 68 6c 9e a5 90 60 95 6c 89 91 7c 4b 8a 94 6b 8f 91 83 5d 73 4f 7b 76 6d 8d 54 aa 85 6d 73 9d 70 77 81 83 74 a2 7d 72 95 7d 92 9b ac 65 6a 6a 7b 60 6f 5d 83 8a 74 6c 7e 68 7a 9e 79 af 8b 7e 83 a2 68 6c 6b ac 92 81 7a 79 8e 87 a5 74 95 6b 9e 7b 8b b1 7e 9d a0 96 8a 7d 90 ad a5 92 87 a7 86 a0 8c 94 6e 85 7c 6e 7b 55 63 7d 6b 70 64 99 7f 85 7b 85 92 56 87 7a 84 7d 7e 98 63 5e 6c 88 60 6d 7e 7a 84 89 8d 9b 7b 85 6b 8e 79 9e 91 7a 91 71 5a a1 8b 67 9c 87 aa 87 9b 52 88 5c a5 95 7e 41 7c 76 91 a6 37 86 48 66 78 4c 7a 2f 85 94 93 86 7b 87 7a 93 77 5c 54 85 61 89 48 62 86 84 6d 78 66 b7 8b 86 80 6e a1 80 50 77 77 80 b4 79 95 58 77 9b 84 97 5b 4f 68 61 58 7b 83 4f 8d 77 78 73 69 83 59 a8 5f 79 3f 70 44 98 89 6f 8d 89 5d 99 6a 45 8e 64 78 8b 72 8e 8a 9a 78 87 8f 61 80 96 82 64 91 6b a4 7d 8c 77 71 89 95 b3 91 8a a3 8f 67 97 a1 87 8c 6d a7 74 7d 7a 89 a7 92 97 86 6a 86 a1 a8 6f 6c 5b 8a 70 88 94 6f 8f 74 71 7f 99 7b 67 84 7a 6a 8b 63 86 6d 7f 8f 6c 7d 94 81 96 a3 8e 9d 83 7e 61 82 70 7d 8b 90 84 68 54 6f 72 6e 4f 7b 70 97 6c 9c 7f aa 84 7a a8 a3 7a 8a 9f 8b ae 5f ab 98 6e 6e 80 46 a9 85 80 64 81 53 9f 84 70 84 67 66 79 86 73 7f 82 77 40 83 8f 5e 96 73 82 89 8d 96 64 7d 7a 6c 7f 90 54 a2 71 99 97 65 7f 94 8b 98 2f a6 84 96 4a 96 82 9d 4c a6 65 4b a1 9c 7e 7d 55 9d 55 86 b0 75 73 6b a4 6c 9c 8c 68 81 65 68 55 65 ab 74 62 a2 a4 97 80 75 a1 7d 6c 76 88 9b 67 1e a2 95 92 8d 96 7e aa 88 84 2c ab 93 7e a1 81 b1 65 b7 4c 69 71 90 7e 6f 86 9b 89 61 5a 83 8c ab 69 9c 9c 84 94 84 4d 75 90 6e 88 85 83 69 73 7a 53 82 80 8f 8d 8d 74 9d 78 72 6f 7b 83 75 a1 a0 91 62 67 61 75 a0 4e 8f 93 8c 6e 81 8b 89 8f 9f 7f 8b 95 81 8d 6f 5c 88 80 76 72 6c 6e 54 84 9b 80 70 99 74 94 76 97 65 7b a0 98 77 9a 70 9b 83 8e 73 72 94 a8 97 9a 72 9d 82 6f 54 7e 8f 7a 88 7c 69 89 58 81 8b 8a 90 93 8d 6a 72 66 70 8d 66 8a 73 a3 70 70 7d 6c 47 bf 9c 8b 3f 87 cd 94 9a 6f 9f 91 70 7e a7 67 69 5c 77 a7 62 7f 71 8a 78 66 4d bf a3 7c 8d 7b 78 b6 50 90 7f 7d 67 9b 5f 8a 85 9a 37 91 87 6f aa 9e 58 74 7f 65 81 7e 9f 83 86 48 87 7b 34 8d 2d a3 85 85 68 79 8b 91 8d 71 98 81 73 66 7f 46 89 95 6b ac 99 70 6d 72 96 70 96 87 a0 55 7b 74 a7 7d 57 94 81 99 8c a3 96 60 8f 78 3b 4d 4e 99 97 92 a0 90 8e 47 6f 5f 86 8a 95 9a 71 70 97 8c 81 8f 95 9d 7a 61 88 a9 82 7a 6a 92 71 6c 97 8f 6d 8d 93 9c 8b 94 6f 93 65 88 66 68 78 87 79 6f 54 71 98 85 78 ac 68 92 93 80 75 63 8b 4a 60 68 7d 82 4b 6c 8a 8a 81 7a 7f 80 55 43 72 1b 6b 65 61 8a a5 6d 8f 7e 8b 7c 82 a2 5a ab 6c 51 76 a4 73 92 8a 69 5b 8d 76 98 98 47 70 9a 5d 86 96 69 66 81 a0 6d 7f a8 86 87 81 4b 90 72 89 a5 8a 1b 98 6a a3 99 98 5e 69 85 7b 94 6b 78 88 66 94 37 74 9f 76 54 9c 8b 7f 55 9f 84 80 7f 8e 52 54 52 6c a7 94 59 58 a4 6a b1 9b 64 93 87 a1 95 81 7d 8a 9b b6 58 71 51 60 97 9c 97 8a 52 76 92 54 a6 75 92 84 62 49 a5 5c a1 68 7c 80 a5 6a 8e 87 5b 85 80 61 66 7b 65 a0 7e 8b 86 5c 7b 74 93 83 7a 67 6d 79 60 8c 8c 78 73 91 78 90 82 73 97 9c 77 74 5e 81 63 83 70 82 79 6b 7a 8e 81 8b 8a 7e 58 75 6c 48 90 7e 71 92 6b 76 5d 71 64 69 8a 71 9b 78 95 7f 71 76 aa 7e 77 5f 79 7c 79 75 82 58 a8 65 a2 92 65 67 93 73 78 83 7b 90 8c 71 5e 92 75 75 90 92 7c ad 78 67 76 73 8e 89 7f 63 6d 67 7e 71 7e 68 9a 85 7e 7c 70 61 89 7c 5c 8b 98 7a 72 92 89 70 72 8e 6f 77 9a 7e 84 90 8a 5d 85 9d 80 77 4d 93 83 8f 6e 64 9b 80 6b 73 8e 7a 8d 62 6b 83 5b 98 61 6d 81 6a 65 67 91 92 77 93 6a 7f 68 70 71 58 82 70 92 67 95 7a 91 75 6f 67 74 71 7d a7 44 5e 78 72 a0 7a 28 8f 67 7a 89 89 44 68 77 80 b4 9c 58 87 66 68 4a 62 7f 86 76 92 48 75 86 93 9b 95 6c 62 90 6b 63 8f 56 65 94 ad 70 98 6d 7b 48 88 4d 78 a3 7b 50 69 60 8b 61 94 b0 7a a9 73 70 95 a9 75 56 6d b0 8d 70 6d b8 75 8e b7 7f 7b 79 74 7e 9e 66 81 6e 74 87 7e 8e 80 80 9b 78 83 50 8d 86 87 a3 9b 90 2d 74 62 93 55 8c 83 7e 76 87 4e 7b 7e 3e a3 71 a6 66 9e 50 96 53 8f 71 9c 90 82 74 85 36 88 6f 5d 94 7a 88 ad 85 82 72 46 3e 76 8b 7c a1 89 76 89 92 93 8b 56 81 92 a8 40 8e 7e 6b 74 5e 9a 82 9c 80 71 9c 8c 93 88 6c 68 74 7d 81 83 67 84 63 7e 84 6d 89 4a 6c 6d 9d 5a 72 85 9d 4f ba c4 67 94 7c 88 63 88 73 79 25 d3 71 70 8f b4 5c 6f 61 8d 4f a2 8a bd 7b 66 72 74 55 66 7b 5c b4 7c 7b 7e 6a 65 8c 82 89 b0 6d c2 7c 70 7d 8b 2d 94 a3 93 58 87 71 b2 94 98 8e 8c 97 97 a1 a8 b4 b6 30 7c 94 81 a4 9e 8f 77 76 99 7f 85 a5 9e 5e 6d 92 64 61 76 76 9e 55 79 8d 73 a3 79 8c 86 94 87 87 7c 6b 72 94 5c 40 44 94 6f 7a 94 67 8b 9b 7d b0 8d 89 a5 89 82 0e 75 b5 6d 7c 91 5c 64 7f 6c 8a 68 71 5e 40 7c 91 b0 67 9b 5d 9e 82 84 80 61 9a 8c 85 6b 89 62 81 ae 73 68 6e a5 86 9d 7a 5d a1 4e 6a 6d 84 38 93 82 62 6d 9d b1 9c 6a 7f 5d 70 96 81 63 66 67 44 8f 99 a0 80 6e 8e 90 93 82 6e 79 7a 8e 7c 85 5e 6b a7 61 5d 84 6f 9b 8c 82 86 83 91 93 94 68 99 91 5d 8e 8b 4d a7 64 a6 91 7e 99 6c 67 7e b1 87 8c 8b 6f 60 b5 7d 96 80 78 5c 70 85 a7 85 9a 92 a4 66 7d 79 65 7f 81 6a 87 a9 61 a0 89 69 a5 97 25 a6 79 ba 80 52 a0 52 85 40 4f 71 be 81 9c 84 cd 7c 51 9a 65 74 76 aa 92 61 7e 72 4d b7 36 4d a2 56 ae 86 7a c1 a0 61 a2 76 b0 70 c5 84 2b 68 96 6a 8a 76 79 65 a8 3b 6a 96 7e 8f ad af 74 5e 74 62 65 58 7c 89 64 a7 68 75 a6 80 58 8f 81 8a 91 96 87 84 39 9b 83 84 59 95 8e 6a 92 68 79 80 79 61 67 74 80 53 8a 89 79 8c 83 79 64 7f 99 7f 65 3e 14 7a 91 7b 47 89 ef 48 c7 9c a3 8e c1 85 24 85 79 8b 56 53 a3 6a 84 86 72 53 99 b7 b4 a4 a4 78 6d e4 40 6f 91 94 b5 76 6b 91 6e a7 46 67 51 c2 c1 8e b0 2a 73 73 8b 9e 80 79 ba 7d 4a 4a a4 8a 5f 9d 5d 6f 80 89 63 96 7d 50 88 8e 65 8d 90 8a 79 68 9d 9e 71 8a 84 8c 7f 72 61 85 64 6c 77 95 76 97 75 76 67 7c 6d 82 6c 96 71 78 79 65 87 95 68 a5 9c 9a 7b 9d 69 7a 65 85 75 77 70 5d 91 90 98 68 80 a7 78 43 89 ac 86 84 75 9f ba 77 81 b4 bf c0 52 30 aa 37 8a 5e 4a 92 86 7d a0 82 b7 54 85 c3 61 a7 5b 90 88 74 af 70 5c b9 5b 85 9d 2e 97 42 97 6f 7f 5b 80 5e b3 5d 82 71 9b 50 a7 85 99 7d a1 59 90 55 b4 6a 8a 86 65 57 90 63 6a 84 64 69 8d 34 63 7b 7f a1 8c 78 7d 83 8b 64 73 97 85 96 9f 47 b5 54 6b 83 5b a1 8e 78 9a a9 6a 68 65 75 77 4e 6f 84 7c 7a 8a 8c 7a 3d 69 6f 7a 79 7b 72 48 82 63 22 9f 74 8a 65 96 ba 68 74 6d 8b 8c 53 72 6e 9e 6f 7f 81 74 73 9e b9 83 ab 6d 72 75 aa 5f 84 87 9f 8c 82 37 9f 84 a9 69 4a 64 86 b1 95 95 62 b0 65 95 77 89 9d a0 a4 8a 3d 98 78 89 72 85 91 86 6e 73 86 a9 6b 9e 6e 76 46 78 89 71 58 84 8d 74 8e 7a 70 8f 9a 7a 5f 91 75 81 72 5e 6e 82 85 82 5f 71 7e 7a 97 94 70 72 70 5b 88 85 a2 89 68 6d 6d 87 99 68 7c 5c 94 83 47 5f 