64 7c 80 9a 68 75 87 8f 93 76 76 75 68 6c 65 99 99 68 7e 69 6a 70 8d 7c 67 95 69 6f 95 67 8c 9a 66 82 6e 66 7a 84 68 83 6e 70 8d 84 99 6b 89 75 6d 8a 93 7d 6a 66 98 79 74 66 69 74 98 85 84 8f 7b 69 66 7e 91 81 96 7a 7c 73 86 9a 7b 6e 88 80 91 73 79 7b 81 9a 70 66 90 92 9a 7b 68 7e 95 92 94 7b 7c 8a 79 98 8b 7e 7d 6d 85 70 81 64 8d 8b 6b 73 95 87 63 83 85 66 90 70 76 69 63 70 69 7c 85 7b 6d 6c 6f 62 83 9a 8c 8f 76 8c 91 75 79 8f 76 81 91 9a 77 76 67 8d 67 91 6b 77 6b 8a 83 79 89 6a 94 73 92 73 7f 70 66 91 98 79 78 8f 91 9e 75 7a 94 8b 75 a2 8c 9a 71 78 66 80 94 86 9d 90 97 91 9e 69 74 7e 95 79 76 6d 7a 66 6a 67 6a 95 7d 9b 77 8e 90 8a 86 84 6e 99 87 6d 87 89 90 64 8b 8d 77 98 87 81 78 71 6a 65 64 6c 7f 7a 8c 73 68 9d 72 89 64 8d 83 65 96 82 5e 86 6c 8f a0 76 96 85 7a 78 8c 83 90 7f 85 94 8a 79 70 85 77 6f 89 87 97 81 63 6a 61 78 7a 8d 6d 70 92 6b 85 83 60 8f 9c 69 75 7a 8c 66 82 60 6a 73 72 95 78 8e 77 73 6d 78 6a 9c 96 6f 97 8d 66 8a 66 6a a4 7a 8e 86 6a 9b 5d 7d 76 8e 90 86 94 97 67 7b 68 79 6e 8d 90 8c 74 98 83 6b 80 7d 7f 7d 80 84 65 6a 81 74 6f 9d 97 95 6e 8b 67 89 66 88 80 7b 8f 8b 76 6e 6c 8a 71 8e 6f 6c 90 6a 6e 7e 66 76 76 92 6f 6b 70 6f 76 83 5b 70 78 81 77 93 62 91 5e 8b 6f 5d 86 7e 8c 82 78 7a 3d 7f 72 8e 9f 67 8e 87 8e 9d 71 59 8c 75 8b 56 60 6c 95 81 a0 8b 70 75 70 92 79 60 5c 61 86 6a 62 71 5e 83 97 9e 6a 66 5c 33 94 55 82 5a 6d 53 98 73 90 4c 8c 83 62 96 7b 56 5e 91 68 59 aa 93 a1 bb 89 6d b6 b4 95 63 73 8d 72 84 94 83 5f 9e 88 70 a5 89 b3 76 4a 81 7f 5d 67 a4 75 83 54 ac 43 49 88 92 ab bb 6e 47 84 5c 87 -1 7b 8f 93 6e 9f 3b 96 4d 9b 9b 82 6b 11 a1 94 8f 71 84 8f 9e 91 6f 71 9e 8d 99 90 7f 57 9e 6e 7a ad a8 a4 74 8a 8c 94 46 57 5f 95 70 95 5d 72 95 62 95 5b 43 80 90 71 91 5d 91 93 79 70 89 58 8c 98 83 41 6b 71 93 77 77 8e be 82 9c 9e 58 7e 6c 5b 68 ae 61 88 b5 8c 67 3b aa 4e 83 6f 74 75 72 75 68 7e 8e 8d 8d 9d c4 43 7c 53 86 69 84 74 76 72 8f 8b c0 52 84 67 a1 a4 6d 71 98 79 6c b6 a8 7a a8 70 8a 63 8c 72 8c 79 99 7d 90 a8 3e 58 a6 9f 95 8e 68 95 7f 65 a5 4e 82 65 79 a1 78 5f 69 ae 73 87 96 81 a8 93 93 59 b0 62 86 94 8a 85 7c 61 74 5c 92 8b 9b 9f 64 82 a2 6e 47 7d 61 4c b7 9f 91 6e 57 88 76 79 6c 76 6c 6d 97 75 71 6e 91 7b 90 9b 63 5d 62 7b 91 5f 76 73 6d 8c 8b 76 71 92 8a 7c 59 a3 83 a0 8f 60 9e 79 9e 8c 7e 87 86 82 7e 77 94 83 7a 3b 73 9d 74 6c 7f 93 86 4f 36 8d 88 73 8f 76 70 57 6b 7f 93 91 8e 77 76 60 70 80 7d 85 85 51 70 87 a4 6c 82 77 8e 83 99 83 7b 7c 7a 83 9d 72 80 94 86 58 a1 7c 76 82 78 6b 63 7e 75 46 96 84 79 a8 7e 83 8f 95 76 66 89 68 73 96 86 79 79 88 87 73 88 89 83 84 94 7e 78 77 66 86 78 95 75 67 79 7c 6e 83 84 80 87 8c 7c 72 80 81 6e 89 a3 68 80 83 83 89 76 7a 7f 7d 6b 6f 8e 84 54 44 88 81 57 a8 7a 74 91 8d 56 8b 6a 96 88 92 91 7d 8b 76 66 64 93 80 64 73 94 8b 70 64 70 93 93 86 68 88 91 77 72 85 67 8c 94 89 6b 72 94 91 99 95 69 80 95 7b 76 71 6b 91 7d 67 8b 84 98 76 6f 6c 63 66 99 87 95 87 97 97 84 76 92 68 7a 99 6c 68 76 77 64 82 7c 71 87 75 72 67 72 84 90 89 6b 6d 6a 81 92 91 89 8a 82 73 6f 87 96 69 98 85 8c 7c 7a 84 68 65 8e 75 75 77 6f 84 65 67 88 6c 99 79 79 78 8e 9a 7a 84 76 6d 92 74 6b 8f 91 64 98 8e 91 75 77 6b 8e 72 7c 80 91 98 87 92 9a 8c 9a 79 94 6e 6f 76 7b 74 98 95 87 79 63 95 94 98 75 79 6c 7f 65 99 73 68 89 77 76 70 73 8a 76 72 86 71 65 71 99 6d 80 78 80 84 79 89 67 78 8d 7e 69 70 91 6d 66 8b 8b 7b 6f 7b 83 79 8f 8e 87 89 75 7a 80 6c 7b 69 64 76 8f 6b 80 79 77 8d 65 8a 6d 96 8b 93 6b 8c 89 67 70 75 69 73 77 66 7c 97 7e 73 90 87 68 87 8d 8f 78 86 83 65 85 7e 7d 6f 65 68 94 90 96 68 93 7e 6a 83 88 84 8b 89 69 64 95 99 68 6d 7b 85 74 83 98 7d 77 90 8b 78 6d 8e 7a 90 94 7a 99 64 7d 65 94 6e 98 93 6d 93 85 8d 84 70 94 74 88 83 72 95 70 91 67 73 73 85 72 68 80 80 8a 63 69 95 6f 82 78 74 64 8a 87 92 6e 98 91 78 86 8e 83 79 95 89 86 8a 73 87 99 77 88 65 6d 8f 88 66 8e 7d 6d 7f 6d 88 7c 8a 85 96 87 88 68 98 8a 8b 8a 8e 82 7f 6f 6a 84 6a 67 8a 6a 97 83 75 88 7f 65 7d 78 86 94 88 9a 7d 68 72 6b 98 87 6a 8d 6c 96 97 81 7b 63 65 84 66 79 8b 78 80 73 8d 98 81 71 7a 67 91 69 76 7c 64 79 71 6e 6e 95 8c 99 82 94 97 99 7c 73 70 7e 64 78 9a 8d 71 87 86 90 87 73 97 79 64 66 7b 70 93 99 96 67 99 8e 63 92 98 8a 8d 69 8e 81 91 70 6e 7b 92 87 67 6b 8e 89 94 88 6b 98 8e 67 95 8a 7f 88 71 91 8b 87 82 77 7f 95 84 77 63 90 6f 81 63 74 8c 73 87 89 6d 92 7f 96 89 87 9a 75 83 73 77 67 8d 8b 73 80 64 6a 68 77 84 88 84 81 79 8d 87 6a 98 82 6b 90 93 69 6f 90 77 78 6f 63 78 99 72 9a 6c 67 86 92 6d 8e 6a 6f 85 90 71 6c 71 94 90 8a 69 94 6e 91 82 93 8b 6a 6d 80 69 8b 7b 88 92 92 73 6f 67 76 66 6c 8b 6e 85 8d 6d 93 76 6a 77 7a 75 87 63 70 65 78 84 71 90 7f 69 78 8d 66 6b 78 65 6c 6c 76 6d 85 95 8c 95 6a 7e 87 64 99 79 70 76 7e 83 7c 7a 6b 85 72 98 97 95 79 6a 69 77 7f 71 81 6a 78 6c 6d 6e 89 78 94 97 95 98 7d 80 77 81 94 78 6e 95 85 79 7b 84 78 73 83 95 8a 7f 7f 84 8c 99 82 79 78 8e 6d 89 6a 93 77 95 8d 6e 7e 6b 75 67 85 6d 65 8d 79 64 6a 98 9a 79 7f 64 8e 7b 6b 90 66 77 6d 88 90 69 69 82 82 6b 98 6e 98 8b 64 66 68 7f 80 83 88 6e 7a 79 9a 93 89 7c 98 7a 6a 74 6f 66 8f 6b 81 64 70 8e 8b 8f 87 88 96 95 7a 89 87 71 71 67 8d 85 7b 89 8b 81 94 83 70 76 98 9a 6d 92 87 78 6f 68 94 67 6a 8e 69 7e 65 76 64 9a 69 72 75 63 93 88 93 69 83 86 98 8e 84 71 7e 69 86 70 79 6c 99 70 94 6a 93 74 80 70 98 91 6d 89 67 97 77 90 78 78 78 83 8f 83 78 78 64 98 85 99 65 8b 94 8c 86 6c 81 67 79 67 79 81 70 83 6e 83 6a 84 92 82 97 84 89 94 85 79 87 82 71 91 79 66 77 87 97 68 8a 97 63 86 75 71 76 95 96 94 63 67 91 83 6e 67 83 75 79 73 67 73 84 8a 64 96 96 80 98 79 6c 97 69 87 70 88 95 63 98 66 94 67 75 75 95 63 79 85 80 67 81 83 68 90 6c 84 7a 8b 74 89 98 91 81 75 71 80 9a 82 6a 6f 6a 8d 87 70 93 81 7c 74 6d 6a 82 72 8f 95 7e 8a 86 74 66 64 76 6e 86 82 81 8a 7e 6d 6c 92 96 87 6d 76 91 74 7b 76 84 7c 6a 70 7d 70 86 7b 99 96 87 7b 89 8b 74 7e 7f 67 92 8d 77 7a 6f 95 64 69 87 71 63 87 6f 7d 71 85 75 95 83 79 87 77 6e 94 8c 8f 85 6c 79 93 78 86 7f 80 6e 78 8a 68 7c 84 89 7c 8c 88 95 79 8f 81 79 95 91 7f 7f 75 77 97 8b 97 71 8a 8f 84 88 87 72 6f 7b 9a 86 82 6a 96 68 7c 6c 76 7c 73 68 91 82 77 89 72 78 83 6c 69 70 7e 69 91 79 8b 84 78 82 7f 7c 95 97 90 67 9a 6b 74 93 6d 7a 83 8e 99 85 8a 6a 85 71 68 86 68 6e 67 86 72 8e 74 84 75 71 87 77 75 8d 8c 96 6c 7c 97 6d 92 99 69 78 87 64 66 81 6f 68 65 86 90 80 8d 72 7f 76 6b 6c 67 7b 97 8c 97 7a 90 76 93 87 71 98 76 7e 7a 74 87 6b 89 93 91 66 68 8e 7f 6b 88 8b 80 73 73 67 95 87 73 77 7d 8d 98 79 7a 71 78 7f 7e 64 6e 97 98 98 89 73 76 85 7e 6a 84 90 6f 99 79 8a 77 91 94 83 90 98 8e 86 7d 6d 6f 82 73 8c 74 77 8d 69 68 82 89 6f 66 6e 67 6b 7f 64 75 82 80 6b 8a 65 74 92 71 64 6a 8c 66 99 81 7e 83 78 71 89 8a 89 a5 a1 66 67 90 82 7c 7a 81 89 98 8a 8c 6b 8a 75 6a 82 67 65 77 66 90 91 64 64 64 68 7c 80 92 6f 85 73 88 8c 72 7e 95 80 70 7d 93 96 67 71 8c 69 83 71 78 7f 9b 7c 62 7b 72 73 99 7c 94 9f 90 6b 99 83 6f 79 93 89 8c 74 9a 77 85 8c 6e 67 80 69 8a 6d 66 6b 6f 7e 7b 87 7d 77 6c 83 73 77 71 7c 6e 6b 87 93 99 6e 92 8c 7b 86 9f 9b 72 84 78 9c 78 85 6c 85 6d 91 7f 73 73 97 98 7b 83 74 87 6c a4 7d 71 79 96 84 69 80 a3 6b 99 7e 97 91 92 92 93 89 8a 95 70 6b 70 8e 8e 8d 74 7f 6e 93 69 7c 90 6e 77 69 82 96 76 92 6d 76 91 7c 6f 84 95 6a 6f 72 92 91 73 87 92 87 85 86 82 97 94 8b 76 6d 78 72 72 8e 93 8e 69 61 9e 7a 87 89 6e 99 82 68 70 8d 92 87 7d 7a 94 79 67 96 81 7f 8f 93 6a 92 99 84 9a 61 72 7f 6b 8d 79 93 78 77 8a 94 72 79 9e 81 83 6e 9a 67 76 7a 9d 9d 73 7a 60 7c 93 89 6c 73 a1 7d 8c 7f 66 7b 6a 62 86 74 7d 80 85 9f 86 a5 8a 75 7a 8f 7e 60 77 68 7f a2 81 5a 61 a4 a8 81 95 77 85 68 74 91 7e 7f 48 a2 7c 8b 7b 97 6d 74 83 6b 8b a1 74 79 66 81 8a 95 8c 79 8f a4 6c 95 ab 80 9f 7d 92 a7 7b 58 88 6f 81 74 5a 7c a1 8b 77 75 80 88 70 6d 22 77 9c 99 73 8d 50 97 a2 95 85 29 a3 7c 83 8b 70 5d 8e b3 95 67 87 2e 9d 8c 58 77 86 a0 9d 78 4c 87 58 84 8a 8e a6 70 79 82 85 5f 71 61 82 7e 67 54 62 84 91 55 5b 81 a2 7a 89 79 85 59 6b 89 9d 80 4e 8b 68 61 91 9e 6b 83 3b ab 7b 91 8a 73 5a 53 a8 59 6c 9b 98 8d 71 82 7b 98 93 a2 af 9d 64 8a 7b 8a a1 6a 86 55 58 aa c4 a3 7a 83 ac a9 75 92 9d 9b 4f ab 8a 84 59 72 6c 6f 6c 95 6a 4e ba 66 70 52 ba bc 60 65 57 71 b0 ab 79 82 98 86 a7 79 58 44 90 5a 86 45 5f 6c 89 a1 68 5c 89 63 5d 71 5c 9f 78 87 64 77 5a 76 7e 68 60 93 60 9f 92 90 65 a6 89 6e 51 8f 84 8b a8 9f 81 63 7b 56 96 77 17 70 9a ab 95 90 4f 92 9f ac 67 93 87 57 8d 73 74 67 6f 3e 87 60 1e 64 8d 9c 80 5b 8c 70 8f 57 5e 76 6e 7f 7f a7 78 5e 78 a8 8d 80 b2 6f 61 8c 4f 7b 5d 67 9d 77 96 85 a1 7a 6e 9d 7a 79 9c 79 9e 90 9f 8f 73 6c 5d 8c 8e 6f 64 6f 76 63 a7 9b 76 62 71 47 86 5e 90 84 bf ae 81 8a 77 91 73 96 57 a3 85 84 75 97 79 87 77 99 60 81 8b 86 a6 72 74 7b 95 70 9a 9e 98 81 8c 6d 84 7c 7b 7d 8a 7f 8f 7d 7c 86 66 73 75 96 85 7e 8b 7b 8d 5c 99 6d 7b 65 82 71 7f 63 8a 84 a8 7d 7d 89 81 93 77 9b 53 9c 83 80 82 8e 83 81 77 8e 88 81 94 80 99 95 63 75 94 86 81 84 67 84 89 85 65 8b 81 77 60 72 92 7a 94 72 6b 81 6b 8e 85 5e 7c 7a 8b 6c 8a 59 67 7d 70 85 a0 8b 88 76 92 84 75 85 7d 97 77 79 83 8f 8f 92 84 6b 7d 6f 64 8e 84 70 73 85 7f 6b 88 7a 89 75 63 92 6f 8f 81 7f 75 76 75 81 76 67 96 8c 6b 8f 85 88 83 8f 7d 7a 81 6f 74 84 65 71 71 7a 7f 91 71 82 96 80 8e 8b 8e 86 8e 90 64 6c 87 7e 7d 75 87 8b 99 94 69 83 7f 89 8b 83 85 8c 91 67 80 8d 87 72 88 85 8e 83 8d 89 75 70 8e 84 79 82 72 85 68 7f 68 94 67 7e 78 72 72 74 7f 65 8e 6a 75 96 63 7b 68 8e 76 92 70 71 84 66 94 77 65 65 8a 7f 84 7b 82 76 88 7b 7f 85 96 7a 70 6f 9a 8b 91 98 68 7e 68 66 6a 8c 74 95 79 82 98 8c 81 97 80 6d 79 78 72 76 7f 7a 73 71 68 97 84 81 98 82 8f 6d 89 86 7f 73 8a 67 87 72 6d 71 80 85 82 85 75 71 7f 6b 6a 93 8e 8a 6d 8c 64 92 98 6f 72 69 7d 97 65 72 73 84 74 69 85 67 92 9a 98 81 6a 7d 78 6a 6c 7a 6e 78 63 96 85 8c 97 92 73 7f 88 7a 87 65 65 81 8f 70 63 70 8b 74 8f 81 84 70 64 72 93 70 83 66 94 8c 8f 6b 6f 7a 8b 8e 7e 99 72 6c 95 6b 88 76 71 76 96 95 84 66 88 99 87 6d 72 63 8e 91 79 82 6f 6f 6b 7f 74 81 7a 85 7f 7d 77 82 91 8d 66 87 91 72 6a 87 66 87 76 8b 75 6b 88 69 76 64 79 63 87 87 7a 79 8e 6a 67 98 9a 97 83 7b 89 86 7c 78 7c 71 74 7d 67 7b 73 7b 69 75 89 84 7b 70 71 96 8c 73 78 84 73 7b 89 67 72 72 70 8f 83 83 88 64 84 79 8c 65 93 73 82 67 93 93 97 75 98 95 78 97 63 8b 7d 7e 7b 73 64 7b 75 99 70 6c 6b 8c 8e 85 88 72 91 77 7b 8f 7a 8c 6c 78 73 74 86 8b 86 84 6b 6e 73 7f 96 88 8a 6e 8c 80 91 66 93 8f 67 98 98 93 6c 7f 99 89 7a 75 78 6b 64 89 94 93 71 69 7c 94 6f 88 95 99 75 74 7a 79 81 98 75 90 83 79 93 70 98 90 93 8a 6c 6c 6a 67 77 97 6c 85 67 6b 6f 7f 7d 8b 64 94 7c 99 85 7c 88 8f 90 90 70 88 7f 99 6f 68 81 76 65 98 68 7e 68 6c 67 74 71 99 8f 87 6f 8d 99 8e 69 86 78 70 91 8f 80 8f 81 7a 84 7e 87 82 6f 99 91 9a 8e 87 7d 71 7f 92 7a 8d 8c 82 72 80 7b 8a 75 92 6a 68 91 98 6d 99 89 8f 90 92 8d 75 6f 77 86 8a 7e 8c 67 7d 8a 71 99 75 7e 96 65 8a 69 7b 80 7b 8a 8f 6e 78 6d 8c 71 90 74 75 7b 74 77 8a 7b 74 6c 72 7d 6e 8e 68 6c 83 6a 8e 6f 89 81 6b 8e 84 89 99 80 68 96 68 7d 67 78 9a 8a 88 95 69 70 80 95 64 94 7b 7b 6f 95 66 79 82 73 87 81 85 6c 76 71 82 8a 93 73 70 65 96 75 70 7a 94 77 8b 84 99 69 80 97 6f 71 84 7d 90 85 6c 6e 6c 8f 94 99 92 7e 6e 66 78 88 64 70 98 64 8f 79 69 6f 6c 91 89 91 93 8e 83 98 75 78 76 79 94 69 98 90 97 80 8b 70 6c 69 65 85 87 8b 96 97 8a 90 94 74 74 72 8d 67 81 79 7e 71 6f 9a 67 86 7b 6c 99 64 8f 6e 9a 7d 90 7d 7a 89 7a 6a 68 75 69 75 94 7e 83 85 84 89 91 79 8c 8a 89 90 6e 76 65 8d 7a 89 96 80 71 8a 96 7e 6e 70 6e 63 79 65 7f 82 7b 8b 93 75 74 99 79 6a 93 84 8f 84 99 7c 77 8d 76 74 81 78 72 81 91 94 7d 96 93 7a 80 7f 67 74 84 77 7c 87 79 91 84 63 79 7f 8d 97 67 65 84 86 84 7d 67 7d 68 7c 95 84 68 8f 8e 85 8b 68 73 79 8e 65 74 63 74 8c 81 8e 8a 7a 92 67 89 72 94 8d 6e 78 77 93 6e 8d 67 74 64 6a 66 6f 79 97 63 6f 8f 8f 6b 90 83 8e 8e 64 74 6d 6a 93 6d 8a 85 64 7f 7a 94 87 75 69 8d 71 7e 68 8e 81 91 78 76 69 8a 89 7c 72 7c 68 8d 6b 8d 93 94 78 8b 74 6a 80 89 8e 7d 74 85 65 6a 78 97 8b 8b 8c 96 79 7b 79 92 8d 94 93 79 89 8e 90 77 95 82 6d 73 69 94 94 92 95 82 97 68 84 98 8b 7f 87 98 87 99 94 91 6a 97 7b 7d 66 77 7b 95 6f 81 72 99 72 7e 64 73 8f 86 95 92 79 84 72 6f 75 86 92 7f 7a 7a 67 6c 7f 87 98 8a 8f 78 83 7b 85 83 80 6e 73 6d 8c 8d 86 79 88 66 8d 75 69 81 6e 8c 72 64 6a 8d 65 77 82 7e 7c 6b 73 77 70 64 88 7d 7e 75 6d 83 98 91 6f 91 8b 84 67 66 8d 97 92 6c 75 92 8f 8f 7d 67 90 91 9a 84 76 74 8f 9a 92 7b 8a 81 7b 96 76 91 81 98 67 68 74 92 65 72 80 84 6e 6e 88 8b 85 7f 7c 8e 72 65 78 67 79 6f 93 94 78 92 84 6b 77 84 6f 73 65 8a 79 7f 8d 90 90 6d 77 8f 6d 98 8c 8d 82 7f 79 6f 78 66 80 8f 