f0 14 e5 e1 fa 26 f5 0d ec 04 3b 04 cd 25 01 21 35 3f e6 23 da fe b5 1f 09 b5 e7 e7 06 ea d3 ec fd fb 12 cd fd 0a fd 09 02 02 11 03 e1 fe f7 19 2a f5 e7 20 05 21 ef 03 2f 2f fb 3e e7 fb 33 0e 1a 25 3a 4a ec 0f ea 34 d1 ec 12 c7 0b 1a be 78 e3 06 11 de fb d1 06 d4 56 2f f2 15 43 de 2f 29 34 0d 0d 2f 27 c3 41 e4 21 d5 0a f3 f0 ff e7 2b 3f 39 f0 f7 e7 1c f5 81 20 14 3c 45 27 28 c3 28 cc fc 00 1e b8 d4 f1 e0 da 10 0e da e5 ff 01 fd 00 f2 06 fc 1e e0 17 fb 11 fe 1f f0 14 12 09 06 17 04 f0 14 ed e3 0a e7 15 23 09 26 0c ef f1 e5 fa 07 1e 09 f4 26 0a d7 e4 ea f0 db 16 18 17 d1 fa e8 ea f9 db 0b 08 a8 e7 1a f0 09 ed 0d df 10 35 20 e8 0f f3 0e e5 10 33 b5 2e 07 23 0b 0d e4 f8 27 32 10 0b 00 fe 0c ef e6 04 04 fa 25 f2 1c f6 0e eb 01 00 1a df dd 18 e5 e9 c6 f8 f7 ee ec 04 1a c2 ea f2 08 2f fd eb 10 fa eb fe 10 e6 20 e7 bd f7 fa d9 18 da f4 0e f7 ec 06 00 dd f7 ed 02 22 30 f2 f4 08 13 02 ed 2e fd dc 20 0d 16 f2 04 fa e3 e9 d4 38 0b 1f 2d 32 24 e9 ee 26 06 0b 1e e3 ff 0f fb e6 1a e8 28 ff 28 ee 00 2f eb eb 23 fa e4 0e fe ff d9 dd 02 05 fa 03 f9 16 ea f1 df fd 2b 08 e0 06 01 fb f4 dd 15 f3 eb 17 ee 12 06 06 eb f4 00 08 12 0d 14 18 d7 ed f6 09 fb f4 00 03 b6 d7 3c 01 16 ed e3 e3 06 29 11 e3 0f f6 01 46 f3 11 da 01 22 1b fe 19 df 01 bb d2 ea f2 3c 08 00 df e9 c6 0f 2a ff 23 ea 1c 2c 10 f6 f0 dc 32 dc ca 1d 22 06 1d 32 3c 00 04 ff 02 08 de f2 0b c9 e4 f7 05 18 02 f8 ea fa 10 2b f0 06 fe 08 d8 d9 1d fd fa ff 07 15 0c e7 fc c8 13 13 08 19 2e f5 e4 f1 fb 03 2f ec e9 04 0d 09 f8 13 02 f7 0e 0f ea 37 f4 16 13 0c 16 00 de ef fd 06 1b 2e 27 09 b7 ed 2d 03 1a 0f 0f 0b 15 0c 00 0e f6 f4 f2 ee eb f2 c9 17 e8 d4 14 de f4 dc fb 1d 27 05 0d 08 07 07 05 1d 9a e5 fa e4 ec 00 0f f3 15 10 0f 14 fc 0c 19 e2 f9 21 21 d7 e6 0f 13 ea 13 2a 0a d2 e5 d7 f5 06 31 24 fa 1d 12 e5 26 cb bd 30 f1 05 f6 01 0f 23 db d0 29 00 e0 cb d7 10 06 fc 2f f6 ee f7 17 1d 0f f4 fe 02 dd 19 2f 05 03 e4 07 05 24 07 e2 fe 08 01 29 29 fc 12 d0 ef 0f 0d 10 2d 0c dc 0d e7 1c e4 f7 e1 ef d8 0e 2c 37 19 17 ed 07 1a dc b0 e9 15 fe e9 e3 4e de f1 f8 0f e8 fe 10 f7 eb fd b5 10 18 f9 22 fa e4 f4 1f 2e f7 21 e1 0d 41 15 c5 35 0b 2c dd 0e 43 26 d0 3e 1f 00 e9 0a 00 c2 11 29 f1 09 01 f6 38 bb ff 16 0d f3 04 0a fa 0a 17 d2 21 df f6 f6 de 04 f0 ed ec 1d f0 0b e9 02 19 24 c4 0e dd ee 2f 06 f4 28 22 19 0f f7 dc dc 1b 1b ec 17 1c 15 dd ec d4 07 0b f1 e5 13 fe f1 13 ff 07 02 0c ed f7 e7 09 0c 05 1b ec f8 e5 f0 08 08 18 fe fb 07 f9 e7 ff f3 f6 07 0e 14 ee 09 f9 10 1a fd 06 f2 f2 08 08 ea f8 f1 03 16 e7 05 05 ea f5 17 ef 00 ea 14 f2 0b 0f f8 12 eb 0f 02 0b 15 17 12 f9 27 f1 0a de ef f8 13 e6 19 f7 1a f1 da 1b 09 ec d6 0e f2 ec fb d6 f2 04 20 16 06 00 20 08 13 17 03 d5 df e6 27 df 1c fb 13 e3 15 ec 05 f4 1b 1c 17 f0 0e fa 4a 03 0e d9 fc 1d 06 05 e8 ed f5 0d ff f6 eb 0e ff fb f4 05 f6 fc eb 08 ff d3 0e 07 f7 e3 0d 0a dd 1f fc 07 0e 2e 05 02 f6 1a 0f fb dd 11 e4 05 09 00 11 24 f9 1e 01 1b 15 04 f0 2c 0c 1a f4 2c 1b d8 f5 a9 00 0d 24 17 0b 06 e8 12 d4 ce 26 fa df e8 fc 03 ec 1f 11 fc ff 0d 0c 19 08 07 04 f5 ff fa fd e7 0d 0a ee f2 ea 13 ec 1e 09 e5 00 15 07 04 00 05 ff ef 13 04 fe 00 11 0c 13 d5 f3 12 eb 0d ff 1a 20 18 05 25 e6 ed ef 17 0a 14 12 f5 37 40 fb f6 fc 1a f8 2c 10 08 d1 08 ec eb da 09 04 f8 27 d5 f5 20 ef 18 db 91 fe fc 20 2b e9 03 ed e7 06 ef 14 f4 fb 03 2d f8 e9 03 eb 17 29 fa f2 fa 13 e1 bd 13 fc 36 19 fd fd fd 04 1d 0f e1 f1 1a e8 ff ed f7 08 fc e8 f8 f4 fd 0c 05 f1 06 03 f0 1b 03 d9 cb ea 11 09 d8 13 24 08 2c 0b 08 df 15 eb 07 05 c6 11 db d7 01 13 02 e9 f7 fc bb 40 20 fc a8 ee 15 19 22 27 fc ba 14 00 eb f6 f5 19 2c 25 f7 19 0b 0c e2 e6 06 ee fc dc 07 0c da e4 24 eb 1a ea f6 03 d4 1a f7 f2 ed f4 0b 0c 01 28 f0 f0 3b ca f2 ff 3c 00 e7 d2 06 ef 00 f2 fb 1c 03 2a fe 00 36 fb f7 0e d0 41 16 e5 3d e7 e7 23 1b fb 2e da 17 ed 23 15 09 10 e4 2a d9 f5 ee 0d 07 17 f9 f4 ef bb e7 f2 81 ea 20 0f f4 e8 bf ee 03 d3 07 e7 df ec d8 30 27 0c 20 ec 0c 22 30 4e f2 d0 c9 ef fa 0a ff 3f fa 00 24 b7 36 00 3e 2f e8 f0 45 db 00 20 b1 21 da 1d 14 12 c6 e1 ee 16 37 32 f3 fd e5 20 ac ee f9 eb ec 1a 04 e6 cd fa 45 dc ce d6 17 ee ff f5 29 12 b0 ee fe 1a e5 12 01 f0 f9 e9 ed f7 07 fb 1d 1e 12 20 0f 06 ed 06 0d 13 ec 18 da f6 e3 eb f5 e8 06 e0 fa f3 15 0a 14 0d 11 1d 01 f2 f8 11 ec ef f1 e4 09 ec 1b 21 ea f5 0a fe da 17 e5 e1 e8 ee 09 13 d8 fa db fd fa b2 fa 1e 1f 1c 22 28 e1 12 0f 1d 01 16 e6 16 ee ec 06 fb 2c e8 1d eb 0a 0f 00 02 f3 db ec e8 ef fc ef e3 01 d4 e9 fd 35 ff f2 14 ff fe d1 f0 06 d2 ee e1 fd f5 ea 1a 09 f9 d9 0c 10 42 0c 38 14 38 d9 e0 28 2f 49 32 05 ec 18 bd 34 2a e4 1c 14 00 f3 f1 81 1b 91 f4 50 00 0b 11 e5 ce d3 29 35 27 fc f4 2f f6 da e4 98 13 d1 0f 2b e0 0c 1f 20 03 f5 d1 e2 f5 0b 12 34 03 f2 03 02 dd 0c 23 11 2e e3 ec 39 74 4f 32 bb 0e 4a 04 ce 1d 13 04 bd d0 08 d4 0a 40 cc 23 e4 33 e7 1a 06 ed db f0 04 ea e0 f1 00 e3 d3 e1 3f ff 0f 01 f8 06 a4 fe 07 d2 03 cf 05 03 2c 27 45 ef 45 fb 01 3c f9 f2 01 04 e8 0d 15 e7 f1 09 fb 17 f6 0c ed f8 fe f9 18 16 09 0c f9 ec e6 f5 f3 f4 fa 02 01 21 18 fe 0a f1 21 00 16 0d f1 f6 fd e4 13 07 de de 04 ec 07 27 ed f8 e4 1a 1a e6 f1 eb df 1e f7 ff e5 1e 02 03 07 24 e1 e8 d2 fb fe ee 29 0c 1f 8c d4 0d b0 1b da 1b 21 2c 1e b6 08 10 ee e1 0d 12 13 e6 d7 f6 00 15 ef f3 ff fa d7 ed 0f f3 e7 fb 19 0d e1 0f 0d f8 f3 0a 0d 06 e2 27 13 f6 07 f7 c6 09 06 d1 f5 f4 ed 0f de de f4 03 da 16 f6 fc fe 10 dc 10 0b 06 06 db 21 08 dd e1 00 f7 f9 ee ff 11 fe 14 04 eb fa 0a 15 0d e9 ff 0e 05 e9 ff f8 11 fc 22 12 16 0a 16 0b fe 19 e1 bc f1 0c 18 d1 0a f1 f6 eb ef 0f f4 0b 02 f6 ef 17 19 3d 26 0e 33 2c f8 0e 04 f6 43 db bd 06 14 17 0c 32 e1 d1 e9 f3 0f fd d8 ee c6 f8 d1 00 0b 0c e9 3d 19 f1 05 e9 cf f5 ec 16 ec fc fa 15 08 bf ff ed 2b bc 11 0b f4 08 f9 f3 e6 f7 14 0b fc 00 fd 1f f0 e9 14 28 1d f0 0b d7 00 ee ff fc 0c 07 d4 28 20 f7 fc fc 13 14 04 e3 da e3 0e c9 f2 0f f6 fb 0f 04 02 e3 23 0e 1d ee 13 07 f3 05 d2 19 12 e6 ef 10 ff 2f 1c 0d e7 b7 26 e3 d0 dd 06 26 00 f9 07 fa 0b ba eb 19 e1 f6 17 04 3c 14 fb 02 29 fe e0 f1 00 0f 01 07 ee e2 15 ea 0c 2e 13 11 21 1e f0 04 f7 ff f7 d7 09 30 fa f0 f4 1a 2d de e4 fe 03 bc 04 07 01 00 e3 f6 29 b9 d1 05 c4 e5 dd e5 12 11 f8 03 1d 09 11 23 ed 18 0c d7 11 e3 fd f9 19 12 04 26 ff 16 f1 f4 ff bd 0c 39 f3 17 02 12 e7 fe ec 0e 18 f5 0d 0d e5 17 0b fd 03 a5 0e 08 1e cb d7 f1 d5 09 f5 01 f0 e0 f1 1e 0f f6 02 13 eb fa e7 07 16 dc 09 07 d4 f2 25 e6 17 e9 10 18 11 f9 db e6 f3 0f 0b ee f1 f9 1a ef e7 25 e9 d9 13 08 ee ed 15 29 01 fb 25 d7 e8 ed 09 1b 0c 24 ec 1b 2c f2 18 25 e5 09 23 f9 fd 0e f0 11 19 de 03 26 d9 e0 07 0d f2 f6 f8 db dc 05 04 09 ca f7 e7 08 0a 0f ff fe 27 03 02 f8 0b f5 03 e9 19 0b de fd f7 1f 0f 19 ee ed f0 12 e4 13 f8 19 02 fc e2 1d f9 e2 0a 06 04 dd 10 e8 14 1e e0 06 f2 c6 14 10 17 ff 06 13 01 13 3b fd e2 01 13 09 e5 0b 15 cc ea 24 ec fa 1e f1 19 ec 00 fc 03 ed 09 23 f9 05 de 03 0e 14 e7 dd 0c 11 ab e7 01 f6 03 d6 eb 05 14 eb fe e9 f8 1d 17 f4 f9 f0 c4 03 ef c6 20 ff a7 f1 f5 f9 f3 2c fc fb dc f4 0a e9 0c 02 11 06 0c cb f9 e8 16 c5 f0 21 01 1c f9 0f e7 dc 0f f9 e4 d8 09 0b 12 eb 22 e9 f6 1e ef 1c 20 01 16 1e 23 ed f5 f3 e8 36 e6 f3 24 41 f4 04 41 fa c7 bd e0 ed 33 a9 0f 28 0c 2e bb 1c 1a e3 e4 fa 01 ec c1 04 e5 2a 40 34 0d f4 12 fb 0c 06 d5 f0 15 e7 00 e8 30 44 e4 d7 02 3f ec db ee e7 1f d3 b4 0a 02 e7 0d 17 1a 09 e5 18 24 16 e4 d2 01 12 1f e2 04 04 fe f8 15 0e df 15 e9 ea 15 04 1b 05 f0 ce 02 e3 fb 0b 07 2b 08 f9 0a 2f f0 07 ff 0f 1e fb 04 ff 11 ff ed b9 06 c7 e6 f0 08 bb 12 00 00 f0 06 f6 17 20 0f fc f7 d8 cc 10 f6 03 f3 05 0d ea 0b 12 f9 ff 01 26 e4 04 19 0f 13 f5 13 ea 06 d0 d6 db 18 1f dc 1b f4 d1 f1 22 f7 ec 0b ed 08 ef ee f5 f5 10 ea 1c e1 e3 e2 fb 1b 12 ee fb 0d 14 cf 05 c7 22 e0 0b 35 c8 b5 ec f9 fc fe f9 fe 30 17 fc 02 11 e8 ed 16 ef 4f 0f e7 03 30 f5 df 08 11 07 30 f6 fc ec ed 26 fa 02 09 07 17 f0 0b e0 e9 11 ea e9 e7 30 d9 18 ff 1a 1a 0e d2 2f 11 33 fb fd f4 0e 08 f9 f1 e7 11 16 e7 f7 0d 07 18 e1 ef f7 0c 12 f8 04 f1 d8 fa ef 13 e2 18 1c 1e 12 fa fe 03 1e ff 1f f5 04 1e eb e7 0b fd fe e2 1e f5 da f1 f0 1c e2 06 ed 0a e8 f8 03 09 e6 ee fd 01 0d f3 f2 df bc e1 0b fb f3 15 d2 eb 1c fd db e5 b8 05 f1 00 05 05 fb eb 16 fc ff dd e7 10 f8 f8 0a ff 14 f8 0f f5 20 04 fe f4 e7 e7 1f df d9 fc ea 24 02 16 e8 ed fe db 02 06 f2 0b f4 e3 04 13 00 dd c4 0a 27 46 f7 ef ea fa 3c 02 13 1e d4 11 bc c7 01 ea cc 12 fa 02 ec 08 ea ec e7 e2 d7 d4 ea 00 db e9 2f e3 1a ec f2 14 ee 29 2b f5 1a 0c e8 d9 f5 fe 05 e6 1e de 22 0c 0b cc 03 20 14 f4 19 ea fe ff 05 05 ef ed f0 f0 f5 fd 0b 0c ef 19 ed ec 07 f9 18 09 e3 0c f6 01 f6 fb 12 e7 ed 0d fb ec 15 01 ec f8 12 ea e5 1a f1 f8 f5 09 0b f4 ff e5 f5 ef eb 08 04 fb 09 fa f5 f9 e9 02 fd f9 0e 25 1e d6 12 ef fb 9e fb 2c 2b ce 14 cf 37 1c 18 f7 04 06 f6 f4 20 19 e9 d8 ed 04 0d 00 28 1e 16 19 db dc eb 03 23 0c ac e9 16 fa fe f9 01 f9 fd df df ed 1e da 11 11 f2 db 22 e4 1f 22 23 f3 02 de eb eb d0 0b de f3 08 fb fb e8 ea f1 0b ec c5 08 07 19 16 09 25 1d e5 0e de e3 f9 ea 07 f6 1e fb fd 0b 0c fc 04 20 0a 0b 06 01 e9 de 03 08 ef 0c 03 0e 04 11 ed 10 0b ff e4 0f 19 f5 22 1a e9 18 f6 e7 f2 fc 11 3c 04 16 f3 ff ee 25 09 e0 03 1f ee 0b d3 1a da f6 12 08 f2 e9 03 0d f1 de fa ef fc 05 e4 10 21 f3 d2 f5 01 11 07 e3 f3 d2 0c fd 08 01 cb 1a 10 d9 fa 19 04 03 f5 e0 d1 0d 18 0a c2 f4 e0 29 05 88 f8 3b fa f0 61 89 05 ee 08 fb 1f e5 34 05 24 1b 25 1f 0c 4c fa c3 04 2d f1 0f ca 21 ec ef f2 cf 81 11 0e 31 e2 fb db f7 14 e3 0a 02 3a ea de 16 25 df b3 df 2f 14 1e 02 fa e0 31 f7 05 1e fc de ed e9 04 fd 15 03 f3 0c dc 11 f4 09 fe 18 19 f9 12 09 ea e2 23 16 ee 2c 01 17 f3 ce ec fa 04 03 1b ec 0f 11 0b 15 04 fa 24 f2 fa 0d 0b eb ea 0b 11 2c 9f eb 03 23 81 18 e2 64 31 40 ee ef 14 29 ee 10 ef 06 2e d3 17 00 dc 1b f1 00 10 fc 28 ed 23 1a 12 e9 23 1d e6 fd e1 d7 27 01 07 05 06 1c d1 fd fe d9 cf ef 0f 04 f9 fb 1e 11 03 15 ca 1a e5 07 b7 02 fd f6 bc 11 16 da f6 20 de 0b 08 ba 18 e7 cb 18 fb d9 7f 0d b2 39 d2 07 ed 05 e0 35 25 0c e4 f3 11 3d 17 c8 03 ec 32 15 0e 5e c1 08 f7 e9 c4 06 14 08 16 2a 11 17 10 d3 29 07 f7 00 d7 a0 cb fe 2d a9 e2 21 0e 11 f2 d3 02 3d f0 f2 be a8 0e b1 a3 22 14 01 ce ef 1d d5 ff d6 06 11 fb 18 11 1c f9 f7 16 fd 12 24 e5 da fd cd 1c db 30 fc 12 21 e7 03 d4 f1 19 eb f3 ee 26 f7 21 32 42 d0 12 e3 10 30 1e e5 e7 ef f8 fb 06 fc da f9 15 f1 05 1e e1 00 d7 f1 11 fb fe 0f f1 0a 0f fe 1f fc fc ec f5 0b e3 f5 f5 0a f8 f0 f9 0c 17 20 e9 eb fb f5 e3 f8 ea f5 12 0b 0a fd 10 fc f3 09 e4 d2 ea 0a 0b 05 f2 e0 de f0 05 e3 fc e2 0e 0d 21 1d f9 14 12 e5 08 f2 18 f8 11 16 12 f2 f7 f8 ed 03 f0 08 0c 27 f0 db d2 e7 06 23 ea e2 f3 21 e7 06 ff ec e4 df e8 fe ef 0e 1e 0d 05 09 18 09 fa fa 0f 1b 18 fd 27 0c 06 de 0a 04 d8 e9 23 1f 1c e7 fa ec f7 09 01 0e 11 19 09 17 d7 08 ff dc e1 00 ea e9 0e 26 fa 02 f0 db 03 15 01 fa 14 04 db e9 fd f3 13 f5 22 0c e4 0f f0 22 13 16 09 eb e5 bb ee 1b e7 f4 ee 14 f9 03 fa ee 16 03 1e 12 14 da 18 04 fe 18 01 ea 0b 06 1f fe f3 ee b8 c9 dc dc 01 f1 15 fe 04 1f ef f3 1f 12 f9 06 eb 02 ff 06 1d f3 fa f6 20 16 13 06 eb f8 e7 00 1a 17 fd 00 f6 02 d1 fa f0 15 0b e3 17 1d ea ee 26 07 f5 f9 14 1d 1f 0f 2a 1d 13 02 f4 06 eb 1f f3 1e 07 fc 10 e8 ed f9 d2 05 19 10 1a 23 22 ff e6 0a ee ea e4 0c 31 0c 06 0b 1d e3 00 06 07 ec 01 f7 f1 f0 e9 07 f6 fa 10 e1 19 a9 23 19 e3 01 fe ee ff ed 0b 1c ee eb 32 fc 10 f8 11 f2 0b d5 dc 23 e5 f1 18 f3 07 1a 1f 28 fc 0a fa fd e8 25 e6 0a 26 0a 1d 19 fe 14 15 0a ef ed ea 23 11 06 06 2a 1e 2e 07 f3 04 0f 08 0f 20 df ea fe 0a 21 1b fa d4 55 47 d7 23 03 10 52 0b ca 0f c9 0a 0c e9 db 4a fc 11 f7 af d9 0e 21 f5 29 dd f4 fc 14 07 ed ef 13 da 14 1e 1a d6 f9 ff c8 eb 06 0a cc e8 2e 2c f8 09 b9 1c 4b e8 01 f2 1b ea 25 f9 01 c9 f0 eb 16 16 f6 0a fe fb fd ec f7 14 10 e6 0c f5 0c f3 d9 0f db f1 10 03 f9 28 10 0a 0f 11 13 da 0c bf 0f 1f 0f f9 03 fc f7 fd 10 f0 fd 32 f7 f1 0a 14 23 ac e7 21 08 d7 0e 0f b9 10 06 14 21 09 12 15 fd 10 1c ff f9 ef f8 d9 19 f7 e7 04 fd 26 0f c9 fe df 17 05 0c 07 17 2f 10 f3 0b 31 f6 fe f9 21 0d d7 f6 1a fb 00 0f 19 f7 07 ee 02 fb fc 05 16 00 eb 01 f0 0e 0c 0d 02 af da 11 02 3c e4 e9 f3 f8 27 e4 fa 0b ed 1f ec cf ed d8 de 17 19 1c 0b 01 0a 25 f7 e2 f5 19 34 15 00 e7 2e e7 f6 cf 1d e7 d8 1c fe ea 0d 01 3d da f8 f0 0c e7 f8 f6 19 f9 c5 e2 13 2b ee e9 0e 10 f9 04 1e 34 29 e6 e8 44 27 f8 44 81 07 05 35 f7 e8 db ec 39 20 18 33 d0 fa 1d c3 ff f0 20 0c 1f ea d1 f0 09 19 fb b3 19 fb 0d fd 06 f3 fe 13 dc b2 1c 0c fa 09 3a 29 26 7a da 01 f5 53 ff 03 12 eb 0f f2 e4 0d f4 e5 f1 13 00 1d 07 07 22 16 04 f2 f9 0c 16 f9 1b 0c 07 13 e4 14 e2 da d7 07 f3 ed 03 34 03 dd f3 f4 e6 07 f5 f8 ed 0e 09 dd e5 ff 07 1e fa c1 ed 13 1b 35 f9 f6 e6 0f 