12 ea eb 17 ec 1b 06 0f 0b 01 f8 f1 fa f4 00 11 17 14 fd f5 f3 10 14 f4 07 f2 0f f1 f2 f5 f4 05 ff 10 0f fe 04 e8 06 ec ee f4 ef ee f9 18 e7 fe 09 16 0a f3 0d e4 18 0d f9 f1 fe 13 18 e4 ee ea fb 00 15 17 11 e0 06 f5 0f e2 13 f5 f1 f1 0e f6 fc 14 13 06 0a 0e 19 01 df 12 eb 07 f1 fd 0e f7 f5 1f 0e fe fd f5 f5 01 1a 06 08 0b e2 04 e1 de fa 0a 0f 26 09 fd fe f9 1a fa 0b 05 17 fe 18 f9 fb ea f8 ee 10 09 08 17 15 f3 f3 e4 07 0a 0d 1b 06 02 ff 12 fa e6 e7 f4 11 15 e4 e5 fd fb 17 03 e8 ed 00 04 ee eb 18 f7 0c e9 ec fd 1a f5 fe f0 fd 01 f8 01 07 f9 f5 01 eb 19 13 e7 11 15 e6 15 12 e9 e6 09 0c ec 07 fd fb ea 02 04 0f f4 02 1a fc ef 01 02 f5 15 1a 02 ee ea 15 12 ee 0d ef 01 ec f7 ee f8 0d 0f 10 fd ec 04 f8 fb 18 14 e6 e7 f2 12 01 07 09 ed 0f 16 f6 00 0b f7 03 fd e5 fd e8 19 f0 e9 ea 1a ec f8 ff ea fd ea fd 05 09 f3 10 1a 03 ef 03 e9 04 f6 f9 12 05 f2 09 f0 f6 12 0e fb 1a ea e6 0e f1 0b f7 e5 0d e9 ed 0f 09 f4 f2 12 eb 15 05 f5 f8 e5 f6 05 f0 f2 0f f8 f1 ec 14 f7 1e f4 fa 0a 08 20 fb 14 1f 07 f3 dd 11 0f fa f3 18 1e 1b f9 ee ec 07 0e 18 1f f4 0e 1c e8 f8 e5 f4 13 ff 28 f3 0e 05 1c ed 1a 0b e8 e7 ea e5 17 fe 26 05 fd 21 09 22 26 09 10 fe f3 f4 19 0c 17 11 0a f4 f6 e3 e9 06 fc fa e5 eb 26 c7 03 0f 1e f3 eb 00 e3 19 ea 27 de 08 e3 0e fe e6 20 0c 19 1f f0 04 cc 06 ec d3 fc 2a f9 29 f7 17 10 0d 0e e8 d7 2b 0b cb 1e d1 c6 1c e2 f1 0a 15 f3 eb fb d4 02 a6 e9 28 b2 bc 0e e4 e1 fd 19 cf 23 29 1c d8 56 e5 0e 0b df 34 ee 08 a9 ee e2 27 07 ef fa 34 09 0b e2 e3 2b ea bf 37 2e 1a 15 28 24 14 f5 eb db 1f e1 e6 26 03 d5 ff 13 0b ce e8 19 ff 26 fc 18 10 0e 17 eb de f4 03 0c f9 27 04 50 38 81 dd 1b b7 d0 28 d5 e1 d2 c4 2f 12 f8 f2 a6 f9 e6 e8 f3 fc ca de ee 32 f3 1b 09 ca 13 c8 00 18 03 c1 d7 ca 28 21 c6 2d cd c6 91 f3 e2 f8 cd f4 db e2 f2 f7 2c d0 08 f4 fe 16 2f ee ec 38 e3 07 a4 0c 1c 19 fe 26 c5 ed f1 21 11 f4 1f 2d 14 01 da dc de 21 eb 31 4e 31 e4 09 01 d7 b3 1d 1a c0 04 f4 e5 fa e9 da ba 0e df ff cf 18 0e ff f1 00 eb 26 1d 05 1b 03 e5 ed fa 00 32 e6 f6 e4 1e 30 d1 bd 12 1c fa 21 00 da f6 2b 2e 0a 04 ed 12 13 da fd 01 16 f3 0a 2f 2d 00 e1 f4 e9 09 05 f4 19 16 00 da e1 bf eb d3 20 f9 fe f4 dc ff f7 f9 13 00 21 fe 08 ea d7 0e d9 12 05 1f f7 e3 04 f2 32 e0 30 f7 e5 24 1f f1 fa e4 0e ea fd 00 f6 18 01 e3 02 18 ee 07 0e 1c ee ee 00 2a 11 15 fd 13 e8 03 f7 fa f1 d1 f8 f7 12 d3 f5 d1 fb 23 14 fe e4 02 02 18 ed d2 14 1a f9 fe 23 fa fd fb ee 15 1a 00 01 f2 14 fb f9 d9 e7 22 02 06 dd f8 13 ef ed ec eb e5 ed fd 12 05 e9 02 f8 fc e6 06 01 e7 01 11 eb 2c e8 f9 f3 e5 f9 e4 14 e2 e4 ef 19 f0 f7 10 12 0b 07 0f fb 05 0b ef 0b ec e9 fb 08 0c fd f8 06 ee f0 13 f8 01 23 1b 01 02 f8 0e f4 02 e6 0d ee f3 08 f2 f2 f9 03 0e 17 26 12 04 ff f1 f7 e7 f4 e3 10 ea 01 11 f9 f5 f0 1a 06 1a 01 ee eb 09 07 1d e6 e9 f4 ee 0e 15 0d 00 e7 00 cf 28 06 01 cf 20 0b 1d ef 0e 08 0c 03 fe e6 fe 15 e9 fb cd 0a 06 fc 06 e9 14 0b 0b ea f9 1d fb fe 00 ea 18 00 0e fb 08 07 e5 21 eb e3 12 ea eb 0a eb fe 1e f9 fc 0c 0e eb 05 0e e4 f4 f4 ff 08 f9 da 10 0b f2 16 20 0c f2 f7 01 1e 07 17 dd 18 04 0f 02 ef 1a 0a e8 05 0f f8 ec 15 01 ef 0d d3 f0 df ff ec 0f 18 17 0a 03 fe 1e 25 02 ed 20 08 0f e9 02 ee eb 06 fe 2a 10 f8 09 05 f8 0f 11 0a 38 17 e8 02 23 0f 09 01 0c 0a 20 be e8 03 06 13 0e 01 19 f6 19 dc 0d 07 f1 e3 09 05 fc ef 09 09 0d e1 ff d6 fe 09 12 09 ed 24 ee 12 f0 1a 05 ff ee 04 fa 0e 1e f7 11 1f ec 31 02 0d 0e ee 08 f6 f4 02 f5 03 1c 19 16 1c 13 0a f6 ec 01 19 fb 08 cd e1 fb 14 ea f4 01 f1 03 05 14 fe 0e 02 f4 fe fa 1d fd 05 f5 e8 f8 f9 0a 0f f1 fa 02 f9 05 fd f8 f4 0b f6 ec 02 d2 1b ba 03 0f e9 25 12 0d 19 fb e6 0f f4 f8 04 eb e7 17 1f 03 f3 16 f0 f0 e6 0c 0a 12 d5 0c 2d f4 0c 09 fc 2c 08 f3 0f 09 1a f2 fe fd ed 1e e1 17 f9 e5 05 0a e6 09 2a e7 01 06 16 e7 ff 0d 17 d5 fe 06 16 f7 e5 24 e7 ec 19 fa e4 21 e9 28 06 f1 0b 03 02 0f f7 04 fc 25 fe f5 df ed 14 e7 d4 f2 e7 15 fe 0c 10 e3 d0 00 d7 15 fc 07 06 00 11 15 12 1c fe ff f9 f0 ed f0 00 03 d8 f1 00 0a f6 de 04 03 08 04 fd 1e e9 f6 1d e3 10 07 15 3c 07 e1 28 18 24 08 0b 0c 07 f3 00 ee fa 28 03 1b de 2c ee 19 16 06 0c ef e3 14 05 01 fc 0b fc fe dc e9 ee 0d 13 2d f5 e9 fa f3 1b fe 1a f4 08 ea 0b e8 0a 46 01 df ea 01 12 f8 07 fe ef e6 ea fd 13 e3 f2 0d fc f9 da ef f6 f4 f8 fc c0 e1 f4 16 cd 05 04 01 fe dd 0b 0a 02 0d e6 f4 f3 f9 04 09 10 1b ed e1 1f b6 f3 dd de fe 16 f1 20 fd 06 09 ff 0f ff fe 0b 03 ec 02 ec 11 e2 24 ef 16 e3 ef ec 19 14 1b 16 eb 1e f4 23 14 17 1f 13 f0 14 ff f8 04 23 0b f1 eb 21 f7 00 10 16 fa f4 03 12 ef 26 14 f1 fc 11 06 0a f8 05 06 21 fd 01 09 f0 01 f4 ee 1a 11 f9 16 0a 08 05 f3 18 0e e9 19 03 07 f1 12 f0 16 16 05 f8 15 f7 0b f8 ff e8 f9 18 19 e9 08 0d e5 fc f1 fd f2 12 ed 14 14 fb fe fc 19 e7 f6 10 ea f0 ff f8 ee 0b f5 fe fb e4 0d 18 f7 0d 14 0d 11 f1 14 16 06 08 17 e7 e6 0d e7 02 06 ee 06 16 0f 06 e6 0e e5 ec e5 06 e6 03 f5 09 ff e6 f1 f7 0e f9 0d e9 14 e6 10 fd f2 fe 0b 05 ed 15 e8 f0 e9 fb 15 ff f1 e6 19 f4 e7 fa 12 e7 e6 12 e7 00 10 11 1a fb fc 00 0a 00 e9 12 12 ee ef 0e 03 1b 0e f1 07 fc ef f1 15 0d 16 10 e9 07 f4 fa e9 16 12 09 ef e7 04 0e 18 0a 07 03 ee 0b f3 f9 16 ee 00 19 00 06 0c 0b fb 12 f6 e4 1a 0e ea 00 12 ee 09 15 03 f0 0b e4 0c ec e8 18 12 e9 05 07 04 07 08 f9 1a e6 fa ef f7 09 02 fb 01 f7 ed e8 ed f4 04 ee f8 fe ea e5 e9 f3 19 07 f5 19 02 06 f4 0d fa 10 14 07 f4 ff ff ec e5 0c 18 f8 ff e8 00 e7 01 fa 0e 13 04 fd 10 03 0b fa 0c f6 ee f7 0a 13 12 07 12 e5 14 e9 eb fc 0e e4 08 17 12 19 e7 f4 e8 18 e9 e6 ec 0d e5 0a f8 01 11 ea e6 fd 18 ec 0a e9 08 1a 13 10 f4 0f f8 f3 06 ed e5 f7 14 05 fe 1a eb 10 15 ee e4 0f f2 f6 17 0d 0b 04 f8 18 ff e6 ef 01 e5 18 f2 17 11 ea e9 19 e8 19 ed 16 04 00 ef 04 e4 f9 0b 07 ef 16 f7 12 e6 16 0b 07 12 e9 09 0a e6 ee 1b fd 19 02 0f 02 f5 1a eb e4 0a 0c f2 0d 1a f8 15 14 1a 10 e4 0c ee f0 f6 e4 19 f8 f8 ea 0f fb 16 f7 17 14 04 12 0f eb 06 e8 15 18 e9 19 13 07 ea fe e7 fb f3 0e e6 12 e9 10 ff 0a ec 11 fc e5 f5 e6 0c 1b fd fd 05 ed e5 f5 18 eb fe 1a 00 14 00 fc 05 fe ff e9 e6 e9 ea 13 f3 fd 19 ed f5 fc 07 13 f6 17 f4 f2 f9 e9 f3 f7 13 0b 05 f6 08 f5 f0 fd 09 06 f8 e7 09 fd 0a 11 08 ee f2 e9 fe f6 0b fb e6 f8 e5 01 e9 f6 e5 f2 e4 03 0f 00 f8 f9 f5 15 f5 13 19 f2 e7 f0 18 10 07 12 e9 ec 16 15 0b f2 fa ee fa 04 19 0c ec f4 eb f2 05 f7 fe 12 16 f5 14 f4 fd 03 f2 00 ef f2 e5 fc ee 04 14 08 f8 12 17 fb f3 11 f9 0a e8 14 0d e6 f5 04 f3 e6 fa f5 15 e9 fe e8 13 0d 10 fb f4 ff ff f5 fd e6 e6 00 06 e5 04 11 f5 0b e5 18 ef fd e4 ea 0d eb 0a ef 17 fd e4 f2 fb f3 10 03 ee ee 09 09 f5 06 f5 09 06 e7 09 f9 fa f8 17 e3 fb 1a ea ea f2 03 e4 fa 08 0f 01 26 eb 12 07 0d fa 14 0e 08 e7 fd 00 f5 fe fb f3 16 f1 02 0f fb 06 08 ed 1d 04 e6 f8 f7 ed fc 15 fe 11 1b f4 f8 13 f8 05 13 0d 1e 19 08 07 f4 f2 19 0b f0 0f fc eb 18 02 05 ea ea 04 ef f3 08 e9 05 0c f0 15 fd 10 fc ed e8 08 13 fc f8 11 e8 14 03 15 ed 0e 01 e9 fa 14 fd e8 ed 19 06 05 f7 0a 17 0c ff e7 07 03 e4 02 fe fb 02 14 fe 03 14 f8 06 fd 0e f0 00 ec 05 e5 f3 17 06 15 eb 09 0d f5 04 fe f0 f1 e6 fa 00 01 f8 e8 14 03 0b eb 19 f5 e4 0d fe e7 f9 e6 0a 03 ee 12 fc e9 0b f3 ff e9 f5 01 fc f5 eb e7 fd 0a 08 15 f0 1a f1 0a 13 e6 eb fc f6 0b 00 04 f0 f5 08 f2 19 f7 16 f5 17 fa e5 ed 0e 03 18 f0 fc 11 fd f0 fc f5 0a ea f2 01 ff 0e 14 12 12 0f f8 f0 18 19 fa 0e 0b e7 16 10 f1 08 17 04 0a eb f5 e6 03 f8 ed 14 18 e7 ea fd f7 08 ff 29 f7 fd 12 03 10 1b f9 0f f4 f0 f5 0e 0b f3 ed 0e f9 e5 fd 07 02 eb fd e9 1d f7 fe 10 1d fc 21 e7 00 01 fa f7 05 0b 04 ec fe e6 12 21 26 f6 0a e0 12 f1 05 e7 f0 11 04 07 05 eb 00 e9 14 f0 c8 fa 07 07 f8 f9 0e c7 19 e5 28 03 14 12 fd 0b e6 ee e3 c0 fb 11 03 0d cf 06 b5 ec 16 23 16 1a 1d bf cf 1b ca ef fd 2f e4 31 11 28 2a 18 fb 0d 09 29 ff cc c5 08 0f 28 21 14 f6 e8 02 09 2e 0b f7 13 12 b5 14 d4 f8 de d7 0d 1a 08 fb aa ef 18 bf 2c 03 e6 ba e8 ec cb 2f 94 2e cd 2e 27 d4 f6 01 07 28 4b 02 9c f3 e6 ff 25 1f 06 0c 23 92 2a fc 09 27 39 10 0d 25 11 0a c5 e8 cb 08 05 15 a4 c2 09 18 3c e4 49 e3 ba c5 0f 0f d8 17 e3 fc d0 e0 08 bc cc 06 02 2a 2d 20 24 3c f2 b3 27 ef 1f f6 ce 2c e4 fb 06 c7 03 e8 14 2e 30 29 b6 f7 ae 00 14 4a 17 f7 e6 1d 39 1a a1 fb a0 c7 ff fd e2 fd 20 16 bc 12 fc f1 f9 23 e6 f8 36 00 c1 eb 11 ef 27 04 20 f2 db 02 2c 1d 3f 32 12 ce fb e6 04 02 24 05 d7 f5 dc 0b f3 04 16 3b 26 0e c6 b6 41 11 38 04 34 f7 e7 fe 0a 8c b3 ee f5 06 06 0e 16 0c e3 f6 c2 11 31 f4 fd fa 14 ef 17 f3 f2 17 07 fa fe 0c 0b f5 0c 01 05 10 f7 f8 de 02 0f fb e7 01 f2 19 e8 15 e9 f0 e9 e9 16 04 f9 fe 02 00 d5 e0 13 0f f2 00 f5 0b f7 fb 12 08 dd ff f0 fd 10 05 ee 0c 0f 0c 01 09 fc 08 e7 17 0c 0c f8 05 0d ff 0b 11 01 2b fe f3 16 fc 00 f4 cc eb fb 1b f0 f9 ff 0c e0 03 fd f5 fc 1c 0b ef 01 0e 07 f6 0f ed f9 2c 0b ec f4 0a f4 f5 16 0b 1d fa ee fd fb 13 0d ef f8 ee 1f f5 0b f7 ff 1b 0e e8 04 f9 de 18 f1 f5 01 e2 e9 12 16 fb f1 0c f4 da 02 f9 ef ec 0d 0f 06 ea f2 08 03 19 01 d0 0f ef 05 0a e2 0d fd fc f1 1a fe 0e f1 f4 02 e3 fb 16 e3 01 f9 09 ed 13 f8 00 00 f6 ef 14 0e ed 0d f2 0f 00 e9 f8 fc 0d fb f0 06 0e 0e 04 fe 0e 15 00 fb 0f e5 f8 05 0e dd 24 08 ed fd 0a f9 01 19 07 ef dd ff 14 07 e6 15 0b 07 0c f8 07 0c fa 16 e6 fd 07 f7 13 e5 fb fd e3 1f f4 f8 f8 e7 eb 27 06 07 04 04 0b d5 0a ea 1c 02 26 f6 06 01 f4 c9 e0 0f 00 f1 b9 18 e9 ee f0 f4 e5 ec 07 f9 0a 06 f1 fa 10 22 10 1b ef e5 f6 f6 1a 08 09 07 ec 20 e3 ee 15 f0 ee ee 1d 04 ff ff 09 ef 11 ea 0c 07 fa 0a f9 02 02 11 1a f2 21 09 0f 03 14 03 08 f6 0d e6 f7 03 f6 0d 28 fe 11 01 10 f3 e4 0e f5 17 0c fe 01 ec ff ea 1b 03 f0 e3 06 0a f2 e0 f6 ff 10 1a f6 03 ff 08 03 01 0d e6 ef 17 02 12 02 0a ec f9 fd 05 13 09 00 04 f5 11 24 f9 1d e5 dc ef 10 f9 da 0b 1f f5 17 f7 f8 ee f5 ed fb 12 03 f9 06 1c e1 fc fd f8 0e 02 06 02 02 14 fe 00 0f ea 13 fb e9 26 0b 0d f9 bb fc fb fb 25 ed 08 f1 14 02 fb 08 10 ff 08 18 f4 ec dc 11 1b 06 1d f1 18 d8 e8 e9 09 0f fd 14 ed f9 e7 0f e8 13 fe 0c f9 f9 1c 08 23 02 0e 1f 2c 03 04 28 07 06 1f 15 0e 27 e3 1f d4 db ec 07 20 fe e8 09 d2 e8 f5 fa ec 0c c6 13 11 fe fc e1 ea 1d ea 09 a1 13 a9 17 0f 21 ee f5 f7 b1 ed 0a 13 ed 23 e0 13 fc 25 0f 15 f9 07 f6 c8 05 1d ed 08 d8 cb f4 17 05 f1 0b 08 d6 0c f8 cc f9 2f f8 22 08 cc 0a 06 27 f9 f3 03 0e f9 08 de fb 25 16 ff 0a 15 04 15 04 17 f7 20 09 17 00 fc e1 ff 1c 1f e4 12 26 f8 09 02 f5 0a f8 b9 f7 1a 18 f2 0a 22 1b f4 f6 07 ed 08 ee f8 fc 03 e5 0b 0b f5 e0 f0 f1 dc 0d 26 e2 04 10 0f 0a ee ea ec eb 29 0a fc 13 da 33 0e ff 3f d0 ff 13 f6 15 0a 00 3f 1f e6 16 16 22 fe f1 fc 12 f8 14 96 f5 f2 00 f7 22 ff 0f 05 21 1a fe 29 1f 0d 36 e2 fa 10 fe 07 f7 0e fc e7 f4 fa 0d f6 0e fd e9 e7 05 1a 0e f5 ff 13 e3 1d f3 05 15 1d fe e3 f9 ef f6 f5 00 10 27 1c fc fa 1c ed 21 f3 08 0e 10 dc 0e e8 04 f4 03 f4 f1 14 15 e2 fe ea 1d f8 23 09 0e 1f ec 17 d7 f6 12 06 0a fa fd f0 04 ef ec 06 07 f6 f2 16 02 eb 1b fc e6 ec f3 ee 00 f7 ee 14 eb 0e 23 ee 06 f0 fc 0f e0 00 1b ed ff 20 04 f8 00 02 f4 e6 12 f7 f6 13 05 e1 02 ec 1c 09 13 f3 f4 26 f9 ff de 07 05 fc f2 fb 1b f8 f6 ff fd f7 03 19 09 f5 08 01 ea 1b e9 f2 10 04 fd fe f7 1b f5 0f f6 11 1b 04 eb f5 0a f3 0d e7 04 00 14 10 1f fb ea 09 03 0b 1b 07 ee 06 0b f1 f6 1a fc 03 f8 f4 ed e7 0a 0e 01 12 f6 f7 05 0f 12 fb ff 01 f7 11 ee 0b f5 02 f7 0b e6 f1 fe f0 0a 23 ff 0d 1b 14 e7 eb 05 e3 fb f4 f2 ff 08 f6 19 f2 e8 06 e6 02 08 ed 12 ff 0c e7 09 0c e5 e7 1b f1 fb f3 eb 12 0e 00 04 fb f0 16 f1 1b 13 ee 0d 02 0e e5 f6 1e f6 de 00 03 23 fd 01 09 ec 0a fa e2 0d fd 0e ff c9 e5 d9 e9 1a fd dd 04 11 f2 ee e2 1c fa 05 11 0f 09 f7 05 05 f3 05 07 07 de f1 1e de e7 f8 f3 f2 17 21 ea 0f ea 05 f6 f8 ee f8 f6 fb ef fb 03 02 f8 e9 f6 1b 02 fb f3 f8 0d f6 eb fe f1 ec 20 04 04 03 e5 0d 09 0b eb f6 e4 f8 f6 02 ff ff f6 1f 00 e6 fd f5 09 1e fd fd ed f3 15 16 e4 ef fe f6 14 1e fc 08 fc f5 ee e3 f5 0b eb 0c 0c 03 05 06 f0 03 f5 1c eb 12 e1 03 e6 d3 1a fe 1a d1 fc 12 0a fc e6 f7 0a 08 1b f3 03 0a eb fc 09 07 eb f7 16 02 1c 07 f6 1c 13 0d ff 02 db f9 0a 19 e9 07 f0 fd f2 0e 10 0a 1a f4 0a 0a 07 f7 f2 e7 07 ec 14 f0 ed 0b f1 f2 ed 17 0f 16 ee e9 fb 0b 01 fc 03 11 15 e7 fc 00 ed 02 19 0f ed 04 f6 11 e7 0a ea ed 0e 18 0c f2 16 e7 e6 10 0b 10 10 12 f5 08 08 11 ed 0a ed 16 08 f5 e6 ee 0d 17 e5 f3 ea ee e7 08 0b 01 19 f4 05 ef f4 07 f8 fc 01 15 f1 19 f8 16 f2 10 01 0a e5 06 10 16 01 16 16 04 0f f8 08 03 e6 f2 14 fe f0 1a 0a 12 0e f7 03 18 e4 f2 fd ff e5 ea f7 e6 ee 05 1b fd 14 03 e9 08 ea 16 06 16 f9 18 e5 e8 f9 eb 0a 14 17 ec fe 09 0b 06 0c e8 17 f5 0d 0e fc f2 16 17 f9 f0 15 f9 0f f9 01 f8 15 e9 e4 08 f7 0e fb 13 01 11 03 f9 f1 01 f1 07 1b 18 ed ff 03 03 03 fd f6 e7 1b 1a e8 0d 04 fc f0 18 f1 e9 18 f0 f2 ef 10 f7 e9 00 f1 15 17 0d f3 f6 0c 18 18 0e e4 18 f1 f2 17 fa e6 ea ef f9 08 fc 0b 02 f8 fd 0f 13 ff eb 