af 0b 45 26 44 de af 11 ef d8 da 21 34 e1 1d 3f 03 32 05 02 26 e8 18 ee c9 a1 26 05 01 17 c5 2d 82 1a f0 f1 ed db 21 25 fe ea 30 0c fb 0d e0 59 f9 e5 3b 15 29 1d 32 41 21 14 18 03 a2 e9 22 13 1c ba d1 fc f3 2a 12 2d d6 0f 00 19 23 a2 26 fc 24 c2 d9 08 b6 dd d1 24 fc de dc d8 81 6b 86 dc f0 f4 ed ef a8 ee 12 1a ed ea f6 18 10 20 fb ce 01 4f b1 2a aa c1 04 1d 14 ba b5 09 88 21 a0 fd 