10 d8 fc 03 1c ed 01 10 fa df fb f7 f7 1d e2 07 e8 2a 1b f0 ed 08 1b 02 fc 26 0f 11 f8 ff e2 1f d9 26 e6 10 fd 16 e2 0d eb e0 02 22 eb d6 07 03 17 fd fe e6 01 cb 07 1b c7 e0 ef de 0f f3 1d 2a 5a ec 0a 26 19 ef fc a6 13 f1 fc a8 10 10 dd 2e fb 11 02 42 fd 2d fd ca 1f 0b 27 da b1 18 c3 cf 0c 13 16 23 e2 f5 18 20 ec 0a 18 29 ff 1f f6 23 fe 05 e4 01 3a 05 ee 20 f0 06 eb e6 0c 0f 01 0b fa f7 2e 46 f0 1a 46 f0 c0 e2 14 d7 15 fc 03 2a 0d e2 e8 48 01 e3 e3 ba 07 19 1b eb ed 14 3c c2 fe b1 cb f0 eb 09 ea 06 25 df e5 13 f8 e6 e7 fd db 33 31 03 9f 12 16 30 cb 25 e5 fa 37 00 c0 3f 56 da 06 fa 06 e7 44 ed c7 15 00 c7 17 19 f7 23 f8 10 3c 1f 04 08 2b d3 e8 2f 40 f6 b4 f9 ee 99 1d 10 1d 05 fc f6 df f5 18 0b dc 21 ec 12 08 ee 07 fc 0b 25 24 fa 29 ed 0b e3 07 f5 20 f5 10 0c fd 1b 01 e6 12 f7 04 0f 0b ec fc 28 cf 20 cf d8 fe 0d 0f 0e 0d e5 ea 02 fe 18 07 fe 1c d8 07 ea 16 20 f5 01 ec e7 ff 00 b5 ef 1d 15 1e ff 14 26 27 00 03 e9 21 16 08 01 e9 03 cf f8 fa 0a fe 18 f6 f1 e6 ec fb ef f3 e6 1b eb f4 ef ff f6 f5 01 ec f9 1d 0f 17 ec 02 12 11 0a 02 1a f5 23 ef f7 b7 56 42 44 04 14 d1 08 94 ff f7 10 eb df f5 cb 60 a8 c1 50 70 8d ea b7 42 da d9 2b 91 ed 7c 87 fd 0a 0b 20 05 18 e9 06 11 1f 0c ec 13 18 e2 1f f5 11 15 17 ea fd 12 24 11 11 21 fe 0d f1 f9 21 0f 1c 21 13 f5 e8 0a e6 d8 fb 20 03 15 16 0e 21 fd 0b ef ed f4 ee f3 df d9 13 16 e5 f0 0b 0d 0d e0 09 00 0c 1b ef f8 31 06 eb fb f7 d7 f1 ee d7 1e 0b ff 14 ed c5 08 ed f8 f1 26 fd 1d f5 0b d8 e3 00 e3 07 02 03 02 22 02 ff 02 07 2b 08 05 f8 06 25 0e 0d 0f f9 e5 fe 08 12 07 07 23 17 f1 fa 03 f2 f5 f6 fa f6 f2 01 09 0a 0b f5 17 f2 ec 0f eb dd 11 f9 eb f9 ed fb 0b fa f8 1a ee ec 0e 10 47 e8 44 2d ef 0c 2f db 98 eb 24 bd 56 ea f8 29 ea 1a 17 43 1a 0e 14 81 f9 2d 37 e8 c4 53 1b b7 f2 17 08 1a e7 ec ca f8 d3 1a c0 16 bf da fd dc 1f 00 13 2f 13 ea fd db e7 e2 12 e1 ec cb 12 d8 c9 22 27 33 10 eb 09 21 d0 e4 d3 3e c7 f0 de c4 3c b9 cb 1e 20 bb d1 e8 12 cb d9 fa f6 b1 49 d5 de 06 10 2c e8 eb 0e fd 07 d4 24 03 1b e6 e8 f6 16 1e 17 e6 1f f2 18 0a 05 13 df e3 0b 0e 01 eb e7 12 11 20 e5 00 d5 01 21 16 e3 1d f2 03 03 de 1d dc f9 0b 00 ec f8 f5 fa 12 04 fa f0 e7 13 eb e4 e4 dd a8 1b 01 ac 37 2f df c5 48 d5 f1 e8 b9 ba 26 3b b7 b8 13 0d 57 e2 ba d9 da 3a c4 d6 45 0c ec 0e f2 00 f5 39 e0 ce 0d 27 09 1c fa 2a f8 fc 2b 1c f9 d6 1c 03 12 0a 22 e7 f1 d5 17 03 f1 f4 11 29 19 e1 07 28 df c7 f6 f1 f5 01 12 16 16 db 1d 05 f9 e2 11 da ce 24 22 15 d2 f0 e3 fd 11 fa ff 3f 49 01 09 04 e2 cb 13 25 d1 26 e0 0a 2f 28 17 f2 4b 0d 02 f2 cb 1d 1d fc 1d d8 4f 07 c5 f9 22 15 18 fa 07 10 1a 26 d4 20 1a f1 18 df fc d9 ea 0f 11 0f fe d2 fe f2 06 23 dd 0d ee f4 ed 29 cc fa 17 e0 fb 3d f1 b5 eb 13 fa 1c f8 ed 03 0c 3b 1b f8 cc 1b 24 f5 e9 09 ef f3 e0 08 34 df 0a 0e 0b 12 0c 0e f9 fe ec ef e9 fe ce 0a e6 e8 19 18 fc 11 30 de fb 05 ff f4 ee db 0f f4 25 fd 34 fe 01 17 e1 e5 fd dc 09 f7 2c e5 2e f2 0a 3a f9 38 35 25 da 40 2c 0c 04 3a 07 04 f0 08 07 07 d4 37 0e fc ed e0 d8 19 03 0d fc 19 02 0d 20 02 f8 06 e1 e7 f5 14 d6 10 e7 df f1 0b 36 01 24 28 24 f4 e4 fc e2 ec 0f ec 18 22 00 04 ee 2b d5 0e e9 f1 06 f8 f1 2d 17 11 08 1d 20 f6 19 10 01 09 c2 18 e1 f3 f7 e9 b2 51 e6 eb ae 2b b9 f5 18 d5 e1 1e 0c c6 e2 05 f6 34 e3 d5 d2 08 58 a7 f4 10 3c a0 cc e1 de f3 27 0b 42 e5 e5 ff f4 1f 05 20 9c 52 5d e0 81 50 37 40 e4 03 16 ed 28 fa c8 23 1d 0c 1d 16 fe 0e 03 fb 09 00 f5 fa 05 fe f3 dc 1e 1e 15 16 33 1f 15 14 10 f1 f2 07 19 0d fc f6 e3 16 e4 08 e2 05 e5 f8 f4 e7 e9 0b 16 0d f4 f5 15 fc ee 13 fc 12 10 fc 1d 1f ee ef ec 20 eb 11 fc c8 fe 0a ff f1 f8 1b fe eb f6 14 14 fb f0 f9 ef fd 00 f3 d7 f1 0b 29 07 ff f1 f6 21 fa 01 26 f1 ed f1 fc e8 13 f1 f2 1c 00 10 ed e5 13 0b 02 f2 19 ef ea 22 16 df fd 06 fc 01 15 e7 e6 18 12 ed ba 16 27 f1 fd 21 10 27 1b fd 11 0e 1d 1e 0b fd f7 0d f8 c9 09 eb 12 f7 0a fb 11 0f f1 06 1c 33 eb 32 22 f9 07 05 f4 b4 e0 31 07 10 21 11 fe 1f 0a fb 2b 14 fc fb 98 04 1a 03 1c e7 3a 28 c1 38 c9 ee ec 0b e8 2c c3 d5 10 0e eb 26 18 fa 2b bd 3d 2b 06 e3 4d 29 22 df 45 32 fc ec 1e e0 02 0e f8 13 e4 fa 01 fc f5 01 17 f8 e5 1d ea 03 ff 0c 22 1d f8 07 f5 19 fe 1d 05 21 e5 e5 ef 10 11 f7 12 d7 1b f4 f2 ed 01 13 fa e3 16 20 05 e0 02 07 fc e5 0d 33 eb d3 19 1e e2 1f f8 13 11 0e 14 e7 29 25 04 e9 dc c7 38 fd eb 02 04 e9 ed 22 ef 01 ff f6 04 11 be e5 e6 fb ec f6 f3 fb f4 13 01 12 d5 0f f0 0d e0 1d f8 f9 10 09 29 11 fc f6 f5 da 22 12 00 db 24 e8 f7 fe f2 ff e3 0c db e4 f5 2c d1 e4 e8 13 fc 26 f8 2d fa 11 10 05 26 17 2e ba 0e 0a e0 a3 34 2f 30 e8 11 fe ed 1b fe c4 28 e5 27 fa 07 06 dd 08 21 0b f9 fc 25 de ff f1 11 21 e1 ee 17 00 e6 e8 07 f0 e9 16 ed eb df f6 f7 ee 11 cf ed 0a e5 da 25 2b e3 e0 17 db 09 c0 fc dc 0b ff ce e6 11 df 42 ef b6 02 fc 4d f0 0d 2d 05 25 37 20 e7 dc 31 f5 dd 05 16 e9 19 14 fd 1f 2e 09 12 2d 2b 09 f9 ea 1b 12 0f 0a a9 04 18 be f0 2b 62 31 ff 15 4b e9 81 e9 16 ea 08 e5 0a 13 25 e1 cc 52 37 b1 b3 b2 45 02 fa e6 a3 2e 04 a5 1e c9 00 03 ec 06 2e d1 f9 d4 28 f3 1f 08 09 16 ad 1f 35 03 ca 0a 04 06 f4 1f 27 fa fa 35 c7 19 e9 06 12 e5 fc f1 05 1e ff ec 25 18 1f 0a f2 f3 e9 16 ff 08 0e d0 f5 e1 0f e0 29 dd 18 0e 01 04 f5 45 58 3f f4 18 0d 1a a0 f1 00 f8 31 d7 fa 15 72 e1 bc 5a 73 b2 be a3 3e f8 08 ef 97 17 1f 8b 30 b4 fe ed f7 f4 15 1c 47 e1 0f 02 f7 ff 19 0a ee 19 07 de d0 0e 21 3b d8 ed fe ff ee ff da 16 0c 18 0e fc f6 01 f0 19 0f ea 00 23 13 10 03 0b f9 ed 04 09 29 0b 1a 13 e7 22 ee e2 f5 0b 05 f5 da 22 e6 f9 e1 f4 eb 09 01 0a f8 0f 07 11 2b fd 15 de e5 e3 24 e2 f7 fa fb f7 11 16 1b f6 12 fa f4 e2 0a 08 e2 f5 fc 12 00 d9 01 ee f7 f8 0f f2 ee 01 00 0e 03 e9 f8 d8 05 f8 11 12 ed 05 ef ea dd df f6 ef 1b f4 16 df da f1 ed 13 d8 0b 16 db 12 05 f9 e7 ff ed fe 0f 16 ef d0 e2 dd e6 fc 05 32 a8 37 39 0a f0 4b 94 af 0e 4e a2 57 00 fb 50 12 25 2b 4d 05 10 f8 a7 eb 65 1d f5 9a 7f e4 b8 45 0f 45 23 00 e7 4f c1 8c ec 23 d7 28 f5 f6 37 46 07 fb 48 2b cc ea bb 07 40 0a f9 e7 36 02 db d2 3b 0c 0f 0c e0 b8 27 19 f2 97 46 a7 ef c1 b1 fb f9 02 d7 ff e0 f4 2e 07 c9 d8 0a 21 a4 14 27 d6 1d 10 eb e1 0a dd 35 16 e9 02 2c 15 08 e6 e0 01 df eb e8 f8 db fe f0 17 cd df 17 20 dd 27 0e 16 26 fa fd df dc e8 1a 12 fa 1b 22 db 06 f9 eb 0f fd 0a 0f 02 d7 ee e8 f8 0f 06 ef f7 e7 e2 1a 26 db 57 47 e3 03 72 bb a7 07 52 e4 7f e1 e0 4a 2e cb ec 70 0f ca af 81 32 1c 32 0a a5 69 35 81 