7a 8a 8c 8d 94 82 74 73 8c 98 70 94 84 82 68 92 8d 94 99 78 82 8f 93 87 72 7a 76 7b 67 77 81 6f 98 8a 95 69 90 99 92 89 86 7f 6b 7f 88 87 79 7d 83 94 97 94 8a 6d 8e 66 77 87 99 82 7e 91 8a 93 7c 82 6c 6d 80 95 70 99 7b 8a 86 99 78 90 95 99 7a 91 68 74 77 6a 9a 68 65 87 95 6b 6f 6d 71 89 65 77 6a 95 6d 8a 6e 65 91 92 91 88 6a 63 63 7e 7b 94 7c 8b 94 8b 7a 91 8b 64 89 7d 70 90 97 8b 6d 8a 99 82 73 7f 8f 98 77 6d 92 71 90 7e 92 74 91 90 89 75 89 72 8e 73 6b 7b 97 7d 93 6e 85 86 89 91 89 7d 8a 67 88 93 6a 7b 72 93 95 71 6a 96 98 8c 96 6e 8f 89 89 66 8c 8b 71 98 94 7d 88 84 84 75 81 97 75 75 68 77 74 a7 78 99 8d 72 9c 96 77 67 93 7a 6d 98 86 63 7d 7d 65 95 96 72 86 87 6c 7e 96 8b 81 8c 92 68 8c 8d 71 9f 8a 7b 81 7a 99 80 93 6f 9a 7f 96 8b 9b 64 91 81 84 6a 84 82 7d 76 8a 93 8b 83 7b 92 65 77 66 92 7b 78 70 a0 66 85 79 67 9e 7f 82 70 8e 9e 6a 7a 7c 95 72 97 97 74 98 8b 9d 6b 79 74 8e 81 6e 80 77 79 7a 96 6f 66 8b 6f 77 67 69 74 77 62 71 86 6b 77 90 74 84 94 73 65 72 81 71 98 73 79 6d 67 65 66 72 71 7f 67 84 91 8d 77 95 64 6f 71 67 88 72 80 65 8f 7f 95 7b 78 73 75 75 98 6b 91 71 94 84 80 93 68 97 93 96 84 70 74 87 83 90 87 7d 80 6b 80 7c 9a 94 6b 63 9c 6a 83 77 85 79 81 61 96 8c 6c 93 9a 6b 7d 6a 83 94 83 68 90 6d 6b 7a 61 75 93 7b 88 74 8a 7a 86 7e 64 74 86 84 94 63 95 7f 66 88 77 69 85 84 7a 6c 7a 73 96 8a 6d 86 94 7a 71 6c 93 96 85 7b 96 67 77 75 7c 95 93 66 68 77 74 92 92 81 78 67 92 99 8b 7c 68 96 76 9a 6d 75 6e 8f 8c 67 8d 92 8a 72 81 64 82 98 6e 7f 7e 7d 7d 8a 6c 92 73 7a 8c 8c 84 9a 65 82 8f 95 6c 73 7d 7b 92 80 62 6e 77 79 6c 93 8d 6f 91 93 98 7a 8d 87 7a 90 8e 67 8c 8b 79 80 6e 6d 7a 62 71 68 86 95 8e 8e 72 99 90 7e 76 92 8e 7c 76 79 94 68 6f 9b aa 6d 70 6b 7c 78 76 89 85 92 7d 6a 64 88 84 88 62 73 91 85 73 75 8a 75 8e 80 7a 74 7b 7a 77 83 9b 88 74 6f 81 7a 91 8e 74 85 94 6e 7d 92 96 71 6c 73 96 78 73 7a 8c 87 6a 99 90 86 80 7e 84 93 6a 88 6e 98 85 82 79 8a 7e 68 88 84 82 89 81 8e 89 6a 6d 8c 97 93 8e 78 7b 74 6d 87 98 90 66 91 73 7f 91 77 93 89 88 93 88 9b 79 6d 87 8e 7d 90 88 89 6d 74 8c 79 66 8f 62 6b 96 69 87 92 7f 8d a6 6e 65 8d 95 8f 68 87 77 98 65 87 6c 8b 86 77 72 60 77 6b 77 6a 56 6a b1 73 98 8c 6e 7c 69 91 83 4c 7c a2 76 85 7a a3 93 91 8c 76 69 63 93 5b 7f 64 87 74 90 72 97 64 9a 9c 86 79 7b 66 70 90 94 69 63 65 97 91 82 66 83 5c 81 7b 7a a8 6d 62 a0 7b 61 74 8a 81 9d 89 5e 70 53 82 7e 9a 87 66 67 a5 58 65 64 5d 80 95 70 5d 78 83 68 a7 43 9b 5d 6c 8c 76 7a 8d 96 82 8a 91 9c 5e 92 91 9f 59 74 7d 97 7a 8b 57 98 6c 75 96 74 a0 80 79 69 a0 92 9b 7e 7f 48 99 82 69 71 60 8c 70 78 7e 7a 7f 53 9c 95 73 6a 5b 8f 83 7f 46 5a 4d a1 97 67 81 7c 41 67 a1 84 9d 57 82 6a 67 9e 67 8c 7e 7f 79 54 73 98 a1 5b 69 a4 5f 57 a0 71 96 84 5e 74 a6 8c 4d 95 a9 6f ab 66 7b 78 66 55 8f 87 60 66 4a 75 66 81 78 64 76 0d 9d 65 90 4f 53 91 b2 70 d3 5d 9b 83 4e 96 71 6f 4e 8c 85 80 af 84 93 87 57 7d 4d 28 89 9d a2 6f 8c 7f 69 41 9d 7b 85 72 6b 62 6b 72 91 a0 78 79 49 68 72 9d 4b 62 7b a5 83 9c 53 5f 7a 77 58 b5 77 5a a5 8b b0 60 7e 5c 7b 6a 9a 89 99 82 96 96 a9 80 ab a2 8a 64 5e 8a 89 b1 78 97 75 77 77 79 51 70 77 88 59 3f 5d 98 ad 64 1f 89 75 7e 61 99 1f 74 a7 6f 83 3d 64 9e 59 a4 a9 58 50 4c 67 43 b1 66 a4 39 95 cc 84 bb 83 85 93 94 54 7c 6d aa ae 94 8f 5e 46 88 a8 74 9b 64 5a b4 90 70 97 b8 92 59 6a a8 85 7e 62 9a 82 5c 8f 80 86 34 52 4c 76 a9 a3 35 58 60 76 8c 9f 69 5b 9e a1 62 72 87 c3 83 3c 39 ae 7c 47 86 66 93 3d 91 6a 69 74 75 bd c2 77 5c 6f 48 52 22 b3 45 5b 94 5f b0 8d 75 87 8f 53 69 9c be ae 83 76 b0 93 44 50 82 42 4f a3 aa 31 66 b0 8d 59 7e 53 8e a7 96 a6 9c aa 9a a7 b2 75 97 74 a0 32 37 bb 91 ad 96 70 b1 41 68 4f 96 49 4c c9 8b 92 71 55 9e 73 cc 4f aa a1 58 79 9b 53 ab 95 7e b9 49 80 81 7c 9c 79 62 88 79 77 6e 6b a3 8d 82 90 7e 82 79 9a 77 52 78 77 82 69 91 75 8c ac 8d 6e 95 89 8b 8b 88 89 9a 9b 69 62 59 73 80 7b 7b 68 92 3b 76 63 85 7a 78 69 80 7b 5a 9a 87 8e 5d 8c 63 8c 5f 9d ba 4f 9a a8 4a a4 5f a2 82 9d 87 69 6a 9a 5d b2 61 87 6d 6c 75 7b bd 82 83 61 ae 64 4a 85 50 8f 25 8c a2 38 8a 86 c5 74 53 97 78 63 9b 74 7f 69 ac 61 8c 85 78 aa 71 84 bf ac 76 a3 a6 6f 98 89 4c 89 5d 74 92 86 a4 95 80 77 95 78 92 9b 65 88 7a 8b 7c 7a 69 8d a1 74 96 95 69 77 77 91 93 7c 86 8c 6c a8 5a 62 a1 8b 90 58 60 8d 88 8f 8f 5e 67 8b 8b 6a 6f 52 97 86 88 78 a0 77 4e 63 9c 8e 77 7c 9a aa 91 a4 9e 99 55 9a 41 8d 99 57 5a 73 7f 68 8d 9d 6b 45 8c 6a 8a 77 96 5c 5d 85 8d 7d 6a 4e 86 2d 8f bf 99 60 6f 96 6f 94 9a 66 78 8a 84 64 77 6c b6 45 91 8d ab 76 7c 8c 9b 66 83 77 98 a0 66 58 7d 7c 86 6e 9e 7b 87 67 8d a1 7a 75 7b 6d 7c 6f 6f 70 83 65 71 8c 98 82 6b 6a 80 88 71 5e 8c 9f 78 71 99 61 85 91 64 93 54 96 85 a1 80 75 85 93 8f 7e 73 84 8a 59 91 60 93 7b 97 50 82 7c 7f 78 93 9b 66 93 64 a2 28 6b 77 60 8f 94 91 9a b8 80 91 53 ad 8b 74 6c b7 82 73 84 92 89 3c 9c 70 92 9f bd 59 63 60 93 99 b3 6f 89 7c 5f 91 92 8d 74 80 69 91 8a 80 a9 94 94 90 61 77 89 76 90 a1 8e 8f 82 96 79 7c 91 7f 88 6e 84 81 7e 5a 7a 92 8f 68 70 7d 6b 89 8d 83 76 84 84 88 6e 92 94 70 90 83 6f 7d 7f 6c 80 62 5a 78 83 63 66 82 6e 85 72 84 97 75 8b 68 88 89 8f 89 8d 7e 4d 77 93 80 6e 65 8f 53 84 7a a0 52 78 62 83 91 3b 66 a0 8a 9f 6b 60 42 8e 75 8c 62 8e 6a 83 85 91 94 8d a0 84 6a 92 8a 81 6d 8c 7d a5 71 87 7d 99 5a 76 7a 74 86 ae 7c 80 88 8a 8e a3 a9 98 85 87 9e 85 84 70 80 6e 7d 93 8b 73 6d 79 87 89 6f 6d 6f 69 7b 72 81 8a 88 6d 8c 95 6e 6e 76 87 79 8e 8e 89 66 89 a2 79 7f a2 96 9c 73 7a 8b 85 89 80 83 78 7b 81 92 90 74 88 82 7a 73 90 62 6c 78 7a 7c 76 92 72 85 8a 7d 82 6c 69 83 97 94 8e 6a 65 65 88 96 7c 85 8f 6e 74 88 71 75 8a 85 8c 8f 76 7e 7a 6c 75 82 94 89 93 69 93 79 8c 83 7e 86 89 86 6c 74 8b 8d 94 7a 7f 80 8b 89 6f 6b 94 74 72 7e 76 8d 8d 76 89 7c 5d 72 8c 6d 8c 99 67 72 69 78 85 77 68 8c 76 81 66 91 72 72 7c 8f 6f 6a 7f 4d 6b 7f 7a 67 88 87 8a 89 87 70 8a 83 86 7d 96 74 94 6d 8f 67 70 69 88 88 85 92 83 62 9a 70 99 7e 88 91 7e 87 82 99 69 71 84 97 73 6b 7a 6b 86 8a 6a 8c 74 7f 63 7b 77 93 67 8d 8f 87 7e 99 9a 97 7c 8f 76 72 86 92 72 99 6d 97 71 8b 6f 7b 93 63 91 8f 84 72 6d 6a 83 6e 95 68 6e 72 8a 78 8d 90 8d 78 a3 6e 93 88 9a 82 8c 9a 64 9f a8 82 69 9b 80 87 6f 8c 87 90 84 7f 87 85 8f 66 72 a3 79 75 92 64 9b 83 6c 7e 6b 80 72 77 7e a9 91 65 89 8c 8f 83 7f 82 64 80 89 87 74 8c 7b 98 60 79 72 8a 94 93 74 8c 74 71 7e 89 88 63 97 99 78 70 7a 6c 7e 97 90 6f 6c 8e 91 82 6c 8d 88 84 95 86 8d 88 8f 76 76 74 8b 72 7f 7d 80 8e 6f 7c 77 81 83 7c 71 70 7a 91 85 67 96 8e 89 71 7a 99 65 6f 83 82 5a 87 72 6e 6e 88 8c 81 95 8b 95 8f 85 8f 89 95 8e 89 79 8b 6f 7b 7b 8c 74 6e 88 7c 8f 69 78 5d 7b 77 87 74 8a 64 79 81 73 71 75 70 7a 76 83 88 9c 6c 8a 86 65 88 8a 94 7b 67 68 84 7d 57 8f 64 82 81 6a 91 6e 98 68 8b 71 7b 82 72 8b 8e 8e 91 85 79 72 99 68 90 8a 98 73 77 6e 97 6a 75 76 6a 82 9a 79 83 75 67 76 83 65 8e 6d 7d 75 87 67 87 7b 6d 8c 89 7e 97 67 84 93 6b 7d 73 89 6d 75 83 84 5d 7d 84 7b 66 7c 8b 8a 68 72 5f 85 63 8c 7b 8d 71 74 75 71 84 a0 68 62 86 6e 81 7a 7e 72 9c 52 60 96 7c 7a 84 90 77 97 7f 9b 88 98 82 95 71 67 6f 68 86 83 86 79 65 6a 7e 84 58 8b 87 8c 74 66 6f 6f 8e 92 87 7a 7b 8b 85 7a 91 8b 6a 89 94 87 80 88 87 7e 99 90 78 93 72 7d 64 93 8c 6e 7e 86 93 7c 85 89 83 88 8d 8c 8f 72 7d 8d 98 73 85 81 66 6f 70 6b 68 70 91 64 98 8b 87 99 8d 82 7d 6d 77 88 7f 86 8b 77 80 6a 6f 98 8c 72 71 74 76 a1 71 7d 7a 93 66 76 8e 8d 83 79 73 8c 7d 82 6d 7c 84 62 8c 7a 81 7d 80 6f 76 8b 8b 8b 96 80 93 93 74 6c 91 6a 8c 79 8d 87 81 75 79 9a 94 78 90 8a 91 78 76 79 64 67 98 68 7a 7a 92 96 78 6d 6a 8b 81 87 8a 8f 7b 8e 7c 82 7b 95 63 80 85 75 7f 8f 78 74 6e 7f 8d 8a 6d 9a 9a 70 6a 75 68 82 8a 8e 79 6b 65 8a 7a 94 88 66 83 98 91 74 7f 76 71 65 89 82 8a a3 7d 72 7d 88 97 67 6e 84 80 95 8f 7a 98 82 83 84 91 91 98 91 7f 91 93 8c 7e 70 7d 70 64 94 85 6d 8a 77 88 6e 90 81 84 73 7b 7e 69 92 8f a8 92 9f 89 7c 7d 83 7a 93 8b 82 89 8e 80 8d 67 73 6c 93 85 70 89 8c 77 90 85 6b 78 8e 69 6f 7c 70 87 88 71 87 6d 73 89 8c 94 94 86 7d 82 8a 78 91 75 7f 68 85 99 87 82 63 8d 82 73 78 73 96 77 6d 86 6f 75 96 95 75 8b 68 7c 76 66 90 7e 96 71 87 94 90 7d 6c 69 77 62 84 5a 6c 7b 80 66 76 8f 6e 89 90 92 8a 7d 79 7f 72 8f 69 85 6b 91 81 8b 88 77 7c 94 64 94 87 8d 74 87 87 96 71 72 79 68 8d 8e 7c 6f 6d 8f 67 7f 7f 67 8d 75 69 98 70 71 78 76 90 88 87 87 95 78 87 8c 83 92 86 7e 68 8c 96 8f 80 90 8b 8d 82 6b 8b 8b 99 92 8d 67 84 73 97 97 65 91 87 86 7a 80 98 76 85 87 7e 8a 87 78 79 95 76 70 78 9a 72 73 70 80 7a 93 8a 73 6e 85 76 82 6a 71 85 77 64 79 86 7f 87 85 77 66 97 8e 8d 70 88 88 8a 74 85 7f 7a 80 7a 89 6e 72 73 98 78 90 84 92 7c 94 8c 73 69 63 81 91 93 8b 80 72 96 76 96 7c 85 74 72 5f 79 8e 93 56 88 94 94 6a 86 72 73 7a 7e 8f 80 8f 99 74 72 8d 88 83 8a 66 6f 7a 68 83 6a 68 8b 73 81 8c 72 80 75 8c 91 79 95 89 93 88 6c 99 99 99 8b 6f 79 6a 80 8a 98 63 98 9a 95 86 79 7d 67 7b 99 94 80 69 81 84 9c 5f 75 7e 6d 83 6f 97 7b 76 95 5f 7f 92 8e 78 76 7d 91 7e 6c 82 83 7e 87 82 84 7f 94 6f 81 75 90 6f 6d 63 8b 69 83 7c 87 7a 9d 7a 72 73 a3 94 63 7b 71 83 6c 63 94 9a 93 7f 6f 7e 87 70 96 7f 9a 82 95 90 74 8b 8d 94 97 97 8a 73 68 7a 99 90 6e 76 8d 7f 9a 7b 93 94 78 89 7b 76 90 75 78 66 96 72 90 8c 6c 6e 67 87 97 79 85 65 6b 8a 63 8c 87 63 90 8e 6e 85 69 7f 85 76 6c 92 6b 85 82 83 65 7f 96 8e 8e 81 8f 7a 92 8c 96 7c 92 74 85 98 95 88 8c 6f 92 7e 90 87 8c 8f 8a 90 66 70 87 76 80 6d 99 78 77 6c 84 6a 90 82 97 96 79 7f 8a 7e 9a 76 84 9b 8e 84 79 71 82 6d 6c 5c 99 81 83 66 96 7b 80 76 91 79 73 87 7a 8b 78 75 7f 7d 80 6f 8f 92 7b 7d 88 8b 8d 65 8d 81 92 96 77 78 87 8b 87 99 8b 69 67 68 68 99 89 7e 89 92 8c 6a 84 87 86 7b 71 98 96 7b 97 63 93 78 88 90 90 82 7a 79 95 6e 79 91 82 84 7e 94 85 5a 7b 7f 6a 9a 5d 75 8f 98 74 65 62 96 6d 8c 8c 70 85 8e 6f 6f 77 67 6a 6b 65 56 7e 6d 85 99 7d 7f 66 86 5b 73 6c 7c 83 97 68 7e 6d 8a 84 89 6c 5d 85 52 82 7e 77 80 7e 99 66 6f 8e 7a 83 7a 88 8c 78 7a 8d 84 6e 99 82 93 89 87 92 90 67 74 80 79 83 7e 98 6b 8c 8d 71 8b 92 8d 85 8c 74 8f 80 6f 7c 88 6f 87 66 69 89 7a 87 64 92 8b 99 7a 82 93 86 6f 8f 88 97 9a 61 64 9b 97 8a 79 9a 8a 92 7b 94 82 79 67 80 8f 74 64 99 73 72 7c 83 86 82 77 91 87 74 90 61 71 54 6a 8c 55 68 7a 8c 89 75 7e 72 8a 83 70 85 67 7c 96 77 75 96 85 61 76 7b 85 82 92 67 76 7f 8a 91 8f 7c 81 90 90 67 64 92 84 88 7d 98 76 73 93 84 68 7a 80 92 7d 87 94 79 82 97 88 6d 86 6a 66 80 67 77 87 71 74 67 95 94 8e 7e 73 75 6b 75 73 63 71 9a 85 6b 88 87 73 6f 93 77 83 89 90 85 77 91 70 87 84 8b 74 7d 7c 6b 77 74 82 74 8b 6a 89 8b 84 8c 89 7d 7d 97 87 70 83 85 83 94 94 75 80 5a 7a 70 7a 83 7a 82 6d 6c 8a 8b 78 6b 56 72 7c 80 77 7b 79 85 84 77 67 88 9a 87 73 74 92 85 69 81 86 95 6b 65 7e 6b 72 6c 7a 8d 82 82 6a 85 75 64 7f 89 95 8f 77 67 96 8e 66 71 67 90 7d 81 94 98 75 6f 85 7c 7c 92 7a 69 86 83 64 88 67 63 8e 74 8e 68 86 7a 82 84 79 6b 81 90 72 98 87 7c 89 82 59 7e 7e 65 8c 94 80 a0 7e 73 45 81 7a 7c 99 83 66 64 9e 8f 8f 91 5d 2c 4b 6e 6a 68 a3 86 5e 8c 70 a4 84 8b 79 89 77 85 9e 82 9a 94 98 84 88 7f 87 76 89 92 6c 83 86 58 6f 80 6b 6f a3 6f 8a 64 7a 7f 67 6e 77 95 70 97 76 84 68 95 72 67 65 86 7f 8f 92 8b 6f 8f 74 96 8f 69 99 78 74 95 97 96 92 86 69 67 64 66 76 91 98 7e 88 7b 87 76 70 7c 76 8b 8a 7d 75 82 91 81 7b 73 74 94 7a 67 66 9b 82 7b 8d 74 8a 91 80 74 7b 6e 89 5f ab 60 89 8a 9c a0 a0 6d 89 6d 93 8e 66 63 8b 90 72 85 7d 6b 74 7d 9b 98 9b 7a 82 9b 9c 6e 6d 65 78 78 71 6e 83 76 83 85 85 80 a3 89 81 7c 79 8c 57 65 80 84 6a 6b 96 65 91 85 8e 71 86 76 7b 80 6b 7c 86 89 64 81 88 78 98 80 77 79 69 73 64 7d 84 7a 97 9a 7a 68 78 6e 68 97 66 6c 64 68 86 93 67 64 8e 9a 72 8b 8d 7f 7a 7e 86 84 7f 68 6c 84 66 85 77 89 97 a7 80 88 85 8d 77 8f 8a 5c 65 8c 60 86 5b a2 97 74 8e 90 6d 85 76 80 75 8e 7c 73 94 76 72 62 76 94 78 6a 89 6d 85 83 5c 88 9e a4 7b 96 6e 7e 78 9b 85 85 99 6e 8a 84 a3 94 87 65 7b 8a 83 8c 69 84 66 90 87 78 7b 8f 6c 86 82 7f 8f 90 81 66 99 92 8b 91 6b 7a 7a 91 6a 6f 64 65 94 81 70 66 89 98 79 75 8b 8c 72 91 82 85 74 6c 77 92 7c 94 90 73 69 8b 99 82 75 7f 86 91 73 6a 86 80 9a 6a 8a 65 8b 86 6d a3 7c 84 68 78 5c 82 64 8b 95 87 5a 7a 82 7d 6d 81 7d 95 7a 8f 95 8f 76 7f 59 76 8b 84 88 73 91 89 86 90 7d 6c 79 78 77 7a 6b 73 98 7e 83 6b 91 68 82 8c 60 97 63 7a 85 71 66 96 93 67 88 63 85 95 95 81 66 77 8a 90 7b 65 6a 8b 67 8b 71 81 78 75 88 97 87 84 8d 95 7a 7e 98 6e 84 72 78 7d 79 95 90 94 7a 85 8a 87 8c 79 83 72 85 80 80 87 71 86 7f 68 63 97 95 7e 9a 83 7b 74 6d 5e 63 74 86 89 91 a1 73 92 95 6c 8b 70 6c 78 8e 91 7f 6f 9a 5f 68 98 7e 8c 80 7d 73 92 93 53 86 8a 74 82 74 74 61 75 6d 6b 77 6b 67 90 8f 6f 7a 89 8a 8c 76 74 92 85 7a 7c 50 72 7d 