77 8a 8d 6e 78 67 6c 88 83 66 87 7c 86 84 78 54 64 89 67 6f 87 73 91 89 67 82 6a 78 8a 73 5c 83 86 66 6c 6a 89 72 6a 7c 6f 63 6f 76 8e 94 64 66 66 92 58 8c 90 73 8c 62 91 a4 71 97 89 89 94 9d e1 34 b3 5b db 74 4f 7f 63 c9 ea 70 4c 41 6f df 3a 72 c5 df 60 bb 8f 8c 76 be 62 8a b4 81 c9 95 5d 16 84 7d db e7 d6 d8 70 be 3e 74 a2 8a ca 77 42 b7 b9 4b c2 8c bb 8d cf 22 5d 43 b6 b3 66 58 7d 9d 43 9b 86 8b 8c 8f 77 ae 1e a8 64 c4 91 7f 87 31 49 6f 5f 62 ac 63 8e 64 71 a9 71 78 85 81 bc a3 7e 26 74 7c 87 5b 62 69 2d 64 90 7b 6b 63 a1 86 a1 54 72 8b 68 91 4f 97 43 95 54 a2 34 75 71 8d 73 39 7a 70 68 a2 92 4d 95 7d af 46 66 78 61 8c 6a 6b 98 52 5c ab 89 88 90 7b 6e 56 67 58 39 8a 65 c0 47 6b 6e a4 80 5b 9d 7c 37 99 5a 90 7c 5b 35 93 7d 8b 6a 49 70 8b b1 9b 73 2d a6 8b 7a 7e 86 79 85 70 79 55 60 61 56 65 70 a5 6e 7d 5e 86 6f 9b 5a 80 78 68 81 74 87 a3 97 70 6e 7f 71 80 7a 55 74 87 7a 65 77 80 87 7f 8e 5e 91 81 8b 90 9c 52 63 7c 77 aa 63 78 5d 86 8a 7a 82 65 a1 50 8c 80 8f 65 46 6e 78 78 93 84 79 75 6b 9e 4e 71 95 a7 8b 8f 72 72 65 87 6e 8f 9b 5d b0 73 84 7b 7b 88 84 a4 91 85 7c 88 79 65 82 83 aa 64 68 a7 91 5e ab 7a 95 a6 8a 67 7b 6a 8a 9e 5e 7d a3 88 73 89 82 87 43 76 91 8d 98 8c 68 8e 63 8a 9a 5d 9a 93 73 9e 5b 8a 61 94 73 72 84 73 91 53 98 79 79 7c 91 9c 9b 99 8d 9a 84 74 8c 9c 78 8a 8f 91 9c 95 87 9a 9c 7a 90 87 65 62 9e 85 60 8b 82 71 80 84 7b 71 54 5c 5b 85 82 67 5c 72 74 98 78 50 83 9f 73 9a 8d 7e 7e 91 8b 86 75 73 b1 53 85 63 98 56 97 96 78 78 8a 9c 80 89 93 8d a3 68 75 8f 78 6e 99 79 a4 7d 7b 74 8a 7d 82 9d 66 8c 7a 9c 69 73 6a 7a 92 9a 97 6e 88 71 94 90 8c 88 7d 72 84 93 72 95 99 88 5e 7b 88 9a 8e 5f 76 76 a9 75 6a 7c 68 81 68 70 66 81 94 75 85 8d 6f 8a 59 93 67 80 84 78 6b 67 6b a1 95 7c 85 93 96 8a 76 8e 9a 6a 91 77 70 a7 7b 5d 69 7b 9d 9e 80 57 6d 8b 70 76 8b 61 73 7c 78 77 67 6c 75 89 62 4e b3 61 83 79 63 4b 72 6c 80 5e 93 95 7e 5e 72 7f 70 76 40 a3 80 61 67 6d 78 8c 91 92 5a 86 a1 8a 85 9b 7e a2 90 8d 9e 6a 84 82 6f 5e 74 66 8c 8d 5b 7d 7b 7f 70 95 96 7f 6d 72 73 69 8a 91 7a 95 74 65 6a 5e 6f 8e 9e 89 6e 83 66 61 98 84 7e 6c 65 98 8d 5f 93 7f 8e 67 71 6d 6d 68 6c 81 72 88 72 86 5e 86 85 86 62 6b 6b 92 53 77 7c 8a 86 85 b7 7a 6d 8d 62 91 73 67 61 70 63 a8 65 9d 8f 74 9d 8f 88 75 81 77 99 7a 63 91 5d 8b 95 71 81 6a a8 8e 8c 67 98 74 7d 84 6c 8e 5d 9a 74 a0 67 89 85 74 76 83 78 71 6f 71 99 83 a7 5d 7c 28 8d 87 a0 9f 81 70 71 75 71 95 72 80 73 79 8c 6b 77 66 01 b9 6d 81 81 8e 93 a7 6d 8c 88 7e 2d 5e 6a 70 92 64 74 7b 74 93 81 7c 98 63 86 79 86 66 8e 94 ad 99 51 ad 87 84 69 74 23 e6 2d c6 51 ff 6b 61 51 0a 5a a9 60 92 cb 43 82 b6 6c d1 61 83 9a 5e c8 68 76 06 af be a0 56 91 b7 0b 69 dc b0 81 89 88 86 df 54 93 81 9a 52 37 a4 31 77 47 dc 16 72 7d 82 86 94 7c 7b 87 7e 73 96 8d 7b 99 66 80 af 48 91 92 92 9a 9a 89 96 8f a1 8c 89 8c 57 90 7a 6c 41 8f 8a 84 90 a4 8b 91 a9 6d 8b 92 6f 9c 68 47 74 9f 80 7d 7a 96 8e 99 70 6d 71 88 9f 7c 86 b6 2b b5 0e a8 9c 6f 6c 75 63 de b5 93 61 88 90 60 7d c0 a9 97 a7 35 c5 8d a9 93 82 c1 66 a3 43 24 33 6d b7 a0 bb 9a cc 6b 8d 9f 94 60 59 b7 87 26 83 ae 93 ac 8d 7f bf cc 46 90 5b c5 68 a5 75 a2 79 a5 52 9b 78 65 87 7c 7b 93 55 6d 6f 5f 8e 37 8a 95 a5 a4 95 77 8c 7c 84 7c 80 7e 65 94 5b 9c 0d 82 7b 7d 8f 81 8a 7b 83 81 81 9e 89 98 6a 18 7d af 5f a2 5a 70 67 90 78 89 5d 89 8e 74 73 d1 5b 94 4f ae 7b 6e 53 41 9c da ba 4c 9e 60 a3 43 44 c8 ce 4c a2 7b 8f 6d ba 89 aa 9b 79 b6 4e 7e 56 78 48 bb ec cf b2 6e a6 53 6f 90 6d 84 7b 57 b6 c2 49 bf 8a d1 8f 9a 56 3a 2a b0 bd 48 63 a1 6d ad 5e 9b 94 8b 97 80 a1 b2 7c 6f 35 6c 7d a9 a7 9a 9c 7d 95 73 82 89 6e 70 71 81 97 84 9d -1 9d 79 b3 75 96 74 b3 94 7c 9e 8c 77 77 8d 7f 7f 8f 75 a0 90 76 7e 9d b0 76 8f 63 92 61 86 86 af 56 9d 6d 85 7b 70 6d 8b 73 bd 96 6f 49 64 be 59 7a b8 a1 7d 9f 64 a3 86 9e 77 94 a2 53 a6 6d 62 2b 8d 77 ac c6 8a a7 66 ae 84 83 8c 93 a1 8f 3f 89 c1 9e 9c 58 90 94 84 54 93 85 b1 96 75 5f b5 46 a8 3c 84 97 62 72 71 83 d8 a1 98 3b 8e 6d 5c 86 c6 a8 7b 6b 1f a3 8a 82 6c 7b 93 6f b5 49 -1 55 86 c3 83 b6 8a c9 82 a5 a2 84 13 9e 95 9a 68 9d 63 7e 88 65 9b 77 b5 45 a5 4c bb 7e 8d 63 64 92 7c 91 77 7a 78 69 96 60 6d 91 87 95 73 71 67 a0 85 57 9b 71 8a 6f 65 8e 83 78 87 87 7f 75 6b 76 7a 80 61 69 6e 7d 82 7e 95 81 92 82 56 7f 81 79 76 8c 8d 61 63 82 80 8c 93 96 79 67 74 a2 62 81 97 79 6b 62 7a a0 78 81 83 96 7c 64 77 89 9f 6a 8d 95 91 84 92 6f 63 67 82 80 9c 5e 78 88 3f 7e 75 9d 6c 86 94 77 7f 8b 97 62 8b 9e 71 8b 89 97 a5 8e 84 93 a2 a6 75 95 9e 6f 99 69 84 9a aa 7c 69 9b a4 63 4c 7d 3f 8b 85 81 50 94 78 82 98 36 ad a1 58 9a 74 6a 87 b3 71 99 9e 9f 9b 7d 79 92 6a 5d 91 ca a5 92 6c b4 56 66 86 59 8e 6d 9e 9c a4 5b 8f 7e bf 95 73 68 51 6b 83 98 39 74 68 7e 73 92 7e 87 7c a2 76 71 5e 93 8f 94 6a 7d 50 7c 8e 73 94 79 75 92 76 8e 85 87 82 70 7a 61 9d 43 71 72 81 6d 79 73 85 5f 6a 69 7e 61 50 7d 45 8b 76 99 7c 7c 70 77 79 87 80 89 92 69 9f 90 7e 68 75 8b 69 80 75 75 94 87 61 97 9b 78 65 98 30 92 74 94 a3 8f 7b 71 62 8f 88 7f 84 65 68 5d a8 54 64 91 70 77 70 88 73 5d 91 7c 90 7a 87 82 41 75 66 9d 8c 92 83 4e 80 95 8c 87 6d 86 70 8c 83 a0 86 7a 7c 76 9d 89 9f 85 78 8f 7d 64 6c 69 91 91 84 90 8a 89 81 79 66 73 7e 8e 62 8f 8f 99 5e 78 6d 69 8e 90 8d 63 72 99 6a 6e 6f 84 6e 86 7b 83 74 70 7c 76 9a 83 85 79 7d a0 89 7e 83 6a 7d 7a bc 3a 87 87 a1 78 a7 8f a3 8d 90 1f 62 78 a0 c0 96 7a 86 73 69 a5 87 8e 98 71 93 6e 88 bb 17 92 8c d4 8e 74 80 a6 93 94 c6 85 58 75 71 79 98 80 37 7d 8f 66 a4 93 ad 7c ab 9f 9b 4b b7 75 89 90 90 9e 6d 78 80 90 83 7e 68 7e 66 89 6f 70 62 95 91 61 84 6f 9c 85 63 86 6a 9f 94 8c 72 a4 6a 73 93 83 6a 83 83 86 8e 96 82 84 75 7b 5e 86 95 94 88 7e 7a 88 85 99 7d 7e 78 77 76 9f 7c 98 79 7e 6f b0 86 69 11 67 58 a7 58 5e 5f 85 82 65 bf 52 57 57 59 77 92 4f 8e 84 83 6b 85 71 60 3c 86 b4 8a 6f 91 5c 7a 4c 87 87 56 90 72 8f 96 7d ca 5c 7b 6f 75 8d 9f 6b 6f af 6c 8b 81 84 48 97 9e 75 96 7d 95 85 76 92 66 a0 84 65 5a 5b 83 82 87 8b 9c 5f 54 71 7e 81 7e 8b 65 7f 9d 98 92 80 79 94 71 79 a3 a2 9a 6f 62 a9 51 79 88 5a 89 68 8f 6d 8f 60 80 7f 97 6f 7a 71 7e 75 7b 8e 55 5b 7b 88 63 77 80 7d 8b 82 68 91 6f 82 6a 66 85 85 5e 66 98 83 55 86 83 6a 85 81 72 7b 89 8b 6f a0 5b aa 65 68 8e 90 82 7a 65 85 72 67 75 6c 6a 83 9e 77 93 60 92 85 84 97 8a 98 8e 73 69 86 79 74 96 5b a0 6f 88 61 7e 7a a2 a5 a7 78 a5 48 90 81 72 91 8d 8a 7f 63 6d 84 67 7f 89 75 72 8e 87 81 6a 73 65 b3 99 8a 7e 96 86 72 8f 78 68 86 7c 78 78 96 77 8f 95 68 7d a9 9f 6d 97 66 97 6a 9e 7b 7b ac 69 ae 94 93 7a 75 3f 81 56 84 44 88 83 82 9c 2f 63 7c 48 83 8c 4e 78 68 63 a8 69 93 8d 66 53 bb 77 44 80 92 a1 62 6e 78 13 85 88 7b 64 8f ac 69 9b 47 8e 65 87 81 5a a8 3b 8a 53 a0 3d 77 96 8c 90 49 8b 87 5d 7f a0 83 97 6b 8c 3c 68 7d 64 86 93 a0 68 95 53 90 6b 7f 63 79 a5 5f 8e 70 4b a0 73 92 9d 96 9e a1 72 8f 9b 63 75 65 81 8d 6b 91 58 83 77 8b 8e 83 99 62 8c 91 76 77 96 7e ae 45 d5 4f 97 75 9c 90 70 75 cb 74 86 43 86 8c 62 84 b3 99 a2 81 6d d4 62 87 61 74 87 85 aa 7e 28 40 7a bb 8c aa 97 c3 82 8d ae 60 7a 68 7b 69 3e 8b 6e 8e a3 85 a1 6e cb 36 8e 6a ab 7c 97 8c 77 8a 91 95 85 64 9f 61 69 97 87 58 98 77 67 78 74 8d 90 72 71 68 8d 7b 65 90 8e 85 74 7f 8c a2 79 7d 67 91 86 71 91 83 5f 91 94 7e 99 64 92 81 68 79 6e 81 7e 69 7d 79 8c 7f 7f 71 93 91 86 6c 9b 5f 6e 8f 7d 86 7c 79 69 93 81 55 49 7a 8f 9b 51 50 82 99 77 a9 87 7f 69 97 77 8d 86 82 ab 92 99 70 8e 52 aa a4 95 9a 64 92 63 61 a0 9a b5 7a 93 88 c2 74 90 65 a4 7d 70 5a 82 5c 7f 9d 53 85 c7 85 a5 5b b1 5e 4f 5b 66 7e a6 9d 73 7e 77 c2 7a 6f a0 ac 78 a4 5d 7f 89 9f 6b ad ab 57 bb 65 63 77 79 5a 76 c8 9f 98 5f b5 5f 89 69 82 94 96 84 9d b7 6b 99 68 9a af 9f 64 71 4d a1 7c 6e 51 7a 73 7c af 7d 8b 93 56 71 9f 57 96 73 ad 97 82 96 5b 72 ad 79 7e a5 5f 89 92 81 ac 98 7e 8a ae 8e af 87 5f 86 a7 86 5c 95 8f 4b 88 7f 97 6b 85 9f 72 9e 52 82 68 8f 70 6b 87 6a 75 90 b1 4d 63 76 64 81 74 72 92 5a 90 7d 7c 7b 77 9b 70 78 95 61 80 7e 6b ae 64 8d 79 98 6a 83 65 7f 6b 6e 47 92 2c 8d a6 61 7f 73 81 6b 94 a7 7c 88 86 8d 77 37 83 66 a0 7e 5f 61 83 99 7c 86 92 85 70 85 82 97 8c 6a 61 7d 67 82 7f 95 93 84 94 7c 6d 70 7c 84 6a 6f 84 7e 70 80 6b 96 86 99 90 72 6e 8a 73 8e 8d 6d 7e 72 68 6d 6b 6c 9b 7c 98 92 70 84 79 89 7d 7e 8b 7f 68 91 68 88 90 6f 83 9d 98 8b 8d 69 7c 8a 7b 6a 63 8e 96 9c 77 89 66 93 89 6e 85 64 78 92 64 7f 82 97 91 5f 6c 64 81 64 67 7f 85 90 51 62 97 87 65 6f 96 8b 82 8f 5e 7f 6c 8f 79 6e 8a 4f 90 72 88 75 60 8c 92 75 9d 6d 80 88 98 76 61 79 89 81 91 8f 98 86 97 6d 5f 81 4d 6a 6b 72 8d 96 9c 7b 7c 96 8e 74 85 93 7a 76 87 79 6e 5a 96 73 84 87 7b 7a 9c 65 97 79 65 69 86 86 83 a2 86 72 98 97 7c 9d 74 6a 94 90 6d 8b 87 a8 92 a3 3c 9a 61 9a 6a 9a 97 4e 9a b7 55 75 77 8a 8e 64 78 a5 97 94 a1 70 a3 62 a0 8b 88 a6 8f c5 7e 5d 2a 72 a3 8a dc 96 ae 84 93 95 92 77 37 97 8a 3a b6 5e 63 bb 68 96 a0 c0 66 7d 60 b6 71 6e 7c 85 b9 5a be 79 7e d3 50 51 81 46 96 61 a7 61 7e 60 58 51 73 49 71 a9 57 76 6c 6b 7c 6b 65 72 bd 87 cc 7f 3d 68 82 76 5e 7d 88 64 8c 97 27 91 70 c2 6e 76 4b 80 8a 7b 8d 5d a5 7b a3 51 7c 68 9b 70 90 a0 6d 7a 8c 61 7f 92 65 82 84 65 82 8d 68 85 73 7a 6b 6d 99 7f 8a 67 7e 95 7e 7a 5d 86 95 6b 90 84 69 78 82 77 76 85 93 85 8d 6f 73 74 8e 82 70 68 8c 70 96 8a 8f 7a 85 7a 90 85 60 9d 8c 69 63 db 33 82 68 7c 97 a6 42 cf 69 bd 0c 77 69 41 e4 73 66 a7 7b 49 e1 6b 7f 7c 58 95 85 6e 8f -1 4f 97 ff 71 89 6e ca 67 85 f2 78 44 8e 66 80 6f 80 2a c0 80 63 82 9d de 59 d2 9f cd 38 ff a3 cb 70 86 81 b3 7b 4b 6b 4b 97 99 7a 55 6f 61 d2 30 66 9d ac 71 c4 7e 76 6b 9c 62 9b 91 90 bf 70 54 62 71 6b bc c6 c5 a3 7b a8 72 83 8c aa bc 5d 38 b1 c4 5e a5 5f b9 a2 81 54 57 54 95 ae 4d 47 66 92 80 9b 6c 63 a6 82 9c 81 67 88 85 7f 63 76 8a 83 88 69 97 83 91 93 8a 77 8e 7b 83 67 6d 94 66 9b 80 99 8c 68 80 95 95 71 a0 6b 77 75 6e 81 94 7c 74 71 64 67 90 7e 88 94 99 90 89 7b 8b 70 5e 92 6a 9e 61 66 83 7b 6d 7a 5e 93 97 96 87 63 91 69 6a 62 8e 5f 8c 5f 89 77 85 70 74 73 7f 7a 91 ad 74 82 61 60 6d 66 76 8d 66 74 64 7a 7b 70 7e 63 87 7f 78 5f 69 79 61 98 77 96 79 85 6d 90 8d 84 86 82 8e 75 a8 7f 8b a1 80 57 70 76 86 8a 75 7d 61 7f 74 63 8b 6c 95 92 72 66 84 6e 9c 96 66 9b 78 6f 6c 91 8c 83 76 6e 73 84 71 94 96 83 75 83 79 6b 77 91 9b 90 92 79 87 77 96 7a 73 91 bc 6f 80 6a 9e 7c 5a 87 8f 9b bc 90 7e 51 7d a6 31 69 89 ad 78 97 58 a7 69 97 69 a5 a9 60 a7 77 8a 46 87 86 af a5 90 ab 6a 94 8a 75 9c 85 88 86 74 ab 97 76 88 87 ad 7b a2 6a 71 58 ad 85 67 7c 80 92 80 9c 64 83 6e 67 75 67 7a 6e 80 8e 5c 6f a0 7f 97 88 88 74 83 9b 89 65 78 89 7c 7b 94 69 7c 86 70 76 8b 7f 98 81 87 99 6b 81 94 6a 98 76 91 82 71 87 8a 5e 85 71 93 6a 87 9d 6a 81 78 85 94 87 61 8c 9e 78 92 87 58 91 69 6d 62 6b 69 7b 8a 49 94 91 85 a5 7a 7d 68 77 7c 83 7d 89 7c 8f 90 b1 78 37 89 a2 92 88 6f 91 68 93 7a 95 ad 7f 9e a2 8b 61 90 79 a9 6c 78 9c 66 64 7f ab 4e 68 82 8f 82 7b 8f 8b 78 6c 74 5c a2 8d 94 80 8f 6b 7e 93 87 5b 85 4a 7c 8f 90 76 75 77 79 7f 76 63 ae 5b 79 91 8a 8d 91 78 7a 6b 87 90 7e 5b 74 68 4d 69 4d 73 87 79 66 5c 61 82 6f 87 90 70 83 68 4b a0 77 78 6b 7d 5d a1 93 8d 71 94 7c 79 8f 61 78 69 87 78 a0 7c 98 6a 86 89 6c 80 71 6b 67 3c 95 4c 6d 7d 84 4e 65 71 6d 60 95 6d 79 92 56 7a 6e 6d 54 9d 5e 78 63 66 69 84 99 9f 82 62 7c 87 70 7e 9a 73 75 7f 85 9a 6e 87 92 6a 7c 7d 80 66 6f 8d 79 89 8f 97 7a 90 82 7a 8a 7e 65 83 7e 6d 89 7e 8a 94 85 64 6d 75 7d 8e 91 8b 64 6b 7d 79 8d 71 88 85 68 9a 86 75 84 7b 8f 74 83 69 8a 64 79 94 5a a2 9f 79 62 72 31 8e 38 69 44 86 6a 8a b7 34 85 7e 35 92 a1 82 84 77 6d aa 7c ac 79 69 4d bb 8c 25 9f 9f 96 5f 72 9e 2c 6a 8c 6e 9a 93 a7 92 87 65 87 66 b6 62 70 9b 3b 82 7b 87 47 62 ac 6c 6d 66 8d 6e 42 95 81 73 6c 9f 6a 93 63 75 b2 51 99 a3 7c aa 7c 76 7d 7f 69 8b 8b 75 88 3f 48 7b 80 4c 9c 89 99 86 65 8b 7c 6b 79 7a 83 8b 79 86 9e 84 7b 85 a8 97 6f 5f 5f 61 96 98 58 8a 73 81 70 86 78 76 8b 75 73 72 7d 78 7d 8f 98 79 8c 76 65 95 8a 7c 66 64 80 7e 63 71 67 69 6f 95 70 77 7c 83 61 84 76 64 88 84 64 75 92 76 64 99 73 68 92 8b 78 8d 78 69 89 73 81 77 92 71 69 92 a1 72 96 76 a5 67 87 84 7e ab d3 54 67 77 88 83 89 84 aa a5 88 a0 54 99 72 93 73 9f 97 80 ac 6d 7c 72 8d 87 a6 ad ae b3 77 ab 81 6f a0 99 95 81 71 aa 64 6f 85 77 a8 3c bc 3e 90 76 b6 82 93 62 8c 6c 85 83 91 75 8c 79 68 9a 8a 70 84 95 77 7c 62 96 83 7d a1 86 93 87 7d 91 83 82 7d 73 83 59 90 35 89 85 78 87 71 9b 7d 76 81 79 9a 9a 75 82 40 64 5a 83 67 88 83 85 76 81 72 a0 75 90 9d 79 79 96 79 85 99 6b 78 85 88 6a 8f 8c 85 79 79 4f 7b 9e 78 7d 68 80 7a 99 7f 88 89 9c 71 a3 84 8b 6c 7d 84 9c 91 8c 93 7e 72 8e 77 73 6b 98 6b 64 92 8c 72 93 7a 6d 8f 8a 6a 73 88 93 89 6a a3 8d 